<pad>	0
<unk>	0
<s>	0
</s>	0
▁t	-0
he	-1
▁a	-2
in	-3
on	-4
▁the	-5
re	-6
ti	-7
▁o	-8
er	-9
en	-10
▁s	-11
▁c	-12
es	-13
nd	-14
▁of	-15
▁p	-16
al	-17
or	-18
▁w	-19
ed	-20
it	-21
tion	-22
▁in	-23
is	-24
an	-25
▁f	-26
at	-27
▁and	-28
▁b	-29
ing	-30
▁to	-31
ar	-32
ou	-33
▁m	-34
▁d	-35
ent	-36
ro	-37
▁re	-38
ation	-39
ic	-40
le	-41
ec	-42
▁h	-43
as	-44
ve	-45
om	-46
▁th	-47
▁n	-48
il	-49
ment	-50
▁e	-51
st	-52
▁T	-53
ce	-54
▁be	-55
ly	-56
▁C	-57
▁for	-58
▁l	-59
▁A	-60
ra	-61
▁pro	-62
ol	-63
id	-64
▁I	-65
▁con	-66
ri	-67
▁g	-68
▁S	-69
ur	-70
▁on	-71
▁that	-72
se	-73
ver	-74
op	-75
ter	-76
▁de	-77
im	-78
▁is	-79
ut	-80
ion	-81
▁The	-82
ul	-83
▁it	-84
ot	-85
ir	-86
▁u	-87
ld	-88
et	-89
▁as	-90
ith	-91
▁st	-92
ad	-93
▁1	-94
ate	-95
uc	-96
▁with	-97
ts	-98
ow	-99
ig	-100
res	-101
ac	-102
ity	-103
ay	-104
her	-105
tic	-106
▁al	-107
oun	-108
▁com	-109
ations	-110
▁or	-111
▁ex	-112
▁by	-113
▁an	-114
pp	-115
▁sh	-116
▁wh	-117
▁ac	-118
ort	-119
ess	-120
▁M	-121
ers	-122
ab	-123
▁P	-124
em	-125
ill	-126
▁we	-127
▁U	-128
▁are	-129
ge	-130
ore	-131
ff	-132
qu	-133
ould	-134
▁ha	-135
ist	-136
oc	-137
ial	-138
▁y	-139
▁su	-140
ain	-141
▁at	-142
▁res	-143
▁en	-144
▁B	-145
vel	-146
us	-147
▁(	-148
▁N	-149
am	-150
th	-151
um	-152
est	-153
all	-154
tive	-155
ak	-156
▁ne	-157
▁not	-158
ational	-159
▁he	-160
▁G	-161
▁W	-162
ount	-163
gh	-164
▁im	-165
▁v	-166
▁E	-167
and	-168
os	-169
▁R	-170
▁have	-171
iz	-172
▁2	-173
ties	-174
od	-175
▁ad	-176
over	-177
▁Ch	-178
un	-179
ren	-180
te	-181
rom	-182
▁was	-183
▁In	-184
▁has	-185
▁le	-186
▁its	-187
our	-188
▁imp	-189
ance	-190
▁par	-191
if	-192
▁F	-193
ary	-194
▁from	-195
ud	-196
▁D	-197
ther	-198
▁wor	-199
el	-200
▁19	-201
velop	-202
end	-203
red	-204
ies	-205
ust	-206
▁cont	-207
▁H	-208
pec	-209
tern	-210
▁will	-211
ted	-212
ie	-213
▁count	-214
▁r	-215
ep	-216
ich	-217
▁their	-218
ated	-219
si	-220
▁O	-221
ap	-222
overn	-223
▁inc	-224
▁ag	-225
▁comp	-226
▁me	-227
00	-228
▁reg	-229
ution	-230
ip	-231
ure	-232
ments	-233
▁this	-234
▁ch	-235
▁pe	-236
ard	-237
▁Chin	-238
▁develop	-239
ant	-240
ear	-241
onom	-242
▁which	-243
iv	-244
▁all	-245
lic	-246
ong	-247
ch	-248
rou	-249
▁Un	-250
▁rep	-251
ited	-252
ous	-253
igh	-254
▁St	-255
omm	-256
▁app	-257
ber	-258
ost	-259
ans	-260
ities	-261
per	-262
ome	-263
▁per	-264
▁L	-265
▁"	-266
ates	-267
▁cons	-268
lo	-269
▁pol	-270
▁comm	-271
orm	-272
▁un	-273
ternational	-274
▁199	-275
min	-276
econom	-277
ign	-278
eral	-279
nder	-280
▁ab	-281
anc	-282
ord	-283
ace	-284
ries	-285
▁prov	-286
gra	-287
ven	-288
▁rec	-289
ast	-290
▁other	-291
ll	-292
ry	-293
▁dis	-294
▁econom	-295
▁man	-296
▁been	-297
▁sa	-298
▁pl	-299
able	-300
ide	-301
ub	-302
ric	-303
overnment	-304
ia	-305
uch	-306
sion	-307
▁acc	-308
duc	-309
ople	-310
▁se	-311
▁under	-312
ke	-313
age	-314
▁China	-315
▁United	-316
hen	-317
▁sec	-318
▁more	-319
▁would	-320
▁shall	-321
form	-322
gan	-323
▁year	-324
▁Comm	-325
ct	-326
tions	-327
▁countries	-328
▁should	-329
out	-330
so	-331
▁eff	-332
ress	-333
▁j	-334
ue	-335
ble	-336
▁had	-337
▁co	-338
ence	-339
tiv	-340
▁J	-341
▁international	-342
ision	-343
▁work	-344
ree	-345
▁tra	-346
me	-347
▁exp	-348
▁fin	-349
og	-350
ult	-351
▁also	-352
▁3	-353
▁were	-354
▁di	-355
▁pre	-356
eneral	-357
▁ind	-358
ally	-359
aw	-360
▁Th	-361
▁dec	-362
▁inv	-363
ake	-364
▁ar	-365
▁out	-366
ag	-367
erv	-368
ose	-369
tit	-370
▁int	-371
▁development	-372
▁can	-373
ces	-374
▁they	-375
▁Nations	-376
▁ri	-377
▁supp	-378
▁you	-379
▁people	-380
pon	-381
art	-382
ublic	-383
eration	-384
fic	-385
▁rel	-386
ks	-387
▁–	-388
▁Ar	-389
▁tr	-390
▁so	-391
▁than	-392
▁Sec	-393
rop	-394
ganiz	-395
▁new	-396
reat	-397
▁ass	-398
lud	-399
gram	-400
ors	-401
▁but	-402
ech	-403
▁righ	-404
▁As	-405
▁his	-406
ticle	-407
▁over	-408
ish	-409
▁sub	-410
ine	-411
▁sp	-412
▁conc	-413
▁li	-414
ounc	-415
▁qu	-416
▁such	-417
mer	-418
ark	-419
jec	-420
▁4	-421
low	-422
ition	-423
▁Con	-424
ase	-425
▁there	-426
▁do	-427
yst	-428
olution	-429
▁It	-430
▁economic	-431
ms	-432
tee	-433
▁go	-434
uman	-435
ari	-436
▁tim	-437
▁who	-438
ical	-439
ures	-440
ission	-441
▁k	-442
▁no	-443
▁K	-444
row	-445
orts	-446
ild	-447
ouncil	-448
lement	-449
▁ins	-450
▁bet	-451
one	-452
▁said	-453
▁one	-454
ative	-455
ret	-456
▁need	-457
ty	-458
eren	-459
▁requ	-460
▁Council	-461
resent	-462
tical	-463
ystem	-464
cess	-465
ang	-466
hed	-467
ility	-468
ade	-469
we	-470
▁ob	-471
▁region	-472
enc	-473
ittee	-474
ris	-475
und	-476
▁partic	-477
▁includ	-478
rib	-479
▁Article	-480
ight	-481
ual	-482
urity	-483
▁“	-484
ruc	-485
▁cent	-486
▁soc	-487
are	-488
ory	-489
▁polic	-490
▁them	-491
▁system	-492
▁pers	-493
▁States	-494
ern	-495
ail	-496
ays	-497
abl	-498
▁world	-499
▁up	-500
▁am	-501
rough	-502
pecial	-503
ach	-504
▁fac	-505
▁inte	-506
▁tw	-507
▁program	-508
ating	-509
▁ra	-510
▁any	-511
au	-512
▁organiz	-513
ame	-514
enti	-515
ember	-516
▁5	-517
▁report	-518
▁Committee	-519
▁dep	-520
mp	-521
▁time	-522
de	-523
ru	-524
▁contin	-525
▁may	-526
echn	-527
ular	-528
▁into	-529
▁law	-530
oin	-531
▁human	-532
▁us	-533
ive	-534
ove	-535
here	-536
ange	-537
ings	-538
▁bec	-539
old	-540
iti	-541
ile	-542
▁UN	-543
▁support	-544
▁about	-545
▁cl	-546
▁add	-547
▁import	-548
▁ro	-549
▁peace	-550
▁years	-551
▁some	-552
▁conf	-553
tain	-554
ten	-555
▁financ	-556
ons	-557
illion	-558
ok	-559
very	-560
minist	-561
ice	-562
▁dem	-563
▁produc	-564
▁two	-565
▁But	-566
ific	-567
▁pos	-568
▁mark	-569
▁our	-570
▁could	-571
ese	-572
ting	-573
▁We	-574
▁country	-575
▁government	-576
▁iss	-577
▁fir	-578
▁national	-579
olog	-580
▁ref	-581
▁ter	-582
ween	-583
uring	-584
▁incre	-585
▁poli	-586
mb	-587
ack	-588
ire	-589
▁coop	-590
▁meet	-591
▁resolution	-592
▁respon	-593
▁Af	-594
▁between	-595
ens	-596
lec	-597
▁these	-598
ident	-599
▁techn	-600
▁made	-601
ful	-602
ond	-603
▁only	-604
ved	-605
▁activ	-606
▁aut	-607
▁must	-608
rac	-609
iew	-610
▁est	-611
▁level	-612
▁serv	-613
▁Eu	-614
▁grow	-615
▁sc	-616
ration	-617
▁pri	-618
▁bas	-619
man	-620
av	-621
▁inform	-622
rope	-623
▁trans	-624
les	-625
▁through	-626
lear	-627
▁200	-628
▁those	-629
▁public	-630
▁market	-631
▁cap	-632
▁mon	-633
ious	-634
ues	-635
▁establ	-636
▁Europe	-637
ough	-638
get	-639
ural	-640
▁implement	-641
ise	-642
fore	-643
roup	-644
▁fore	-645
▁effec	-646
▁Y	-647
▁accord	-648
ian	-649
ew	-650
bal	-651
ound	-652
▁concern	-653
▁rights	-654
ters	-655
▁if	-656
▁Pro	-657
▁well	-658
ied	-659
omen	-660
▁commun	-661
▁again	-662
ilit	-663
▁oper	-664
▁min	-665
▁financial	-666
▁rem	-667
▁like	-668
ank	-669
ass	-670
▁$	-671
titution	-672
▁Secret	-673
rest	-674
ater	-675
ft	-676
▁6	-677
own	-678
▁State	-679
▁offic	-680
▁diff	-681
ning	-682
▁when	-683
▁This	-684
air	-685
ession	-686
▁cooperation	-687
its	-688
▁ent	-689
▁state	-690
hip	-691
ince	-692
▁social	-693
wn	-694
▁US	-695
▁activities	-696
eg	-697
▁most	-698
▁He	-699
▁invest	-700
lobal	-701
ources	-702
rit	-703
leg	-704
▁political	-705
inc	-706
▁use	-707
▁appro	-708
▁leg	-709
ower	-710
alth	-711
▁Chinese	-712
▁lead	-713
tec	-714
▁many	-715
▁provid	-716
▁prom	-717
bers	-718
▁part	-719
▁des	-720
ollow	-721
onment	-722
▁administ	-723
ph	-724
ving	-725
▁my	-726
▁Government	-727
▁set	-728
ized	-729
▁main	-730
▁str	-731
ral	-732
▁meas	-733
▁Rep	-734
▁now	-735
▁.	-736
gy	-737
ite	-738
als	-739
▁kn	-740
▁first	-741
▁fund	-742
▁long	-743
hor	-744
urren	-745
▁op	-746
vir	-747
erence	-748
▁7	-749
oth	-750
▁inter	-751
▁assist	-752
der	-753
aking	-754
▁cri	-755
ward	-756
ause	-757
pos	-758
ib	-759
vers	-760
vention	-761
vironment	-762
▁including	-763
▁disc	-764
▁follow	-765
▁compan	-766
▁information	-767
loy	-768
▁'	-769
▁process	-770
▁global	-771
▁person	-772
▁num	-773
▁ful	-774
ices	-775
▁make	-776
ever	-777
tim	-778
cep	-779
ency	-780
▁af	-781
meric	-782
▁proble	-783
ell	-784
semb	-785
lev	-786
▁particular	-787
▁interest	-788
▁women	-789
mit	-790
▁dra	-791
▁Mr	-792
▁security	-793
ood	-794
ism	-795
).	-796
▁end	-797
embers	-798
▁equ	-799
▁Ind	-800
isions	-801
aj	-802
arm	-803
▁organizations	-804
xt	-805
▁high	-806
li	-807
sel	-808
▁represent	-809
ulation	-810
sembly	-811
tives	-812
▁att	-813
ished	-814
▁On	-815
▁within	-816
▁how	-817
▁protec	-818
▁Secretary	-819
▁Americ	-820
▁inf	-821
iness	-822
▁plan	-823
▁General	-824
pect	-825
urther	-826
▁resources	-827
▁bu	-828
ality	-829
▁Pe	-830
rol	-831
▁sit	-832
sible	-833
General	-834
▁efforts	-835
▁V	-836
▁dire	-837
led	-838
▁growth	-839
▁Afric	-840
▁emp	-841
oint	-842
ork	-843
▁take	-844
▁20	-845
▁consid	-846
▁important	-847
▁ev	-848
▁her	-849
▁lar	-850
▁Assembly	-851
▁te	-852
▁what	-853
▁lo	-854
▁author	-855
▁after	-856
▁sign	-857
▁curren	-858
▁es	-859
▁pur	-860
resident	-861
amp	-862
▁loc	-863
ization	-864
▁against	-865
▁non	-866
▁own	-867
▁policy	-868
▁form	-869
19	-870
▁great	-871
▁8	-872
▁-	-873
▁ed	-874
ene	-875
▁For	-876
▁impro	-877
▁col	-878
▁rev	-879
▁environment	-880
▁An	-881
▁off	-882
▁measures	-883
graph	-884
ind	-885
▁areas	-886
▁foreign	-887
uation	-888
▁institution	-889
▁adv	-890
▁child	-891
▁Commission	-892
day	-893
▁increas	-894
▁million	-895
ability	-896
▁order	-897
cc	-898
mes	-899
ents	-900
▁where	-901
aken	-902
ital	-903
▁Is	-904
ute	-905
agement	-906
▁members	-907
▁adop	-908
▁pr	-909
urn	-910
▁good	-911
▁Dec	-912
▁pric	-913
▁cost	-914
▁car	-915
▁technolog	-916
),	-917
▁she	-918
ob	-919
sive	-920
lect	-921
▁projec	-922
▁De	-923
▁group	-924
▁pop	-925
overnments	-926
til	-927
▁number	-928
act	-929
▁10	-930
aff	-931
ink	-932
▁9	-933
rative	-934
▁right	-935
▁see	-936
usiness	-937
ily	-938
▁ear	-939
ajor	-940
▁developing	-941
iod	-942
▁At	-943
ieve	-944
lp	-945
▁being	-946
ges	-947
000	-948
▁trade	-949
▁your	-950
ilitary	-951
▁Wh	-952
▁him	-953
▁both	-954
▁exper	-955
▁ann	-956
▁educ	-957
▁last	-958
▁Ad	-959
reng	-960
▁even	-961
struc	-962
▁contrib	-963
▁help	-964
tis	-965
ety	-966
ran	-967
ining	-968
tor	-969
▁agree	-970
▁1994	-971
ax	-972
▁major	-973
▁health	-974
▁ens	-975
▁cour	-976
▁period	-977
▁vi	-978
arch	-979
▁community	-980
sia	-981
▁recent	-982
▁Republic	-983
ced	-984
▁further	-985
▁know	-986
▁aff	-987
▁ser	-988
▁bel	-989
▁ext	-990
▁three	-991
▁def	-992
sib	-993
▁med	-994
▁gu	-995
▁sti	-996
▁relev	-997
up	-998
▁bo	-999
ination	-1000
▁stud	-1001
▁before	-1002
go	-1003
ife	-1004
ote	-1005
▁depart	-1006
▁provide	-1007
▁assistance	-1008
itions	-1009
▁particip	-1010
,000	-1011
▁streng	-1012
▁same	-1013
▁stand	-1014
▁establish	-1015
pris	-1016
▁special	-1017
▁propos	-1018
ued	-1019
ecess	-1020
▁ach	-1021
emp	-1022
ize	-1023
▁economy	-1024
1.	-1025
▁view	-1026
▁regard	-1027
read	-1028
▁programme	-1029
▁opp	-1030
▁implementation	-1031
land	-1032
other	-1033
▁Or	-1034
▁regional	-1035
▁business	-1036
3.	-1037
▁enter	-1038
▁services	-1039
▁sur	-1040
▁relevant	-1041
▁sm	-1042
incip	-1043
▁prev	-1044
med	-1045
ivil	-1046
ov	-1047
▁military	-1048
ai	-1049
▁viol	-1050
▁since	-1051
ared	-1052
▁deleg	-1053
▁power	-1054
ield	-1055
▁meeting	-1056
▁ris	-1057
▁ques	-1058
▁way	-1059
▁remain	-1060
▁cond	-1061
▁much	-1062
▁direct	-1063
▁deb	-1064
5.	-1065
▁effective	-1066
round	-1067
▁without	-1068
▁during	-1069
uclear	-1070
2.	-1071
▁current	-1072
▁did	-1073
▁because	-1074
▁commit	-1075
▁war	-1076
▁session	-1077
▁And	-1078
▁month	-1079
ex	-1080
gin	-1081
▁International	-1082
lar	-1083
ential	-1084
▁mat	-1085
keep	-1086
omes	-1087
ulations	-1088
▁Security	-1089
▁while	-1090
▁local	-1091
▁indust	-1092
▁suc	-1093
▁necess	-1094
199	-1095
then	-1096
ered	-1097
▁People	-1098
▁control	-1099
▁present	-1100
▁issues	-1101
▁role	-1102
▁If	-1103
▁princip	-1104
▁giv	-1105
▁management	-1106
▁mod	-1107
▁continue	-1108
▁President	-1109
▁av	-1110
outh	-1111
▁very	-1112
ction	-1113
gress	-1114
ivid	-1115
ug	-1116
▁val	-1117
▁call	-1118
▁fe	-1119
▁spec	-1120
ference	-1121
▁European	-1122
▁para	-1123
ather	-1124
▁dist	-1125
▁doc	-1126
▁accordance	-1127
▁situation	-1128
▁Ag	-1129
▁addition	-1130
▁account	-1131
▁cor	-1132
▁cre	-1133
▁parties	-1134
▁To	-1135
6.	-1136
▁real	-1137
ruct	-1138
ool	-1139
▁fact	-1140
▁administrative	-1141
ommend	-1142
▁strengthen	-1143
▁fam	-1144
▁education	-1145
▁vari	-1146
ix	-1147
ressed	-1148
▁civil	-1149
▁among	-1150
reed	-1151
▁Develop	-1152
▁pres	-1153
▁provided	-1154
▁just	-1155
ilities	-1156
▁large	-1157
▁inst	-1158
▁require	-1159
▁rece	-1160
▁Cent	-1161
eth	-1162
ases	-1163
▁institutions	-1164
▁pay	-1165
▁programmes	-1166
erc	-1167
▁comple	-1168
▁decision	-1169
ience	-1170
▁investment	-1171
oura	-1172
▁less	-1173
▁hand	-1174
▁saf	-1175
▁taken	-1176
▁children	-1177
ergy	-1178
▁recommend	-1179
stand	-1180
ired	-1181
▁every	-1182
▁fut	-1183
ope	-1184
▁still	-1185
ring	-1186
▁nuclear	-1187
ged	-1188
▁rest	-1189
▁Law	-1190
▁En	-1191
▁ret	-1192
▁lim	-1193
ances	-1194
▁There	-1195
ves	-1196
▁Re	-1197
du	-1198
▁provisions	-1199
▁open	-1200
rug	-1201
ortun	-1202
▁prep	-1203
▁Rus	-1204
4.	-1205
▁differen	-1206
▁Ex	-1207
tle	-1208
7.	-1209
▁democ	-1210
ys	-1211
ately	-1212
▁life	-1213
ient	-1214
iation	-1215
ages	-1216
▁staff	-1217
▁Africa	-1218
▁necessary	-1219
udget	-1220
▁applic	-1221
▁bene	-1222
▁don	-1223
▁enterpris	-1224
ump	-1225
▁1993	-1226
atives	-1227
▁draft	-1228
tice	-1229
▁ur	-1230
▁employ	-1231
▁Conference	-1232
▁future	-1233
▁leaders	-1234
The	-1235
▁general	-1236
ief	-1237
▁paragraph	-1238
0.	-1239
▁success	-1240
▁cer	-1241
apan	-1242
pl	-1243
▁ensure	-1244
▁following	-1245
▁action	-1246
tal	-1247
▁according	-1248
▁legal	-1249
▁Al	-1250
▁strate	-1251
▁relations	-1252
ock	-1253
▁char	-1254
cept	-1255
▁coord	-1256
▁held	-1257
▁policies	-1258
▁population	-1259
▁clear	-1260
chool	-1261
▁Development	-1262
ense	-1263
▁enc	-1264
▁say	-1265
▁land	-1266
▁official	-1267
▁problems	-1268
ament	-1269
hes	-1270
▁company	-1271
▁trad	-1272
▁sim	-1273
▁build	-1274
▁back	-1275
▁change	-1276
▁field	-1277
enda	-1278
ultural	-1279
▁each	-1280
▁responsib	-1281
▁invol	-1282
nel	-1283
▁prac	-1284
▁down	-1285
▁occ	-1286
ards	-1287
ined	-1288
▁improve	-1289
▁Reg	-1290
ros	-1291
▁does	-1292
▁consider	-1293
ines	-1294
▁Japan	-1295
gest	-1296
ath	-1297
▁elec	-1298
▁protection	-1299
work	-1300
▁increase	-1301
ird	-1302
ivers	-1303
▁head	-1304
▁place	-1305
▁reform	-1306
▁needs	-1307
▁tax	-1308
▁objec	-1309
ists	-1310
ister	-1311
▁They	-1312
▁result	-1313
▁item	-1314
ness	-1315
▁emer	-1316
self	-1317
▁docu	-1318
ividual	-1319
▁priv	-1320
▁initi	-1321
▁Wor	-1322
▁ban	-1323
ropri	-1324
▁established	-1325
8.	-1326
▁nat	-1327
cent	-1328
▁act	-1329
▁ph	-1330
▁rese	-1331
▁cris	-1332
▁gra	-1333
▁Min	-1334
▁progress	-1335
ale	-1336
ffic	-1337
▁training	-1338
ready	-1339
uge	-1340
ron	-1341
▁Convention	-1342
encies	-1343
▁become	-1344
▁15	-1345
▁proper	-1346
ner	-1347
arian	-1348
▁Organiz	-1349
▁full	-1350
▁bank	-1351
▁capital	-1352
▁billion	-1353
irc	-1354
▁hig	-1355
ants	-1356
▁individual	-1357
▁demand	-1358
lation	-1359
▁levels	-1360
▁area	-1361
▁day	-1362
ogn	-1363
▁conflic	-1364
▁budget	-1365
▁How	-1366
▁prof	-1367
▁energy	-1368
▁el	-1369
ging	-1370
▁conditions	-1371
eed	-1372
▁already	-1373
government	-1374
▁Co	-1375
▁play	-1376
▁far	-1377
▁post	-1378
▁production	-1379
▁adopted	-1380
less	-1381
▁respect	-1382
▁found	-1383
▁various	-1384
▁past	-1385
▁question	-1386
▁basis	-1387
▁bro	-1388
▁Special	-1389
ased	-1390
▁small	-1391
ending	-1392
▁toward	-1393
▁says	-1394
▁men	-1395
stain	-1396
ised	-1397
▁technology	-1398
▁World	-1399
allen	-1400
▁case	-1401
▁given	-1402
▁exch	-1403
▁integ	-1404
ually	-1405
▁bod	-1406
▁conduc	-1407
tics	-1408
ium	-1409
▁allow	-1410
rael	-1411
▁reas	-1412
▁liv	-1413
▁discus	-1414
▁means	-1415
▁total	-1416
,"	-1417
ateral	-1418
▁With	-1419
ked	-1420
▁America	-1421
▁possible	-1422
term	-1423
▁delegation	-1424
▁gen	-1425
▁sustain	-1426
idence	-1427
▁chang	-1428
▁appropri	-1429
▁diffic	-1430
▁request	-1431
▁Organization	-1432
▁used	-1433
▁particularly	-1434
▁issue	-1435
▁then	-1436
ides	-1437
erman	-1438
▁obs	-1439
▁Be	-1440
▁consult	-1441
▁benef	-1442
abor	-1443
▁above	-1444
▁deter	-1445
DP	-1446
▁serious	-1447
▁put	-1448
aren	-1449
▁reduc	-1450
▁school	-1451
governmental	-1452
tention	-1453
sian	-1454
val	-1455
▁South	-1456
isc	-1457
▁aw	-1458
ouse	-1459
▁companies	-1460
▁198	-1461
▁operations	-1462
▁water	-1463
▁That	-1464
struction	-1465
▁review	-1466
itarian	-1467
▁second	-1468
▁rate	-1469
▁New	-1470
▁next	-1471
▁get	-1472
▁Israel	-1473
▁different	-1474
▁exist	-1475
ross	-1476
.”	-1477
▁concerned	-1478
orth	-1479
▁nego	-1480
▁crisis	-1481
▁negoti	-1482
port	-1483
▁prices	-1484
▁opportun	-1485
ash	-1486
alf	-1487
▁rul	-1488
▁look	-1489
▁prior	-1490
▁cred	-1491
▁persons	-1492
▁increasing	-1493
ger	-1494
ended	-1495
▁fail	-1496
key	-1497
▁working	-1498
▁markets	-1499
ban	-1500
epend	-1501
▁better	-1502
▁strong	-1503
ract	-1504
▁soci	-1505
▁problem	-1506
▁Sh	-1507
▁encoura	-1508
▁fun	-1509
▁today	-1510
king	-1511
ceed	-1512
ried	-1513
▁examp	-1514
▁deal	-1515
ept	-1516
▁too	-1517
▁12	-1518
▁food	-1519
▁tre	-1520
▁come	-1521
▁governments	-1522
▁technical	-1523
▁fra	-1524
atic	-1525
ights	-1526
raq	-1527
▁think	-1528
▁might	-1529
▁achieve	-1530
▁1.	-1531
▁December	-1532
▁recogn	-1533
▁specific	-1534
▁maintain	-1535
▁projects	-1536
oting	-1537
▁Iraq	-1538
▁upon	-1539
▁hist	-1540
▁capac	-1541
keeping	-1542
▁contain	-1543
for	-1544
aus	-1545
▁agreement	-1546
aterial	-1547
▁banks	-1548
▁foc	-1549
▁submit	-1550
rial	-1551
▁research	-1552
▁beh	-1553
▁percent	-1554
idd	-1555
osed	-1556
ata	-1557
▁wel	-1558
▁challen	-1559
▁four	-1560
ati	-1561
▁environmental	-1562
▁territ	-1563
▁lit	-1564
▁private	-1565
▁pros	-1566
▁another	-1567
▁receiv	-1568
ject	-1569
▁force	-1570
▁signific	-1571
istan	-1572
▁wee	-1573
▁Dep	-1574
▁contribution	-1575
uly	-1576
ave	-1577
lus	-1578
itor	-1579
▁Bank	-1580
▁short	-1581
minal	-1582
▁Man	-1583
▁understand	-1584
ecu	-1585
▁expl	-1586
▁find	-1587
▁few	-1588
por	-1589
▁care	-1590
▁common	-1591
▁developed	-1592
▁mar	-1593
oney	-1594
▁though	-1595
ratic	-1596
ided	-1597
pecially	-1598
ling	-1599
▁groups	-1600
▁big	-1601
▁return	-1602
▁mul	-1603
sequ	-1604
▁low	-1605
▁No	-1606
omp	-1607
▁five	-1608
▁National	-1609
▁appropriate	-1610
▁threat	-1611
▁vis	-1612
▁promote	-1613
▁debt	-1614
hether	-1615
▁design	-1616
▁Ec	-1617
mination	-1618
▁material	-1619
▁required	-1620
▁estim	-1621
▁share	-1622
duce	-1623
ying	-1624
▁related	-1625
lose	-1626
▁sector	-1627
▁step	-1628
▁eng	-1629
ternal	-1630
▁higher	-1631
▁30	-1632
▁example	-1633
▁enh	-1634
not	-1635
akes	-1636
▁authorities	-1637
atory	-1638
▁administration	-1639
▁po	-1640
▁agencies	-1641
9.	-1642
▁party	-1643
▁Governments	-1644
ering	-1645
▁seem	-1646
▁especially	-1647
▁hold	-1648
▁agenda	-1649
itiz	-1650
▁These	-1651
▁Group	-1652
▁based	-1653
▁indic	-1654
▁show	-1655
▁department	-1656
▁read	-1657
ien	-1658
▁super	-1659
▁id	-1660
▁funds	-1661
yp	-1662
ury	-1663
▁focus	-1664
ah	-1665
▁net	-1666
▁importance	-1667
▁perform	-1668
elf	-1669
airs	-1670
▁11	-1671
tig	-1672
▁include	-1673
▁interests	-1674
▁avail	-1675
▁struct	-1676
app	-1677
▁personnel	-1678
ator	-1679
▁Le	-1680
ina	-1681
▁days	-1682
line	-1683
▁tal	-1684
▁proced	-1685
▁Z	-1686
▁Asia	-1687
une	-1688
fer	-1689
ends	-1690
tific	-1691
▁circ	-1692
▁money	-1693
ways	-1694
hold	-1695
▁Program	-1696
▁undert	-1697
▁regulations	-1698
▁bl	-1699
▁central	-1700
aim	-1701
▁service	-1702
apons	-1703
▁German	-1704
▁Fed	-1705
▁Pal	-1706
▁close	-1707
ned	-1708
▁months	-1709
▁affec	-1710
ified	-1711
▁Bo	-1712
▁jud	-1713
▁whether	-1714
▁amount	-1715
▁mand	-1716
▁give	-1717
▁certain	-1718
▁However	-1719
ior	-1720
stan	-1721
▁May	-1722
▁family	-1723
▁capacity	-1724
▁2.	-1725
▁Econom	-1726
ably	-1727
arter	-1728
▁income	-1729
5,	-1730
▁responsibility	-1731
▁reports	-1732
▁treat	-1733
▁hope	-1734
▁costs	-1735
▁rates	-1736
ariat	-1737
▁address	-1738
..	-1739
▁When	-1740
pected	-1741
▁forces	-1742
,”	-1743
▁cases	-1744
▁move	-1745
▁joint	-1746
▁cannot	-1747
roduc	-1748
▁data	-1749
▁resul	-1750
tively	-1751
vis	-1752
▁aim	-1753
▁oil	-1754
▁mission	-1755
▁ide	-1756
ently	-1757
▁American	-1758
omestic	-1759
▁however	-1760
▁significant	-1761
▁humanitarian	-1762
vere	-1763
▁Member	-1764
▁air	-1765
▁assess	-1766
echan	-1767
ners	-1768
▁happ	-1769
▁approach	-1770
▁stat	-1771
cy	-1772
▁member	-1773
izing	-1774
ecutive	-1775
▁believe	-1776
rab	-1777
▁provision	-1778
▁often	-1779
▁society	-1780
▁free	-1781
▁Central	-1782
▁caus	-1783
▁Soc	-1784
oss	-1785
ators	-1786
▁Cons	-1787
aged	-1788
▁rules	-1789
overty	-1790
▁Administ	-1791
ick	-1792
▁access	-1793
▁India	-1794
ians	-1795
the	-1796
▁sug	-1797
▁attention	-1798
▁All	-1799
▁terms	-1800
▁basic	-1801
sp	-1802
▁sever	-1803
▁exchange	-1804
▁anal	-1805
▁pot	-1806
▁record	-1807
lig	-1808
▁requirements	-1809
6,	-1810
az	-1811
▁Par	-1812
▁citiz	-1813
▁price	-1814
▁domestic	-1815
▁towards	-1816
▁elect	-1817
pects	-1818
▁Iran	-1819
▁near	-1820
nic	-1821
▁least	-1822
ror	-1823
rehen	-1824
▁che	-1825
▁project	-1826
ij	-1827
▁refuge	-1828
▁press	-1829
▁early	-1830
▁eth	-1831
▁Pol	-1832
aid	-1833
▁job	-1834
▁Human	-1835
▁Res	-1836
▁independ	-1837
ienti	-1838
▁mechan	-1839
▁meetings	-1840
▁little	-1841
▁continued	-1842
1,	-1843
utes	-1844
come	-1845
▁enterprises	-1846
▁Kore	-1847
idered	-1848
▁Fin	-1849
▁representative	-1850
▁word	-1851
▁Palest	-1852
▁course	-1853
▁establishment	-1854
▁laws	-1855
▁East	-1856
▁risk	-1857
▁14	-1858
olid	-1859
▁spe	-1860
▁Economic	-1861
▁products	-1862
▁African	-1863
rec	-1864
▁Fr	-1865
ober	-1866
▁regist	-1867
▁exam	-1868
▁increased	-1869
ulated	-1870
▁fl	-1871
eptember	-1872
▁several	-1873
▁considered	-1874
equ	-1875
▁purs	-1876
crib	-1877
▁EU	-1878
gether	-1879
▁together	-1880
rehensive	-1881
ush	-1882
/2	-1883
artment	-1884
▁18	-1885
iddle	-1886
▁201	-1887
▁arr	-1888
ibet	-1889
▁asse	-1890
▁drug	-1891
to	-1892
▁weapons	-1893
▁broad	-1894
▁Programme	-1895
▁More	-1896
ours	-1897
▁property	-1898
▁available	-1899
▁proposed	-1900
▁prevent	-1901
anced	-1902
▁July	-1903
be	-1904
▁June	-1905
CO	-1906
▁Tr	-1907
▁difficult	-1908
▁around	-1909
▁systems	-1910
▁application	-1911
▁bring	-1912
▁likely	-1913
▁poverty	-1914
▁criminal	-1915
racy	-1916
▁conflict	-1917
▁reason	-1918
ulture	-1919
▁fri	-1920
▁document	-1921
▁September	-1922
▁inves	-1923
▁Russia	-1924
▁fully	-1925
▁strateg	-1926
▁consideration	-1927
▁states	-1928
com	-1929
▁departments	-1930
▁let	-1931
▁therefore	-1932
▁always	-1933
aced	-1934
▁begin	-1935
uted	-1936
▁investig	-1937
▁Kong	-1938
▁entit	-1939
▁needed	-1940
▁comb	-1941
▁directly	-1942
▁eas	-1943
▁Hong	-1944
oy	-1945
▁workers	-1946
pid	-1947
ilar	-1948
▁Rights	-1949
▁economies	-1950
▁She	-1951
▁Sp	-1952
▁disp	-1953
▁frame	-1954
▁additional	-1955
▁thus	-1956
most	-1957
eti	-1958
▁making	-1959
▁subject	-1960
▁quality	-1961
ource	-1962
▁impact	-1963
▁One	-1964
▁II	-1965
▁dest	-1966
unic	-1967
▁achie	-1968
▁list	-1969
▁Q	-1970
ached	-1971
▁former	-1972
▁industry	-1973
rated	-1974
▁home	-1975
has	-1976
▁3.	-1977
▁Tibet	-1978
/4	-1979
ests	-1980
▁Board	-1981
▁bal	-1982
▁standards	-1983
▁oblig	-1984
lim	-1985
▁13	-1986
▁Department	-1987
▁value	-1988
▁regions	-1989
▁greater	-1990
ions	-1991
▁responsible	-1992
ification	-1993
▁export	-1994
▁self	-1995
ustom	-1996
▁claim	-1997
▁`	-1998
▁never	-1999
▁solution	-2000
▁want	-2001
▁agreed	-2002
ories	-2003
▁principles	-2004
airman	-2005
▁met	-2006
2,	-2007
IC	-2008
tif	-2009
▁Social	-2010
▁monitor	-2011
▁Fund	-2012
io	-2013
▁comprehensive	-2014
▁construction	-2015
▁run	-2016
ipment	-2017
▁exerc	-2018
▁Oct	-2019
▁subs	-2020
aring	-2021
▁My	-2022
ension	-2023
rast	-2024
aran	-2025
ijing	-2026
▁others	-2027
▁Arab	-2028
▁key	-2029
▁credit	-2030
arty	-2031
▁third	-2032
▁legis	-2033
side	-2034
▁sustainable	-2035
rate	-2036
▁planning	-2037
▁yet	-2038
▁aver	-2039
▁Tra	-2040
▁Union	-2041
erate	-2042
▁Li	-2043
▁arrange	-2044
▁tas	-2045
▁While	-2046
iss	-2047
ollar	-2048
▁stability	-2049
▁turn	-2050
▁clim	-2051
though	-2052
▁ren	-2053
aster	-2054
▁Beijing	-2055
selves	-2056
▁identi	-2057
,'	-2058
▁October	-2059
▁Rec	-2060
▁concerning	-2061
▁--	-2062
▁deep	-2063
nec	-2064
reg	-2065
▁deli	-2066
▁sum	-2067
▁took	-2068
pr	-2069
uri	-2070
▁Acc	-2071
▁substan	-2072
medi	-2073
▁vol	-2074
▁pat	-2075
▁received	-2076
sh	-2077
▁six	-2078
▁communic	-2079
▁house	-2080
▁mo	-2081
rup	-2082
ipl	-2083
▁$1	-2084
▁hard	-2085
▁approval	-2086
ule	-2087
▁old	-2088
▁16	-2089
ured	-2090
▁article	-2091
▁So	-2092
▁carry	-2093
▁officials	-2094
▁pass	-2095
atis	-2096
▁effic	-2097
▁collec	-2098
▁50	-2099
▁ago	-2100
▁apply	-2101
▁ess	-2102
▁25	-2103
iting	-2104
▁cover	-2105
erve	-2106
▁er	-2107
▁ethnic	-2108
▁coordin	-2109
vision	-2110
arget	-2111
mission	-2112
▁bodies	-2113
▁matter	-2114
ones	-2115
stances	-2116
▁week	-2117
▁compet	-2118
iversity	-2119
itive	-2120
▁able	-2121
▁itself	-2122
▁cultural	-2123
ression	-2124
▁study	-2125
▁best	-2126
▁plans	-2127
▁experience	-2128
▁decided	-2129
ict	-2130
▁citizens	-2131
▁framework	-2132
urance	-2133
ither	-2134
▁taking	-2135
aps	-2136
▁equipment	-2137
text	-2138
▁representatives	-2139
▁contract	-2140
▁participation	-2141
▁lear	-2142
▁writ	-2143
▁status	-2144
▁previous	-2145
ible	-2146
▁position	-2147
ising	-2148
▁operation	-2149
▁point	-2150
uing	-2151
▁March	-2152
mber	-2153
loyment	-2154
▁organization	-2155
▁court	-2156
ences	-2157
0,	-2158
▁4.	-2159
▁changes	-2160
▁Pl	-2161
▁ori	-2162
▁results	-2163
▁mut	-2164
eal	-2165
▁potential	-2166
just	-2167
▁youn	-2168
▁partners	-2169
▁enti	-2170
▁coun	-2171
▁start	-2172
▁determin	-2173
▁sal	-2174
▁competi	-2175
▁transport	-2176
▁sk	-2177
▁dollar	-2178
ological	-2179
▁natural	-2180
uan	-2181
▁safety	-2182
▁coordination	-2183
ovember	-2184
▁building	-2185
▁Some	-2186
▁discussion	-2187
▁half	-2188
▁fall	-2189
uel	-2190
▁poor	-2191
▁existing	-2192
▁transfer	-2193
use	-2194
▁organ	-2195
▁target	-2196
▁here	-2197
rain	-2198
▁mean	-2199
▁coll	-2200
▁called	-2201
▁accept	-2202
▁November	-2203
▁office	-2204
reedom	-2205
▁times	-2206
▁ve	-2207
▁expand	-2208
▁scienti	-2209
gency	-2210
__	-2211
▁jus	-2212
▁whole	-2213
ethod	-2214
▁recommendations	-2215
▁loss	-2216
armament	-2217
▁noted	-2218
▁sett	-2219
laration	-2220
▁camp	-2221
▁Palestin	-2222
▁17	-2223
acy	-2224
▁rather	-2225
▁autonom	-2226
▁democratic	-2227
▁name	-2228
▁terror	-2229
ier	-2230
▁Jan	-2231
pose	-2232
▁agric	-2233
▁What	-2234
▁context	-2235
▁prim	-2236
▁face	-2237
▁expected	-2238
estern	-2239
▁decisions	-2240
TA	-2241
▁connec	-2242
▁slow	-2243
ton	-2244
▁providing	-2245
▁Me	-2246
▁submitted	-2247
▁By	-2248
angu	-2249
titute	-2250
".	-2251
▁Ob	-2252
ead	-2253
▁once	-2254
amb	-2255
▁respec	-2256
▁poin	-2257
▁circum	-2258
erb	-2259
▁Off	-2260
irst	-2261
▁overall	-2262
ics	-2263
▁ill	-2264
▁gain	-2265
▁effect	-2266
▁occup	-2267
▁asked	-2268
▁principle	-2269
▁method	-2270
▁ce	-2271
▁cut	-2272
▁expressed	-2273
▁climate	-2274
▁growing	-2275
▁guaran	-2276
▁Ass	-2277
▁negotiations	-2278
pril	-2279
▁employment	-2280
▁industrial	-2281
▁You	-2282
▁norm	-2283
▁immedi	-2284
▁rapid	-2285
lam	-2286
▁came	-2287
▁mandate	-2288
▁After	-2289
ilateral	-2290
▁living	-2291
▁average	-2292
▁Germany	-2293
▁Secretariat	-2294
▁z	-2295
▁sent	-2296
▁Korea	-2297
▁fundament	-2298
▁Cong	-2299
ama	-2300
time	-2301
cribed	-2302
▁until	-2303
▁freedom	-2304
▁violence	-2305
lu	-2306
pite	-2307
▁emphas	-2308
by	-2309
▁distrib	-2310
▁themselves	-2311
▁minor	-2312
▁1994,	-2313
▁April	-2314
▁ver	-2315
ars	-2316
▁kind	-2317
force	-2318
▁facilit	-2319
▁reported	-2320
▁suff	-2321
▁response	-2322
▁21	-2323
▁having	-2324
▁limited	-2325
▁resolutions	-2326
itation	-2327
▁done	-2328
▁Gu	-2329
▁dam	-2330
▁democracy	-2331
▁space	-2332
▁annual	-2333
▁Aug	-2334
▁top	-2335
▁feel	-2336
▁goods	-2337
▁refugees	-2338
▁procedures	-2339
uary	-2340
year	-2341
▁Cont	-2342
▁mor	-2343
▁decl	-2344
▁statement	-2345
▁repl	-2346
anda	-2347
7,	-2348
▁Since	-2349
bu	-2350
▁date	-2351
▁involved	-2352
▁dev	-2353
▁lack	-2354
▁relig	-2355
▁young	-2356
▁fav	-2357
▁cho	-2358
co	-2359
▁regular	-2360
▁Ins	-2361
▁consequ	-2362
▁remains	-2363
▁bre	-2364
▁flow	-2365
▁recently	-2366
▁det	-2367
▁Agree	-2368
▁things	-2369
▁govern	-2370
ened	-2371
▁origin	-2372
osn	-2373
▁Action	-2374
urs	-2375
▁la	-2376
▁opportunity	-2377
▁almost	-2378
etary	-2379
▁1993,	-2380
▁dri	-2381
erous	-2382
ctions	-2383
urities	-2384
▁successful	-2385
▁hours	-2386
ding	-2387
▁X	-2388
▁assets	-2389
▁manag	-2390
▁strategy	-2391
/1	-2392
ched	-2393
▁Accord	-2394
▁August	-2395
▁matters	-2396
▁similar	-2397
ime	-2398
▁longer	-2399
ograph	-2400
▁(199	-2401
▁guid	-2402
▁investors	-2403
▁circumstances	-2404
▁positive	-2405
tly	-2406
rench	-2407
▁Office	-2408
▁effort	-2409
iqu	-2410
▁identif	-2411
▁keep	-2412
▁January	-2413
▁supply	-2414
ne	-2415
ades	-2416
▁surve	-2417
▁agreements	-2418
▁term	-2419
▁wish	-2420
▁death	-2421
▁typ	-2422
▁prepar	-2423
▁authority	-2424
rel	-2425
50	-2426
itional	-2427
▁enhance	-2428
▁try	-2429
▁priority	-2430
▁5.	-2431
▁Where	-2432
▁Region	-2433
iplom	-2434
▁recon	-2435
▁Minister	-2436
▁sen	-2437
action	-2438
fact	-2439
▁enj	-2440
▁eu	-2441
▁commitment	-2442
▁nature	-2443
▁bord	-2444
▁contributions	-2445
▁units	-2446
▁Russian	-2447
▁enterprise	-2448
ght	-2449
▁why	-2450
▁[	-2451
con	-2452
▁rise	-2453
▁enough	-2454
▁inn	-2455
▁create	-2456
▁instru	-2457
eb	-2458
▁197	-2459
▁Cour	-2460
rought	-2461
▁reduce	-2462
▁abs	-2463
▁consum	-2464
ening	-2465
▁6.	-2466
▁conclud	-2467
▁harm	-2468
▁going	-2469
▁benefits	-2470
▁police	-2471
umption	-2472
▁insurance	-2473
▁monitoring	-2474
epar	-2475
▁whose	-2476
ored	-2477
▁Bosn	-2478
men	-2479
aries	-2480
oid	-2481
▁approved	-2482
▁Fore	-2483
▁team	-2484
▁facilities	-2485
istic	-2486
hib	-2487
▁complete	-2488
gans	-2489
▁lab	-2490
▁poll	-2491
▁Congress	-2492
▁assoc	-2493
▁sell	-2494
▁langu	-2495
tors	-2496
▁left	-2497
▁crime	-2498
▁ever	-2499
▁election	-2500
gent	-2501
▁dou	-2502
▁adjust	-2503
▁outside	-2504
▁During	-2505
rip	-2506
▁due	-2507
4,	-2508
▁lower	-2509
▁challenges	-2510
▁simp	-2511
wing	-2512
▁emb	-2513
▁anti	-2514
▁Agreement	-2515
rastruct	-2516
ON	-2517
reme	-2518
▁Tur	-2519
▁essential	-2520
▁media	-2521
ienn	-2522
apter	-2523
▁modern	-2524
wan	-2525
▁Work	-2526
▁relationship	-2527
▁note	-2528
▁rural	-2529
ires	-2530
▁issued	-2531
osp	-2532
▁exc	-2533
▁wide	-2534
▁expect	-2535
▁resol	-2536
▁reached	-2537
▁secret	-2538
ialog	-2539
▁inflation	-2540
▁light	-2541
▁French	-2542
▁Aust	-2543
/199	-2544
tial	-2545
▁Serv	-2546
ledge	-2547
▁trust	-2548
▁forward	-2549
▁final	-2550
onst	-2551
otion	-2552
▁seen	-2553
▁diplom	-2554
▁North	-2555
ercial	-2556
▁promoting	-2557
▁contained	-2558
uty	-2559
▁separ	-2560
yri	-2561
▁history	-2562
▁materials	-2563
ubl	-2564
▁ways	-2565
▁away	-2566
▁del	-2567
vereign	-2568
OR	-2569
▁cause	-2570
▁arrangements	-2571
▁peaceful	-2572
▁stock	-2573
▁Party	-2574
▁introduc	-2575
▁side	-2576
▁belie	-2577
▁words	-2578
▁entitled	-2579
lies	-2580
▁France	-2581
uter	-2582
▁relative	-2583
▁strengthening	-2584
▁Indeed	-2585
sition	-2586
▁UNDP	-2587
▁fundamental	-2588
endit	-2589
▁observ	-2590
▁ge	-2591
▁students	-2592
▁sing	-2593
▁labor	-2594
-199	-2595
▁sovereign	-2596
▁firm	-2597
▁demonst	-2598
8,	-2599
arters	-2600
oman	-2601
▁Her	-2602
▁class	-2603
▁included	-2604
▁Sc	-2605
ulate	-2606
▁Court	-2607
▁infrastruct	-2608
▁questions	-2609
▁arg	-2610
▁refer	-2611
▁vo	-2612
▁vote	-2613
▁objectives	-2614
▁territory	-2615
of	-2616
▁organs	-2617
yn	-2618
▁mob	-2619
▁arms	-2620
▁euro	-2621
aper	-2622
▁reflec	-2623
▁Middle	-2624
▁According	-2625
veness	-2626
ensus	-2627
▁carried	-2628
▁rad	-2629
illeg	-2630
▁exercise	-2631
wh	-2632
▁discuss	-2633
▁rule	-2634
ology	-2635
▁actions	-2636
▁love	-2637
tilateral	-2638
▁dialog	-2639
3,	-2640
▁individuals	-2641
▁illeg	-2642
ames	-2643
▁live	-2644
▁requested	-2645
▁22	-2646
ounts	-2647
▁Moreover	-2648
ream	-2649
iscal	-2650
iet	-2651
▁provides	-2652
▁opportunities	-2653
▁Chairman	-2654
▁autonomous	-2655
▁functions	-2656
▁reach	-2657
ops	-2658
▁protect	-2659
▁balance	-2660
omin	-2661
▁medical	-2662
▁Charter	-2663
▁performance	-2664
lusion	-2665
▁detail	-2666
rant	-2667
▁dang	-2668
lier	-2669
▁led	-2670
iction	-2671
way	-2672
ares	-2673
▁scientific	-2674
▁Su	-2675
▁function	-2676
ously	-2677
ats	-2678
▁thought	-2679
put	-2680
▁line	-2681
▁documents	-2682
▁histor	-2683
▁mutual	-2684
▁apprec	-2685
▁vic	-2686
▁Asian	-2687
ills	-2688
▁addressed	-2689
ees	-2690
ender	-2691
▁His	-2692
▁respond	-2693
▁purpose	-2694
oh	-2695
▁7.	-2696
formation	-2697
▁publ	-2698
▁Foreign	-2699
unicip	-2700
):	-2701
see	-2702
▁custom	-2703
▁entire	-2704
▁relating	-2705
fficient	-2706
▁mind	-2707
▁(1	-2708
lood	-2709
▁influ	-2710
acter	-2711
▁satis	-2712
▁Pre	-2713
▁attemp	-2714
▁University	-2715
▁tran	-2716
▁proposals	-2717
▁1995	-2718
▁expendit	-2719
▁proc	-2720
operation	-2721
▁Palestinian	-2722
▁model	-2723
▁ans	-2724
▁Mission	-2725
▁consist	-2726
▁armed	-2727
▁schools	-2728
idents	-2729
▁hop	-2730
▁urban	-2731
▁31	-2732
▁speak	-2733
▁tell	-2734
ude	-2735
▁dise	-2736
istry	-2737
lav	-2738
▁Islam	-2739
ID	-2740
bit	-2741
▁24	-2742
▁leadership	-2743
▁confidence	-2744
▁securities	-2745
▁sanc	-2746
▁road	-2747
▁multilateral	-2748
▁began	-2749
▁imm	-2750
▁obtain	-2751
▁fif	-2752
ck	-2753
▁laun	-2754
▁understanding	-2755
▁join	-2756
▁Rw	-2757
▁const	-2758
ighb	-2759
▁concerns	-2760
ins	-2761
▁proceed	-2762
▁delegations	-2763
▁aid	-2764
▁steps	-2765
▁Such	-2766
▁acts	-2767
tiveness	-2768
▁body	-2769
▁sol	-2770
based	-2771
▁increasingly	-2772
▁unit	-2773
inary	-2774
▁Mon	-2775
▁conduct	-2776
ront	-2777
▁leading	-2778
▁appear	-2779
UN	-2780
iency	-2781
▁active	-2782
ghan	-2783
▁commod	-2784
▁prepared	-2785
▁analys	-2786
▁told	-2787
par	-2788
tees	-2789
▁using	-2790
▁dialogue	-2791
wide	-2792
illed	-2793
▁benefit	-2794
ises	-2795
▁fiscal	-2796
▁infrastructure	-2797
▁encourage	-2798
▁bar	-2799
▁profession	-2800
▁estimated	-2801
▁1996	-2802
af	-2803
oted	-2804
ancing	-2805
irect	-2806
▁achieved	-2807
▁Se	-2808
▁stop	-2809
▁practice	-2810
▁president	-2811
▁commercial	-2812
▁consultations	-2813
▁age	-2814
▁Declaration	-2815
lymp	-2816
▁1,	-2817
▁went	-2818
▁br	-2819
▁avoid	-2820
▁enjoy	-2821
▁adequ	-2822
▁along	-2823
▁Ab	-2824
▁suggest	-2825
visory	-2826
alities	-2827
▁1992	-2828
▁throughout	-2829
▁tro	-2830
▁Executive	-2831
▁pun	-2832
arily	-2833
▁soon	-2834
▁event	-2835
▁ground	-2836
▁hous	-2837
ots	-2838
▁elim	-2839
▁conven	-2840
▁city	-2841
▁Olymp	-2842
▁famil	-2843
▁technologies	-2844
▁Dem	-2845
hab	-2846
roll	-2847
alled	-2848
akistan	-2849
▁settlement	-2850
▁obligations	-2851
aiwan	-2852
ming	-2853
▁Can	-2854
▁displ	-2855
▁affairs	-2856
▁Peace	-2857
9,	-2858
▁Many	-2859
▁Eng	-2860
▁aimed	-2861
▁restric	-2862
▁23	-2863
▁finance	-2864
▁supported	-2865
▁Comp	-2866
tioned	-2867
▁bor	-2868
▁trend	-2869
ER	-2870
ically	-2871
▁Centre	-2872
lease	-2873
▁Afghan	-2874
egu	-2875
▁evidence	-2876
yond	-2877
earch	-2878
▁GDP	-2879
▁transition	-2880
ufact	-2881
isms	-2882
▁largest	-2883
ilding	-2884
urd	-2885
▁Pri	-2886
▁star	-2887
▁relief	-2888
2)	-2889
▁lat	-2890
▁parts	-2891
▁effects	-2892
▁purch	-2893
▁across	-2894
▁disarmament	-2895
eor	-2896
▁obser	-2897
▁fel	-2898
▁travel	-2899
▁conference	-2900
▁bilateral	-2901
uties	-2902
▁test	-2903
ao	-2904
▁8.	-2905
itable	-2906
▁?	-2907
▁charge	-2908
▁inspec	-2909
▁neg	-2910
▁Sum	-2911
▁prevention	-2912
▁pred	-2913
▁character	-2914
▁link	-2915
▁eval	-2916
▁below	-2917
▁regarding	-2918
▁legislation	-2919
▁internal	-2920
▁contribute	-2921
▁statis	-2922
thing	-2923
ivision	-2924
▁util	-2925
▁municip	-2926
tification	-2927
▁effectively	-2928
▁annex	-2929
ebru	-2930
ebruary	-2931
▁aspects	-2932
atch	-2933
▁later	-2934
osition	-2935
▁prec	-2936
▁limit	-2937
▁emergency	-2938
itim	-2939
▁opin	-2940
▁true	-2941
▁goals	-2942
▁items	-2943
▁mis	-2944
aches	-2945
▁Taiwan	-2946
▁ir	-2947
ler	-2948
rimination	-2949
▁connection	-2950
ev	-2951
hic	-2952
▁lic	-2953
▁buy	-2954
▁compens	-2955
▁affected	-2956
▁currently	-2957
▁emerging	-2958
▁Pakistan	-2959
▁February	-2960
▁brought	-2961
▁conv	-2962
ony	-2963
aign	-2964
▁fight	-2965
▁cities	-2966
▁proposal	-2967
▁views	-2968
ik	-2969
▁acqu	-2970
▁registration	-2971
▁regime	-2972
▁treatment	-2973
--	-2974
3)	-2975
▁possib	-2976
",	-2977
oples	-2978
▁reserv	-2979
▁consensus	-2980
▁paid	-2981
▁Women	-2982
▁elections	-2983
▁nation	-2984
▁culture	-2985
ES	-2986
oslav	-2987
ishing	-2988
OM	-2989
ought	-2990
unt	-2991
▁innov	-2992
ugoslav	-2993
enced	-2994
lied	-2995
▁manufact	-2996
It	-2997
▁unc	-2998
▁fulf	-2999
dra	-3000
mark	-3001
▁neighb	-3002
▁Dis	-3003
pped	-3004
▁supervision	-3005
wise	-3006
▁equal	-3007
dom	-3008
▁forest	-3009
▁competent	-3010
▁Aff	-3011
▁reforms	-3012
▁sides	-3013
▁exec	-3014
▁participate	-3015
▁mass	-3016
▁reduction	-3017
▁created	-3018
▁financing	-3019
▁Yugoslav	-3020
pro	-3021
▁complex	-3022
▁sl	-3023
ticles	-3024
▁subsid	-3025
acks	-3026
▁mig	-3027
▁consequences	-3028
▁fear	-3029
▁Under	-3030
▁visit	-3031
20	-3032
▁fair	-3033
▁Further	-3034
▁counter	-3035
▁Aut	-3036
verse	-3037
▁primary	-3038
uting	-3039
ung	-3040
▁single	-3041
▁ability	-3042
▁alloc	-3043
▁express	-3044
▁100	-3045
oks	-3046
ets	-3047
▁task	-3048
▁West	-3049
▁mother	-3050
▁traffic	-3051
▁liber	-3052
▁conducted	-3053
haps	-3054
▁cal	-3055
▁yuan	-3056
▁cle	-3057
▁defic	-3058
▁practic	-3059
▁sanctions	-3060
omb	-3061
▁40	-3062
▁external	-3063
▁sold	-3064
▁fig	-3065
▁First	-3066
▁unemp	-3067
▁science	-3068
▁knowledge	-3069
▁implemented	-3070
▁caused	-3071
▁Lat	-3072
▁goal	-3073
▁standard	-3074
▁Cooperation	-3075
▁campaign	-3076
▁won	-3077
▁points	-3078
quarters	-3079
▁committed	-3080
aving	-3081
II	-3082
▁Shan	-3083
▁conflicts	-3084
▁coal	-3085
inter	-3086
▁ey	-3087
sc	-3088
▁forms	-3089
We	-3090
▁Represent	-3091
▁spir	-3092
▁App	-3093
rison	-3094
hing	-3095
▁Gre	-3096
▁lives	-3097
▁operational	-3098
▁justice	-3099
irl	-3100
▁spending	-3101
ception	-3102
▁Treat	-3103
hers	-3104
▁offer	-3105
▁either	-3106
▁decades	-3107
ature	-3108
▁developments	-3109
ume	-3110
▁satisf	-3111
▁multi	-3112
▁personal	-3113
going	-3114
▁Working	-3115
▁legitim	-3116
▁gre	-3117
Ch	-3118
▁agricultural	-3119
now	-3120
PR	-3121
ef	-3122
▁consumption	-3123
▁Bosnia	-3124
▁beginning	-3125
▁makes	-3126
▁nearly	-3127
▁weak	-3128
▁clearly	-3129
▁friends	-3130
▁sound	-3131
▁associ	-3132
ghai	-3133
▁Other	-3134
▁Western	-3135
▁mechanisms	-3136
▁rein	-3137
▁27	-3138
▁organized	-3139
▁assessment	-3140
▁promotion	-3141
▁religious	-3142
▁integration	-3143
ify	-3144
my	-3145
▁48	-3146
pret	-3147
▁Ter	-3148
▁trading	-3149
pons	-3150
▁mom	-3151
▁improving	-3152
poses	-3153
tenance	-3154
▁century	-3155
▁beyond	-3156
respon	-3157
▁quick	-3158
▁coming	-3159
▁text	-3160
▁product	-3161
eng	-3162
iferation	-3163
▁26	-3164
▁host	-3165
osing	-3166
elines	-3167
▁aud	-3168
▁heav	-3169
▁Austral	-3170
▁civilian	-3171
▁independent	-3172
▁undertaken	-3173
making	-3174
▁sure	-3175
▁funding	-3176
▁debate	-3177
▁activity	-3178
▁safegu	-3179
▁factors	-3180
▁Plan	-3181
where	-3182
IS	-3183
▁9.	-3184
tivity	-3185
▁chief	-3186
▁purposes	-3187
ixed	-3188
▁Bri	-3189
▁currency	-3190
▁improved	-3191
▁doub	-3192
▁Col	-3193
IN	-3194
abilities	-3195
▁Administrative	-3196
EF	-3197
▁temp	-3198
▁Democ	-3199
▁regul	-3200
lements	-3201
ousand	-3202
▁1990	-3203
▁fuel	-3204
▁seek	-3205
▁distribution	-3206
▁nations	-3207
▁judic	-3208
uations	-3209
affir	-3210
▁majority	-3211
▁Ha	-3212
▁objective	-3213
▁requires	-3214
manent	-3215
▁corpor	-3216
▁sectors	-3217
▁Shanghai	-3218
▁Summit	-3219
▁father	-3220
▁pressure	-3221
EA	-3222
▁advant	-3223
▁town	-3224
▁known	-3225
▁jobs	-3226
▁seems	-3227
ee	-3228
In	-3229
▁talks	-3230
▁High	-3231
▁pen	-3232
▁jur	-3233
▁labour	-3234
▁signed	-3235
▁network	-3236
▁recognized	-3237
building	-3238
owers	-3239
▁maintenance	-3240
rad	-3241
▁manner	-3242
▁reasons	-3243
aces	-3244
▁fil	-3245
▁strategic	-3246
▁technological	-3247
▁reflect	-3248
▁Chapter	-3249
hest	-3250
▁behalf	-3251
rary	-3252
▁commission	-3253
▁und	-3254
▁vehic	-3255
▁stri	-3256
▁fle	-3257
▁Rwanda	-3258
▁Mac	-3259
▁leave	-3260
▁peoples	-3261
▁1994.	-3262
▁28	-3263
▁mechanism	-3264
▁Sub	-3265
▁farm	-3266
gyp	-3267
▁really	-3268
▁withdra	-3269
▁sw	-3270
▁facilitate	-3271
▁Affairs	-3272
▁red	-3273
▁enforce	-3274
▁Syri	-3275
▁section	-3276
▁actively	-3277
▁experts	-3278
▁sources	-3279
▁stage	-3280
▁monetary	-3281
▁constit	-3282
▁King	-3283
▁Ministry	-3284
standing	-3285
▁challenge	-3286
lying	-3287
▁lost	-3288
ibility	-3289
▁offices	-3290
▁rising	-3291
▁structure	-3292
▁continues	-3293
▁experi	-3294
oming	-3295
▁critical	-3296
▁guarantee	-3297
lands	-3298
ece	-3299
▁accep	-3300
▁gener	-3301
rust	-3302
▁fields	-3303
Th	-3304
AT	-3305
▁risks	-3306
▁traditional	-3307
ift	-3308
▁illegal	-3309
▁violation	-3310
▁girl	-3311
▁ten	-3312
▁recover	-3313
▁agg	-3314
ounced	-3315
▁border	-3316
▁presid	-3317
);	-3318
▁thing	-3319
▁Am	-3320
▁Treaty	-3321
ulties	-3322
▁Trade	-3323
▁exten	-3324
yc	-3325
▁analysis	-3326
isters	-3327
▁adequate	-3328
▁language	-3329
▁adoption	-3330
.1	-3331
▁occur	-3332
▁consolid	-3333
lia	-3334
omal	-3335
▁scope	-3336
▁cop	-3337
▁resource	-3338
SC	-3339
▁depend	-3340
▁wealth	-3341
EC	-3342
▁moment	-3343
▁Inter	-3344
emic	-3345
tish	-3346
▁earlier	-3347
zone	-3348
ething	-3349
▁continuing	-3350
▁York	-3351
acific	-3352
▁bond	-3353
▁officers	-3354
▁despite	-3355
▁crimes	-3356
ware	-3357
▁sense	-3358
▁Ital	-3359
raft	-3360
▁bri	-3361
ervation	-3362
▁Egyp	-3363
▁Any	-3364
omething	-3365
▁violations	-3366
ester	-3367
▁news	-3368
erences	-3369
fully	-3370
▁mort	-3371
▁stated	-3372
▁difficulties	-3373
alling	-3374
▁efficiency	-3375
orial	-3376
struct	-3377
raz	-3378
AR	-3379
head	-3380
▁partnership	-3381
▁doing	-3382
▁politic	-3383
▁Afghanistan	-3384
▁Second	-3385
▁alone	-3386
imum	-3387
▁losses	-3388
▁inspection	-3389
▁Federal	-3390
▁room	-3391
▁Advisory	-3392
▁enable	-3393
▁answ	-3394
▁break	-3395
▁Of	-3396
▁prot	-3397
▁arbit	-3398
eria	-3399
▁serve	-3400
▁Although	-3401
▁explain	-3402
▁spirit	-3403
▁Administration	-3404
▁strategies	-3405
▁safe	-3406
▁($	-3407
▁cand	-3408
▁range	-3409
▁Yugoslavia	-3410
▁bad	-3411
paren	-3412
▁late	-3413
▁univers	-3414
▁War	-3415
ival	-3416
▁Haiti	-3417
.,	-3418
akers	-3419
▁qual	-3420
▁independence	-3421
▁Stand	-3422
▁Direct	-3423
▁sugges	-3424
▁Constitution	-3425
rong	-3426
▁dr	-3427
▁became	-3428
ertain	-3429
iter	-3430
▁Des	-3431
ocks	-3432
▁juris	-3433
▁Trump	-3434
set	-3435
ique	-3436
leased	-3437
ery	-3438
▁Obama	-3439
enth	-3440
reas	-3441
▁Let	-3442
▁gas	-3443
▁1996,	-3444
▁thousand	-3445
ocol	-3446
▁Even	-3447
▁soft	-3448
▁articles	-3449
▁examination	-3450
200	-3451
requ	-3452
▁letter	-3453
▁exports	-3454
▁Cri	-3455
▁permanent	-3456
▁registered	-3457
▁Israeli	-3458
related	-3459
mical	-3460
▁advanced	-3461
▁196	-3462
▁families	-3463
▁Serb	-3464
ect	-3465
▁dollars	-3466
used	-3467
▁Cor	-3468
▁deg	-3469
▁Yet	-3470
▁friend	-3471
▁commitments	-3472
▁posts	-3473
▁advance	-3474
▁medium	-3475
CR	-3476
▁nothing	-3477
▁agency	-3478
▁behind	-3479
arc	-3480
▁something	-3481
▁Sw	-3482
egov	-3483
▁institutional	-3484
▁implementing	-3485
▁raise	-3486
▁night	-3487
▁sy	-3488
vest	-3489
▁events	-3490
▁extreme	-3491
▁Leban	-3492
30	-3493
ansion	-3494
▁survey	-3495
▁Regulations	-3496
▁altern	-3497
▁rac	-3498
▁Somal	-3499
▁practical	-3500
▁hon	-3501
▁executive	-3502
▁committee	-3503
▁certific	-3504
▁damage	-3505
▁studies	-3506
ribun	-3507
▁adopt	-3508
▁instruments	-3509
▁idea	-3510
ere	-3511
▁bienn	-3512
▁Uk	-3513
▁stip	-3514
▁compon	-3515
pretation	-3516
▁household	-3517
▁receive	-3518
▁British	-3519
▁firms	-3520
ishment	-3521
▁Cro	-3522
▁pollution	-3523
ador	-3524
▁unemployment	-3525
▁sex	-3526
liament	-3527
▁exchang	-3528
▁UK	-3529
rict	-3530
ites	-3531
▁prison	-3532
mar	-3533
rants	-3534
▁Agency	-3535
▁initiatives	-3536
▁Sud	-3537
zegov	-3538
zegovina	-3539
▁saw	-3540
▁Japanese	-3541
▁ensuring	-3542
▁den	-3543
enses	-3544
▁wind	-3545
▁appeal	-3546
▁Imp	-3547
economic	-3548
▁mas	-3549
▁Latin	-3550
view	-3551
▁involve	-3552
▁29	-3553
▁scale	-3554
ICEF	-3555
level	-3556
▁heart	-3557
▁didn	-3558
▁willing	-3559
▁extent	-3560
▁sou	-3561
▁collabor	-3562
▁concept	-3563
▁treaty	-3564
▁else	-3565
▁seven	-3566
▁expansion	-3567
▁decade	-3568
▁normal	-3569
▁Mal	-3570
▁correspon	-3571
sec	-3572
ateg	-3573
▁Supp	-3574
▁reven	-3575
orary	-3576
▁Herzegovina	-3577
▁elimin	-3578
▁Public	-3579
▁actual	-3580
like	-3581
▁source	-3582
orte	-3583
▁ap	-3584
road	-3585
▁housing	-3586
▁pursu	-3587
▁gradu	-3588
▁improvement	-3589
lish	-3590
▁Tom	-3591
▁Brit	-3592
tified	-3593
▁candid	-3594
razil	-3595
▁prosper	-3596
▁started	-3597
▁jurisd	-3598
▁missions	-3599
▁Liber	-3600
▁banking	-3601
rem	-3602
▁10.	-3603
esterday	-3604
▁statements	-3605
▁recommended	-3606
▁1995,	-3607
▁respective	-3608
▁referred	-3609
▁opening	-3610
▁phys	-3611
isation	-3612
▁methods	-3613
▁allowed	-3614
lin	-3615
▁elected	-3616
▁sovereignty	-3617
▁Techn	-3618
comes	-3619
▁Geor	-3620
▁Force	-3621
▁relatively	-3622
▁loans	-3623
▁exceed	-3624
▁fire	-3625
ilt	-3626
enous	-3627
▁weeks	-3628
▁professional	-3629
Wh	-3630
▁highly	-3631
▁raised	-3632
quid	-3633
▁mobil	-3634
▁indicated	-3635
▁Those	-3636
ada	-3637
undred	-3638
▁quarter	-3639
inces	-3640
▁renew	-3641
▁compensation	-3642
▁paper	-3643
▁implic	-3644
oral	-3645
▁SCO	-3646
▁Now	-3647
▁Ph	-3648
▁tri	-3649
▁Tw	-3650
▁communities	-3651
▁Representative	-3652
▁comes	-3653
▁Agenda	-3654
▁completed	-3655
▁published	-3656
▁prohib	-3657
abled	-3658
▁establishing	-3659
▁duties	-3660
more	-3661
No	-3662
▁concluded	-3663
▁Sudan	-3664
▁equality	-3665
▁shares	-3666
▁Non	-3667
rugg	-3668
▁mid	-3669
▁competition	-3670
▁solid	-3671
▁table	-3672
▁Information	-3673
▁confir	-3674
▁earn	-3675
▁disaster	-3676
erative	-3677
▁electric	-3678
▁observers	-3679
▁nor	-3680
▁inj	-3681
▁practices	-3682
▁prescribed	-3683
▁paren	-3684
region	-3685
▁Commun	-3686
▁welcome	-3687
▁11.	-3688
▁specialized	-3689
ii	-3690
▁Head	-3691
▁immediately	-3692
▁ready	-3693
▁Ang	-3694
▁cross	-3695
wor	-3696
▁fa	-3697
▁got	-3698
▁anim	-3699
lative	-3700
▁measure	-3701
▁simply	-3702
▁judicial	-3703
▁47	-3704
▁although	-3705
▁Federation	-3706
▁Not	-3707
▁arri	-3708
untary	-3709
cast	-3710
▁categ	-3711
▁susp	-3712
▁strugg	-3713
▁imposed	-3714
▁ste	-3715
▁fixed	-3716
▁shown	-3717
ishes	-3718
oday	-3719
▁transparen	-3720
▁efficient	-3721
▁prob	-3722
▁senior	-3723
▁written	-3724
▁influence	-3725
▁heard	-3726
▁initiative	-3727
▁sales	-3728
▁reduced	-3729
▁woman	-3730
▁diplomatic	-3731
oring	-3732
▁Pr	-3733
thern	-3734
▁60	-3735
ribunal	-3736
▁pain	-3737
EN	-3738
enty	-3739
ternet	-3740
▁Per	-3741
▁county	-3742
▁inten	-3743
▁Iraqi	-3744
▁preparation	-3745
▁alleg	-3746
orn	-3747
▁compared	-3748
▁strength	-3749
▁vir	-3750
▁Britain	-3751
ya	-3752
▁Territ	-3753
▁Turkey	-3754
▁negative	-3755
▁terrorism	-3756
▁communication	-3757
▁(2)	-3758
▁creation	-3759
ode	-3760
▁looked	-3761
▁substantive	-3762
oph	-3763
emin	-3764
exic	-3765
ressive	-3766
▁Med	-3767
▁vac	-3768
▁forty	-3769
ses	-3770
aging	-3771
▁added	-3772
ulg	-3773
▁biggest	-3774
▁12.	-3775
▁explo	-3776
▁announced	-3777
▁provinces	-3778
ane	-3779
down	-3780
▁Our	-3781
▁computer	-3782
ider	-3783
ived	-3784
▁popular	-3785
▁defense	-3786
▁IM	-3787
raine	-3788
llect	-3789
▁troops	-3790
▁Kingdom	-3791
ourn	-3792
ape	-3793
▁dated	-3794
▁boost	-3795
▁revised	-3796
▁useful	-3797
ulner	-3798
▁round	-3799
▁severe	-3800
ook	-3801
▁Director	-3802
▁integrated	-3803
▁base	-3804
▁welcom	-3805
▁felt	-3806
▁UNICEF	-3807
▁investments	-3808
▁divers	-3809
habilit	-3810
▁decline	-3811
igenous	-3812
▁wa	-3813
▁(1)	-3814
▁series	-3815
▁Mor	-3816
▁Today	-3817
▁places	-3818
▁closely	-3819
▁elements	-3820
▁followed	-3821
▁discrimination	-3822
▁claims	-3823
▁Mus	-3824
▁powers	-3825
▁values	-3826
▁ongoing	-3827
▁Brazil	-3828
▁destruc	-3829
mitted	-3830
▁immediate	-3831
▁$2	-3832
▁sea	-3833
▁yesterday	-3834
orteur	-3835
▁earth	-3836
▁board	-3837
▁excess	-3838
illing	-3839
iliation	-3840
▁English	-3841
bn	-3842
▁eurozone	-3843
tims	-3844
▁win	-3845
fare	-3846
▁Global	-3847
▁requests	-3848
hood	-3849
▁consultation	-3850
ancial	-3851
▁movement	-3852
▁communications	-3853
izes	-3854
▁estimates	-3855
▁informed	-3856
▁designed	-3857
▁Islamic	-3858
▁Ac	-3859
▁Bar	-3860
▁cash	-3861
▁himself	-3862
▁determined	-3863
▁Rapp	-3864
▁tend	-3865
▁Mar	-3866
▁opinion	-3867
▁discussions	-3868
▁output	-3869
▁skills	-3870
▁direction	-3871
▁creat	-3872
▁Management	-3873
PA	-3874
ondon	-3875
▁worth	-3876
▁1993.	-3877
▁vulner	-3878
▁attack	-3879
▁hear	-3880
▁sufficient	-3881
▁convention	-3882
▁educational	-3883
▁EC	-3884
▁gender	-3885
▁liquid	-3886
▁Environment	-3887
▁jurisdiction	-3888
▁calls	-3889
▁Australia	-3890
apon	-3891
▁Leg	-3892
times	-3893
▁Health	-3894
▁Institute	-3895
▁presence	-3896
▁integr	-3897
▁territorial	-3898
itness	-3899
ili	-3900
rep	-3901
▁ec	-3902
▁acce	-3903
▁book	-3904
▁reference	-3905
AM	-3906
ison	-3907
▁mainly	-3908
▁Prov	-3909
▁indeed	-3910
▁geograph	-3911
4)	-3912
▁hundred	-3913
▁arrest	-3914
▁failure	-3915
rucial	-3916
▁pack	-3917
▁failed	-3918
▁fell	-3919
▁conclusion	-3920
llectual	-3921
▁waste	-3922
▁Sing	-3923
ola	-3924
▁ask	-3925
▁withdraw	-3926
▁London	-3927
arity	-3928
owned	-3929
▁enforcement	-3930
▁ord	-3931
▁guidelines	-3932
▁membership	-3933
/5	-3934
▁includes	-3935
▁reporting	-3936
▁depos	-3937
▁minority	-3938
▁biennium	-3939
CC	-3940
ustain	-3941
▁huge	-3942
va	-3943
▁Ukraine	-3944
▁Mexic	-3945
oup	-3946
▁Olympic	-3947
▁selec	-3948
urb	-3949
▁Act	-3950
▁prem	-3951
▁factor	-3952
▁situations	-3953
dered	-3954
▁burd	-3955
▁procedure	-3956
hern	-3957
▁crucial	-3958
▁Rapporteur	-3959
▁drugs	-3960
ancy	-3961
▁payment	-3962
▁investigation	-3963
▁advis	-3964
▁appreciation	-3965
▁compar	-3966
▁Over	-3967
▁accounts	-3968
▁Requ	-3969
▁log	-3970
▁takes	-3971
▁causes	-3972
▁contrac	-3973
▁produce	-3974
▁assign	-3975
▁mer	-3976
▁politics	-3977
▁structural	-3978
▁victims	-3979
▁displaced	-3980
uses	-3981
▁Do	-3982
aching	-3983
▁Egypt	-3984
▁spons	-3985
▁Croati	-3986
▁Bush	-3987
▁safeguard	-3988
liance	-3989
▁applied	-3990
▁helped	-3991
▁spread	-3992
▁involving	-3993
▁resulting	-3994
▁Members	-3995
▁solutions	-3996
▁Coord	-3997
▁quickly	-3998
▁island	-3999
▁construc	-4000
▁presented	-4001
FOR	-4002
ody	-4003
▁bi	-4004
▁hands	-4005
▁owners	-4006
▁rich	-4007
▁lot	-4008
▁mach	-4009
DC	-4010
▁duty	-4011
▁penal	-4012
istance	-4013
itical	-4014
missions	-4015
▁vill	-4016
▁effectiveness	-4017
▁2008	-4018
oke	-4019
▁facing	-4020
▁sav	-4021
▁wal	-4022
dd	-4023
lusive	-4024
▁generally	-4025
▁,	-4026
▁eyes	-4027
tection	-4028
▁supports	-4029
works	-4030
matic	-4031
▁Bur	-4032
rand	-4033
alls	-4034
reet	-4035
▁tool	-4036
cont	-4037
▁middle	-4038
arp	-4039
comm	-4040
erson	-4041
You	-4042
▁industries	-4043
▁introduced	-4044
▁collective	-4045
▁secretariat	-4046
IR	-4047
▁fine	-4048
▁urgent	-4049
AL	-4050
AP	-4051
▁appoint	-4052
vious	-4053
▁wrong	-4054
▁compl	-4055
titude	-4056
▁Greece	-4057
▁mentioned	-4058
let	-4059
iles	-4060
▁Service	-4061
▁Most	-4062
▁overse	-4063
uth	-4064
▁supplies	-4065
▁sched	-4066
tise	-4067
▁perhaps	-4068
▁repe	-4069
▁answer	-4070
▁Division	-4071
▁substantial	-4072
▁businesses	-4073
▁engaged	-4074
▁rehabilit	-4075
ley	-4076
▁gold	-4077
▁stress	-4078
▁Child	-4079
▁Prot	-4080
holders	-4081
▁From	-4082
▁accepted	-4083
5%	-4084
ournal	-4085
oration	-4086
▁reducing	-4087
▁intens	-4088
AS	-4089
▁larger	-4090
▁Lebanon	-4091
▁tour	-4092
▁accounting	-4093
ruption	-4094
▁gr	-4095
▁Muslim	-4096
▁follows	-4097
▁expenditure	-4098
▁respectively	-4099
▁God	-4100
____	-4101
▁constitution	-4102
▁Count	-4103
iven	-4104
rete	-4105
▁Cub	-4106
tity	-4107
▁dead	-4108
▁door	-4109
▁evaluation	-4110
ma	-4111
▁unf	-4112
▁engine	-4113
ieties	-4114
▁gave	-4115
▁14.	-4116
▁looking	-4117
▁welcomed	-4118
▁unp	-4119
▁reconc	-4120
."	-4121
▁flex	-4122
▁concent	-4123
▁highest	-4124
▁UNI	-4125
▁stable	-4126
▁legitimate	-4127
▁teac	-4128
▁operating	-4129
60	-4130
▁recovery	-4131
▁Four	-4132
▁achieving	-4133
▁chemical	-4134
▁restruct	-4135
▁pattern	-4136
▁reflected	-4137
ze	-4138
▁size	-4139
▁decide	-4140
roliferation	-4141
▁13.	-4142
▁Financial	-4143
▁deliber	-4144
▁maintaining	-4145
▁reality	-4146
▁creating	-4147
▁mag	-4148
▁eight	-4149
▁planned	-4150
HCR	-4151
▁tasks	-4152
▁advantage	-4153
▁works	-4154
▁equity	-4155
iences	-4156
▁exchanges	-4157
ensions	-4158
ointed	-4159
▁historical	-4160
bi	-4161
ented	-4162
▁Educ	-4163
▁appe	-4164
▁minister	-4165
▁employees	-4166
▁quite	-4167
▁holding	-4168
rely	-4169
▁borrow	-4170
▁demands	-4171
▁affect	-4172
▁played	-4173
AN	-4174
▁bat	-4175
▁worked	-4176
▁centres	-4177
▁subsequ	-4178
▁interested	-4179
ashing	-4180
abil	-4181
acts	-4182
▁Bel	-4183
▁largely	-4184
▁outcome	-4185
▁port	-4186
▁Commissioner	-4187
▁sharp	-4188
▁union	-4189
aul	-4190
▁coup	-4191
▁continu	-4192
off	-4193
iary	-4194
▁easy	-4195
▁suggested	-4196
▁mess	-4197
▁authorized	-4198
▁becoming	-4199
▁original	-4200
inks	-4201
▁Sim	-4202
▁formulated	-4203
▁Inc	-4204
▁giving	-4205
▁changed	-4206
▁Assoc	-4207
▁happy	-4208
▁opened	-4209
▁har	-4210
▁Gene	-4211
▁morning	-4212
▁surv	-4213
▁speed	-4214
▁considerable	-4215
loyed	-4216
▁saying	-4217
▁remained	-4218
▁ideas	-4219
▁trying	-4220
▁attacks	-4221
ircraft	-4222
▁Author	-4223
▁statistics	-4224
ruit	-4225
▁lay	-4226
▁hosp	-4227
▁undermin	-4228
▁voluntary	-4229
▁clean	-4230
areness	-4231
regional	-4232
▁corresponding	-4233
▁produced	-4234
iers	-4235
▁whom	-4236
▁Add	-4237
ounce	-4238
▁dealing	-4239
▁overseas	-4240
▁Te	-4241
▁Don	-4242
▁Furthermore	-4243
▁quan	-4244
▁frequ	-4245
ustainable	-4246
▁propor	-4247
▁initial	-4248
▁complain	-4249
▁dim	-4250
urning	-4251
▁intellectual	-4252
▁liberal	-4253
▁universal	-4254
▁learn	-4255
▁surpris	-4256
▁Italy	-4257
▁physical	-4258
sy	-4259
apore	-4260
while	-4261
icy	-4262
▁ship	-4263
▁bound	-4264
▁indigenous	-4265
▁behav	-4266
ded	-4267
▁dangerous	-4268
▁delay	-4269
tify	-4270
ables	-4271
▁vital	-4272
▁savings	-4273
know	-4274
▁fast	-4275
▁combat	-4276
▁bear	-4277
▁forced	-4278
▁seeking	-4279
▁launched	-4280
▁div	-4281
▁probably	-4282
els	-4283
▁latest	-4284
▁sle	-4285
▁resolve	-4286
▁prosec	-4287
▁implications	-4288
▁amb	-4289
▁learning	-4290
▁destruction	-4291
▁aircraft	-4292
▁Tribunal	-4293
▁destro	-4294
▁Protocol	-4295
asion	-4296
vered	-4297
▁adjustment	-4298
▁disse	-4299
▁welfare	-4300
▁concrete	-4301
band	-4302
▁Prime	-4303
▁reaffir	-4304
▁rational	-4305
▁witness	-4306
▁Geneva	-4307
▁believes	-4308
lass	-4309
▁obst	-4310
▁mining	-4311
▁fed	-4312
▁commodity	-4313
▁jointly	-4314
▁warm	-4315
atri	-4316
▁Services	-4317
▁positions	-4318
▁vehicles	-4319
▁actually	-4320
▁encouraged	-4321
▁Pacific	-4322
▁Net	-4323
▁minorities	-4324
▁der	-4325
▁rose	-4326
orthern	-4327
oz	-4328
▁core	-4329
int	-4330
rupt	-4331
▁specified	-4332
char	-4333
▁blood	-4334
▁1992,	-4335
/1994	-4336
▁priorities	-4337
bon	-4338
▁PR	-4339
▁congress	-4340
▁15.	-4341
▁Internet	-4342
atell	-4343
▁corre	-4344
oly	-4345
▁cyc	-4346
▁succeed	-4347
▁divid	-4348
▁Americans	-4349
▁clos	-4350
rat	-4351
▁nar	-4352
umb	-4353
itig	-4354
▁focused	-4355
irth	-4356
▁diseases	-4357
▁194	-4358
▁Canada	-4359
▁Singapore	-4360
iver	-4361
▁software	-4362
▁Sen	-4363
▁owing	-4364
▁recognize	-4365
▁16.	-4366
ureau	-4367
▁sche	-4368
▁draw	-4369
▁possibility	-4370
▁rehabilitation	-4371
▁receiving	-4372
gn	-4373
▁discussed	-4374
IV	-4375
▁occupied	-4376
ua	-4377
▁offered	-4378
aud	-4379
▁identified	-4380
▁(3)	-4381
▁defin	-4382
▁choice	-4383
▁ahead	-4384
▁heavy	-4385
▁Oper	-4386
▁Finally	-4387
▁preced	-4388
/49	-4389
▁massive	-4390
ultim	-4391
▁built	-4392
▁search	-4393
▁execution	-4394
▁crit	-4395
▁strengthened	-4396
▁acknow	-4397
▁CH	-4398
▁placed	-4399
▁zone	-4400
▁described	-4401
▁Third	-4402
▁residents	-4403
▁conform	-4404
▁detailed	-4405
▁opposition	-4406
▁alternative	-4407
iring	-4408
atform	-4409
▁awareness	-4410
▁prosperity	-4411
▁productivity	-4412
▁radio	-4413
▁programs	-4414
▁forth	-4415
▁path	-4416
▁unless	-4417
▁disease	-4418
▁rapidly	-4419
▁informal	-4420
▁colle	-4421
▁immig	-4422
▁settle	-4423
▁consumer	-4424
OS	-4425
utin	-4426
▁Joh	-4427
▁esc	-4428
asters	-4429
▁doesn	-4430
▁otherwise	-4431
▁structures	-4432
▁incor	-4433
▁Another	-4434
▁transportation	-4435
▁mine	-4436
▁Somalia	-4437
rees	-4438
▁leader	-4439
▁0.	-4440
▁Mexico	-4441
▁IMF	-4442
orters	-4443
▁conferences	-4444
▁UNHCR	-4445
▁command	-4446
▁miss	-4447
ground	-4448
▁secure	-4449
ortunately	-4450
500	-4451
▁sought	-4452
coming	-4453
▁degree	-4454
▁obstac	-4455
ship	-4456
▁adap	-4457
▁push	-4458
▁abroad	-4459
▁Year	-4460
▁Its	-4461
▁shared	-4462
▁covered	-4463
▁differences	-4464
ronic	-4465
▁Thus	-4466
▁separate	-4467
▁Great	-4468
▁participants	-4469
▁regulatory	-4470
▁stim	-4471
▁Indones	-4472
▁disapp	-4473
▁benefic	-4474
xim	-4475
▁Prof	-4476
▁thereby	-4477
▁Democratic	-4478
▁certainly	-4479
▁hot	-4480
▁powerful	-4481
eting	-4482
▁cooperate	-4483
▁1995.	-4484
▁agriculture	-4485
▁stay	-4486
▁ultim	-4487
▁returned	-4488
aily	-4489
istics	-4490
▁doubt	-4491
▁notes	-4492
▁parents	-4493
▁fo	-4494
▁Sal	-4495
▁integrity	-4496
makers	-4497
▁medic	-4498
▁wife	-4499
▁achievements	-4500
▁meaning	-4501
▁promp	-4502
▁carrying	-4503
▁cat	-4504
jected	-4505
gment	-4506
▁talk	-4507
cell	-4508
▁shows	-4509
▁cease	-4510
▁numbers	-4511
/48	-4512
ensive	-4513
▁instead	-4514
▁associated	-4515
▁flows	-4516
▁Despite	-4517
anish	-4518
anted	-4519
▁applications	-4520
heren	-4521
▁limits	-4522
▁extended	-4523
▁corporate	-4524
/3	-4525
▁favor	-4526
levision	-4527
%.	-4528
▁sil	-4529
▁sites	-4530
▁Last	-4531
▁hopes	-4532
▁beg	-4533
▁incen	-4534
▁managers	-4535
rid	-4536
▁disputes	-4537
▁critic	-4538
▁detention	-4539
▁Lib	-4540
▁director	-4541
▁System	-4542
▁attempt	-4543
▁recommendation	-4544
umed	-4545
▁brief	-4546
▁chan	-4547
▁Ste	-4548
▁suffering	-4549
▁Then	-4550
ules	-4551
▁constitute	-4552
oon	-4553
▁mist	-4554
▁Standing	-4555
interpretation	-4556
▁Indian	-4557
▁formal	-4558
▁supporting	-4559
AC	-4560
▁extend	-4561
▁Protection	-4562
mon	-4563
rus	-4564
ifth	-4565
▁Two	-4566
▁Civil	-4567
▁undertake	-4568
▁Nor	-4569
▁spok	-4570
sts	-4571
▁bonds	-4572
▁70	-4573
▁Pop	-4574
▁widely	-4575
▁users	-4576
▁killed	-4577
▁believed	-4578
▁Given	-4579
auti	-4580
▁Rel	-4581
▁phase	-4582
▁collaboration	-4583
▁liability	-4584
▁Also	-4585
▁35	-4586
▁Syria	-4587
urement	-4588
pping	-4589
▁advice	-4590
▁trou	-4591
▁Custom	-4592
▁incorpor	-4593
▁standing	-4594
▁Ear	-4595
▁dro	-4596
rs	-4597
▁burden	-4598
▁taxes	-4599
▁turned	-4600
▁intended	-4601
▁emissions	-4602
▁headquarters	-4603
iate	-4604
▁mem	-4605
▁17.	-4606
PC	-4607
▁Chief	-4608
▁delivery	-4609
▁Tibetan	-4610
▁simple	-4611
▁changing	-4612
▁determine	-4613
▁em	-4614
▁extra	-4615
▁dispute	-4616
▁exception	-4617
▁commodities	-4618
ortion	-4619
▁recognition	-4620
▁sometimes	-4621
adic	-4622
▁emphasis	-4623
rolled	-4624
▁$3	-4625
▁Cyp	-4626
▁pled	-4627
ustice	-4628
▁seemed	-4629
▁heading	-4630
▁John	-4631
▁1996.	-4632
▁committees	-4633
▁utilization	-4634
▁abuse	-4635
▁margin	-4636
▁Tim	-4637
▁prol	-4638
▁reconstruction	-4639
▁hy	-4640
scale	-4641
▁contributed	-4642
▁amend	-4643
ashington	-4644
▁continent	-4645
▁stocks	-4646
▁targets	-4647
lementary	-4648
ken	-4649
▁deficit	-4650
▁processes	-4651
▁constant	-4652
icit	-4653
▁Parties	-4654
▁proportion	-4655
rew	-4656
▁advoc	-4657
▁cong	-4658
If	-4659
erce	-4660
▁belong	-4661
▁instrument	-4662
▁III	-4663
▁manufacturing	-4664
▁semin	-4665
▁regulation	-4666
▁reconciliation	-4667
▁green	-4668
IL	-4669
teg	-4670
called	-4671
▁Both	-4672
▁pati	-4673
pective	-4674
▁expenditures	-4675
▁governance	-4676
▁types	-4677
▁18.	-4678
▁generation	-4679
▁consumers	-4680
ranted	-4681
▁consistent	-4682
▁figures	-4683
aritime	-4684
▁stressed	-4685
▁condition	-4686
▁tried	-4687
▁knew	-4688
entially	-4689
▁temporary	-4690
▁dream	-4691
▁heads	-4692
▁anything	-4693
any	-4694
▁maintained	-4695
PRO	-4696
▁listed	-4697
▁uncertain	-4698
▁Trans	-4699
▁thinking	-4700
arib	-4701
▁warning	-4702
▁mortg	-4703
▁Govern	-4704
ert	-4705
ticip	-4706
▁gross	-4707
▁south	-4708
▁deliver	-4709
EM	-4710
anks	-4711
▁Decade	-4712
▁southern	-4713
▁max	-4714
▁army	-4715
▁resulted	-4716
son	-4717
▁encouraging	-4718
augh	-4719
▁Camb	-4720
▁engage	-4721
▁identify	-4722
▁ign	-4723
▁Requests	-4724
▁designated	-4725
▁youth	-4726
▁attend	-4727
▁analyst	-4728
▁award	-4729
▁obvious	-4730
ox	-4731
▁remaining	-4732
▁Association	-4733
▁coordinated	-4734
▁kil	-4735
▁Washington	-4736
▁shift	-4737
▁spent	-4738
▁conver	-4739
▁paragraphs	-4740
▁territories	-4741
▁watch	-4742
▁entered	-4743
▁uns	-4744
apers	-4745
▁timely	-4746
▁books	-4747
▁optim	-4748
▁declared	-4749
▁chance	-4750
▁wanted	-4751
▁absence	-4752
But	-4753
▁municipalities	-4754
▁manager	-4755
▁Gree	-4756
▁vulnerable	-4757
cing	-4758
▁acad	-4759
▁alia	-4760
▁cold	-4761
▁expenses	-4762
▁collection	-4763
▁dism	-4764
▁faced	-4765
▁reserves	-4766
▁patent	-4767
▁satell	-4768
▁appointed	-4769
▁refugee	-4770
▁aware	-4771
▁except	-4772
MO	-4773
urt	-4774
▁birth	-4775
▁courts	-4776
▁usually	-4777
▁television	-4778
hel	-4779
▁revolution	-4780
▁Ms	-4781
▁manage	-4782
▁expanded	-4783
fect	-4784
▁Angola	-4785
PROFOR	-4786
▁significantly	-4787
▁asset	-4788
▁satisfaction	-4789
▁sustained	-4790
▁80	-4791
....	-4792
▁forum	-4793
▁destroy	-4794
▁zones	-4795
▁guidance	-4796
▁defined	-4797
▁prepare	-4798
iance	-4799
▁Inst	-4800
▁gains	-4801
▁21.	-4802
asing	-4803
▁sessions	-4804
▁stations	-4805
▁arbitration	-4806
wa	-4807
bean	-4808
tained	-4809
rable	-4810
▁belief	-4811
▁unlike	-4812
▁Control	-4813
▁comments	-4814
▁getting	-4815
▁seriously	-4816
▁globalization	-4817
▁45	-4818
▁flood	-4819
▁type	-4820
▁compliance	-4821
usband	-4822
▁mal	-4823
▁prevail	-4824
▁virt	-4825
US	-4826
astern	-4827
ague	-4828
sych	-4829
▁son	-4830
China	-4831
aties	-4832
▁launch	-4833
▁restructuring	-4834
asures	-4835
▁pursue	-4836
▁wishes	-4837
▁et	-4838
▁percentage	-4839
IDS	-4840
▁Red	-4841
▁stead	-4842
▁represented	-4843
▁approaches	-4844
▁truth	-4845
▁replace	-4846
▁dyn	-4847
▁trends	-4848
▁principal	-4849
ument	-4850
▁transparency	-4851
▁2,	-4852
▁mac	-4853
▁hit	-4854
▁thousands	-4855
uck	-4856
▁Op	-4857
oviet	-4858
▁ende	-4859
▁conting	-4860
▁legislative	-4861
▁Argent	-4862
▁eradic	-4863
▁intervention	-4864
iding	-4865
ecause	-4866
market	-4867
▁setting	-4868
▁endeav	-4869
▁worldwide	-4870
▁Est	-4871
▁Iranian	-4872
▁increases	-4873
▁sleep	-4874
▁Croatia	-4875
▁mineral	-4876
▁Only	-4877
▁criteria	-4878
inth	-4879
▁Regional	-4880
▁Recalling	-4881
▁cr	-4882
▁Georg	-4883
▁valid	-4884
ulating	-4885
▁donors	-4886
▁bringing	-4887
▁autom	-4888
pe	-4889
▁voters	-4890
▁networks	-4891
%,	-4892
ula	-4893
aribbean	-4894
▁lines	-4895
▁purchase	-4896
▁Their	-4897
ita	-4898
▁Spain	-4899
riage	-4900
uable	-4901
▁daily	-4902
-1	-4903
ana	-4904
5)	-4905
▁girls	-4906
▁Authority	-4907
▁Caribbean	-4908
▁participating	-4909
▁Organ	-4910
▁front	-4911
▁kept	-4912
▁UNC	-4913
▁Burund	-4914
▁Bl	-4915
▁hos	-4916
▁summit	-4917
▁install	-4918
▁Like	-4919
▁unable	-4920
ney	-4921
▁innovation	-4922
▁Section	-4923
▁highl	-4924
▁channel	-4925
▁electoral	-4926
look	-4927
▁mount	-4928
▁societies	-4929
ott	-4930
▁voice	-4931
▁showed	-4932
▁195	-4933
▁conservation	-4934
▁pursuant	-4935
▁inequ	-4936
aled	-4937
▁license	-4938
▁presidential	-4939
▁Invest	-4940
▁difference	-4941
nes	-4942
actions	-4943
▁gone	-4944
▁impos	-4945
▁husband	-4946
▁Mean	-4947
▁Unit	-4948
▁provisional	-4949
▁shareholders	-4950
▁Who	-4951
▁helping	-4952
▁payments	-4953
▁domin	-4954
▁entry	-4955
▁lending	-4956
▁Paris	-4957
▁33	-4958
▁enhancing	-4959
▁participated	-4960
▁donor	-4961
▁46	-4962
▁calc	-4963
uction	-4964
▁Education	-4965
▁Games	-4966
▁Bu	-4967
▁1991	-4968
▁judge	-4969
iable	-4970
▁minimum	-4971
ients	-4972
▁vast	-4973
▁competitive	-4974
▁constructive	-4975
▁Obs	-4976
ienna	-4977
▁thank	-4978
▁contracts	-4979
▁vent	-4980
oughly	-4981
▁faith	-4982
unications	-4983
ingly	-4984
▁macro	-4985
proliferation	-4986
tered	-4987
imb	-4988
ffec	-4989
▁entity	-4990
▁grant	-4991
▁repeated	-4992
otes	-4993
theless	-4994
▁running	-4995
▁threats	-4996
▁strongly	-4997
▁disasters	-4998
▁poss	-4999
▁Car	-5000
▁inside	-5001
▁19.	-5002
▁index	-5003
▁persist	-5004
▁lawy	-5005
▁uses	-5006
▁fourth	-5007
▁reproduc	-5008
▁surpl	-5009
▁lasting	-5010
▁profit	-5011
▁province	-5012
▁protected	-5013
▁protecting	-5014
▁Cuba	-5015
▁Vice	-5016
▁millions	-5017
iang	-5018
▁wat	-5019
▁worksh	-5020
▁farmers	-5021
▁deterior	-5022
▁gap	-5023
▁Report	-5024
ull	-5025
▁Joint	-5026
▁impose	-5027
luding	-5028
iling	-5029
▁finally	-5030
▁El	-5031
▁1980	-5032
national	-5033
▁recession	-5034
▁squ	-5035
▁Indust	-5036
▁expert	-5037
▁illicit	-5038
▁Provision	-5039
▁ones	-5040
▁condem	-5041
▁federal	-5042
▁Population	-5043
▁&	-5044
▁Greek	-5045
▁$4	-5046
▁20.	-5047
▁House	-5048
▁pra	-5049
▁centre	-5050
▁Meanwhile	-5051
▁Bureau	-5052
▁Vienna	-5053
▁deployment	-5054
pir	-5055
▁struggle	-5056
▁sole	-5057
▁Cambod	-5058
▁twenty	-5059
▁journal	-5060
▁90	-5061
▁mus	-5062
▁moral	-5063
▁passed	-5064
tieth	-5065
▁occurred	-5066
25	-5067
ION	-5068
▁extensive	-5069
▁appears	-5070
▁fighting	-5071
inced	-5072
▁Putin	-5073
ximately	-5074
▁lif	-5075
▁attrac	-5076
▁hour	-5077
▁Justice	-5078
▁harmon	-5079
▁Decides	-5080
▁save	-5081
▁Fourth	-5082
▁imports	-5083
▁prospects	-5084
▁reasonable	-5085
▁comment	-5086
▁ordered	-5087
▁extremely	-5088
▁expectations	-5089
▁dynam	-5090
▁Disarmament	-5091
lined	-5092
ranch	-5093
▁Soviet	-5094
▁Research	-5095
▁productive	-5096
▁verification	-5097
war	-5098
▁Countries	-5099
▁reve	-5100
▁minutes	-5101
▁treaties	-5102
apse	-5103
▁notice	-5104
▁UNF	-5105
pol	-5106
▁Saud	-5107
▁34	-5108
▁emerg	-5109
GO	-5110
▁etc	-5111
▁invited	-5112
▁addressing	-5113
▁proceedings	-5114
orrow	-5115
ventive	-5116
▁sale	-5117
▁Burundi	-5118
▁falling	-5119
▁estimate	-5120
urator	-5121
▁everyone	-5122
▁era	-5123
▁involvement	-5124
▁Sustainable	-5125
▁trafficking	-5126
▁reflects	-5127
aria	-5128
▁closed	-5129
enn	-5130
▁exemp	-5131
▁amounts	-5132
▁pan	-5133
▁populations	-5134
▁Treas	-5135
▁obtained	-5136
count	-5137
▁economists	-5138
▁yield	-5139
▁western	-5140
▁capabilities	-5141
TO	-5142
▁begun	-5143
▁Korean	-5144
llig	-5145
enary	-5146
▁coast	-5147
▁station	-5148
▁soldiers	-5149
▁procurement	-5150
▁pointed	-5151
▁announce	-5152
▁Indonesia	-5153
▁gradually	-5154
▁Nig	-5155
▁fost	-5156
▁Coven	-5157
▁component	-5158
▁constrain	-5159
ped	-5160
crip	-5161
▁correct	-5162
▁apart	-5163
▁dischar	-5164
fire	-5165
▁fulfil	-5166
▁UNPROFOR	-5167
▁Ku	-5168
▁iden	-5169
▁rail	-5170
▁Similar	-5171
▁resc	-5172
▁Offic	-5173
▁weather	-5174
emark	-5175
▁laid	-5176
▁infec	-5177
What	-5178
▁Exper	-5179
▁Gaz	-5180
▁Reserve	-5181
▁elabor	-5182
▁fem	-5183
▁desire	-5184
▁permit	-5185
ompan	-5186
▁sus	-5187
mbass	-5188
▁selling	-5189
▁afford	-5190
▁observed	-5191
kind	-5192
erted	-5193
▁compris	-5194
▁hor	-5195
▁reti	-5196
▁drop	-5197
▁prop	-5198
▁neither	-5199
onia	-5200
itors	-5201
▁determination	-5202
icro	-5203
▁cul	-5204
▁22.	-5205
▁enhanced	-5206
▁everything	-5207
▁site	-5208
▁grave	-5209
▁joined	-5210
▁outstanding	-5211
▁dispos	-5212
▁Spanish	-5213
▁obligation	-5214
mosp	-5215
▁direc	-5216
▁granted	-5217
▁investigated	-5218
▁choose	-5219
▁released	-5220
▁intention	-5221
▁rati	-5222
▁1994-199	-5223
▁Port	-5224
utri	-5225
▁chairman	-5226
▁stipulated	-5227
▁Hu	-5228
▁leaving	-5229
▁customers	-5230
▁hoped	-5231
▁Political	-5232
▁elsewhere	-5233
▁remin	-5234
zation	-5235
▁stric	-5236
▁contrary	-5237
till	-5238
rene	-5239
▁endors	-5240
▁healthy	-5241
▁achievement	-5242
▁49	-5243
▁Customs	-5244
▁adver	-5245
▁Pan	-5246
▁candidates	-5247
▁drive	-5248
▁parliament	-5249
▁story	-5250
▁offers	-5251
▁unique	-5252
▁Eastern	-5253
▁Covenant	-5254
ifications	-5255
▁latter	-5256
▁bed	-5257
ommod	-5258
▁Palestine	-5259
▁buildings	-5260
▁profits	-5261
▁commissions	-5262
▁ties	-5263
change	-5264
IG	-5265
▁electricity	-5266
▁Go	-5267
▁anyone	-5268
▁borders	-5269
▁teachers	-5270
▁subsidies	-5271
▁transform	-5272
▁punishment	-5273
ugg	-5274
▁figure	-5275
ermanent	-5276
▁nine	-5277
▁Fifth	-5278
▁trial	-5279
jud	-5280
ompl	-5281
▁danger	-5282
▁keeping	-5283
▁Every	-5284
▁Permanent	-5285
▁cooperative	-5286
▁racial	-5287
▁raising	-5288
▁Criminal	-5289
iled	-5290
▁stake	-5291
▁smaller	-5292
▁contrast	-5293
▁dramatic	-5294
▁confront	-5295
▁expertise	-5296
cean	-5297
▁corruption	-5298
▁mil	-5299
▁explan	-5300
▁terrorist	-5301
▁Conc	-5302
▁moved	-5303
yl	-5304
lecomm	-5305
▁formulation	-5306
minister	-5307
▁charges	-5308
▁wants	-5309
▁newsp	-5310
▁regret	-5311
erly	-5312
▁Because	-5313
▁maritime	-5314
▁numerous	-5315
usal	-5316
essel	-5317
▁spend	-5318
▁organize	-5319
▁civilians	-5320
▁exclusive	-5321
▁considering	-5322
▁i	-5323
uine	-5324
▁summ	-5325
▁disabled	-5326
▁Sea	-5327
atures	-5328
▁politicians	-5329
▁Disc	-5330
tility	-5331
▁content	-5332
▁32	-5333
▁emphasized	-5334
▁households	-5335
▁processing	-5336
onday	-5337
first	-5338
uk	-5339
▁block	-5340
▁Exp	-5341
▁Policy	-5342
riers	-5343
atever	-5344
▁eliminate	-5345
jects	-5346
▁sports	-5347
▁promulg	-5348
▁starting	-5349
▁Macao	-5350
▁exploitation	-5351
▁dig	-5352
ighth	-5353
▁lose	-5354
▁prin	-5355
▁entrust	-5356
▁withdrawal	-5357
▁learned	-5358
▁revenue	-5359
▁24.	-5360
apital	-5361
▁deem	-5362
income	-5363
▁prefer	-5364
▁records	-5365
orient	-5366
▁Territories	-5367
▁Organisation	-5368
▁atmosp	-5369
▁documentation	-5370
▁(4)	-5371
▁trillion	-5372
▁geographical	-5373
▁valuable	-5374
▁enorm	-5375
▁easily	-5376
▁Treasury	-5377
▁certificates	-5378
▁Why	-5379
▁fees	-5380
▁socio	-5381
▁represents	-5382
▁Mer	-5383
▁migration	-5384
▁trip	-5385
▁overcome	-5386
▁extension	-5387
▁boy	-5388
overed	-5389
asts	-5390
▁sensi	-5391
▁socialist	-5392
▁impossible	-5393
▁drink	-5394
▁apparen	-5395
▁languages	-5396
▁recorded	-5397
▁declaration	-5398
na	-5399
reprene	-5400
autiful	-5401
▁greatly	-5402
▁collapse	-5403
▁approximately	-5404
HO	-5405
▁bomb	-5406
▁Saudi	-5407
▁window	-5408
▁Instead	-5409
▁options	-5410
▁combined	-5411
▁ownership	-5412
▁ded	-5413
▁Police	-5414
▁message	-5415
▁23.	-5416
▁obstacles	-5417
rown	-5418
▁suffered	-5419
▁psych	-5420
▁earnings	-5421
▁train	-5422
▁aband	-5423
▁existence	-5424
▁allev	-5425
▁eld	-5426
third	-5427
▁Argentina	-5428
ean	-5429
▁41	-5430
00,000	-5431
▁previously	-5432
▁wages	-5433
▁defend	-5434
▁vision	-5435
fication	-5436
▁historic	-5437
▁mov	-5438
▁race	-5439
▁Emp	-5440
▁partner	-5441
▁cell	-5442
▁restrictions	-5443
ocal	-5444
▁option	-5445
▁accommod	-5446
▁governing	-5447
AEA	-5448
with	-5449
▁mines	-5450
▁Turk	-5451
▁stabil	-5452
▁2007	-5453
▁recip	-5454
▁moving	-5455
▁details	-5456
ores	-5457
▁(19	-5458
▁preventive	-5459
iversary	-5460
▁applicable	-5461
▁Rules	-5462
house	-5463
weapon	-5464
▁brand	-5465
▁tools	-5466
▁Business	-5467
▁expanding	-5468
/6	-5469
/7	-5470
▁diss	-5471
▁gives	-5472
▁primarily	-5473
SCE	-5474
▁confirmed	-5475
▁Kh	-5476
▁Eth	-5477
▁north	-5478
▁stood	-5479
▁drawn	-5480
▁comprom	-5481
▁Headquarters	-5482
▁arch	-5483
lusions	-5484
▁OF	-5485
uled	-5486
▁‘	-5487
▁Never	-5488
▁Children	-5489
▁expression	-5490
▁Mos	-5491
▁examine	-5492
▁Ministers	-5493
▁vessel	-5494
▁genuine	-5495
▁36	-5496
▁gl	-5497
arant	-5498
▁38	-5499
▁Sm	-5500
olute	-5501
▁Part	-5502
▁decre	-5503
▁plant	-5504
▁favour	-5505
▁constitutes	-5506
▁publication	-5507
▁bill	-5508
▁urged	-5509
▁namely	-5510
▁instance	-5511
▁excessive	-5512
▁certificate	-5513
run	-5514
▁input	-5515
▁retail	-5516
tile	-5517
▁Viet	-5518
▁pict	-5519
reland	-5520
TER	-5521
ariff	-5522
agraph	-5523
▁precise	-5524
▁44	-5525
▁Are	-5526
▁Bas	-5527
ictory	-5528
▁allocated	-5529
▁fis	-5530
▁solve	-5531
▁Nuclear	-5532
▁courses	-5533
▁managed	-5534
risonment	-5535
rations	-5536
ives	-5537
▁marked	-5538
▁broader	-5539
▁functioning	-5540
▁organizational	-5541
▁eat	-5542
▁homes	-5543
▁Energy	-5544
▁Ro	-5545
▁School	-5546
”.	-5547
▁died	-5548
▁proved	-5549
▁crises	-5550
▁balanced	-5551
▁seas	-5552
▁division	-5553
▁beautiful	-5554
▁pace	-5555
▁imprisonment	-5556
urch	-5557
▁newly	-5558
▁entities	-5559
▁Har	-5560
idesp	-5561
▁foundation	-5562
amed	-5563
idespread	-5564
▁bul	-5565
anging	-5566
▁cance	-5567
▁2005	-5568
▁linked	-5569
▁experienced	-5570
▁tight	-5571
▁interven	-5572
utrition	-5573
▁coordinate	-5574
▁preventing	-5575
leb	-5576
lection	-5577
▁greatest	-5578
▁directors	-5579
▁initiated	-5580
▁reserve	-5581
▁Therefore	-5582
ping	-5583
onial	-5584
▁citizen	-5585
▁teaching	-5586
▁Ref	-5587
▁anc	-5588
▁eventually	-5589
▁subsequent	-5590
lan	-5591
▁Meeting	-5592
free	-5593
▁UNITA	-5594
▁rob	-5595
▁plants	-5596
▁unity	-5597
▁suggests	-5598
essor	-5599
▁fifty	-5600
▁divided	-5601
ches	-5602
lock	-5603
▁attract	-5604
▁playing	-5605
▁Ann	-5606
▁publications	-5607
airo	-5608
▁Follow	-5609
ographic	-5610
▁marriage	-5611
LO	-5612
▁successfully	-5613
ica	-5614
resh	-5615
▁sun	-5616
▁grass	-5617
▁closer	-5618
▁female	-5619
▁Support	-5620
▁pleased	-5621
▁Community	-5622
care	-5623
▁worse	-5624
▁Monday	-5625
roc	-5626
▁Gold	-5627
▁send	-5628
▁Sever	-5629
▁faces	-5630
▁accompl	-5631
▁isn	-5632
▁alleged	-5633
▁customs	-5634
▁academic	-5635
▁Sup	-5636
▁stronger	-5637
▁mandates	-5638
ighted	-5639
▁animal	-5640
▁tourism	-5641
▁Main	-5642
▁pi	-5643
▁Liberia	-5644
▁Cambodia	-5645
▁entreprene	-5646
And	-5647
▁25.	-5648
▁summer	-5649
▁realize	-5650
istence	-5651
▁marine	-5652
▁draf	-5653
▁fails	-5654
▁white	-5655
minbi	-5656
▁Olympics	-5657
▁widespread	-5658
▁facts	-5659
▁adverse	-5660
▁subregional	-5661
▁Prepar	-5662
▁recons	-5663
▁cuts	-5664
Un	-5665
inding	-5666
▁contact	-5667
▁representation	-5668
erend	-5669
▁forecast	-5670
▁aggression	-5671
sile	-5672
aught	-5673
▁element	-5674
▁conclusions	-5675
▁Form	-5676
▁Georgia	-5677
▁equitable	-5678
6)	-5679
iques	-5680
▁Supreme	-5681
yle	-5682
▁demonstrated	-5683
▁gained	-5684
▁happened	-5685
fe	-5686
▁Several	-5687
▁adapt	-5688
▁variety	-5689
▁Lab	-5690
▁remember	-5691
▁remark	-5692
▁prohibited	-5693
▁symp	-5694
ifying	-5695
program	-5696
urse	-5697
IT	-5698
gen	-5699
minate	-5700
▁links	-5701
▁Ambass	-5702
▁mitig	-5703
▁vig	-5704
▁bid	-5705
▁Food	-5706
▁teams	-5707
▁equival	-5708
▁welcomes	-5709
pay	-5710
▁perspective	-5711
▁congrat	-5712
▁contains	-5713
▁characteristics	-5714
▁Cl	-5715
bs	-5716
▁remo	-5717
▁Ireland	-5718
▁vide	-5719
▁merely	-5720
▁repatri	-5721
▁UNOM	-5722
AO	-5723
EP	-5724
▁Ur	-5725
▁penalty	-5726
tially	-5727
▁speech	-5728
▁conclude	-5729
▁contacts	-5730
▁IV	-5731
▁Bang	-5732
▁Palestinians	-5733
▁spokes	-5734
▁carefully	-5735
▁anniversary	-5736
▁prove	-5737
▁incentives	-5738
▁double	-5739
▁officer	-5740
▁enormous	-5741
emy	-5742
▁$7	-5743
▁operate	-5744
▁controls	-5745
AU	-5746
▁shel	-5747
▁handling	-5748
▁carbon	-5749
▁policymakers	-5750
ailand	-5751
▁served	-5752
▁relation	-5753
▁constitutional	-5754
WA	-5755
uries	-5756
▁goes	-5757
ns	-5758
▁2006	-5759
▁considers	-5760
▁pension	-5761
▁fiftieth	-5762
▁occupation	-5763
▁Jer	-5764
incial	-5765
▁solidarity	-5766
▁diplomacy	-5767
▁tradition	-5768
▁administer	-5769
▁26.	-5770
▁earthqu	-5771
▁Gaza	-5772
▁voting	-5773
▁abandon	-5774
▁categories	-5775
▁Ne	-5776
▁flo	-5777
▁collect	-5778
▁formulate	-5779
▁components	-5780
80	-5781
▁wid	-5782
utical	-5783
▁prime	-5784
▁die	-5785
▁reb	-5786
▁absolute	-5787
Is	-5788
ingu	-5789
lerate	-5790
▁acquis	-5791
▁strict	-5792
▁underst	-5793
▁strictly	-5794
ATO	-5795
nam	-5796
henomen	-5797
▁settlements	-5798
armace	-5799
▁Military	-5800
pet	-5801
▁Ma	-5802
▁equally	-5803
▁convinced	-5804
Ar	-5805
10	-5806
armaceutical	-5807
▁Swed	-5808
▁music	-5809
▁infring	-5810
▁surplus	-5811
▁thereof	-5812
▁budgetary	-5813
▁accompan	-5814
▁acknowled	-5815
▁lies	-5816
▁satellite	-5817
▁Enter	-5818
▁Letter	-5819
▁deeply	-5820
▁background	-5821
▁Xin	-5822
erendum	-5823
▁restore	-5824
▁reviewed	-5825
akh	-5826
ani	-5827
rist	-5828
person	-5829
▁check	-5830
▁inev	-5831
▁Monetary	-5832
▁Tal	-5833
▁Elect	-5834
▁predic	-5835
▁fer	-5836
▁Stud	-5837
▁Power	-5838
▁causing	-5839
▁Nic	-5840
ealand	-5841
▁version	-5842
▁Coordination	-5843
▁located	-5844
▁phenomen	-5845
law	-5846
▁Mc	-5847
▁ended	-5848
▁chapter	-5849
▁indicators	-5850
▁budgets	-5851
▁advisory	-5852
▁brother	-5853
There	-5854
do	-5855
▁37	-5856
▁Day	-5857
▁clar	-5858
▁models	-5859
▁statistical	-5860
vey	-5861
▁owned	-5862
▁volume	-5863
▁manufacture	-5864
▁nationality	-5865
EL	-5866
▁City	-5867
▁attached	-5868
▁29.	-5869
morrow	-5870
▁dealt	-5871
▁wider	-5872
▁sentenced	-5873
/9	-5874
▁Zh	-5875
▁Zealand	-5876
essional	-5877
▁Street	-5878
▁stands	-5879
oriented	-5880
40	-5881
sk	-5882
mis	-5883
irty	-5884
▁properly	-5885
▁Unf	-5886
▁complic	-5887
back	-5888
▁upd	-5889
ray	-5890
▁3,	-5891
tian	-5892
▁black	-5893
▁names	-5894
▁Ham	-5895
▁embar	-5896
▁speaking	-5897
tt	-5898
acco	-5899
ading	-5900
▁weaken	-5901
▁indicate	-5902
▁conventional	-5903
ike	-5904
▁minim	-5905
▁remed	-5906
▁Recogn	-5907
▁intellig	-5908
bo	-5909
▁neighbour	-5910
▁nav	-5911
▁inequality	-5912
▁systematic	-5913
▁Def	-5914
▁Paul	-5915
▁religion	-5916
▁preparing	-5917
▁Ambassador	-5918
▁Mark	-5919
▁write	-5920
▁becomes	-5921
adequ	-5922
▁guide	-5923
▁multip	-5924
▁Tok	-5925
ental	-5926
▁Kuwa	-5927
▁tot	-5928
▁pursued	-5929
▁occasion	-5930
▁Ke	-5931
▁Subcomm	-5932
▁completely	-5933
▁coverage	-5934
▁identity	-5935
▁ball	-5936
▁game	-5937
▁loan	-5938
▁capita	-5939
▁hundreds	-5940
su	-5941
▁transformation	-5942
▁Measures	-5943
-2	-5944
osure	-5945
▁Similarly	-5946
▁association	-5947
▁roughly	-5948
▁2004,	-5949
▁Princip	-5950
▁Through	-5951
▁package	-5952
▁Among	-5953
▁judges	-5954
ideration	-5955
▁scheduled	-5956
▁27.	-5957
othing	-5958
abit	-5959
▁Noting	-5960
▁electronic	-5961
ancer	-5962
▁aims	-5963
▁troop	-5964
bed	-5965
▁gun	-5966
▁IAEA	-5967
▁constraints	-5968
gic	-5969
▁handle	-5970
▁please	-5971
termination	-5972
▁Will	-5973
/26	-5974
▁haz	-5975
reced	-5976
▁kill	-5977
▁cycle	-5978
▁consent	-5979
▁unlikely	-5980
AD	-5981
▁crop	-5982
▁wond	-5983
▁Forum	-5984
▁43	-5985
ault	-5986
▁Cal	-5987
ounded	-5988
▁deals	-5989
▁plenary	-5990
This	-5991
▁Ber	-5992
▁Wel	-5993
sities	-5994
▁signs	-5995
▁release	-5996
▁Thailand	-5997
▁entirely	-5998
recedented	-5999
▁preceding	-6000
▁techniques	-6001
▁roads	-6002
▁signing	-6003
▁envis	-6004
▁norms	-6005
▁confisc	-6006
▁knows	-6007
▁sexual	-6008
▁Six	-6009
▁telecomm	-6010
▁28.	-6011
▁Ky	-6012
▁transferred	-6013
TAD	-6014
▁voc	-6015
acted	-6016
▁acceler	-6017
▁Unfortunately	-6018
▁consc	-6019
fort	-6020
▁tons	-6021
uesday	-6022
▁evalu	-6023
▁worry	-6024
mentioned	-6025
▁modernization	-6026
▁NGO	-6027
▁hum	-6028
▁2000	-6029
▁finding	-6030
▁encourages	-6031
▁declined	-6032
▁selected	-6033
rich	-6034
▁Air	-6035
15	-6036
▁scheme	-6037
▁friendly	-6038
▁Legal	-6039
▁maximum	-6040
▁offering	-6041
urate	-6042
▁kinds	-6043
▁Bal	-6044
▁center	-6045
▁suffer	-6046
▁sponsors	-6047
▁"(	-6048
▁capable	-6049
tegration	-6050
UR	-6051
ajik	-6052
uster	-6053
▁researc	-6054
uct	-6055
▁39	-6056
▁fresh	-6057
▁examined	-6058
fers	-6059
▁glo	-6060
▁contributing	-6061
▁epid	-6062
▁endorsed	-6063
▁unprecedented	-6064
▁dign	-6065
unction	-6066
▁mostly	-6067
▁covering	-6068
▁municipal	-6069
def	-6070
ains	-6071
▁ECB	-6072
▁Ken	-6073
▁partly	-6074
▁revenues	-6075
▁Assistance	-6076
▁Nevertheless	-6077
**	-6078
▁Roman	-6079
▁opinions	-6080
St	-6081
▁weight	-6082
oking	-6083
▁trib	-6084
▁appeared	-6085
iant	-6086
▁Trust	-6087
▁Before	-6088
ressing	-6089
▁Nat	-6090
▁comply	-6091
▁reiter	-6092
▁subprogram	-6093
▁Each	-6094
aves	-6095
effec	-6096
▁theory	-6097
▁anticip	-6098
oses	-6099
orture	-6100
▁celeb	-6101
▁equivalent	-6102
▁isol	-6103
abling	-6104
▁attitude	-6105
▁platform	-6106
▁understood	-6107
▁$1.	-6108
wered	-6109
▁imbal	-6110
▁inadequ	-6111
aughter	-6112
▁Dav	-6113
▁northern	-6114
▁1991,	-6115
▁Moz	-6116
▁dropped	-6117
▁capability	-6118
▁San	-6119
▁Drug	-6120
iety	-6121
▁tele	-6122
▁ratio	-6123
▁movements	-6124
▁poore	-6125
▁steel	-6126
▁applying	-6127
oms	-6128
oles	-6129
ourage	-6130
▁aspir	-6131
▁imped	-6132
▁truly	-6133
▁transactions	-6134
▁Che	-6135
▁bankrupt	-6136
▁VII	-6137
▁behavior	-6138
mal	-6139
▁tack	-6140
▁online	-6141
▁depends	-6142
body	-6143
▁fish	-6144
▁fallen	-6145
▁happen	-6146
PS	-6147
iar	-6148
anged	-6149
▁buying	-6150
▁profound	-6151
▁specifically	-6152
▁transl	-6153
▁accident	-6154
▁allowing	-6155
▁Implement	-6156
elled	-6157
▁samp	-6158
▁outer	-6159
▁Rev	-6160
▁Prom	-6161
▁meant	-6162
▁guarantees	-6163
month	-6164
▁Poland	-6165
▁victory	-6166
▁Humanitarian	-6167
▁mankind	-6168
iversities	-6169
▁affecting	-6170
▁marketing	-6171
▁congresses	-6172
atab	-6173
heid	-6174
▁honour	-6175
▁fishing	-6176
▁shif	-6177
▁Preparatory	-6178
face	-6179
▁Mod	-6180
▁wild	-6181
igned	-6182
▁fellow	-6183
▁regards	-6184
ilipp	-6185
wards	-6186
▁Three	-6187
▁Parliament	-6188
▁experiences	-6189
▁1992.	-6190
▁Turkish	-6191
▁Enterpris	-6192
▁creditors	-6193
▁Conf	-6194
▁rescue	-6195
idential	-6196
▁visited	-6197
▁autonomy	-6198
▁economist	-6199
▁appointment	-6200
▁internationally	-6201
▁Once	-6202
▁2006,	-6203
▁Labour	-6204
▁attended	-6205
▁map	-6206
▁NATO	-6207
▁wage	-6208
▁ultimately	-6209
itz	-6210
▁Bosnian	-6211
▁conserv	-6212
▁liquidity	-6213
▁audit	-6214
▁Wall	-6215
▁reaching	-6216
▁allocation	-6217
auc	-6218
▁tomorrow	-6219
ulf	-6220
▁ordinary	-6221
▁rout	-6222
▁30.	-6223
▁Strate	-6224
▁Tuesday	-6225
/51	-6226
▁earthquake	-6227
▁provincial	-6228
▁42	-6229
▁Pers	-6230
▁venture	-6231
▁mobile	-6232
▁atmosphere	-6233
▁foot	-6234
▁imag	-6235
▁perpet	-6236
▁promise	-6237
▁IC	-6238
▁ple	-6239
orage	-6240
▁chec	-6241
taining	-6242
▁acceptable	-6243
▁Concern	-6244
▁medicine	-6245
▁Technology	-6246
laim	-6247
▁arising	-6248
▁putting	-6249
▁arrangement	-6250
▁requirement	-6251
▁Proc	-6252
active	-6253
▁mortgage	-6254
▁recommends	-6255
▁Doc	-6256
▁fifth	-6257
▁ministers	-6258
▁Prevention	-6259
▁capacities	-6260
▁tob	-6261
isted	-6262
▁Mozamb	-6263
▁thanks	-6264
▁replied	-6265
▁tobacco	-6266
▁innovative	-6267
▁suit	-6268
▁producers	-6269
▁coordinating	-6270
?”	-6271
▁fee	-6272
▁complement	-6273
▁Earth	-6274
▁Arabia	-6275
▁faster	-6276
▁managing	-6277
▁Following	-6278
ald	-6279
▁31.	-6280
▁looks	-6281
▁preparatory	-6282
ria	-6283
encing	-6284
▁introduction	-6285
▁debts	-6286
▁wished	-6287
▁deficits	-6288
▁observer	-6289
▁Equ	-6290
▁2005,	-6291
▁devoted	-6292
▁peacekeeping	-6293
▁significance	-6294
uay	-6295
▁elimination	-6296
14	-6297
▁interview	-6298
▁none	-6299
▁Without	-6300
▁producing	-6301
kh	-6302
▁assume	-6303
▁assigned	-6304
roduce	-6305
▁UNFPA	-6306
▁vacc	-6307
▁acceptance	-6308
▁flexibility	-6309
inance	-6310
▁trees	-6311
▁upgra	-6312
▁Syrian	-6313
▁explos	-6314
▁regarded	-6315
▁promulgated	-6316
He	-6317
▁bit	-6318
uters	-6319
▁Coordin	-6320
▁Az	-6321
They	-6322
rets	-6323
rator	-6324
▁Tajik	-6325
▁universities	-6326
opol	-6327
isive	-6328
▁scen	-6329
▁incomes	-6330
being	-6331
▁orders	-6332
▁answered	-6333
determination	-6334
anmar	-6335
▁accum	-6336
▁contemp	-6337
▁analysts	-6338
ino	-6339
▁Nigeria	-6340
APTER	-6341
▁Frid	-6342
▁brain	-6343
▁applicant	-6344
▁dissemination	-6345
▁stra	-6346
▁analy	-6347
ninth	-6348
▁2007,	-6349
▁remote	-6350
▁someone	-6351
▁Training	-6352
▁enabling	-6353
▁prisoners	-6354
oods	-6355
▁Pen	-6356
hered	-6357
▁popul	-6358
▁CHAPTER	-6359
▁defence	-6360
▁resolved	-6361
▁referendum	-6362
ertification	-6363
▁Mad	-6364
▁feed	-6365
▁nomin	-6366
urrently	-6367
▁married	-6368
▁macroeconomic	-6369
▁...	-6370
astic	-6371
▁annually	-6372
elling	-6373
yright	-6374
▁river	-6375
▁Vietnam	-6376
▁mention	-6377
▁vehicle	-6378
▁completion	-6379
▁UNCTAD	-6380
licit	-6381
▁calling	-6382
▁ancient	-6383
▁assessments	-6384
▁$5	-6385
dden	-6386
▁rain	-6387
▁deployed	-6388
▁preparations	-6389
cies	-6390
inery	-6391
hman	-6392
▁Bro	-6393
iving	-6394
lines	-6395
▁competitiveness	-6396
▁500	-6397
▁sho	-6398
▁Again	-6399
▁arrested	-6400
uls	-6401
▁hal	-6402
▁slight	-6403
▁Scienti	-6404
▁reading	-6405
▁directed	-6406
▁transfers	-6407
▁conducting	-6408
45	-6409
▁1997	-6410
▁Friday	-6411
▁saving	-6412
▁animals	-6413
ING	-6414
omet	-6415
rote	-6416
unis	-6417
iated	-6418
▁explained	-6419
ero	-6420
▁Clin	-6421
▁barriers	-6422
tes	-6423
enez	-6424
▁tit	-6425
▁flag	-6426
▁Having	-6427
▁formed	-6428
ependent	-6429
▁trademark	-6430
rog	-6431
▁sharing	-6432
▁dict	-6433
United	-6434
▁channels	-6435
1)	-6436
phone	-6437
▁phot	-6438
▁Portug	-6439
▁elderly	-6440
▁generate	-6441
▁fal	-6442
▁vocational	-6443
...	-6444
agency	-6445
▁chair	-6446
▁victim	-6447
▁talking	-6448
▁secondary	-6449
▁distributed	-6450
▁improvements	-6451
▁34.	-6452
▁availability	-6453
obil	-6454
rats	-6455
▁confident	-6456
▁arm	-6457
order	-6458
herent	-6459
uments	-6460
▁deaths	-6461
lication	-6462
▁Myanmar	-6463
▁Philipp	-6464
▁unified	-6465
▁tensions	-6466
ricts	-6467
▁narrow	-6468
▁sudden	-6469
▁village	-6470
▁cooper	-6471
umping	-6472
▁datab	-6473
▁IN	-6474
▁Reaffir	-6475
▁deliberations	-6476
▁proliferation	-6477
acing	-6478
▁exact	-6479
rolling	-6480
▁Review	-6481
▁commerce	-6482
kn	-6483
▁77	-6484
ednes	-6485
▁grad	-6486
ceived	-6487
▁possess	-6488
▁replaced	-6489
▁university	-6490
part	-6491
▁Corp	-6492
▁Malay	-6493
▁stream	-6494
ednesday	-6495
▁recruit	-6496
▁suggestions	-6497
udes	-6498
ensing	-6499
▁Produc	-6500
▁houses	-6501
▁reproductive	-6502
urred	-6503
▁Technical	-6504
▁discharge	-6505
▁Provisions	-6506
▁presidency	-6507
bre	-6508
▁art	-6509
▁cas	-6510
▁Cyprus	-6511
▁promoted	-6512
ux	-6513
▁Just	-6514
▁tariff	-6515
▁bus	-6516
itals	-6517
▁grew	-6518
▁wrote	-6519
▁storage	-6520
▁whatever	-6521
▁considerations	-6522
▁accused	-6523
▁conformity	-6524
ED	-6525
▁33.	-6526
▁warned	-6527
▁soil	-6528
▁urge	-6529
▁patterns	-6530
▁Lehman	-6531
▁Sam	-6532
▁emerged	-6533
PP	-6534
kes	-6535
emper	-6536
▁findings	-6537
▁sir	-6538
herlands	-6539
▁employed	-6540
▁seminars	-6541
▁clients	-6542
▁category	-6543
minent	-6544
enezuel	-6545
▁Territory	-6546
/1996	-6547
ourse	-6548
▁exhib	-6549
▁Ord	-6550
sector	-6551
▁easier	-6552
▁Consult	-6553
▁32.	-6554
▁HIV	-6555
▁reply	-6556
▁accelerate	-6557
lete	-6558
omic	-6559
▁bird	-6560
▁lessons	-6561
▁district	-6562
▁humanity	-6563
▁Republican	-6564
-20	-6565
▁TH	-6566
▁cancer	-6567
▁excell	-6568
▁dignity	-6569
▁supervis	-6570
oud	-6571
▁NE	-6572
rators	-6573
▁Please	-6574
▁assessed	-6575
▁containing	-6576
▁TV	-6577
▁attempts	-6578
▁freedoms	-6579
MB	-6580
▁file	-6581
▁grounds	-6582
▁expensive	-6583
ordan	-6584
▁arrived	-6585
▁35.	-6586
▁Statis	-6587
▁frequently	-6588
▁mur	-6589
party	-6590
▁Legis	-6591
ali	-6592
▁incidents	-6593
▁negotiating	-6594
▁intelligence	-6595
▁hoc	-6596
▁eastern	-6597
▁unilateral	-6598
▁politically	-6599
▁township	-6600
▁regularly	-6601
▁undertaking	-6602
ih	-6603
dep	-6604
▁pet	-6605
▁born	-6606
▁bott	-6607
▁trig	-6608
▁attrib	-6609
▁paral	-6610
develop	-6611
▁pill	-6612
▁rank	-6613
mitting	-6614
▁economics	-6615
▁mortality	-6616
Well	-6617
▁ending	-6618
▁hospital	-6619
chol	-6620
▁Bre	-6621
▁Jud	-6622
▁Here	-6623
▁accountability	-6624
▁Autonom	-6625
▁districts	-6626
▁Crime	-6627
▁decent	-6628
▁identification	-6629
▁pharmaceutical	-6630
▁Inte	-6631
▁bought	-6632
▁supposed	-6633
urg	-6634
▁AS	-6635
▁feas	-6636
▁fewer	-6637
▁sensitive	-6638
oked	-6639
▁submission	-6640
emen	-6641
▁Common	-6642
liminary	-6643
▁observations	-6644
▁periods	-6645
ta	-6646
▁ECO	-6647
▁symb	-6648
▁driving	-6649
▁inclusion	-6650
▁scientists	-6651
erver	-6652
▁diversity	-6653
EO	-6654
forced	-6655
▁summary	-6656
▁WHO	-6657
▁Code	-6658
▁imported	-6659
▁Dal	-6660
▁receip	-6661
including	-6662
tra	-6663
▁Sun	-6664
jiang	-6665
▁brid	-6666
udgetary	-6667
▁advantages	-6668
aker	-6669
amer	-6670
▁pref	-6671
▁vice	-6672
ivered	-6673
ourable	-6674
▁testing	-6675
▁willingness	-6676
▁investigations	-6677
12	-6678
▁wars	-6679
▁negotiation	-6680
▁uncertainty	-6681
▁serving	-6682
ann	-6683
cow	-6684
▁Char	-6685
▁cars	-6686
▁toler	-6687
▁combination	-6688
known	-6689
▁instruc	-6690
▁immigration	-6691
▁waters	-6692
▁cult	-6693
▁thor	-6694
▁grain	-6695
▁guard	-6696
▁introduce	-6697
▁entrepreneurs	-6698
▁smugg	-6699
▁temper	-6700
▁rejected	-6701
iform	-6702
vent	-6703
▁track	-6704
▁entrusted	-6705
87	-6706
BC	-6707
oil	-6708
▁Cop	-6709
▁Five	-6710
▁Colomb	-6711
▁forget	-6712
▁injury	-6713
▁paying	-6714
▁manif	-6715
▁restricted	-6716
▁absor	-6717
titudes	-6718
▁gather	-6719
▁flexible	-6720
▁Investment	-6721
OSOM	-6722
▁leng	-6723
▁Contract	-6724
SA	-6725
▁firmly	-6726
▁instit	-6727
aire	-6728
rating	-6729
▁battle	-6730
aded	-6731
▁Refuge	-6732
▁Perhaps	-6733
▁monthly	-6734
▁eradication	-6735
▁Subcommittee	-6736
mines	-6737
▁machinery	-6738
▁beneficial	-6739
▁journalists	-6740
▁governmental	-6741
▁repatriation	-6742
osen	-6743
power	-6744
▁stag	-6745
lantic	-6746
ek	-6747
▁evol	-6748
▁relationships	-6749
▁delivered	-6750
▁argue	-6751
▁eye	-6752
▁Tax	-6753
▁Clinton	-6754
▁assisting	-6755
▁definition	-6756
▁papers	-6757
▁sac	-6758
▁san	-6759
▁lend	-6760
▁Kuwait	-6761
▁symbol	-6762
▁economically	-6763
▁Den	-6764
▁composition	-6765
ni	-6766
▁survival	-6767
An	-6768
▁accompanied	-6769
▁Science	-6770
whel	-6771
▁WTO	-6772
▁rely	-6773
▁trouble	-6774
▁motiv	-6775
▁ON	-6776
▁Morgan	-6777
▁ruling	-6778
▁Finance	-6779
▁Venezuel	-6780
▁conventions	-6781
▁actors	-6782
▁embargo	-6783
▁Sir	-6784
▁phil	-6785
▁Jordan	-6786
▁subsidiary	-6787
oll	-6788
▁Moscow	-6789
▁flight	-6790
▁Cultural	-6791
AV	-6792
▁Chris	-6793
▁fears	-6794
▁grown	-6795
▁master	-6796
▁ecological	-6797
]/	-6798
▁happiness	-6799
▁credibility	-6800
ocide	-6801
▁punish	-6802
▁coastal	-6803
osite	-6804
▁worst	-6805
Af	-6806
▁HK	-6807
inet	-6808
ulus	-6809
lling	-6810
stream	-6811
ultane	-6812
▁deposit	-6813
▁demonstrate	-6814
point	-6815
▁2004	-6816
istant	-6817
▁lawyers	-6818
sequently	-6819
▁mainland	-6820
ole	-6821
urric	-6822
▁fruit	-6823
▁interim	-6824
▁engineering	-6825
▁controlled	-6826
▁Ques	-6827
▁36.	-6828
▁driven	-6829
▁predict	-6830
▁stem	-6831
▁acting	-6832
▁street	-6833
▁incident	-6834
▁vigor	-6835
▁writing	-6836
gu	-6837
▁Out	-6838
▁Hung	-6839
▁heavily	-6840
▁patients	-6841
▁threatened	-6842
▁Tunis	-6843
▁shape	-6844
▁recall	-6845
▁dog	-6846
▁holds	-6847
▁remove	-6848
▁viewed	-6849
▁violent	-6850
▁1990,	-6851
▁depri	-6852
▁Communist	-6853
▁Netherlands	-6854
oler	-6855
▁Saf	-6856
▁haven	-6857
▁Sweden	-6858
▁sharply	-6859
▁1992-199	-6860
▁weakness	-6861
▁Wednesday	-6862
ESCO	-6863
tising	-6864
ursday	-6865
▁diver	-6866
▁career	-6867
▁discover	-6868
▁destroyed	-6869
▁37.	-6870
▁currencies	-6871
▁generations	-6872
▁Implementation	-6873
▁doctor	-6874
▁composed	-6875
▁deposits	-6876
▁qualified	-6877
▁38.	-6878
oured	-6879
As	-6880
eighth	-6881
ulsory	-6882
▁Your	-6883
▁uniform	-6884
▁Accordingly	-6885
raf	-6886
▁raw	-6887
▁visits	-6888
▁wonder	-6889
▁drawing	-6890
▁candidate	-6891
kel	-6892
▁2003,	-6893
▁Within	-6894
▁describ	-6895
▁consolidation	-6896
bank	-6897
resses	-6898
▁1,000	-6899
▁deemed	-6900
▁confron	-6901
▁inadequate	-6902
▁pip	-6903
▁Barack	-6904
▁returns	-6905
▁overwhel	-6906
▁coordinates	-6907
utor	-6908
▁inhab	-6909
▁tests	-6910
▁researchers	-6911
▁mobilization	-6912
agues	-6913
▁turning	-6914
▁video	-6915
▁argued	-6916
▁stopped	-6917
▁invitation	-6918
EAN	-6919
▁ut	-6920
▁Stan	-6921
▁magn	-6922
ipline	-6923
▁2008,	-6924
▁surround	-6925
PO	-6926
0,000	-6927
▁Calls	-6928
▁compromise	-6929
tr	-6930
▁enjoyed	-6931
▁preserve	-6932
▁instability	-6933
▁corporations	-6934
DCP	-6935
produc	-6936
Article	-6937
▁exploration	-6938
-200	-6939
ested	-6940
▁salary	-6941
▁applies	-6942
▁features	-6943
▁momentum	-6944
▁continuous	-6945
gressive	-6946
▁financed	-6947
mir	-6948
▁pil	-6949
▁shut	-6950
▁Lic	-6951
▁couldn	-6952
▁devast	-6953
▁racism	-6954
▁conducive	-6955
▁sat	-6956
▁observe	-6957
▁undermine	-6958
▁realization	-6959
▁extrem	-6960
▁funded	-6961
▁explore	-6962
ependence	-6963
▁decisive	-6964
ST	-6965
▁underlying	-6966
800	-6967
ows	-6968
▁inqu	-6969
uration	-6970
ecutives	-6971
▁renewed	-6972
▁resident	-6973
▁preliminary	-6974
aij	-6975
▁(5)	-6976
▁$6	-6977
utors	-6978
▁broadcast	-6979
arks	-6980
▁bail	-6981
▁reconsideration	-6982
ball	-6983
▁Ben	-6984
▁card	-6985
ha	-6986
▁—	-6987
ker	-6988
ihood	-6989
lades	-6990
▁friendship	-6991
-19	-6992
rates	-6993
▁innoc	-6994
▁liter	-6995
▁attain	-6996
ario	-6997
▁classes	-6998
▁missile	-6999
▁mobilize	-7000
▁envisaged	-7001
anim	-7002
verage	-7003
▁persu	-7004
▁behavi	-7005
▁facilitating	-7006
PT	-7007
▁Ug	-7008
ladesh	-7009
▁immun	-7010
▁Islands	-7011
yan	-7012
teed	-7013
▁peak	-7014
erbaij	-7015
illance	-7016
▁Mozambique	-7017
▁legitimacy	-7018
▁Aud	-7019
▁resort	-7020
ara	-7021
ashion	-7022
▁Agric	-7023
▁radical	-7024
▁counties	-7025
▁slowdown	-7026
iop	-7027
▁Fam	-7028
▁camps	-7029
▁acquisition	-7030
▁frag	-7031
▁sort	-7032
Pacific	-7033
▁wouldn	-7034
▁argument	-7035
▁realized	-7036
oo	-7037
▁branch	-7038
▁student	-7039
▁contingent	-7040
▁impar	-7041
▁length	-7042
▁cutting	-7043
▁false	-7044
▁mutually	-7045
agen	-7046
▁Mrs	-7047
▁Land	-7048
FP	-7049
▁safeguards	-7050
▁1970	-7051
earing	-7052
▁abide	-7053
▁recru	-7054
▁feeling	-7055
/8	-7056
▁Local	-7057
▁cultiv	-7058
▁invent	-7059
▁fulfill	-7060
▁representing	-7061
27	-7062
enh	-7063
▁Space	-7064
▁Environmental	-7065
▁bab	-7066
▁unac	-7067
▁disturb	-7068
▁complaints	-7069
▁Jew	-7070
Americ	-7071
▁seats	-7072
▁barrel	-7073
▁capt	-7074
usalem	-7075
▁2000,	-7076
▁picture	-7077
▁aviation	-7078
icing	-7079
▁degra	-7080
AMIR	-7081
▁Bill	-7082
▁George	-7083
▁stages	-7084
▁vessels	-7085
▁installations	-7086
LA	-7087
gel	-7088
▁Cham	-7089
▁crow	-7090
▁dedic	-7091
▁simultane	-7092
sen	-7093
ounds	-7094
▁boom	-7095
▁forg	-7096
▁UNOSOM	-7097
▁Armen	-7098
add	-7099
▁gene	-7100
▁dynamic	-7101
iry	-7102
▁Stat	-7103
▁Island	-7104
▁Ren	-7105
▁Army	-7106
▁spokesman	-7107
▁safeguarding	-7108
ago	-7109
oor	-7110
▁Philippines	-7111
▁CO	-7112
▁Bet	-7113
▁NGOs	-7114
akings	-7115
▁phone	-7116
▁spite	-7117
▁colonial	-7118
aur	-7119
▁alter	-7120
▁hearing	-7121
▁VI	-7122
disc	-7123
idden	-7124
▁Observer	-7125
▁transnational	-7126
▁OAU	-7127
▁Center	-7128
▁Malaysia	-7129
11	-7130
oub	-7131
serv	-7132
rific	-7133
▁object	-7134
▁punished	-7135
▁foster	-7136
▁marginal	-7137
▁Jerusalem	-7138
▁subprogramme	-7139
▁55	-7140
▁THE	-7141
▁sets	-7142
▁schol	-7143
▁emphasize	-7144
▁ben	-7145
▁agents	-7146
▁approve	-7147
▁players	-7148
▁accounted	-7149
▁CSCE	-7150
▁lived	-7151
▁reliable	-7152
▁hun	-7153
▁Time	-7154
▁David	-7155
▁theme	-7156
pecific	-7157
▁weapon	-7158
▁treated	-7159
▁Azerbaij	-7160
▁difficulty	-7161
▁Discrimination	-7162
yo	-7163
using	-7164
▁Salv	-7165
▁towns	-7166
▁Though	-7167
▁pursuing	-7168
▁guaranteed	-7169
▁postpon	-7170
▁consistently	-7171
▁regim	-7172
▁quot	-7173
▁image	-7174
▁resumed	-7175
rie	-7176
▁lie	-7177
▁premises	-7178
▁potentially	-7179
▁charged	-7180
stance	-7181
▁apparent	-7182
▁sentence	-7183
▁performed	-7184
▁smo	-7185
▁votes	-7186
▁allies	-7187
▁appeals	-7188
▁emergencies	-7189
▁necessarily	-7190
Sec	-7191
▁college	-7192
▁convened	-7193
ipped	-7194
▁aspect	-7195
▁permitted	-7196
▁daughter	-7197
▁substantially	-7198
▁NEW	-7199
right	-7200
▁feet	-7201
▁auction	-7202
▁warming	-7203
▁2001,	-7204
▁Alban	-7205
▁focusing	-7206
▁Autonomous	-7207
▁aggressive	-7208
▁gard	-7209
▁affir	-7210
▁waiting	-7211
▁reaffirmed	-7212
▁store	-7213
▁retain	-7214
▁liberalization	-7215
▁Dr	-7216
ults	-7217
▁39.	-7218
▁myself	-7219
▁transit	-7220
▁targeted	-7221
▁workshops	-7222
water	-7223
▁jump	-7224
item	-7225
▁register	-7226
▁surveillance	-7227
lor	-7228
orter	-7229
arding	-7230
nation	-7231
▁incomp	-7232
▁objects	-7233
▁acquired	-7234
▁constantly	-7235
▁Inv	-7236
▁walk	-7237
▁reimb	-7238
▁suitable	-7239
▁explanation	-7240
▁grand	-7241
▁migrants	-7242
▁generated	-7243
iol	-7244
▁du	-7245
rier	-7246
▁discl	-7247
▁imper	-7248
▁privile	-7249
▁adopting	-7250
▁pressures	-7251
▁executives	-7252
lows	-7253
▁Set	-7254
▁wait	-7255
ipping	-7256
▁bearing	-7257
▁Northern	-7258
▁unions	-7259
▁imperative	-7260
▁Slo	-7261
▁ton	-7262
▁appra	-7263
minated	-7264
▁forests	-7265
▁announcement	-7266
▁administering	-7267
▁Sar	-7268
▁roles	-7269
▁Ethiop	-7270
▁offset	-7271
▁dismiss	-7272
▁supplement	-7273
log	-7274
▁UNDCP	-7275
▁extrad	-7276
▁Scientific	-7277
▁experiment	-7278
▁Legislative	-7279
▁hed	-7280
▁regimes	-7281
▁subjects	-7282
▁Administrator	-7283
▁decrease	-7284
▁Operations	-7285
hol	-7286
venth	-7287
▁code	-7288
▁insu	-7289
▁thirty	-7290
▁precisely	-7291
liers	-7292
▁Bulg	-7293
▁spect	-7294
arantine	-7295
▁distinc	-7296
▁realistic	-7297
▁AN	-7298
mits	-7299
▁Pat	-7300
light	-7301
ruguay	-7302
▁Commit	-7303
▁Norway	-7304
▁familiar	-7305
▁Ordinance	-7306
▁copyright	-7307
▁airport	-7308
▁Thursday	-7309
▁Resources	-7310
adv	-7311
▁torture	-7312
▁Official	-7313
▁assembly	-7314
▁stimulus	-7315
▁Europeans	-7316
▁ep	-7317
▁300	-7318
▁43.	-7319
ternoon	-7320
▁involves	-7321
▁White	-7322
▁hardly	-7323
▁comfort	-7324
▁opposed	-7325
▁allowance	-7326
▁operative	-7327
▁neighbouring	-7328
▁undertakings	-7329
usion	-7330
tization	-7331
▁biological	-7332
▁reservations	-7333
▁rock	-7334
▁unto	-7335
limate	-7336
▁superv	-7337
cription	-7338
▁claimed	-7339
▁disposal	-7340
▁integral	-7341
▁Governing	-7342
7)	-7343
ET	-7344
zen	-7345
urrent	-7346
▁refused	-7347
▁removed	-7348
▁renminbi	-7349
▁bub	-7350
▁Cairo	-7351
▁Chile	-7352
▁spoke	-7353
▁colleagues	-7354
racies	-7355
▁requiring	-7356
▁accordingly	-7357
/50	-7358
arag	-7359
▁40.	-7360
▁fit	-7361
▁Sund	-7362
iaison	-7363
▁ourselves	-7364
▁Bangladesh	-7365
ww	-7366
pri	-7367
OC	-7368
▁10%	-7369
▁bure	-7370
▁lawful	-7371
▁compulsory	-7372
▁interpretation	-7373
DA	-7374
▁4,	-7375
tition	-7376
▁troub	-7377
forcing	-7378
▁exped	-7379
▁confirm	-7380
▁Principles	-7381
PF	-7382
That	-7383
apping	-7384
▁Weapons	-7385
▁examples	-7386
▁responded	-7387
eorological	-7388
fol	-7389
room	-7390
▁tur	-7391
South	-7392
▁shop	-7393
▁slowly	-7394
▁digital	-7395
▁periodic	-7396
▁consolidate	-7397
▁prosecution	-7398
but	-7399
eline	-7400
▁allows	-7401
ceptions	-7402
▁showing	-7403
▁explicit	-7404
▁outlined	-7405
16	-7406
24	-7407
via	-7408
▁Deputy	-7409
▁mental	-7410
▁assumed	-7411
▁species	-7412
▁Planning	-7413
▁Refugees	-7414
▁occupational	-7415
▁fron	-7416
▁intern	-7417
▁spring	-7418
▁epidemic	-7419
▁quantity	-7420
isp	-7421
▁discovered	-7422
▁Recognizing	-7423
ENT	-7424
what	-7425
▁Vol	-7426
▁iron	-7427
istries	-7428
▁contra	-7429
▁distingu	-7430
▁genocide	-7431
▁invested	-7432
itious	-7433
▁bigger	-7434
▁illegally	-7435
asc	-7436
▁uphold	-7437
▁discipline	-7438
.3	-7439
ushed	-7440
▁memory	-7441
▁combating	-7442
▁organizing	-7443
how	-7444
inct	-7445
tier	-7446
▁42.	-7447
▁Nam	-7448
▁loved	-7449
▁perfect	-7450
▁concerted	-7451
▁respected	-7452
▁Tajikistan	-7453
▁demographic	-7454
▁Austria	-7455
inational	-7456
▁reinforce	-7457
ania	-7458
casts	-7459
▁England	-7460
▁Salvador	-7461
▁drafting	-7462
anches	-7463
▁cerem	-7464
▁philos	-7465
▁Brother	-7466
▁judgment	-7467
▁ran	-7468
▁Emer	-7469
▁Staff	-7470
▁Exchange	-7471
tedly	-7472
▁dependent	-7473
▁ke	-7474
▁aged	-7475
▁dark	-7476
▁fined	-7477
▁retire	-7478
▁propose	-7479
▁schedule	-7480
▁virtually	-7481
▁transparent	-7482
hips	-7483
▁hazard	-7484
▁smooth	-7485
▁handled	-7486
▁kilomet	-7487
▁nutrition	-7488
When	-7489
ylum	-7490
▁Industrial	-7491
unch	-7492
itage	-7493
▁lowest	-7494
▁automatic	-7495
▁regardless	-7496
How	-7497
abitat	-7498
▁display	-7499
▁Venezuela	-7500
ultinational	-7501
▁determining	-7502
▁Sch	-7503
▁Round	-7504
▁failing	-7505
▁Platform	-7506
▁ratified	-7507
▁afternoon	-7508
▁subsequently	-7509
iri	-7510
▁entail	-7511
▁substances	-7512
iny	-7513
▁navig	-7514
▁chosen	-7515
▁location	-7516
▁Im	-7517
ether	-7518
▁Chen	-7519
▁Dalai	-7520
▁diverse	-7521
spons	-7522
▁Rwand	-7523
▁hospitals	-7524
met	-7525
▁exclud	-7526
▁competence	-7527
▁75	-7528
▁Gulf	-7529
▁shock	-7530
▁enacted	-7531
▁possibly	-7532
▁remarkable	-7533
ask	-7534
▁FAO	-7535
▁topic	-7536
▁phenomenon	-7537
▁interaction	-7538
▁qualifications	-7539
ernal	-7540
▁cheap	-7541
▁refers	-7542
▁organis	-7543
▁schemes	-7544
▁taxation	-7545
100	-7546
xic	-7547
▁lib	-7548
▁entering	-7549
cons	-7550
▁Good	-7551
▁tree	-7552
▁Christ	-7553
▁evident	-7554
effective	-7555
▁je	-7556
▁alarm	-7557
▁unanim	-7558
▁promised	-7559
▁accession	-7560
▁considerably	-7561
600	-7562
▁Still	-7563
▁Colombia	-7564
▁satisfied	-7565
▁procurator	-7566
▁associations	-7567
▁45.	-7568
▁allegations	-7569
▁44.	-7570
▁tex	-7571
▁irre	-7572
wealth	-7573
rengthen	-7574
▁employers	-7575
▁repeatedly	-7576
▁ratification	-7577
700	-7578
rill	-7579
▁match	-7580
▁coalition	-7581
yal	-7582
grow	-7583
vals	-7584
▁Found	-7585
▁Heads	-7586
▁Serbs	-7587
▁Climate	-7588
▁advancement	-7589
▁acknowledged	-7590
▁Uganda	-7591
▁residence	-7592
zech	-7593
▁leads	-7594
▁Portugal	-7595
▁excellent	-7596
▁constituted	-7597
▁miles	-7598
▁rival	-7599
▁demobil	-7600
▁receipt	-7601
▁Likewise	-7602
▁recalled	-7603
▁concentrated	-7604
▁Del	-7605
▁Mary	-7606
▁famous	-7607
▁enabled	-7608
xit	-7609
▁migrant	-7610
▁progressive	-7611
▁0	-7612
▁Should	-7613
▁harmony	-7614
▁insufficient	-7615
no	-7616
▁consolidated	-7617
inea	-7618
▁drew	-7619
▁exit	-7620
▁agent	-7621
▁seized	-7622
▁choices	-7623
▁immigrants	-7624
fec	-7625
otor	-7626
▁tes	-7627
▁filed	-7628
▁tension	-7629
▁aspirations	-7630
ster	-7631
▁Val	-7632
▁losing	-7633
usterity	-7634
▁Company	-7635
▁doctors	-7636
”,	-7637
aka	-7638
▁promises	-7639
▁hom	-7640
▁dimin	-7641
▁refuse	-7642
▁salaries	-7643
▁Rio	-7644
▁ath	-7645
▁cust	-7646
▁asylum	-7647
▁villages	-7648
umes	-7649
▁600	-7650
place	-7651
▁posed	-7652
300	-7653
esty	-7654
opoly	-7655
▁Tokyo	-7656
▁careful	-7657
22	-7658
uming	-7659
▁innocent	-7660
▁restoration	-7661
▁dup	-7662
▁male	-7663
▁Initi	-7664
▁square	-7665
▁traged	-7666
▁Uruguay	-7667
▁incorporated	-7668
▁2003	-7669
▁attaches	-7670
17	-7671
35	-7672
▁defe	-7673
▁hurt	-7674
asions	-7675
atemal	-7676
▁ASEAN	-7677
▁twice	-7678
▁Italian	-7679
▁contrad	-7680
que	-7681
▁helps	-7682
▁season	-7683
inations	-7684
▁fashion	-7685
▁prospect	-7686
▁apartheid	-7687
NA	-7688
unte	-7689
▁illust	-7690
▁Persons	-7691
▁resolving	-7692
▁kilometres	-7693
▁purchasing	-7694
▁resistance	-7695
▁separately	-7696
ogether	-7697
▁reductions	-7698
▁Qu	-7699
iagn	-7700
▁abol	-7701
▁bankers	-7702
▁deputies	-7703
▁investor	-7704
▁advertising	-7705
ds	-7706
iff	-7707
▁enjo	-7708
▁seeing	-7709
▁Goldman	-7710
ont	-7711
rimin	-7712
▁Cypri	-7713
▁ideal	-7714
▁confrontation	-7715
pre	-7716
▁46.	-7717
▁relate	-7718
▁steady	-7719
▁negotiated	-7720
ager	-7721
▁Sur	-7722
▁clin	-7723
▁41.	-7724
▁Move	-7725
▁Project	-7726
▁killing	-7727
▁observation	-7728
state	-7729
▁user	-7730
▁risen	-7731
▁degrees	-7732
▁newspaper	-7733
▁bankruptcy	-7734
▁spl	-7735
esides	-7736
▁issu	-7737
irable	-7738
▁Australian	-7739
▁favourable	-7740
18	-7741
Al	-7742
▁47.	-7743
aution	-7744
▁cards	-7745
▁covers	-7746
▁Whoever	-7747
▁Dar	-7748
cepts	-7749
▁pregn	-7750
▁UNAMIR	-7751
▁declar	-7752
▁borrowing	-7753
400	-7754
uff	-7755
▁5,	-7756
▁Calif	-7757
▁cultures	-7758
▁opposite	-7759
▁quiet	-7760
▁remun	-7761
▁Nicarag	-7762
▁devices	-7763
▁drought	-7764
▁surface	-7765
▁reflecting	-7766
▁56	-7767
▁Elim	-7768
▁zero	-7769
▁acquire	-7770
dem	-7771
▁Guang	-7772
▁acced	-7773
▁repair	-7774
▁preserv	-7775
resolution	-7776
▁nationals	-7777
▁Ed	-7778
comp	-7779
load	-7780
▁Sou	-7781
▁silver	-7782
▁Developing	-7783
IH	-7784
▁freely	-7785
▁viable	-7786
tilities	-7787
▁branches	-7788
▁diversification	-7789
emb	-7790
itch	-7791
▁adjustments	-7792
emi	-7793
▁Gh	-7794
establ	-7795
▁Alger	-7796
▁disag	-7797
▁Guinea	-7798
▁whereas	-7799
▁responses	-7800
fund	-7801
▁Taking	-7802
▁Xinjiang	-7803
▁revealed	-7804
▁subjected	-7805
▁comparative	-7806
▁kid	-7807
▁connected	-7808
anz	-7809
▁Kar	-7810
advant	-7811
▁Urges	-7812
▁define	-7813
▁promptly	-7814
▁foreigners	-7815
opard	-7816
▁slightly	-7817
.5	-7818
▁53	-7819
▁surveys	-7820
▁manifest	-7821
▁telephone	-7822
▁via	-7823
▁soul	-7824
Secret	-7825
▁Muslims	-7826
▁poorest	-7827
▁speakers	-7828
▁operators	-7829
▁realities	-7830
organiz	-7831
▁infringe	-7832
▁supervisory	-7833
asure	-7834
▁west	-7835
▁revers	-7836
▁contractual	-7837
▁Kaz	-7838
▁senti	-7839
▁UNESCO	-7840
▁Capital	-7841
▁letters	-7842
▁trained	-7843
▁austerity	-7844
▁computers	-7845
RWA	-7846
3).	-7847
ribution	-7848
President	-7849
▁accidents	-7850
▁overwhelming	-7851
ovo	-7852
▁curb	-7853
▁exac	-7854
▁deputy	-7855
▁Denmark	-7856
▁threaten	-7857
▁declining	-7858
▁1989	-7859
▁Regist	-7860
▁Sunday	-7861
▁Guatemal	-7862
▁renewable	-7863
▁preservation	-7864
aling	-7865
▁prevailing	-7866
rame	-7867
▁surprise	-7868
▁projected	-7869
▁Coordinator	-7870
▁catal	-7871
▁owner	-7872
▁amended	-7873
▁publicly	-7874
▁professor	-7875
through	-7876
iplinary	-7877
eds	-7878
udd	-7879
▁ric	-7880
▁vary	-7881
▁Prince	-7882
▁couple	-7883
▁reaction	-7884
▁Paragraph	-7885
▁disadvant	-7886
oul	-7887
break	-7888
▁portfol	-7889
lex	-7890
turn	-7891
▁Corpor	-7892
▁exactly	-7893
▁intensify	-7894
▁Revolution	-7895
▁52	-7896
arked	-7897
▁planet	-7898
▁Stanley	-7899
▁extraord	-7900
▁objection	-7901
▁hostilities	-7902
▁micro	-7903
▁authorization	-7904
{5	-7905
rig	-7906
khaz	-7907
uous	-7908
▁fate	-7909
▁overs	-7910
▁touch	-7911
▁acknowledge	-7912
tious	-7913
▁Moroc	-7914
▁severely	-7915
▁neighbors	-7916
▁selection	-7917
▁limitation	-7918
nce	-7919
hery	-7920
itzer	-7921
▁denied	-7922
▁modest	-7923
▁amounted	-7924
▁appreciate	-7925
▁programming	-7926
▁guns	-7927
▁webs	-7928
▁Czech	-7929
▁sanitation	-7930
oe	-7931
minals	-7932
▁convey	-7933
▁prejud	-7934
▁Foundation	-7935
▁Professional	-7936
70	-7937
mans	-7938
▁Enc	-7939
▁simpl	-7940
▁Establ	-7941
▁delays	-7942
▁normally	-7943
▁indicates	-7944
▁recruitment	-7945
▁Rich	-7946
▁wasn	-7947
▁chemicals	-7948
▁initially	-7949
▁negotiate	-7950
iii	-7951
itude	-7952
▁1998	-7953
iterate	-7954
▁settled	-7955
▁)	-7956
▁Water	-7957
▁escal	-7958
▁unders	-7959
▁incurred	-7960
▁ultimate	-7961
▁1994-1995	-7962
▁criticism	-7963
▁fort	-7964
▁Panel	-7965
factory	-7966
▁correc	-7967
▁evolution	-7968
▁reiterated	-7969
▁essentially	-7970
▁organisations	-7971
▁violated	-7972
▁collected	-7973
▁65	-7974
gently	-7975
▁derived	-7976
▁multinational	-7977
rd	-7978
▁FD	-7979
▁rou	-7980
▁2001	-7981
ranean	-7982
▁Small	-7983
▁magaz	-7984
▁makers	-7985
▁workshop	-7986
▁integrate	-7987
▁IT	-7988
reen	-7989
soft	-7990
▁Cost	-7991
▁ocean	-7992
▁exacerb	-7993
aret	-7994
book	-7995
ego	-7996
heast	-7997
▁AIDS	-7998
▁Libya	-7999
▁assisted	-8000
▁occasions	-8001
▁performing	-8002
utral	-8003
▁interd	-8004
▁railway	-8005
▁investing	-8006
▁Well	-8007
▁deserv	-8008
▁winter	-8009
▁Southern	-8010
▁imbalances	-8011
29	-8012
▁Ba	-8013
bound	-8014
ulates	-8015
▁plays	-8016
▁facility	-8017
▁indirect	-8018
▁consultative	-8019
▁resume	-8020
▁Californ	-8021
▁necessity	-8022
▁Procurator	-8023
▁characterized	-8024
aired	-8025
atible	-8026
▁arise	-8027
▁inspect	-8028
▁accurate	-8029
▁staffing	-8030
▁amendment	-8031
orse	-8032
▁adding	-8033
▁machine	-8034
▁protest	-8035
▁suppliers	-8036
fall	-8037
▁king	-8038
▁spot	-8039
iaries	-8040
ndering	-8041
▁binding	-8042
▁quarantine	-8043
▁anticipated	-8044
▁demonstration	-8045
13	-8046
▁infant	-8047
erential	-8048
▁UNRWA	-8049
▁taxpay	-8050
▁united	-8051
omination	-8052
▁Consider	-8053
▁contents	-8054
▁ministries	-8055
▁complicated	-8056
▁simultaneously	-8057
▁(1993)	-8058
▁expense	-8059
▁founded	-8060
▁amendments	-8061
▁ESC	-8062
▁Kenya	-8063
▁exists	-8064
▁empower	-8065
▁happens	-8066
▁Movement	-8067
▁customer	-8068
DG	-8069
othes	-8070
ocation	-8071
itzerland	-8072
che	-8073
▁urges	-8074
▁lesson	-8075
adow	-8076
▁milit	-8077
osystem	-8078
▁teacher	-8079
▁multiple	-8080
▁Web	-8081
▁Chair	-8082
▁asking	-8083
▁box	-8084
▁wall	-8085
▁floor	-8086
tivities	-8087
▁centers	-8088
▁closing	-8089
pper	-8090
▁swe	-8091
▁insp	-8092
▁marks	-8093
▁Abkhaz	-8094
▁Somali	-8095
▁smuggling	-8096
▁54	-8097
▁compete	-8098
▁notably	-8099
▁sacrific	-8100
▁liquidation	-8101
ports	-8102
heries	-8103
▁pledged	-8104
▁seminar	-8105
▁municipality	-8106
''	-8107
zz	-8108
▁hedge	-8109
▁older	-8110
▁Family	-8111
▁walked	-8112
▁jeopard	-8113
▁sitting	-8114
Secretary	-8115
▁decentral	-8116
depth	-8117
▁bills	-8118
▁pilot	-8119
onization	-8120
▁detained	-8121
▁outcomes	-8122
▁scholars	-8123
▁methodology	-8124
▁desertification	-8125
cost	-8126
▁wis	-8127
▁disrup	-8128
▁Bol	-8129
▁film	-8130
▁Against	-8131
▁restaur	-8132
▁*	-8133
▁root	-8134
▁detec	-8135
▁diagn	-8136
▁giant	-8137
century	-8138
▁Tunisia	-8139
▁democra	-8140
▁database	-8141
▁urgently	-8142
▁locations	-8143
▁possibilities	-8144
▁sustainability	-8145
ils	-8146
moil	-8147
otal	-8148
▁conj	-8149
▁fairly	-8150
▁formation	-8151
▁Switzerland	-8152
▁environmentally	-8153
33	-8154
CA	-8155
usi	-8156
life	-8157
▁east	-8158
▁reass	-8159
pecting	-8160
▁legally	-8161
▁reimburse	-8162
&#	-8163
ECD	-8164
▁sick	-8165
▁enlar	-8166
▁games	-8167
▁height	-8168
▁sister	-8169
▁founding	-8170
▁steadily	-8171
▁CPC	-8172
▁Hamas	-8173
▁topics	-8174
▁identifying	-8175
rice	-8176
▁cope	-8177
▁copy	-8178
ologies	-8179
▁estate	-8180
▁guided	-8181
▁shelter	-8182
iterranean	-8183
66	-8184
Yes	-8185
▁dele	-8186
▁furn	-8187
▁pool	-8188
▁Cross	-8189
▁Reform	-8190
▁aggreg	-8191
▁monopoly	-8192
▁studying	-8193
▁behaviour	-8194
SO	-8195
▁witnessed	-8196
gi	-8197
900	-8198
▁51	-8199
rack	-8200
▁48.	-8201
▁ease	-8202
▁wake	-8203
▁intim	-8204
▁California	-8205
▁fr	-8206
outs	-8207
▁rig	-8208
▁catch	-8209
▁attach	-8210
▁industrialized	-8211
fin	-8212
American	-8213
▁Election	-8214
▁Securities	-8215
COM	-8216
▁Kim	-8217
▁rating	-8218
▁herself	-8219
olan	-8220
▁Times	-8221
▁notify	-8222
▁orally	-8223
▁employing	-8224
8)	-8225
des	-8226
▁Kos	-8227
▁bureauc	-8228
▁turmoil	-8229
▁predecess	-8230
▁bench	-8231
▁fragile	-8232
▁secrets	-8233
▁yourself	-8234
uit	-8235
▁20%	-8236
▁hyd	-8237
▁49.	-8238
▁Zaire	-8239
▁inher	-8240
▁default	-8241
▁advances	-8242
▁heritage	-8243
▁perceived	-8244
▁continuation	-8245
ords	-8246
enger	-8247
▁moves	-8248
▁copies	-8249
▁2010	-8250
▁coff	-8251
country	-8252
........	-8253
▁endeavour	-8254
▁consequence	-8255
▁controlling	-8256
▁forthcoming	-8257
ogle	-8258
ossil	-8259
▁fill	-8260
▁toxic	-8261
IA	-8262
▁enth	-8263
▁Yemen	-8264
▁garden	-8265
▁tolerance	-8266
▁Commonwealth	-8267
▁50.	-8268
▁select	-8269
▁courage	-8270
▁decides	-8271
▁Strengthen	-8272
att	-8273
▁Franc	-8274
▁Proced	-8275
▁caught	-8276
▁easing	-8277
▁pricing	-8278
▁protocol	-8279
▁RMB	-8280
▁Rather	-8281
.)	-8282
urally	-8283
▁mouth	-8284
▁usual	-8285
enhagen	-8286
▁clearance	-8287
▁transaction	-8288
26	-8289
rum	-8290
▁Ant	-8291
▁remov	-8292
▁Concerning	-8293
ales	-8294
ught	-8295
▁Green	-8296
▁ecosystem	-8297
▁harmonious	-8298
ander	-8299
▁reun	-8300
▁bottom	-8301
▁factions	-8302
teneg	-8303
▁mere	-8304
▁pret	-8305
▁studied	-8306
▁investigate	-8307
160	-8308
▁geographic	-8309
real	-8310
agers	-8311
▁Mich	-8312
▁Experts	-8313
▁cancell	-8314
▁exposed	-8315
▁implies	-8316
▁Mart	-8317
▁Natural	-8318
▁inhabit	-8319
▁straight	-8320
▁Nob	-8321
▁Acad	-8322
▁2007.	-8323
▁remuneration	-8324
under	-8325
angible	-8326
▁portion	-8327
ethe	-8328
▁glass	-8329
▁inval	-8330
▁concepts	-8331
▁suspended	-8332
▁permission	-8333
▁Sy	-8334
▁51.	-8335
night	-8336
▁elig	-8337
▁strive	-8338
▁€	-8339
isite	-8340
rovers	-8341
athered	-8342
▁constitu	-8343
▁greenhouse	-8344
rap	-8345
▁Hungary	-8346
▁outlook	-8347
▁Copenhagen	-8348
▁everywhere	-8349
▁inevitable	-8350
▁retirement	-8351
75	-8352
usp	-8353
zed	-8354
▁Person	-8355
▁Ethiopia	-8356
▁billions	-8357
▁emergence	-8358
▁typically	-8359
▁conviction	-8360
▁transmitted	-8361
85	-8362
heres	-8363
▁collaps	-8364
▁meaningful	-8365
olly	-8366
▁blue	-8367
▁blame	-8368
▁endang	-8369
lege	-8370
▁bag	-8371
cohol	-8372
▁Ocean	-8373
▁revital	-8374
BS	-8375
▁tick	-8376
▁Mediterranean	-8377
▁tac	-8378
▁holid	-8379
▁abuses	-8380
▁recognizes	-8381
range	-8382
▁Nicaragua	-8383
▁liabilities	-8384
▁casual	-8385
titative	-8386
▁engaging	-8387
▁transitional	-8388
AVEM	-8389
antly	-8390
▁Life	-8391
▁Basic	-8392
▁Rober	-8393
▁Province	-8394
▁revision	-8395
36	-8396
lets	-8397
▁aren	-8398
dation	-8399
▁privati	-8400
▁statute	-8401
▁Additional	-8402
▁exercising	-8403
160;	-8404
▁Sche	-8405
▁storm	-8406
▁favorable	-8407
SR	-8408
teen	-8409
licop	-8410
utation	-8411
▁executed	-8412
▁readiness	-8413
lel	-8414
▁57	-8415
▁Adv	-8416
▁finds	-8417
▁veget	-8418
▁pursuit	-8419
▁mainstream	-8420
isal	-8421
▁$1,	-8422
engers	-8423
▁broken	-8424
ributing	-8425
▁commits	-8426
▁pending	-8427
▁ceremony	-8428
▁outbreak	-8429
atal	-8430
▁brings	-8431
▁Monteneg	-8432
▁Relations	-8433
▁campaigns	-8434
egoti	-8435
▁UNIF	-8436
▁crops	-8437
tensive	-8438
▁sample	-8439
▁promising	-8440
▁comparison	-8441
west	-8442
▁fre	-8443
▁wood	-8444
________	-8445
▁Society	-8446
▁counterpar	-8447
lad	-8448
rous	-8449
▁Ser	-8450
▁sor	-8451
entials	-8452
oubtedly	-8453
▁prevented	-8454
▁extradition	-8455
▁professionals	-8456
kers	-8457
sions	-8458
▁wave	-8459
ictions	-8460
▁strike	-8461
▁drinking	-8462
▁producer	-8463
▁Operation	-8464
▁purchases	-8465
▁conjunction	-8466
▁solar	-8467
▁generous	-8468
▁oversight	-8469
▁presentation	-8470
▁End	-8471
▁unw	-8472
▁Standard	-8473
▁protests	-8474
▁independently	-8475
▁Anal	-8476
▁trem	-8477
illenn	-8478
▁voted	-8479
▁fossil	-8480
ruck	-8481
▁CEO	-8482
which	-8483
▁wisdom	-8484
▁enthusi	-8485
▁Assistant	-8486
▁parliamentary	-8487
▁somewhat	-8488
BA	-8489
▁Xi	-8490
▁Bern	-8491
▁Until	-8492
▁liable	-8493
▁Questions	-8494
▁newspapers	-8495
ael	-8496
vak	-8497
vate	-8498
▁meets	-8499
▁Change	-8500
▁Google	-8501
▁convening	-8502
▁AND	-8503
▁prag	-8504
▁Micro	-8505
▁pressing	-8506
▁controvers	-8507
▁preferential	-8508
ugh	-8509
▁stre	-8510
▁focal	-8511
▁insec	-8512
ulative	-8513
▁lawyer	-8514
▁pushed	-8515
▁prolong	-8516
▁interference	-8517
▁Er	-8518
▁anx	-8519
▁cad	-8520
itably	-8521
▁surely	-8522
▁Algeria	-8523
▁factory	-8524
▁Commerce	-8525
▁terrorists	-8526
orate	-8527
▁48/1	-8528
▁stic	-8529
▁2008.	-8530
▁Export	-8531
▁Serbian	-8532
▁reviews	-8533
▁degradation	-8534
Do	-8535
she	-8536
▁Hen	-8537
astrop	-8538
▁frust	-8539
▁mistake	-8540
▁Democrats	-8541
▁substance	-8542
▁internally	-8543
▁supporters	-8544
▁highlighted	-8545
▁6,	-8546
▁chain	-8547
▁fuels	-8548
▁watching	-8549
▁Mong	-8550
▁UNID	-8551
▁frequent	-8552
▁unaccept	-8553
▁exclusively	-8554
Sh	-8555
Add	-8556
▁gar	-8557
▁helicop	-8558
▁sending	-8559
AIDS	-8560
▁cod	-8561
▁rebu	-8562
▁headed	-8563
efficient	-8564
▁Partners	-8565
▁succeeded	-8566
▁formulating	-8567
ket	-8568
mas	-8569
▁SA	-8570
▁cast	-8571
▁pure	-8572
▁Brexit	-8573
▁slowing	-8574
▁adequately	-8575
▁regulators	-8576
▁confiscated	-8577
▁democracies	-8578
DCs	-8579
osis	-8580
▁shr	-8581
▁sup	-8582
▁Adop	-8583
▁cells	-8584
▁Atlantic	-8585
▁destabil	-8586
▁magnitude	-8587
▁Enterprises	-8588
▁dramatically	-8589
MOG	-8590
▁Fac	-8591
▁Trad	-8592
▁centuries	-8593
▁Elimination	-8594
▁deterioration	-8595
arus	-8596
▁ang	-8597
▁Cred	-8598
idding	-8599
▁fraud	-8600
▁admitted	-8601
▁introducing	-8602
▁rare	-8603
▁murder	-8604
▁Croatian	-8605
▁highlight	-8606
▁disabilities	-8607
▁fix	-8608
▁seeks	-8609
▁originally	-8610
▁Republicans	-8611
▁continuously	-8612
evo	-8613
class	-8614
▁extraordinary	-8615
aut	-8616
▁Rac	-8617
▁Use	-8618
▁Belg	-8619
▁hostile	-8620
▁accelerated	-8621
▁Av	-8622
▁Os	-8623
herence	-8624
▁distinct	-8625
▁Montenegro	-8626
▁assumption	-8627
▁subsistence	-8628
▁CD	-8629
▁syn	-8630
▁Impro	-8631
▁notic	-8632
▁proof	-8633
ajevo	-8634
▁blow	-8635
▁leaves	-8636
▁intensified	-8637
Ind	-8638
▁cargo	-8639
▁therein	-8640
▁gathered	-8641
▁thorough	-8642
▁secretary	-8643
▁threatening	-8644
▁Construction	-8645
28	-8646
hors	-8647
▁Jam	-8648
▁scar	-8649
▁Timor	-8650
▁tragedy	-8651
▁visiting	-8652
▁relevance	-8653
IM	-8654
conf	-8655
▁Doh	-8656
mining	-8657
▁bases	-8658
▁relax	-8659
▁tackle	-8660
▁Journal	-8661
▁credible	-8662
▁mandated	-8663
For	-8664
▁ILO	-8665
▁Dist	-8666
▁benefited	-8667
▁unemployed	-8668
90	-8669
umn	-8670
yah	-8671
▁52.	-8672
jection	-8673
ocratic	-8674
▁legisl	-8675
▁reluct	-8676
▁feature	-8677
▁Committees	-8678
▁congratulate	-8679
▁partnerships	-8680
▁Eff	-8681
sized	-8682
teenth	-8683
▁forgot	-8684
▁expects	-8685
amination	-8686
▁Sarajevo	-8687
▁supervise	-8688
▁interesting	-8689
▁Sil	-8690
▁tragic	-8691
▁extending	-8692
▁Resolution	-8693
BR	-8694
▁custody	-8695
▁earnest	-8696
▁genetic	-8697
▁sections	-8698
▁exercises	-8699
XX	-8700
▁ambitious	-8701
race	-8702
▁Abe	-8703
▁PRC	-8704
itely	-8705
▁unlaw	-8706
ensable	-8707
▁filled	-8708
▁Invites	-8709
▁worried	-8710
RA	-8711
ei	-8712
▁News	-8713
▁livel	-8714
▁neutral	-8715
▁duration	-8716
▁aggregate	-8717
▁catastrop	-8718
▁departure	-8719
▁mix	-8720
▁bold	-8721
▁soph	-8722
▁Bulgaria	-8723
▁counterparts	-8724
37	-8725
abwe	-8726
▁dry	-8727
▁ends	-8728
▁pillar	-8729
hi	-8730
,000.	-8731
account	-8732
imbabwe	-8733
▁convers	-8734
▁obtaining	-8735
3%	-8736
human	-8737
▁Thank	-8738
▁adhere	-8739
▁geopol	-8740
▁missing	-8741
▁forecasts	-8742
▁eliminating	-8743
win	-8744
▁Shen	-8745
▁runs	-8746
▁archit	-8747
▁islands	-8748
▁proceeds	-8749
▁returning	-8750
olonization	-8751
.4	-8752
aped	-8753
▁route	-8754
▁attractive	-8755
▁La	-8756
▁hin	-8757
▁merc	-8758
▁peas	-8759
▁1997,	-8760
▁Stock	-8761
▁Super	-8762
▁adjusted	-8763
▁abandoned	-8764
▁Independent	-8765
▁foundations	-8766
8%	-8767
▁Ali	-8768
grade	-8769
▁manip	-8770
▁Strategy	-8771
▁inhabitants	-8772
ORK	-8773
asm	-8774
lict	-8775
hetor	-8776
▁Fred	-8777
▁UNTA	-8778
itigroup	-8779
▁issuing	-8780
▁calculated	-8781
▁59	-8782
giene	-8783
▁marry	-8784
▁declare	-8785
▁consists	-8786
▁Azerbaijan	-8787
▁McC	-8788
ellow	-8789
▁OECD	-8790
▁1997.	-8791
▁River	-8792
▁Morocco	-8793
▁reverse	-8794
▁distinction	-8795
▁1988	-8796
▁heat	-8797
▁deeper	-8798
▁forums	-8799
▁indisp	-8800
▁publicity	-8801
▁democratization	-8802
vo	-8803
▁Ver	-8804
ashed	-8805
erated	-8806
▁broke	-8807
▁escape	-8808
▁listen	-8809
▁incentive	-8810
▁supplementary	-8811
prof	-8812
▁gri	-8813
▁redep	-8814
▁Senate	-8815
▁struck	-8816
▁Welcomes	-8817
▁reintegration	-8818
▁Ah	-8819
isting	-8820
▁enemy	-8821
▁deploy	-8822
▁flying	-8823
▁pollut	-8824
▁suspic	-8825
▁Haitian	-8826
▁parallel	-8827
▁attitudes	-8828
▁transmitting	-8829
role	-8830
▁WFP	-8831
▁commend	-8832
▁offence	-8833
▁functional	-8834
▁Com	-8835
▁cry	-8836
▁unn	-8837
▁Mongol	-8838
▁corner	-8839
▁reaffirm	-8840
▁passenger	-8841
▁livelihood	-8842
rible	-8843
&#160;	-8844
▁Kazakh	-8845
▁motion	-8846
▁flights	-8847
▁formally	-8848
▁quantitative	-8849
rey	-8850
▁brut	-8851
▁conce	-8852
▁ranks	-8853
▁sphere	-8854
▁pushing	-8855
▁forestry	-8856
riminatory	-8857
▁Citigroup	-8858
▁persistent	-8859
▁consultants	-8860
za	-8861
hou	-8862
▁53.	-8863
icted	-8864
▁blind	-8865
▁Proper	-8866
▁launching	-8867
▁UNEP	-8868
▁baby	-8869
▁trac	-8870
quality	-8871
▁rhetor	-8872
▁endorse	-8873
valuation	-8874
▁fisheries	-8875
▁reiterate	-8876
▁disability	-8877
▁eliminated	-8878
▁48/2	-8879
inking	-8880
▁begins	-8881
▁removal	-8882
▁replacement	-8883
utch	-8884
▁(6)	-8885
▁College	-8886
▁intends	-8887
▁meat	-8888
arctic	-8889
▁Donald	-8890
▁tribute	-8891
▁Emergency	-8892
▁traditions	-8893
athy	-8894
ority	-8895
▁piec	-8896
▁unex	-8897
▁74	-8898
shore	-8899
▁1960	-8900
▁hero	-8901
roleum	-8902
▁acute	-8903
▁oppon	-8904
▁premium	-8905
▁Industry	-8906
▁successor	-8907
▁nationalities	-8908
▁Yes	-8909
roots	-8910
techn	-8911
▁Apart	-8912
▁sight	-8913
development	-8914
▁Representatives	-8915
Don	-8916
ips	-8917
mad	-8918
▁Us	-8919
▁calm	-8920
▁plus	-8921
▁inputs	-8922
▁issuance	-8923
▁Antarctic	-8924
▁ideological	-8925
ques	-8926
▁1991.	-8927
▁hence	-8928
▁serves	-8929
▁officially	-8930
▁inspections	-8931
▁conservative	-8932
▁indispensable	-8933
▁pas	-8934
▁Chamber	-8935
▁properties	-8936
achs	-8937
▁maxim	-8938
▁emerge	-8939
▁Guatemala	-8940
hr	-8941
▁skill	-8942
▁spoken	-8943
paragraph	-8944
▁Upon	-8945
▁aside	-8946
▁ships	-8947
▁signal	-8948
▁alcohol	-8949
▁arbitrary	-8950
▁graduates	-8951
▁sophistic	-8952
▁stimulate	-8953
▁Activities	-8954
roud	-8955
▁rot	-8956
▁pose	-8957
▁Merkel	-8958
▁coffee	-8959
▁authors	-8960
▁tremend	-8961
09	-8962
bally	-8963
riend	-8964
▁tough	-8965
▁Between	-8966
▁damages	-8967
▁website	-8968
▁engagement	-8969
raid	-8970
▁Far	-8971
▁Sat	-8972
▁Miss	-8973
inated	-8974
▁divor	-8975
▁Kosovo	-8976
▁validity	-8977
▁meteorological	-8978
▁54.	-8979
▁forb	-8980
▁reward	-8981
▁damaged	-8982
▁passing	-8983
▁measured	-8984
▁neighbor	-8985
2%	-8986
▁falls	-8987
▁tender	-8988
▁trials	-8989
▁Efforts	-8990
▁mothers	-8991
▁restrain	-8992
▁prominent	-8993
▁56.	-8994
▁burn	-8995
▁About	-8996
▁react	-8997
▁Respon	-8998
▁desper	-8999
▁prompt	-9000
▁respects	-9001
▁dimension	-9002
Eu	-9003
▁noise	-9004
▁detain	-9005
▁portfolio	-9006
hand	-9007
▁jun	-9008
field	-9009
▁sect	-9010
▁Forces	-9011
ventions	-9012
▁Belarus	-9013
▁separation	-9014
▁transmission	-9015
7%	-9016
3),	-9017
▁$2.	-9018
border	-9019
▁hunger	-9020
tificial	-9021
▁justify	-9022
To	-9023
▁Es	-9024
▁din	-9025
▁ven	-9026
letes	-9027
▁Long	-9028
insula	-9029
▁injured	-9030
▁speaker	-9031
▁evaluate	-9032
▁scenario	-9033
▁2002	-9034
holder	-9035
▁sincere	-9036
▁Lebanese	-9037
▁alliance	-9038
▁examining	-9039
▁recognizing	-9040
mn	-9041
ste	-9042
tible	-9043
▁ausp	-9044
thirds	-9045
station	-9046
▁gradual	-9047
▁prefect	-9048
▁satisfy	-9049
▁exposure	-9050
▁philosoph	-9051
contributing	-9052
▁civilization	-9053
hua	-9054
▁11,	-9055
▁150	-9056
▁55.	-9057
▁Cap	-9058
stric	-9059
arious	-9060
▁interf	-9061
▁liaison	-9062
▁streets	-9063
ransition	-9064
▁missiles	-9065
▁instructions	-9066
▁Strengthening	-9067
TION	-9068
▁roll	-9069
▁seat	-9070
▁Sachs	-9071
▁Prosec	-9072
▁Articles	-9073
▁mistakes	-9074
▁publishing	-9075
▁undoubtedly	-9076
la	-9077
▁£	-9078
▁21,	-9079
utory	-9080
laimed	-9081
▁Defense	-9082
▁whenever	-9083
▁intensive	-9084
86	-9085
99	-9086
4).	-9087
▁85	-9088
▁ast	-9089
▁2002,	-9090
etheless	-9091
▁Finland	-9092
▁evening	-9093
▁orderly	-9094
▁boundaries	-9095
▁responding	-9096
21	-9097
▁cig	-9098
judic	-9099
▁Pres	-9100
▁scene	-9101
itoring	-9102
▁Patent	-9103
▁eating	-9104
reaching	-9105
▁council	-9106
illennium	-9107
▁prosperous	-9108
iam	-9109
▁sport	-9110
▁delayed	-9111
▁illness	-9112
▁imposing	-9113
▁offences	-9114
▁Microsoft	-9115
▁exceeding	-9116
▁sentiment	-9117
▁interventions	-9118
▁YORK	-9119
▁rend	-9120
▁lands	-9121
▁curric	-9122
▁Consequently	-9123
pin	-9124
▁Unity	-9125
entieth	-9126
▁deepen	-9127
▁Account	-9128
▁deserve	-9129
▁servants	-9130
▁gratitude	-9131
▁hazardous	-9132
▁suspension	-9133
policy	-9134
▁Libyan	-9135
stricken	-9136
tigation	-9137
▁Brothers	-9138
▁attempted	-9139
▁institutes	-9140
▁administered	-9141
";	-9142
ailed	-9143
▁Task	-9144
▁Scheme	-9145
▁ignore	-9146
▁infectious	-9147
At	-9148
▁x	-9149
▁Tanz	-9150
▁Apple	-9151
ropriate	-9152
▁Zimbabwe	-9153
withstanding	-9154
nb	-9155
ham	-9156
space	-9157
▁Notes	-9158
▁virus	-9159
▁strain	-9160
▁existed	-9161
elt	-9162
▁50%	-9163
▁lad	-9164
▁band	-9165
▁bright	-9166
▁belonging	-9167
▁complexity	-9168
▁elaboration	-9169
▁respondents	-9170
▁7,	-9171
▁Em	-9172
▁Peru	-9173
▁clothing	-9174
▁gets	-9175
▁Based	-9176
▁disin	-9177
▁Powers	-9178
sibility	-9179
personnel	-9180
▁feelings	-9181
▁managerial	-9182
▁eg	-9183
icked	-9184
▁alike	-9185
▁alleviate	-9186
▁66	-9187
▁ice	-9188
▁Cold	-9189
▁repay	-9190
▁Medical	-9191
▁formula	-9192
controlled	-9193
▁passengers	-9194
▁Reaffirming	-9195
▁Grow	-9196
▁Lama	-9197
▁Prem	-9198
second	-9199
▁title	-9200
▁locally	-9201
▁routine	-9202
▁desirable	-9203
▁recruited	-9204
oto	-9205
▁proud	-9206
▁League	-9207
▁Transport	-9208
▁dimensions	-9209
▁satisfactory	-9210
nbsp	-9211
▁Wen	-9212
▁Stra	-9213
▁cited	-9214
▁Import	-9215
▁cleans	-9216
▁notion	-9217
overning	-9218
▁winning	-9219
intensive	-9220
▁feasible	-9221
▁mediation	-9222
▁surrounding	-9223
DGs	-9224
gyz	-9225
lers	-9226
rgyz	-9227
▁Lead	-9228
rorism	-9229
▁fault	-9230
▁weekend	-9231
▁sectoral	-9232
▁divisions	-9233
▁isolation	-9234
epal	-9235
table	-9236
▁1989,	-9237
▁afraid	-9238
▁militi	-9239
▁harmful	-9240
▁impacts	-9241
▁prerequ	-9242
▁unacceptable	-9243
▁Procuratorate	-9244
▁pul	-9245
▁colleg	-9246
▁wastes	-9247
▁Encoura	-9248
▁survive	-9249
▁Secondly	-9250
▁employee	-9251
▁leverage	-9252
▁Institution	-9253
▁Inf	-9254
▁amid	-9255
▁format	-9256
▁dangers	-9257
fficiency	-9258
▁accepting	-9259
▁penalties	-9260
▁Ir	-9261
▁LDCs	-9262
▁Acting	-9263
▁stories	-9264
▁volunte	-9265
▁exceptional	-9266
▁reimbursement	-9267
She	-9268
ambia	-9269
▁Mand	-9270
▁Post	-9271
uccess	-9272
pection	-9273
▁tariffs	-9274
▁distance	-9275
▁appraisal	-9276
ozy	-9277
rance	-9278
airmen	-9279
▁style	-9280
▁grants	-9281
▁themes	-9282
▁finished	-9283
▁exporters	-9284
▁possession	-9285
sm	-9286
MAN	-9287
▁$10	-9288
▁awa	-9289
▁Euro	-9290
▁bare	-9291
itative	-9292
▁updated	-9293
▁governed	-9294
▁reportedly	-9295
Serb	-9296
▁Met	-9297
▁Love	-9298
▁contemporary	-9299
89	-9300
berg	-9301
ears	-9302
▁bon	-9303
▁hat	-9304
nings	-9305
▁2009	-9306
▁spare	-9307
▁timet	-9308
▁shadow	-9309
▁dismant	-9310
▁circulation	-9311
▁Wang	-9312
▁split	-9313
▁Cypriot	-9314
▁assured	-9315
▁athletes	-9316
▁restored	-9317
▁tangible	-9318
▁inventory	-9319
Proliferation	-9320
▁toll	-9321
▁waterc	-9322
▁violate	-9323
▁openness	-9324
▁dedicated	-9325
▁tor	-9326
▁milk	-9327
▁quarters	-9328
▁Currently	-9329
dec	-9330
▁58.	-9331
ophob	-9332
tifying	-9333
▁Recent	-9334
▁backed	-9335
▁cadres	-9336
▁perfec	-9337
▁initiate	-9338
▁inclusive	-9339
▁breakthrough	-9340
OND	-9341
▁Hel	-9342
aping	-9343
▁Bout	-9344
▁UNAVEM	-9345
▁assure	-9346
▁outset	-9347
▁obstacle	-9348
▁printing	-9349
▁preferred	-9350
▁Liberation	-9351
▁Transition	-9352
▁artificial	-9353
ka	-9354
▁chap	-9355
▁oral	-9356
▁birds	-9357
itively	-9358
▁Academy	-9359
▁mitigate	-9360
▁Kazakhstan	-9361
▁Statistics	-9362
▁nationwide	-9363
▁stipulations	-9364
▁ow	-9365
plan	-9366
▁See	-9367
▁beat	-9368
▁bridge	-9369
▁remind	-9370
olerance	-9371
▁auspices	-9372
▁creative	-9373
▁invasion	-9374
▁maternal	-9375
▁Note	-9376
▁busy	-9377
▁linkages	-9378
▁mountain	-9379
▁recipient	-9380
▁impression	-9381
▁experiencing	-9382
▁boat	-9383
▁younger	-9384
▁demanding	-9385
AIR	-9386
zing	-9387
▁Spe	-9388
▁Look	-9389
▁UNOMIL	-9390
▁100,000	-9391
▁arrival	-9392
▁intense	-9393
▁trigger	-9394
▁alleviation	-9395
bek	-9396
Europe	-9397
▁defer	-9398
▁tempor	-9399
▁ministry	-9400
▁criminals	-9401
▁justified	-9402
tw	-9403
▁Lt	-9404
iban	-9405
made	-9406
olic	-9407
▁enact	-9408
▁Kyrgyz	-9409
▁adults	-9410
▁accommodation	-9411
awi	-9412
▁vit	-9413
▁(197	-9414
arkozy	-9415
▁saved	-9416
▁Martin	-9417
▁costly	-9418
▁merger	-9419
▁factories	-9420
▁instances	-9421
▁attempting	-9422
▁devastating	-9423
▁beneficiaries	-9424
▁Rome	-9425
▁shortage	-9426
management	-9427
▁fulfilling	-9428
31	-9429
▁Labor	-9430
▁panel	-9431
▁Latvia	-9432
▁harder	-9433
▁Boutros	-9434
▁hygiene	-9435
▁demobilization	-9436
▁sky	-9437
orted	-9438
useum	-9439
▁hair	-9440
istent	-9441
▁Field	-9442
▁crude	-9443
▁10,000	-9444
ecessary	-9445
▁Christian	-9446
▁assessing	-9447
▁radiation	-9448
▁Consultative	-9449
▁IS	-9450
▁propag	-9451
▁Michael	-9452
▁maintains	-9453
▁alternatives	-9454
NP	-9455
ja	-9456
fter	-9457
ounter	-9458
▁teach	-9459
▁solely	-9460
▁solving	-9461
▁whereby	-9462
▁accomplish	-9463
▁tremendous	-9464
that	-9465
▁flu	-9466
▁Compan	-9467
▁Unless	-9468
▁robust	-9469
▁suspend	-9470
▁modalities	-9471
4%	-9472
▁1.5	-9473
▁ACC	-9474
▁Pet	-9475
▁Much	-9476
ireless	-9477
▁stores	-9478
▁Richard	-9479
▁flowers	-9480
▁urgency	-9481
▁reputation	-9482
▁Ge	-9483
▁metres	-9484
▁refrain	-9485
▁reviewing	-9486
OL	-9487
▁champ	-9488
▁generating	-9489
▁vulnerability	-9490
ky	-9491
ynes	-9492
▁Wind	-9493
lining	-9494
▁talked	-9495
▁unknown	-9496
▁moderate	-9497
▁Professor	-9498
arms	-9499
ican	-9500
▁ham	-9501
ATION	-9502
Where	-9503
ancies	-9504
▁piece	-9505
▁townships	-9506
▁subparagraph	-9507
▁Gra	-9508
▁Mat	-9509
▁proven	-9510
▁medicines	-9511
▁geopolitical	-9512
/20	-9513
▁$9	-9514
four	-9515
▁$100	-9516
rained	-9517
▁2010,	-9518
▁Camer	-9519
ambular	-9520
▁scarce	-9521
▁Armenia	-9522
▁telling	-9523
▁licenses	-9524
▁cleansing	-9525
▁residential	-9526
1%	-9527
pass	-9528
▁Rica	-9529
ichuan	-9530
lected	-9531
▁facto	-9532
▁durable	-9533
▁Companies	-9534
▁arguments	-9535
▁deflation	-9536
▁reorganiz	-9537
▁earned	-9538
▁unfair	-9539
▁reunification	-9540
after	-9541
▁Woods	-9542
▁hotel	-9543
▁patient	-9544
▁produces	-9545
▁Regarding	-9546
▁basically	-9547
▁DC	-9548
▁400	-9549
aharan	-9550
▁1998,	-9551
▁surge	-9552
▁Estonia	-9553
▁License	-9554
▁answers	-9555
▁depending	-9556
▁intermedi	-9557
CH	-9558
▁halt	-9559
▁Cuban	-9560
atories	-9561
urances	-9562
▁clothes	-9563
▁Agriculture	-9564
Oh	-9565
zhen	-9566
cotic	-9567
obile	-9568
▁Vlad	-9569
vation	-9570
▁enrich	-9571
▁honest	-9572
▁rhetoric	-9573
▁concluding	-9574
▁navigation	-9575
▁preambular	-9576
▁Ltd	-9577
▁aer	-9578
▁flat	-9579
▁relic	-9580
nuclear	-9581
▁hosted	-9582
▁fertility	-9583
▁withdrawn	-9584
▁temporarily	-9585
▁concentration	-9586
▁BR	-9587
fuel	-9588
andum	-9589
uated	-9590
▁Sarkozy	-9591
▁Taliban	-9592
▁apparently	-9593
▁specialists	-9594
orandum	-9595
▁resett	-9596
▁advertise	-9597
▁concentrate	-9598
USAL	-9599
▁ought	-9600
▁Serbia	-9601
▁solved	-9602
▁Tanzania	-9603
▁radioactive	-9604
▁collectively	-9605
▁Rad	-9606
ollah	-9607
▁Black	-9608
idation	-9609
▁massac	-9610
▁arranged	-9611
PEC	-9612
gments	-9613
▁pieces	-9614
▁pledge	-9615
▁ranging	-9616
▁totally	-9617
▁condemned	-9618
▁keen	-9619
sharing	-9620
▁promotes	-9621
▁complementary	-9622
ruel	-9623
▁Roy	-9624
▁mail	-9625
▁Robert	-9626
▁Mainland	-9627
▁disagree	-9628
▁retained	-9629
▁challenging	-9630
ford	-9631
▁61.	-9632
▁Free	-9633
▁outs	-9634
▁orient	-9635
▁summar	-9636
▁counsel	-9637
▁creates	-9638
▁Recommend	-9639
▁conscious	-9640
GE	-9641
▁58	-9642
▁57.	-9643
▁Rem	-9644
adays	-9645
▁Interim	-9646
▁judiciary	-9647
Why	-9648
▁FDI	-9649
▁Comb	-9650
▁publish	-9651
▁Pakistani	-9652
▁twentieth	-9653
llor	-9654
▁193	-9655
apped	-9656
mental	-9657
▁2005.	-9658
▁Annex	-9659
▁Sichuan	-9660
▁cigaret	-9661
▁exercised	-9662
▁mortgages	-9663
▁contractor	-9664
ui	-9665
▁5%	-9666
eenth	-9667
endar	-9668
▁Atomic	-9669
▁talent	-9670
▁refusal	-9671
▁shipping	-9672
▁stresses	-9673
▁dependence	-9674
▁accomplished	-9675
▁qualification	-9676
!”	-9677
▁Hol	-9678
▁Kurd	-9679
▁Costa	-9680
▁Nobel	-9681
▁horse	-9682
▁worker	-9683
▁Egyptian	-9684
▁purchased	-9685
▁Open	-9686
▁dear	-9687
funded	-9688
invest	-9689
foreign	-9690
▁inherent	-9691
▁securing	-9692
▁predecessor	-9693
/47	-9694
seen	-9695
inate	-9696
ography	-9697
▁Church	-9698
▁guiding	-9699
▁suddenly	-9700
23	-9701
ione	-9702
▁bes	-9703
▁Property	-9704
▁architect	-9705
sians	-9706
▁Tour	-9707
▁Clear	-9708
▁depth	-9709
▁named	-9710
▁expresses	-9711
▁predicted	-9712
▁inevitably	-9713
1).	-9714
voy	-9715
Self	-9716
supp	-9717
wood	-9718
▁lux	-9719
▁Have	-9720
▁fled	-9721
▁till	-9722
▁motor	-9723
▁convene	-9724
▁inflows	-9725
▁nationalism	-9726
▁"1	-9727
▁$8	-9728
▁Det	-9729
▁Mul	-9730
▁Nepal	-9731
ountered	-9732
▁Whether	-9733
▁equipped	-9734
▁unlawful	-9735
▁pragmatic	-9736
▁suggestion	-9737
▁encountered	-9738
pt	-9739
aba	-9740
olf	-9741
▁cy	-9742
▁900	-9743
▁cab	-9744
reshold	-9745
▁airspace	-9746
▁globally	-9747
▁manufacturers	-9748
gers	-9749
▁asc	-9750
acity	-9751
eless	-9752
gence	-9753
▁Bret	-9754
▁unus	-9755
▁wors	-9756
▁advisers	-9757
▁granting	-9758
▁regulate	-9759
▁neighbours	-9760
▁sophisticated	-9761
iber	-9762
▁Sav	-9763
▁Tex	-9764
▁whe	-9765
/1993	-9766
▁Park	-9767
▁luck	-9768
ortive	-9769
▁Zhang	-9770
▁debates	-9771
▁eligible	-9772
▁operator	-9773
▁appreciated	-9774
▁enhancement	-9775
44	-9776
LC	-9777
car	-9778
▁bol	-9779
anges	-9780
▁Nord	-9781
▁harb	-9782
▁demanded	-9783
65	-9784
With	-9785
▁60.	-9786
▁64.	-9787
▁Moh	-9788
▁Cath	-9789
▁2006.	-9790
▁privatization	-9791
ey	-9792
die	-9793
try	-9794
held	-9795
▁flaw	-9796
▁param	-9797
▁Safety	-9798
▁surprising	-9799
atar	-9800
etus	-9801
gain	-9802
▁Hist	-9803
▁Strip	-9804
▁ports	-9805
▁Contin	-9806
▁divide	-9807
▁taught	-9808
▁shortages	-9809
▁timetable	-9810
▁innovations	-9811
6%	-9812
cap	-9813
ille	-9814
▁shot	-9815
****	-9816
▁Lus	-9817
▁breat	-9818
ropical	-9819
▁ECOMOG	-9820
▁bubble	-9821
▁invite	-9822
▁awarded	-9823
▁permits	-9824
▁machines	-9825
▁translation	-9826
owed	-9827
vard	-9828
osion	-9829
enders	-9830
▁lease	-9831
▁Paulson	-9832
▁Initiative	-9833
▁comprising	-9834
uador	-9835
▁club	-9836
ethnic	-9837
inafter	-9838
reasing	-9839
urrence	-9840
▁commem	-9841
▁harass	-9842
▁humans	-9843
▁Merrill	-9844
▁bidding	-9845
▁embrace	-9846
▁disappear	-9847
bt	-9848
den	-9849
itt	-9850
▁hur	-9851
▁wise	-9852
Israel	-9853
▁UNIDO	-9854
▁satellites	-9855
▁63.	-9856
▁Lee	-9857
▁UNU	-9858
▁onto	-9859
▁2000.	-9860
▁Namib	-9861
▁Settle	-9862
▁Slovak	-9863
▁utilized	-9864
▁attracted	-9865
My	-9866
iest	-9867
rors	-9868
▁Ghana	-9869
▁beings	-9870
▁raises	-9871
▁segment	-9872
▁duplication	-9873
▁Transitional	-9874
On	-9875
▁64	-9876
▁67	-9877
from	-9878
▁Sino	-9879
remlin	-9880
enophob	-9881
▁arrive	-9882
ondition	-9883
▁meantime	-9884
▁202	-9885
▁Did	-9886
▁Wal	-9887
ONDON	-9888
▁Road	-9889
elfare	-9890
itizens	-9891
▁valued	-9892
▁affects	-9893
▁tendency	-9894
▁Monitoring	-9895
▁capitalism	-9896
▁Settlements	-9897
▁honor	-9898
▁absorb	-9899
▁breast	-9900
▁unrest	-9901
▁termination	-9902
▁psychological	-9903
▁Lim	-9904
▁PLA	-9905
▁Area	-9906
▁Doha	-9907
▁Macau	-9908
▁LONDON	-9909
▁Kremlin	-9910
▁Sudanese	-9911
▁benchmark	-9912
adian	-9913
▁alive	-9914
/1994/1	-9915
atility	-9916
▁client	-9917
▁parent	-9918
▁spheres	-9919
▁gathering	-9920
▁temperature	-9921
▁broadcasting	-9922
sten	-9923
well	-9924
▁swim	-9925
▁Keynes	-9926
▁masses	-9927
▁Premier	-9928
▁wealthy	-9929
Governing	-9930
▁coherent	-9931
▁exceeded	-9932
▁violates	-9933
▁visitors	-9934
▁signature	-9935
▁requesting	-9936
▁traditionally	-9937
friend	-9938
▁aggra	-9939
▁embod	-9940
▁Romania	-9941
▁relates	-9942
▁downturn	-9943
▁Oil	-9944
emics	-9945
▁evac	-9946
▁ruled	-9947
▁Jewish	-9948
▁defeat	-9949
▁testim	-9950
▁Bretton	-9951
▁ensured	-9952
▁happening	-9953
▁reinforced	-9954
▁notification	-9955
IF	-9956
MIH	-9957
Not	-9958
etit	-9959
imir	-9960
oded	-9961
▁Abd	-9962
▁semi	-9963
levant	-9964
▁asser	-9965
▁Mongolia	-9966
▁servicing	-9967
▁expressing	-9968
▁installation	-9969
OPS	-9970
risis	-9971
▁carries	-9972
▁futures	-9973
▁Electoral	-9974
▁infringement	-9975
▁59.	-9976
▁lob	-9977
▁Barb	-9978
▁auto	-9979
▁Inves	-9980
▁Would	-9981
▁utmost	-9982
▁imagine	-9983
▁secular	-9984
▁populist	-9985
▁complaint	-9986
▁incorporate	-9987
▁undermining	-9988
▁Comprehensive	-9989
▁NPT	-9990
▁fro	-9991
▁borne	-9992
perform	-9993
▁buyers	-9994
▁tables	-9995
▁malaria	-9996
▁suspected	-9997
49	-9998
cut	-9999
▁lag	-10000
urday	-10001
▁Viol	-10002
iration	-10003
▁weaker	-10004
▁Belgium	-10005
▁emotion	-10006
▁refuses	-10007
▁remarks	-10008
▁commence	-10009
▁struggling	-10010
▁limitations	-10011
ARI	-10012
lem	-10013
uras	-10014
▁ener	-10015
▁plun	-10016
▁tail	-10017
▁stone	-10018
▁broadly	-10019
▁ignored	-10020
▁sponsored	-10021
uer	-10022
▁Henry	-10023
▁deriv	-10024
▁Emphas	-10025
▁lifting	-10026
rabudgetary	-10027
mail	-10028
▁67.	-10029
Afric	-10030
oided	-10031
▁Others	-10032
▁Thanks	-10033
▁shoulder	-10034
▁terrible	-10035
▁deepening	-10036
▁prolonged	-10037
▁expiration	-10038
▁consecutive	-10039
▁yen	-10040
unity	-10041
ompass	-10042
▁Model	-10043
▁alien	-10044
▁indef	-10045
▁upper	-10046
▁obliged	-10047
▁Vladimir	-10048
▁interpre	-10049
▁Budgetary	-10050
39	-10051
▁Ev	-10052
▁Guam	-10053
▁1990.	-10054
▁Brown	-10055
▁patrol	-10056
▁Besides	-10057
▁avoided	-10058
▁competit	-10059
▁monitors	-10060
▁pleasure	-10061
47	-10062
CN	-10063
▁Ce	-10064
▁nurs	-10065
▁prud	-10066
olving	-10067
▁Swiss	-10068
▁adult	-10069
growing	-10070
▁Lusaka	-10071
▁routes	-10072
▁Studies	-10073
▁limiting	-10074
▁minimize	-10075
▁dictators	-10076
abric	-10077
ebted	-10078
▁rape	-10079
▁rice	-10080
▁Major	-10081
▁shortly	-10082
▁superior	-10083
▁surprised	-10084
▁Enterprise	-10085
▁accommodate	-10086
▁accountable	-10087
otic	-10088
▁Hold	-10089
▁Yang	-10090
▁agrees	-10091
▁dreams	-10092
▁relics	-10093
▁ethical	-10094
▁efficiently	-10095
▁Kash	-10096
licate	-10097
▁1999,	-10098
▁anger	-10099
Saharan	-10100
▁postal	-10101
▁obviously	-10102
▁Inspection	-10103
05	-10104
egal	-10105
▁drag	-10106
▁Penal	-10107
▁minds	-10108
istical	-10109
▁highway	-10110
▁xenophob	-10111
▁taxpayers	-10112
▁threshold	-10113
▁perception	-10114
▁contractors	-10115
▁prohibition	-10116
▁2%	-10117
▁adds	-10118
▁Dutch	-10119
▁paras	-10120
▁hoping	-10121
▁oppose	-10122
▁Poverty	-10123
▁undersc	-10124
aundering	-10125
▁avoiding	-10126
▁supplied	-10127
▁contracting	-10128
▁Bah	-10129
estiv	-10130
ouses	-10131
▁rivers	-10132
▁slowed	-10133
▁impetus	-10134
▁damaging	-10135
▁upgrading	-10136
▁assurances	-10137
▁unanimously	-10138
All	-10139
▁68	-10140
▁9,	-10141
▁mode	-10142
utable	-10143
▁5,000	-10144
raction	-10145
▁Status	-10146
▁casualties	-10147
▁supportive	-10148
▁volatility	-10149
▁peacemaking	-10150
math	-10151
▁tea	-10152
oning	-10153
tities	-10154
▁Arbit	-10155
▁joining	-10156
▁library	-10157
▁pollutants	-10158
▁Educational	-10159
▁facilitated	-10160
▁unnecessary	-10161
So	-10162
exp	-10163
▁8,	-10164
▁Lank	-10165
owered	-10166
▁fired	-10167
▁broker	-10168
▁manual	-10169
▁workforce	-10170
▁pertaining	-10171
▁Ministerial	-10172
▁CHAIR	-10173
▁hards	-10174
▁dispar	-10175
▁Certain	-10176
▁gaining	-10177
▁suspect	-10178
▁magazine	-10179
▁relatives	-10180
Rus	-10181
▁Ice	-10182
▁thou	-10183
▁deprec	-10184
▁filing	-10185
▁noting	-10186
▁poison	-10187
▁wounded	-10188
▁Specific	-10189
▁statutory	-10190
▁observance	-10191
▁accelerating	-10192
▁declarations	-10193
▁lev	-10194
▁song	-10195
acement	-10196
control	-10197
minating	-10198
▁restoring	-10199
2).	-10200
▁Boliv	-10201
▁Madrid	-10202
▁thereon	-10203
▁deserves	-10204
▁rendered	-10205
▁fulfilled	-10206
rick	-10207
▁alt	-10208
▁sad	-10209
▁tall	-10210
itored	-10211
▁painful	-10212
▁tribunal	-10213
▁prejudice	-10214
▁sufficiently	-10215
dri	-10216
▁Qing	-10217
▁Royal	-10218
▁acted	-10219
anguage	-10220
▁pounds	-10221
▁accorded	-10222
▁logistics	-10223
▁optimistic	-10224
▁undermined	-10225
OK	-10226
rea	-10227
▁Bi	-10228
usted	-10229
▁Press	-10230
▁lists	-10231
selling	-10232
▁Growth	-10233
▁Session	-10234
unication	-10235
▁1996-199	-10236
▁Disaster	-10237
▁anywhere	-10238
▁Expresses	-10239
▁hyp	-10240
▁None	-10241
▁Rest	-10242
▁boys	-10243
▁insure	-10244
▁Ecuador	-10245
▁Rwandese	-10246
▁Saturday	-10247
▁failures	-10248
▁aftermath	-10249
▁authoritarian	-10250
asp	-10251
dad	-10252
▁65.	-10253
ceans	-10254
gered	-10255
▁VIII	-10256
▁Maced	-10257
▁fluct	-10258
looking	-10259
▁Excell	-10260
▁legacy	-10261
▁Financing	-10262
▁witnesses	-10263
▁AIG	-10264
▁scr	-10265
alien	-10266
ogram	-10267
stone	-10268
▁dual	-10269
▁parad	-10270
▁rental	-10271
▁passage	-10272
▁Building	-10273
▁Particip	-10274
▁boundary	-10275
▁encompass	-10276
▁targeting	-10277
▁applicants	-10278
will	-10279
▁40%	-10280
▁Sri	-10281
locked	-10282
hibition	-10283
▁exploit	-10284
▁disadvantaged	-10285
aks	-10286
▁iP	-10287
▁veto	-10288
▁elite	-10289
▁grate	-10290
▁plain	-10291
▁shocks	-10292
▁Internal	-10293
▁auditing	-10294
▁commended	-10295
▁installed	-10296
▁circulated	-10297
▁logistical	-10298
▁explanations	-10299
hy	-10300
▁61	-10301
hasa	-10302
restim	-10303
▁Order	-10304
▁Sunni	-10305
▁pione	-10306
▁neglect	-10307
▁frontier	-10308
▁internet	-10309
▁breakdown	-10310
▁threatens	-10311
▁correspond	-10312
77	-10313
▁Chic	-10314
▁Sixth	-10315
▁angry	-10316
▁badly	-10317
tically	-10318
▁minute	-10319
▁traded	-10320
▁monitored	-10321
▁decolonization	-10322
▁95	-10323
▁Uz	-10324
▁Dra	-10325
▁Rom	-10326
▁lift	-10327
airobi	-10328
▁Market	-10329
▁resign	-10330
▁dominant	-10331
/19	-10332
och	-10333
irac	-10334
▁62.	-10335
▁Ger	-10336
▁sand	-10337
▁chose	-10338
ointing	-10339
▁watched	-10340
▁Israelis	-10341
▁intervene	-10342
▁organisation	-10343
ga	-10344
III	-10345
▁erup	-10346
▁feels	-10347
▁smart	-10348
▁wildlife	-10349
▁Insurance	-10350
▁forgotten	-10351
▁procuring	-10352
hereinafter	-10353
▁unsustainable	-10354
38	-10355
oes	-10356
▁Ji	-10357
stein	-10358
▁desp	-10359
▁Nairobi	-10360
▁forever	-10361
existence	-10362
▁creditor	-10363
▁underpin	-10364
▁motivated	-10365
▁absolutely	-10366
▁assignment	-10367
▁succession	-10368
reb	-10369
▁$20	-10370
tional	-10371
iversal	-10372
▁doubts	-10373
▁Albania	-10374
▁Canadian	-10375
▁competing	-10376
▁procedural	-10377
▁Corporation	-10378
▁Supplementary	-10379
uven	-10380
▁quo	-10381
emies	-10382
trade	-10383
▁pick	-10384
▁perip	-10385
▁stret	-10386
regular	-10387
▁Berlin	-10388
▁ONUSAL	-10389
▁stance	-10390
vity	-10391
▁Men	-10392
Japan	-10393
child	-10394
▁insecurity	-10395
▁restaurant	-10396
▁color	-10397
▁Freddie	-10398
▁advised	-10399
▁couples	-10400
▁defining	-10401
▁supplier	-10402
▁Reaffirms	-10403
▁differenti	-10404
unk	-10405
long	-10406
▁Jean	-10407
▁cool	-10408
▁jour	-10409
▁Deleg	-10410
▁tested	-10411
▁indebted	-10412
▁offshore	-10413
▁approving	-10414
▁exchanged	-10415
liest	-10416
▁Scot	-10417
▁logic	-10418
▁unequ	-10419
▁Arabic	-10420
▁carrier	-10421
▁compensate	-10422
▁confronted	-10423
▁formalities	-10424
▁prostitution	-10425
67	-10426
OV	-10427
rian	-10428
/1995	-10429
▁Lord	-10430
▁dies	-10431
iating	-10432
▁files	-10433
▁resil	-10434
capital	-10435
ramework	-10436
PM	-10437
YP	-10438
▁phr	-10439
olved	-10440
▁puts	-10441
▁2,000	-10442
largest	-10443
▁(1994)	-10444
▁chances	-10445
▁advancing	-10446
▁consisting	-10447
▁72	-10448
▁odd	-10449
▁1985	-10450
▁empty	-10451
▁awards	-10452
▁rarely	-10453
▁Register	-10454
32	-10455
▁66.	-10456
▁pal	-10457
IDENT	-10458
▁pays	-10459
▁skin	-10460
aneous	-10461
▁slower	-10462
▁Harvard	-10463
alienable	-10464
▁discussing	-10465
▁Partnership	-10466
▁disseminate	-10467
spe	-10468
ysis	-10469
▁reck	-10470
▁bears	-10471
ticular	-10472
▁Chicago	-10473
▁belongs	-10474
▁rightly	-10475
▁pensions	-10476
▁returnees	-10477
da	-10478
▁Lu	-10479
▁Hoc	-10480
▁crowd	-10481
▁brands	-10482
ointment	-10483
▁acceded	-10484
▁focuses	-10485
▁Shenzhen	-10486
▁protects	-10487
▁concurrently	-10488
68	-10489
ropic	-10490
▁PRES	-10491
▁Works	-10492
▁desired	-10493
▁CHAIRMAN	-10494
▁grateful	-10495
▁1994-1995.	-10496
▁comparable	-10497
▁vigorously	-10498
▁Item	-10499
racted	-10500
▁Qatar	-10501
▁rooms	-10502
▁Observ	-10503
▁UNOMIG	-10504
▁bailout	-10505
▁Governor	-10506
▁allocate	-10507
▁operated	-10508
▁resolute	-10509
▁shifting	-10510
▁opponents	-10511
▁ministerial	-10512
▁transformed	-10513
DR	-10514
bles	-10515
▁68.	-10516
▁rid	-10517
▁handed	-10518
▁reject	-10519
▁writer	-10520
▁pledges	-10521
▁Renminbi	-10522
▁clearing	-10523
▁educated	-10524
▁PRESIDENT	-10525
▁concession	-10526
▁indication	-10527
▁universally	-10528
▁nevertheless	-10529
▁bra	-10530
▁page	-10531
▁Index	-10532
▁Right	-10533
▁repeat	-10534
▁partial	-10535
▁visible	-10536
▁Christmas	-10537
can	-10538
chen	-10539
gies	-10540
iens	-10541
inte	-10542
iates	-10543
▁Near	-10544
▁suic	-10545
▁Uzbek	-10546
▁ventures	-10547
▁destination	-10548
▁neighboring	-10549
mun	-10550
ups	-10551
▁69	-10552
tech	-10553
▁Mah	-10554
▁hab	-10555
▁gaps	-10556
▁wear	-10557
Serbia	-10558
acting	-10559
▁plenty	-10560
▁sheets	-10561
▁forcing	-10562
▁explicitly	-10563
▁Nar	-10564
ridge	-10565
▁Purs	-10566
▁alum	-10567
▁Peter	-10568
▁incons	-10569
▁timing	-10570
▁critics	-10571
▁doubled	-10572
▁rebuild	-10573
▁Chemical	-10574
▁remedies	-10575
▁Framework	-10576
▁exclusion	-10577
▁providers	-10578
▁allowances	-10579
UNDP	-10580
▁pron	-10581
uality	-10582
▁Angel	-10583
▁enshr	-10584
▁Former	-10585
▁Unlike	-10586
▁indefin	-10587
▁injuries	-10588
▁description	-10589
▁guaranteeing	-10590
.2	-10591
IP	-10592
tax	-10593
▁ll	-10594
▁Mil	-10595
iment	-10596
▁hasn	-10597
▁ballot	-10598
▁delegates	-10599
▁rejection	-10600
▁endeavours	-10601
▁quantities	-10602
▁feasibility	-10603
▁feat	-10604
▁vers	-10605
▁Hence	-10606
▁erosion	-10607
▁licence	-10608
▁backward	-10609
▁dominated	-10610
▁interpret	-10611
▁indicating	-10612
aed	-10613
cture	-10614
▁1990’	-10615
▁plural	-10616
▁noticed	-10617
▁brothers	-10618
▁troubled	-10619
▁attending	-10620
▁collapsed	-10621
▁deteriorating	-10622
.'	-10623
soc	-10624
wage	-10625
▁Fut	-10626
▁seiz	-10627
▁abund	-10628
▁lacks	-10629
▁luxury	-10630
▁collecting	-10631
▁extrabudgetary	-10632
ram	-10633
you	-10634
▁CC	-10635
▁12,	-10636
▁dil	-10637
▁1950	-10638
▁pert	-10639
▁Appro	-10640
▁mixed	-10641
▁images	-10642
▁immense	-10643
▁directions	-10644
▁prerequisite	-10645
ps	-10646
4),	-10647
net	-10648
aint	-10649
fast	-10650
▁71.	-10651
risons	-10652
▁loyal	-10653
▁enforced	-10654
▁excluded	-10655
▁stabilize	-10656
▁conversion	-10657
ny	-10658
▁sake	-10659
▁admit	-10660
▁franc	-10661
ilation	-10662
▁church	-10663
▁executing	-10664
▁shareholder	-10665
▁conversation	-10666
bor	-10667
Then	-10668
ilty	-10669
▁Iss	-10670
▁fat	-10671
▁Branch	-10672
▁discont	-10673
▁smoking	-10674
▁colleges	-10675
▁isolated	-10676
▁republic	-10677
▁enjoyment	-10678
▁Application	-10679
▁empowerment	-10680
TR	-10681
inf	-10682
▁Jones	-10683
▁texts	-10684
▁argues	-10685
▁assass	-10686
▁Namibia	-10687
▁enlarge	-10688
▁mandatory	-10689
▁Prosecutor	-10690
▁questioned	-10691
▁Sa	-10692
inal	-10693
▁Pun	-10694
ghdad	-10695
▁edge	-10696
▁hung	-10697
▁Armed	-10698
▁Lanka	-10699
▁restrict	-10700
▁advocates	-10701
▁Zone	-10702
▁unde	-10703
▁movie	-10704
▁weigh	-10705
▁Nordic	-10706
▁fabric	-10707
▁lifted	-10708
▁printed	-10709
▁Liberian	-10710
▁boosting	-10711
▁presents	-10712
▁Macedonia	-10713
▁liberation	-10714
▁underground	-10715
▁resettlement	-10716
▁automatically	-10717
BM	-10718
born	-10719
▁Abu	-10720
▁Xia	-10721
▁bur	-10722
These	-10723
▁exha	-10724
▁dinner	-10725
▁insist	-10726
▁verify	-10727
igration	-10728
▁reliance	-10729
▁eradicate	-10730
▁fostering	-10731
▁successes	-10732
▁accessible	-10733
▁Fortunately	-10734
▁accumulated	-10735
-0	-10736
▁AR	-10737
▁sn	-10738
izon	-10739
inent	-10740
▁oceans	-10741
▁placing	-10742
▁discount	-10743
righ	-10744
▁10,	-10745
▁30%	-10746
▁hes	-10747
annie	-10748
▁Forms	-10749
▁Beyond	-10750
▁chronic	-10751
▁helpful	-10752
▁traders	-10753
▁1992-1993	-10754
▁licensing	-10755
▁weakening	-10756
▁exceptions	-10757
▁motherland	-10758
hk	-10759
▁62	-10760
abul	-10761
▁replies	-10762
▁Abkhazia	-10763
▁attacked	-10764
▁deadline	-10765
▁deprived	-10766
▁Conventions	-10767
qual	-10768
zhou	-10769
▁arti	-10770
▁sells	-10771
▁throw	-10772
▁calendar	-10773
▁declines	-10774
▁vigorous	-10775
▁institute	-10776
▁consulting	-10777
▁intentions	-10778
▁positively	-10779
{9	-10780
▁70.	-10781
▁Sol	-10782
▁cha	-10783
▁1987	-10784
▁bloc	-10785
▁park	-10786
racial	-10787
▁regain	-10788
▁cheaper	-10789
▁outputs	-10790
▁renewal	-10791
▁Document	-10792
▁Interest	-10793
▁kilogram	-10794
▁mobility	-10795
▁reporters	-10796
▁certification	-10797
afe	-10798
arer	-10799
▁120	-10800
▁69.	-10801
▁hatred	-10802
▁stockp	-10803
▁Municip	-10804
▁receives	-10805
▁removing	-10806
▁convicted	-10807
▁propaganda	-10808
▁resumption	-10809
heric	-10810
▁Erit	-10811
▁Hill	-10812
retion	-10813
▁scand	-10814
▁Negoti	-10815
▁trades	-10816
▁listing	-10817
▁wherever	-10818
▁platforms	-10819
▁unexpected	-10820
Pro	-10821
ibly	-10822
▁$50	-10823
ahiri	-10824
itary	-10825
iture	-10826
▁deny	-10827
▁Effec	-10828
▁risky	-10829
▁Fannie	-10830
▁laying	-10831
▁walking	-10832
▁measuring	-10833
▁frameworks	-10834
▁mitigation	-10835
▁philosophy	-10836
Es	-10837
/49/	-10838
anke	-10839
fold	-10840
aires	-10841
cessing	-10842
▁Xinhua	-10843
▁cancel	-10844
▁Habitat	-10845
▁beliefs	-10846
▁silence	-10847
▁describe	-10848
▁mobilizing	-10849
▁63	-10850
▁Cer	-10851
osium	-10852
▁Poly	-10853
outheast	-10854
▁divorce	-10855
▁enjoying	-10856
▁holdings	-10857
▁imperial	-10858
▁peasants	-10859
employment	-10860
▁Procedure	-10861
▁enthusiasm	-10862
uds	-10863
dong	-10864
▁fru	-10865
▁47/1	-10866
izations	-10867
▁Commercial	-10868
▁literature	-10869
▁Registration	-10870
▁ty	-10871
▁CAM	-10872
▁Balk	-10873
▁Allow	-10874
▁Youth	-10875
▁overl	-10876
▁accred	-10877
▁affirm	-10878
idelines	-10879
▁Baghdad	-10880
▁Network	-10881
▁Nothing	-10882
▁capture	-10883
▁signals	-10884
▁skilled	-10885
▁pictures	-10886
oure	-10887
orses	-10888
minded	-10889
▁governor	-10890
▁dismissed	-10891
▁impartial	-10892
▁Lo	-10893
itate	-10894
▁pull	-10895
▁tens	-10896
▁Lhasa	-10897
▁poses	-10898
▁Ukrain	-10899
▁resist	-10900
▁advocated	-10901
▁entertain	-10902
▁contracted	-10903
educ	-10904
sels	-10905
▁Vir	-10906
estate	-10907
▁seize	-10908
▁sympt	-10909
▁McCain	-10910
▁incumb	-10911
▁quotas	-10912
▁Officer	-10913
▁Peoples	-10914
▁vaccine	-10915
▁biennial	-10916
▁mounting	-10917
appropriate	-10918
▁revolutionary	-10919
46	-10920
55	-10921
▁desk	-10922
▁glad	-10923
▁irrig	-10924
ortions	-10925
▁bitter	-10926
▁pretty	-10927
▁exceeds	-10928
▁Universal	-10929
▁addresses	-10930
▁proceeded	-10931
▁interdependence	-10932
elau	-10933
writ	-10934
eping	-10935
▁Anti	-10936
▁Budd	-10937
▁sequ	-10938
▁Medic	-10939
▁turns	-10940
▁illiter	-10941
▁Electric	-10942
▁Officials	-10943
▁Excellency	-10944
▁preserving	-10945
▁intolerance	-10946
▁orientation	-10947
▁GM	-10948
▁ye	-10949
agon	-10950
rage	-10951
,000,	-10952
clear	-10953
ometers	-10954
▁embrac	-10955
▁occurs	-10956
▁caution	-10957
▁petroleum	-10958
▁stagnation	-10959
▁Organizations	-10960
48	-10961
TS	-10962
ko	-10963
TON	-10964
▁km	-10965
clock	-10966
▁editor	-10967
▁yields	-10968
▁Islamist	-10969
▁insisted	-10970
▁postponed	-10971
▁derivatives	-10972
AF	-10973
asted	-10974
▁Take	-10975
▁diet	-10976
▁moon	-10977
▁snow	-10978
▁Frank	-10979
▁Niger	-10980
▁dozen	-10981
▁guilty	-10982
▁render	-10983
ressional	-10984
▁fairness	-10985
▁repression	-10986
▁reinforcing	-10987
▁urbanization	-10988
bas	-10989
yang	-10990
▁77.	-10991
▁une	-10992
▁Real	-10993
▁Could	-10994
▁coinc	-10995
iencies	-10996
Chairmen	-10997
▁Auditors	-10998
▁decreased	-10999
▁confronting	-11000
ICYP	-11001
tices	-11002
licted	-11003
▁ninet	-11004
▁smoke	-11005
▁basket	-11006
▁bargain	-11007
▁breaking	-11008
▁comprises	-11009
▁Uzbekistan	-11010
▁successive	-11011
▁establishes	-11012
gs	-11013
ius	-11014
stop	-11015
▁Was	-11016
▁unch	-11017
▁crack	-11018
▁foods	-11019
▁pages	-11020
▁stars	-11021
russels	-11022
tiality	-11023
▁breach	-11024
▁driver	-11025
▁qualities	-11026
▁depression	-11027
,’	-11028
41	-11029
occ	-11030
oping	-11031
▁patri	-11032
▁minors	-11033
▁inability	-11034
▁nominated	-11035
▁adaptation	-11036
▁emphasizes	-11037
▁impressive	-11038
xi	-11039
aug	-11040
ids	-11041
umph	-11042
▁intra	-11043
▁Spring	-11044
▁Jamahiri	-11045
▁precious	-11046
xy	-11047
▁·	-11048
▁88	-11049
BRID	-11050
▁000	-11051
▁MIN	-11052
▁adj	-11053
▁cum	-11054
▁unre	-11055
▁2009,	-11056
▁Final	-11057
otropic	-11058
▁thinks	-11059
essation	-11060
riminate	-11061
Government	-11062
▁irregular	-11063
▁Jamahiriya	-11064
▁Statistical	-11065
▁fundamentally	-11066
aming	-11067
armed	-11068
▁elev	-11069
▁sons	-11070
BRIDGE	-11071
▁Racial	-11072
▁optimism	-11073
▁tropical	-11074
▁CAMBRIDGE	-11075
▁offensive	-11076
▁exhibition	-11077
▁presidents	-11078
▁privileges	-11079
▁cooperating	-11080
▁harmonization	-11081
Pe	-11082
▁73	-11083
fifth	-11084
▁Alex	-11085
▁Erdo	-11086
▁Jama	-11087
hentic	-11088
▁outline	-11089
▁relying	-11090
▁utilize	-11091
▁stipulates	-11092
/48/	-11093
▁73.	-11094
▁Data	-11095
▁flown	-11096
▁sixth	-11097
seventh	-11098
▁fought	-11099
▁intend	-11100
▁sponsor	-11101
sponsored	-11102
titioners	-11103
▁finances	-11104
▁fragment	-11105
▁thoughts	-11106
▁Welcoming	-11107
ails	-11108
▁Que	-11109
atile	-11110
▁UNOPS	-11111
▁affili	-11112
▁aliens	-11113
▁speeds	-11114
▁Windows	-11115
▁upgrade	-11116
▁separati	-11117
▁proceeding	-11118
▁weaknesses	-11119
▁appropriately	-11120
▁consolidating	-11121
abed	-11122
umer	-11123
eared	-11124
▁bureau	-11125
▁Angolan	-11126
▁Tokelau	-11127
▁reaffirms	-11128
▁similarly	-11129
▁fulfilment	-11130
▁corrections	-11131
▁clarification	-11132
EU	-11133
style	-11134
▁Pier	-11135
▁sees	-11136
▁quest	-11137
▁brutal	-11138
▁Bolivia	-11139
▁prisons	-11140
▁attracting	-11141
76	-11142
Can	-11143
eing	-11144
uits	-11145
▁pes	-11146
▁Consid	-11147
▁jumped	-11148
▁disclosure	-11149
▁protectionism	-11150
▁administrations	-11151
▁76	-11152
▁ECE	-11153
▁Ric	-11154
▁fly	-11155
inger	-11156
▁doctr	-11157
▁Engine	-11158
▁Ethnic	-11159
▁adviser	-11160
▁liberty	-11161
▁engineers	-11162
▁subregion	-11163
▁supervisors	-11164
▁appropriation	-11165
▁justification	-11166
▁Ban	-11167
▁thri	-11168
▁Talks	-11169
▁camer	-11170
▁liked	-11171
▁treas	-11172
▁battal	-11173
▁drastic	-11174
▁journey	-11175
▁richest	-11176
▁transmit	-11177
▁amounting	-11178
▁testimony	-11179
▁nomination	-11180
▁integrating	-11181
-3	-11182
ynch	-11183
▁biod	-11184
▁envir	-11185
▁audience	-11186
▁downward	-11187
▁revisions	-11188
▁triggered	-11189
▁Depression	-11190
▁attainment	-11191
▁reflection	-11192
▁beneficiary	-11193
▁demonstrations	-11194
OF	-11195
vi	-11196
upp	-11197
▁79	-11198
▁Up	-11199
late	-11200
▁aug	-11201
▁web	-11202
lical	-11203
▁Zambia	-11204
▁advocate	-11205
▁Reduction	-11206
▁detainees	-11207
▁elaborate	-11208
col	-11209
▁CIS	-11210
▁hect	-11211
▁maln	-11212
estock	-11213
▁error	-11214
▁rises	-11215
▁impover	-11216
▁retired	-11217
▁postpone	-11218
▁adversely	-11219
▁allegedly	-11220
▁associate	-11221
▁disturbing	-11222
▁demonstrates	-11223
▁15%	-11224
▁2015	-11225
▁Next	-11226
atched	-11227
▁roots	-11228
dumping	-11229
▁remedy	-11230
▁wholly	-11231
▁Guangdong	-11232
▁discriminatory	-11233
zb	-11234
aked	-11235
▁72.	-11236
▁Sin	-11237
▁rub	-11238
worth	-11239
▁hire	-11240
▁globe	-11241
▁seeds	-11242
manship	-11243
▁lacking	-11244
arization	-11245
▁Brussels	-11246
▁widening	-11247
▁restraint	-11248
▁analytical	-11249
▁Independence	-11250
▁neighborhood	-11251
eff	-11252
ios	-11253
new	-11254
▁Bay	-11255
▁overh	-11256
▁Nature	-11257
▁subord	-11258
▁Welfare	-11259
▁burdens	-11260
▁lenders	-11261
▁Economics	-11262
▁realizing	-11263
▁translate	-11264
▁substitute	-11265
▁competitors	-11266
▁expectation	-11267
▁nationalist	-11268
▁contributors	-11269
bert	-11270
elve	-11271
▁(7)	-11272
▁bio	-11273
▁bulk	-11274
▁Jiang	-11275
▁dress	-11276
▁burning	-11277
▁weakened	-11278
▁expectancy	-11279
▁kilometers	-11280
▁underlined	-11281
▁encouragement	-11282
59	-11283
TC	-11284
▁Youn	-11285
driven	-11286
▁centred	-11287
▁persuade	-11288
▁unwilling	-11289
▁discretion	-11290
▁lod	-11291
▁adoles	-11292
▁Earlier	-11293
▁captain	-11294
▁inquiry	-11295
▁masters	-11296
▁highways	-11297
▁Sometimes	-11298
▁imposition	-11299
▁87	-11300
▁Ts	-11301
▁Envoy	-11302
▁harsh	-11303
comings	-11304
erating	-11305
▁circle	-11306
▁rememb	-11307
▁backing	-11308
▁essence	-11309
▁striking	-11310
▁ambitions	-11311
▁Indonesian	-11312
▁compatible	-11313
▁harassment	-11314
▁undergoing	-11315
//	-11316
CD	-11317
oa	-11318
pan	-11319
uce	-11320
hour	-11321
▁$3.	-11322
Party	-11323
▁Come	-11324
▁breed	-11325
▁differ	-11326
▁disreg	-11327
▁Charles	-11328
▁District	-11329
▁borrowers	-11330
▁criticized	-11331
▁delivering	-11332
▁shortcomings	-11333
oot	-11334
ple	-11335
uant	-11336
▁Art	-11337
▁Liu	-11338
▁ble	-11339
eland	-11340
▁Camp	-11341
▁Does	-11342
ernity	-11343
▁hydro	-11344
▁intent	-11345
▁fishery	-11346
▁authentic	-11347
▁consultancy	-11348
▁preparedness	-11349
Gh	-11350
aven	-11351
eness	-11352
▁shook	-11353
▁tired	-11354
▁Appeal	-11355
interest	-11356
▁balances	-11357
▁modified	-11358
▁reciproc	-11359
▁activists	-11360
▁adherence	-11361
het	-11362
hran	-11363
▁Sand	-11364
▁scre	-11365
health	-11366
▁2001.	-11367
▁Erdoğ	-11368
▁cauti	-11369
▁sheet	-11370
▁UNIFEM	-11371
▁barely	-11372
▁titles	-11373
missible	-11374
▁windows	-11375
▁Citizens	-11376
▁attained	-11377
▁earliest	-11378
▁killings	-11379
▁pregnant	-11380
▁workload	-11381
▁spreading	-11382
▁Regulation	-11383
▁perpetrators	-11384
Cs	-11385
ami	-11386
----	-11387
oxide	-11388
▁rele	-11389
▁spur	-11390
tering	-11391
▁prize	-11392
▁banned	-11393
▁confer	-11394
▁Erdoğan	-11395
▁knowing	-11396
▁sincerely	-11397
▁preference	-11398
▁inalienable	-11399
▁stabilization	-11400
WAS	-11401
▁1%	-11402
itan	-11403
rence	-11404
▁intr	-11405
orship	-11406
raining	-11407
▁20,000	-11408
▁embass	-11409
▁Clearly	-11410
▁checked	-11411
▁holiday	-11412
represent	-11413
▁exported	-11414
▁ideology	-11415
▁cessation	-11416
▁imbalance	-11417
▁destructive	-11418
Now	-11419
▁1930	-11420
▁Jint	-11421
urious	-11422
estival	-11423
▁checks	-11424
▁freight	-11425
week	-11426
ighter	-11427
▁Advis	-11428
▁films	-11429
▁relay	-11430
▁surre	-11431
specific	-11432
▁Bernanke	-11433
▁cancellation	-11434
▁impartiality	-11435
58	-11436
appy	-11437
irit	-11438
▁Naz	-11439
▁ore	-11440
backed	-11441
▁Assad	-11442
▁Chance	-11443
▁Jintao	-11444
▁Lastly	-11445
▁enemies	-11446
▁ascertain	-11447
▁recovered	-11448
▁strongest	-11449
▁contingents	-11450
XV	-11451
/10	-11452
rah	-11453
ttp	-11454
ulum	-11455
ovation	-11456
▁poorer	-11457
▁Iceland	-11458
▁clarify	-11459
▁assuming	-11460
▁deciding	-11461
▁foremost	-11462
▁upcoming	-11463
▁Democracy	-11464
▁projections	-11465
64	-11466
://	-11467
cel	-11468
▁Br	-11469
▁Mu	-11470
▁Nav	-11471
riends	-11472
boundary	-11473
▁shouldn	-11474
▁naturally	-11475
▁reluctant	-11476
▁prosecuted	-11477
▁Agricultural	-11478
UL	-11479
tide	-11480
▁Ens	-11481
▁dom	-11482
entle	-11483
▁disb	-11484
ousing	-11485
▁Baltic	-11486
▁openly	-11487
▁redist	-11488
▁shifts	-11489
▁foresee	-11490
▁secured	-11491
▁triumph	-11492
▁Pursuant	-11493
▁Investors	-11494
▁socialism	-11495
▁ecosystems	-11496
▁translated	-11497
▁importantly	-11498
cer	-11499
ova	-11500
Year	-11501
odox	-11502
▁SEC	-11503
ierra	-11504
▁rapp	-11505
▁dates	-11506
European	-11507
▁explains	-11508
▁manpower	-11509
▁striving	-11510
▁pipelines	-11511
▁reorganization	-11512
▁CR	-11513
▁Il	-11514
cher	-11515
▁Lar	-11516
ector	-11517
idity	-11518
price	-11519
▁Hosp	-11520
▁Sony	-11521
▁ware	-11522
connec	-11523
iances	-11524
rights	-11525
▁Domin	-11526
▁ESCAP	-11527
▁boards	-11528
▁preval	-11529
▁volumes	-11530
▁comprise	-11531
▁Trademark	-11532
▁enshrined	-11533
▁Statements	-11534
▁altogether	-11535
▁laboratory	-11536
▁examinations	-11537
ym	-11538
ORD	-11539
board	-11540
ittle	-11541
▁Self	-11542
▁Town	-11543
▁fool	-11544
itated	-11545
▁2004.	-11546
▁rivals	-11547
ominated	-11548
▁Library	-11549
▁UNFICYP	-11550
criptions	-11551
▁messages	-11552
▁opposing	-11553
▁mountains	-11554
risk	-11555
atism	-11556
▁dece	-11557
▁Drugs	-11558
▁grade	-11559
▁Relief	-11560
▁exempl	-11561
▁habits	-11562
▁Tourism	-11563
▁stepped	-11564
▁judgement	-11565
▁phenomena	-11566
▁undertook	-11567
▁continuity	-11568
▁escalation	-11569
▁congratulations	-11570
fur	-11571
gem	-11572
▁DP	-11573
trad	-11574
iries	-11575
▁1999	-11576
▁Back	-11577
▁Deng	-11578
▁Poor	-11579
▁arsen	-11580
▁assemb	-11581
▁census	-11582
▁phases	-11583
▁phrase	-11584
▁advocacy	-11585
▁spectrum	-11586
▁authorize	-11587
▁Subsequently	-11588
57	-11589
88	-11590
En	-11591
adi	-11592
sub	-11593
▁Fl	-11594
▁75.	-11595
ifies	-11596
▁Home	-11597
▁parame	-11598
▁reveal	-11599
▁footing	-11600
▁inherit	-11601
roportion	-11602
▁occurring	-11603
▁villagers	-11604
▁investigating	-11605
▁2003.	-11606
▁cruel	-11607
▁shoes	-11608
lamation	-11609
▁Inspect	-11610
▁altered	-11611
▁credits	-11612
▁laboure	-11613
▁payable	-11614
▁frequency	-11615
oca	-11616
six	-11617
▁Ext	-11618
▁Han	-11619
Tibet	-11620
uerto	-11621
▁ment	-11622
icians	-11623
▁detri	-11624
ancement	-11625
▁wearing	-11626
▁demining	-11627
▁surpluses	-11628
▁conscience	-11629
▁speculation	-11630
▁Hezb	-11631
▁3,000	-11632
▁cloud	-11633
ussions	-11634
▁devote	-11635
▁elites	-11636
▁fruits	-11637
▁plight	-11638
▁Senegal	-11639
▁airports	-11640
▁employer	-11641
▁vaccines	-11642
▁designing	-11643
▁highlights	-11644
▁watercourse	-11645
9%	-11646
▁Leone	-11647
▁merit	-11648
general	-11649
umptions	-11650
▁attendance	-11651
▁Arbitration	-11652
▁communicate	-11653
▁distinguished	-11654
ela	-11655
arak	-11656
▁14,	-11657
▁76.	-11658
▁Dow	-11659
▁unh	-11660
▁nice	-11661
▁Malta	-11662
▁eager	-11663
▁Pierre	-11664
▁Puerto	-11665
▁Products	-11666
▁reminded	-11667
▁Nonetheless	-11668
▁Contribution	-11669
▁classification	-11670
wer	-11671
▁Ret	-11672
▁Sah	-11673
▁Hond	-11674
▁hall	-11675
▁chaos	-11676
▁device	-11677
▁oversee	-11678
▁Adoption	-11679
▁prompted	-11680
▁Southeast	-11681
▁Throughout	-11682
▁Communications	-11683
▁Pap	-11684
▁cur	-11685
▁imply	-11686
▁overt	-11687
▁enjoys	-11688
▁player	-11689
▁switch	-11690
tegrated	-11691
▁dioxide	-11692
▁typical	-11693
▁Alliance	-11694
▁Russians	-11695
▁reversed	-11696
▁defending	-11697
▁earnestly	-11698
▁exemption	-11699
▁kilograms	-11700
▁Kyrgyzstan	-11701
▁cultivation	-11702
aeda	-11703
▁thy	-11704
tisan	-11705
▁hired	-11706
friendly	-11707
▁corrupt	-11708
▁evolved	-11709
▁inception	-11710
▁illiteracy	-11711
asy	-11712
▁Hy	-11713
elect	-11714
▁MDGs	-11715
▁Thom	-11716
▁thin	-11717
etings	-11718
ounder	-11719
▁Arabs	-11720
forcement	-11721
▁graduate	-11722
▁consultant	-11723
TAR	-11724
awa	-11725
kin	-11726
ects	-11727
▁2.5	-11728
▁unt	-11729
5,000	-11730
arted	-11731
▁1986	-11732
▁Jews	-11733
cotics	-11734
viously	-11735
▁propri	-11736
▁voices	-11737
▁recourse	-11738
▁diplomats	-11739
▁Encourages	-11740
▁terminated	-11741
▁disparities	-11742
rent	-11743
▁10-	-11744
▁79.	-11745
▁Big	-11746
▁$200	-11747
▁Arms	-11748
▁pride	-11749
raising	-11750
▁hearts	-11751
▁captured	-11752
▁classified	-11753
▁xenophobia	-11754
gas	-11755
uba	-11756
uss	-11757
tery	-11758
▁1.3	-11759
▁Hig	-11760
▁tap	-11761
oints	-11762
issance	-11763
▁Credit	-11764
▁yellow	-11765
▁Progress	-11766
▁packages	-11767
▁Hezbollah	-11768
▁convenient	-11769
▁indirectly	-11770
▁influenced	-11771
▁irrigation	-11772
▁personality	-11773
▁disciplinary	-11774
ota	-11775
yer	-11776
icon	-11777
▁Opp	-11778
▁WAS	-11779
▁exh	-11780
▁1949	-11781
▁coerc	-11782
▁habit	-11783
▁resid	-11784
▁chains	-11785
▁starts	-11786
▁suicide	-11787
▁underestim	-11788
▁forecasting	-11789
▁procuratorates	-11790
6).	-11791
acc	-11792
▁47/2	-11793
▁LORD	-11794
▁crew	-11795
▁Areas	-11796
▁Mount	-11797
▁purely	-11798
▁varied	-11799
▁Leaders	-11800
▁analyses	-11801
▁Promotion	-11802
▁furniture	-11803
▁sacrifice	-11804
▁contributes	-11805
▁controversial	-11806
▁Oh	-11807
isco	-11808
▁74.	-11809
▁row	-11810
▁1979	-11811
▁Prac	-11812
▁boss	-11813
▁likes	-11814
▁stagn	-11815
▁veter	-11816
▁Marine	-11817
▁Panama	-11818
▁fueled	-11819
▁Kashmir	-11820
▁condemn	-11821
▁firearms	-11822
▁volatile	-11823
▁infection	-11824
▁processed	-11825
▁Production	-11826
▁rebuilding	-11827
▁remembered	-11828
▁citizenship	-11829
?’	-11830
otyp	-11831
▁800	-11832
▁tun	-11833
▁Hall	-11834
▁buff	-11835
▁tied	-11836
▁Private	-11837
▁farming	-11838
▁warrant	-11839
▁impunity	-11840
▁inspired	-11841
▁takeover	-11842
▁listening	-11843
▁violating	-11844
Con	-11845
▁$2,	-11846
▁15,	-11847
▁Jac	-11848
▁lots	-11849
quarter	-11850
▁enables	-11851
▁Catholic	-11852
▁predictable	-11853
▁Nas	-11854
▁polls	-11855
▁clinical	-11856
▁emission	-11857
▁sleeping	-11858
▁certified	-11859
▁forbidden	-11860
▁thoroughly	-11861
▁assumptions	-11862
▁consequently	-11863
43	-11864
Rec	-11865
UMO	-11866
ucks	-11867
ysts	-11868
▁1994;	-11869
▁keeps	-11870
▁orbit	-11871
reatment	-11872
▁Statute	-11873
▁Success	-11874
▁cabinet	-11875
▁unusual	-11876
▁claiming	-11877
▁endanger	-11878
▁notified	-11879
▁admission	-11880
▁incidence	-11881
▁parameters	-11882
aun	-11883
top	-11884
▁Room	-11885
▁duly	-11886
▁Lynch	-11887
▁merch	-11888
▁plane	-11889
▁tells	-11890
ativity	-11891
▁Survey	-11892
▁ticket	-11893
▁Defence	-11894
▁coupled	-11895
▁Recently	-11896
▁Trustees	-11897
▁eventual	-11898
▁emotional	-11899
▁extremism	-11900
anium	-11901
eller	-11902
▁maker	-11903
▁safer	-11904
▁Travel	-11905
▁stakes	-11906
▁strang	-11907
▁verbal	-11908
▁farmland	-11909
▁interfere	-11910
▁attributed	-11911
▁helicopters	-11912
▁attributable	-11913
two	-11914
UMOZ	-11915
owners	-11916
▁Units	-11917
▁accus	-11918
▁recyc	-11919
▁(1992)	-11920
▁Optional	-11921
▁dynamics	-11922
▁pertinent	-11923
▁Millennium	-11924
▁tightening	-11925
▁accumulation	-11926
▁universality	-11927
.’	-11928
dis	-11929
amin	-11930
ailing	-11931
▁waves	-11932
astrous	-11933
▁impede	-11934
▁Reports	-11935
▁discipl	-11936
▁recalls	-11937
▁samples	-11938
▁Sciences	-11939
▁minerals	-11940
▁explosive	-11941
▁Chancellor	-11942
▁affordable	-11943
▁appearance	-11944
▁Id	-11945
auty	-11946
vert	-11947
▁Aris	-11948
▁mill	-11949
▁2010.	-11950
▁bullet	-11951
▁ideals	-11952
▁holders	-11953
▁strikes	-11954
▁virtual	-11955
▁compiled	-11956
▁confined	-11957
▁disastrous	-11958
▁diversified	-11959
▁biodiversity	-11960
een	-11961
▁ODA	-11962
▁hub	-11963
▁Sant	-11964
▁torch	-11965
▁Darfur	-11966
▁ratios	-11967
▁Bearing	-11968
▁alliances	-11969
▁unchanged	-11970
▁responsive	-11971
▁displacement	-11972
▁CN	-11973
▁78.	-11974
▁Mic	-11975
▁Prin	-11976
▁ring	-11977
▁stick	-11978
▁Sierra	-11979
▁advise	-11980
▁landsc	-11981
▁Country	-11982
▁minimal	-11983
▁nominal	-11984
▁commonly	-11985
▁alongside	-11986
▁invention	-11987
▁livestock	-11988
▁disproportion	-11989
▁60%	-11990
▁Mem	-11991
ithuan	-11992
▁Front	-11993
▁dying	-11994
essment	-11995
maments	-11996
▁Design	-11997
▁Tehran	-11998
▁solemn	-11999
▁wholes	-12000
▁Thirdly	-12001
▁closure	-12002
▁fastest	-12003
▁scrutin	-12004
▁sympathy	-12005
▁Observatory	-12006
▁exacerbated	-12007
▁systematically	-12008
gone	-12009
rose	-12010
▁gate	-12011
▁Blair	-12012
▁Kabul	-12013
▁Twenty	-12014
relations	-12015
▁nowadays	-12016
▁networking	-12017
cle	-12018
▁71	-12019
omed	-12020
▁BER	-12021
▁NPC	-12022
▁Nap	-12023
▁2012	-12024
▁Jose	-12025
▁hide	-12026
▁pock	-12027
▁hegem	-12028
attered	-12029
▁hazards	-12030
▁exporting	-12031
▁electrical	-12032
▁Dj	-12033
beit	-12034
▁DNA	-12035
amine	-12036
chers	-12037
▁ally	-12038
▁rent	-12039
▁deduc	-12040
▁militia	-12041
▁subsidy	-12042
▁uranium	-12043
▁worries	-12044
permanent	-12045
▁reasonably	-12046
▁reservation	-12047
▁seriousness	-12048
▁malnutrition	-12049
bar	-12050
fied	-12051
▁Mao	-12052
front	-12053
▁Deep	-12054
INGTON	-12055
bility	-12056
▁Father	-12057
▁combine	-12058
▁strange	-12059
▁Slovakia	-12060
▁choosing	-12061
▁conducts	-12062
▁fruitful	-12063
▁donations	-12064
▁terminate	-12065
▁collateral	-12066
▁nineteenth	-12067
▁supervising	-12068
CRC	-12069
▁50/1	-12070
orities	-12071
▁gentle	-12072
▁meters	-12073
ividually	-12074
▁Aristide	-12075
▁checking	-12076
▁maximize	-12077
▁explosion	-12078
▁continental	-12079
▁understands	-12080
sey	-12081
ados	-12082
case	-12083
▁fol	-12084
ensed	-12085
▁evil	-12086
esting	-12087
▁drove	-12088
Israeli	-12089
▁Almost	-12090
▁Mexican	-12091
developed	-12092
▁Maritime	-12093
▁Together	-12094
▁calculation	-12095
▁manufactured	-12096
▁Gen	-12097
▁Jin	-12098
▁joy	-12099
racts	-12100
ulted	-12101
▁Shia	-12102
saving	-12103
▁visas	-12104
▁floods	-12105
▁rooted	-12106
▁urging	-12107
arieties	-12108
▁soaring	-12109
▁proclaimed	-12110
▁influential	-12111
▁unilaterally	-12112
eck	-12113
▁110	-12114
▁ECA	-12115
▁Mog	-12116
▁SAR	-12117
▁kit	-12118
▁1982	-12119
▁Ford	-12120
▁ages	-12121
▁arts	-12122
▁gift	-12123
▁tone	-12124
▁ESCWA	-12125
▁museum	-12126
▁virtue	-12127
▁volunt	-12128
▁Lithuan	-12129
▁evolving	-12130
▁Indigenous	-12131
Some	-12132
nesty	-12133
▁curt	-12134
▁heed	-12135
▁1988,	-12136
▁aging	-12137
▁flour	-12138
▁Combat	-12139
▁Africans	-12140
▁suspects	-12141
▁discovery	-12142
▁exhausted	-12143
▁distribute	-12144
▁elaborated	-12145
▁submitting	-12146
▁comfortable	-12147
▁coordinator	-12148
▁manifestations	-12149
due	-12150
hai	-12151
burg	-12152
five	-12153
ivic	-12154
▁80.	-12155
▁nurt	-12156
▁shed	-12157
▁unim	-12158
Agency	-12159
iously	-12160
▁clock	-12161
ignific	-12162
▁hiring	-12163
▁conceptual	-12164
LE	-12165
Rep	-12166
olas	-12167
▁Gor	-12168
essim	-12169
▁rush	-12170
tillery	-12171
urrency	-12172
▁Danish	-12173
▁phones	-12174
▁Savings	-12175
▁Scotland	-12176
▁celebrate	-12177
▁databases	-12178
▁referring	-12179
▁worsening	-12180
▁memorandum	-12181
▁regulating	-12182
▁coexistence	-12183
Le	-12184
East	-12185
pers	-12186
usha	-12187
▁Kyoto	-12188
▁doors	-12189
▁frozen	-12190
▁poorly	-12191
▁harvest	-12192
▁systemic	-12193
▁armaments	-12194
▁seemingly	-12195
▁separated	-12196
42	-12197
▁78	-12198
organ	-12199
▁WASH	-12200
profit	-12201
ronics	-12202
▁Young	-12203
▁Commod	-12204
▁native	-12205
▁Jamaica	-12206
▁execute	-12207
▁disappeared	-12208
▁Nag	-12209
▁Blue	-12210
▁wine	-12211
indust	-12212
▁Grant	-12213
▁Takes	-12214
▁atroc	-12215
▁cents	-12216
▁tenth	-12217
▁Command	-12218
▁readily	-12219
▁tourist	-12220
▁varying	-12221
terrorism	-12222
▁football	-12223
▁Socialist	-12224
▁Institutions	-12225
▁intimidation	-12226
tians	-12227
▁Care	-12228
▁Outer	-12229
▁Prize	-12230
▁Texas	-12231
▁abduc	-12232
▁irres	-12233
▁nobody	-12234
exchange	-12235
▁barrels	-12236
▁surpass	-12237
▁Resident	-12238
▁Considering	-12239
▁approaching	-12240
ube	-12241
▁Ho	-12242
arting	-12243
▁Athen	-12244
▁arose	-12245
▁Quality	-12246
▁forming	-12247
▁reserved	-12248
▁WASHINGTON	-12249
▁peacefully	-12250
▁contingency	-12251
▁deliberation	-12252
▁inflationary	-12253
▁inappropriate	-12254
BI	-12255
▁CF	-12256
▁25%	-12257
▁ing	-12258
peror	-12259
▁List	-12260
▁Along	-12261
onments	-12262
▁Strong	-12263
▁ceiling	-12264
▁lawsuit	-12265
▁revoked	-12266
disciplinary	-12267
step	-12268
ubarak	-12269
▁2011,	-12270
▁James	-12271
▁Semin	-12272
▁novel	-12273
▁tends	-12274
service	-12275
▁labourers	-12276
▁spiritual	-12277
▁personally	-12278
▁individually	-12279
iat	-12280
abad	-12281
▁99.	-12282
▁Mag	-12283
gradu	-12284
▁Draft	-12285
Russian	-12286
limited	-12287
▁ratify	-12288
▁update	-12289
▁Economy	-12290
▁thematic	-12291
▁volunteers	-12292
▁centralized	-12293
▁Establishment	-12294
cor	-12295
tia	-12296
▁cos	-12297
backs	-12298
▁Bear	-12299
▁diam	-12300
▁outf	-12301
▁turb	-12302
▁2012,	-12303
▁Palau	-12304
▁fortune	-12305
▁proposes	-12306
▁tackling	-12307
▁regulated	-12308
▁committing	-12309
▁litigation	-12310
SM	-12311
▁"1.	-12312
▁yes	-12313
State	-12314
three	-12315
▁IFOR	-12316
▁Thai	-12317
▁euros	-12318
▁Anyone	-12319
▁Polish	-12320
▁ethics	-12321
▁nearby	-12322
▁Records	-12323
▁infected	-12324
▁prisoner	-12325
▁suggesting	-12326
▁appointments	-12327
EV	-12328
1),	-12329
nie	-12330
offs	-12331
rass	-12332
▁gall	-12333
▁plot	-12334
▁touc	-12335
ocracy	-12336
▁dance	-12337
▁print	-12338
▁arises	-12339
▁Contact	-12340
▁Workers	-12341
▁bubbles	-12342
▁alarming	-12343
▁champion	-12344
▁listened	-12345
▁abilities	-12346
▁disregard	-12347
▁expecting	-12348
▁specially	-12349
▁deliberate	-12350
▁impoverished	-12351
IU	-12352
ida	-12353
len	-12354
▁IP	-12355
▁tank	-12356
arians	-12357
▁Urban	-12358
Aligned	-12359
▁aggrav	-12360
▁prince	-12361
▁assault	-12362
▁exempted	-12363
▁literacy	-12364
▁sciences	-12365
▁socially	-12366
▁narrative	-12367
▁concessions	-12368
▁unfortunately	-12369
fty	-12370
▁203	-12371
▁Shi	-12372
prime	-12373
▁Lear	-12374
▁Shar	-12375
▁2015,	-12376
▁Smith	-12377
▁Table	-12378
▁blamed	-12379
▁missed	-12380
▁guarant	-12381
▁repairs	-12382
▁soldier	-12383
▁operates	-12384
▁Peninsula	-12385
▁vegetables	-12386
▁interpreted	-12387
-7	-12388
SS	-12389
One	-12390
ikh	-12391
▁Bh	-12392
bery	-12393
▁Lad	-12394
shall	-12395
▁Coal	-12396
taking	-12397
▁boats	-12398
▁Expert	-12399
▁birthday	-12400
▁tourists	-12401
▁exploring	-12402
examination	-12403
▁precaution	-12404
▁confirmation	-12405
rev	-12406
▁16,	-12407
woman	-12408
charge	-12409
▁Total	-12410
▁cater	-12411
▁50,000	-12412
▁fertil	-12413
▁fortun	-12414
▁lights	-12415
▁Mubarak	-12416
▁chaired	-12417
▁Analysts	-12418
▁pipeline	-12419
▁counterfe	-12420
▁reiterates	-12421
gage	-12422
olen	-12423
▁81.	-12424
▁adm	-12425
onian	-12426
onies	-12427
neighb	-12428
▁Goals	-12429
▁Media	-12430
▁bless	-12431
▁forge	-12432
▁insol	-12433
▁Accords	-12434
▁Hospital	-12435
▁favorite	-12436
▁lowering	-12437
▁starters	-12438
▁worrying	-12439
▁compelling	-12440
▁connections	-12441
onds	-12442
zens	-12443
▁2011	-12444
▁True	-12445
▁earm	-12446
▁chick	-12447
▁march	-12448
▁noble	-12449
▁uncon	-12450
▁feared	-12451
▁hinder	-12452
▁counted	-12453
▁seventh	-12454
onditional	-12455
▁incumbent	-12456
▁approached	-12457
▁disruption	-12458
▁dissolution	-12459
▁redeployment	-12460
ls	-12461
LAC	-12462
odd	-12463
uda	-12464
www	-12465
▁fu	-12466
iced	-12467
ishu	-12468
▁PAR	-12469
▁50/2	-12470
▁kids	-12471
▁orph	-12472
oultry	-12473
▁sorry	-12474
▁usage	-12475
▁Budget	-12476
▁inhuman	-12477
▁linking	-12478
▁Georgian	-12479
▁sanction	-12480
regulation	-12481
▁incomplete	-12482
▁specifications	-12483
-5	-12484
Ex	-12485
Any	-12486
Rev	-12487
▁70%	-12488
▁Step	-12489
vinced	-12490
▁Future	-12491
▁ceased	-12492
▁overth	-12493
▁deleted	-12494
▁drivers	-12495
▁Promoting	-12496
▁suspicion	-12497
▁structured	-12498
▁constructed	-12499
▁experiments	-12500
▁acquisitions	-12501
▁deliberately	-12502
HA	-12503
uz	-12504
vy	-12505
ahu	-12506
aki	-12507
ini	-12508
▁82.	-12509
▁Fif	-12510
▁unle	-12511
identi	-12512
▁gases	-12513
defence	-12514
ighters	-12515
keepers	-12516
▁Arusha	-12517
▁Income	-12518
▁hidden	-12519
▁speedy	-12520
▁(1993),	-12521
▁thereto	-12522
▁Ukrainian	-12523
▁contracep	-12524
▁intensity	-12525
▁Experience	-12526
▁correction	-12527
▁allocations	-12528
▁pharmaceuticals	-12529
bl	-12530
Pal	-12531
▁``	-12532
▁Jim	-12533
▁Pay	-12534
▁Ten	-12535
▁Tob	-12536
India	-12537
ormal	-12538
▁seed	-12539
▁climb	-12540
▁crash	-12541
▁insur	-12542
▁midst	-12543
▁scour	-12544
▁tears	-12545
ounding	-12546
▁(1991)	-12547
function	-12548
▁subscrib	-12549
▁wondered	-12550
▁Brazilian	-12551
▁disclosed	-12552
▁premature	-12553
63	-12554
anj	-12555
▁Jo	-12556
abet	-12557
rect	-12558
▁UBS	-12559
▁Vic	-12560
▁iPh	-12561
▁sli	-12562
opher	-12563
uracy	-12564
▁cohe	-12565
▁tiny	-12566
ologist	-12567
▁hamper	-12568
▁analyse	-12569
▁bridges	-12570
▁educate	-12571
▁sorties	-12572
▁princess	-12573
▁instruction	-12574
▁environments	-12575
umber	-12576
▁Mont	-12577
stable	-12578
▁Ninth	-12579
▁Radio	-12580
▁cyber	-12581
▁knock	-12582
atriots	-12583
▁Andrey	-12584
▁UNTAES	-12585
▁beauty	-12586
▁rounds	-12587
▁sounds	-12588
measures	-12589
▁Eritrea	-12590
▁donation	-12591
▁commander	-12592
▁perfectly	-12593
▁Programmes	-12594
▁creativity	-12595
▁indications	-12596
-4	-12597
ho	-12598
19.	-12599
ATT	-12600
don	-12601
kok	-12602
▁Aid	-12603
occup	-12604
▁eigh	-12605
▁visa	-12606
▁bread	-12607
▁metal	-12608
▁Issues	-12609
▁ingred	-12610
▁strife	-12611
ortheast	-12612
▁morator	-12613
▁explored	-12614
▁Commander	-12615
▁construct	-12616
▁importing	-12617
▁precedent	-12618
▁recipients	-12619
▁Contributions	-12620
84	-12621
9)	-12622
eu	-12623
▁IF	-12624
▁ru	-12625
duct	-12626
▁DPR	-12627
asive	-12628
itter	-12629
energy	-12630
▁fines	-12631
▁likel	-12632
▁recre	-12633
▁sooner	-12634
▁Straits	-12635
▁drafted	-12636
▁surveyed	-12637
▁altitudes	-12638
▁documented	-12639
▁temperatures	-12640
MA	-12641
▁ID	-12642
outi	-12643
▁"2.	-12644
▁90%	-12645
▁aqu	-12646
▁bot	-12647
▁mad	-12648
▁mos	-12649
inese	-12650
▁fier	-12651
▁hate	-12652
carbon	-12653
lessly	-12654
▁solic	-12655
▁Applic	-12656
▁denial	-12657
▁pulled	-12658
▁sisters	-12659
▁specify	-12660
▁doctrine	-12661
▁likewise	-12662
▁briefings	-12663
▁religions	-12664
▁Particular	-12665
▁convergence	-12666
▁modification	-12667
▁supplemented	-12668
▁entertainment	-12669
para	-12670
aning	-12671
eries	-12672
▁DPRK	-12673
▁kidn	-12674
▁salt	-12675
▁Buddh	-12676
▁Incre	-12677
▁dilem	-12678
▁Athens	-12679
▁debtor	-12680
speaking	-12681
▁Greater	-12682
▁Overall	-12683
▁legality	-12684
▁paramount	-12685
▁Punishment	-12686
Ass	-12687
▁3%	-12688
size	-12689
▁12-	-12690
▁1984	-12691
▁skep	-12692
▁Queen	-12693
▁freeze	-12694
▁soared	-12695
▁circles	-12696
▁commens	-12697
▁poultry	-12698
▁unclear	-12699
▁abortion	-12700
▁Strategic	-12701
62	-12702
▁84.	-12703
▁Hon	-12704
▁Lau	-12705
▁ult	-12706
addam	-12707
erent	-12708
▁ster	-12709
anyahu	-12710
▁voter	-12711
▁Friends	-12712
▁History	-12713
▁dumping	-12714
inguistic	-12715
▁Netanyahu	-12716
95	-12717
Be	-12718
▁Di	-12719
▁SU	-12720
▁Ta	-12721
▁Had	-12722
▁Nik	-12723
▁Mali	-12724
▁Pear	-12725
▁cure	-12726
50,000	-12727
weight	-12728
▁cried	-12729
▁guess	-12730
▁maybe	-12731
▁advent	-12732
▁ageing	-12733
▁excuse	-12734
▁rulers	-12735
▁screen	-12736
▁Rwandan	-12737
▁distant	-12738
▁pretext	-12739
▁servant	-12740
▁develops	-12741
▁enduring	-12742
▁verified	-12743
▁reforming	-12744
▁profitable	-12745
▁democratically	-12746
agan	-12747
east	-12748
▁MBA	-12749
ching	-12750
▁owns	-12751
growth	-12752
▁quota	-12753
jecting	-12754
mistice	-12755
▁Except	-12756
▁suited	-12757
▁Cameron	-12758
▁adapted	-12759
▁spectac	-12760
▁Barbados	-12761
▁cautious	-12762
▁embarked	-12763
▁offender	-12764
processing	-12765
▁combining	-12766
▁automation	-12767
▁dispatched	-12768
▁counselling	-12769
arti	-12770
greg	-12771
▁87.	-12772
think	-12773
▁46/1	-12774
▁maps	-12775
ection	-12776
▁panic	-12777
▁squee	-12778
▁criter	-12779
▁drinks	-12780
▁ranked	-12781
▁repeal	-12782
▁string	-12783
▁Bangkok	-12784
▁broaden	-12785
▁pillars	-12786
▁polling	-12787
itionally	-12788
▁convince	-12789
▁railways	-12790
▁shopping	-12791
▁assurance	-12792
▁desperate	-12793
▁excluding	-12794
▁identical	-12795
▁constrained	-12796
▁restriction	-12797
▁Constitutional	-12798
New	-12799
lays	-12800
adishu	-12801
thodox	-12802
urpose	-12803
▁ammun	-12804
▁deple	-12805
▁quake	-12806
▁Making	-12807
Chairman	-12808
▁Arrange	-12809
▁Seminar	-12810
▁shifted	-12811
▁Whatever	-12812
▁recurrent	-12813
▁curriculum	-12814
▁overcoming	-12815
▁resolutely	-12816
▁distinguish	-12817
▁fluctuations	-12818
SAR	-12819
era	-12820
debt	-12821
ilib	-12822
rell	-12823
▁24,	-12824
▁86.	-12825
▁mic	-12826
ashes	-12827
▁ICRC	-12828
▁Seven	-12829
▁royal	-12830
▁expiry	-12831
▁designs	-12832
▁Mogadishu	-12833
▁abolished	-12834
▁customary	-12835
▁catastrophe	-12836
Re	-12837
▁Ul	-12838
▁WS	-12839
inqu	-12840
▁80%	-12841
▁Jos	-12842
quare	-12843
▁Broad	-12844
▁cable	-12845
isition	-12846
▁Angela	-12847
▁upward	-12848
▁William	-12849
▁anxiety	-12850
▁crossed	-12851
▁edition	-12852
▁Facility	-12853
▁overlook	-12854
▁predomin	-12855
▁Governors	-12856
▁:	-12857
Fin	-12858
irt	-12859
▁97	-12860
▁ICSC	-12861
▁blog	-12862
▁hadn	-12863
▁1989.	-12864
▁codes	-12865
▁inaug	-12866
▁merits	-12867
▁adjudic	-12868
▁thanked	-12869
▁utility	-12870
▁Certific	-12871
▁condemns	-12872
▁effected	-12873
▁hectares	-12874
▁homeland	-12875
▁Treatment	-12876
▁proposing	-12877
▁Supervision	-12878
▁commensurate	-12879
▁dictatorship	-12880
▁/	-12881
han	-12882
arest	-12883
endum	-12884
atient	-12885
▁ONUMOZ	-12886
▁Virgin	-12887
▁speaks	-12888
▁carriers	-12889
▁extremists	-12890
▁summarized	-12891
▁Prohibition	-12892
▁unconditional	-12893
awn	-12894
▁TC	-12895
auses	-12896
cious	-12897
▁Tell	-12898
▁Tian	-12899
▁hamp	-12900
German	-12901
design	-12902
emarks	-12903
▁Grand	-12904
▁Irish	-12905
angered	-12906
▁autumn	-12907
▁deadly	-12908
▁errors	-12909
election	-12910
▁Airport	-12911
▁destiny	-12912
▁landing	-12913
▁prospecting	-12914
▁voluntarily	-12915
▁constituencies	-12916
uma	-12917
okes	-12918
rank	-12919
yers	-12920
▁Age	-12921
▁Mid	-12922
▁Wil	-12923
▁Team	-12924
▁agro	-12925
▁Reiter	-12926
▁decree	-12927
▁Armenian	-12928
▁Everyone	-12929
▁hardship	-12930
▁atmospheric	-12931
▁qualitative	-12932
▁fundamentals	-12933
▁incompatible	-12934
................	-12935
rapy	-12936
▁cham	-12937
▁Study	-12938
▁walls	-12939
etition	-12940
▁handic	-12941
▁pessim	-12942
▁theore	-12943
conflict	-12944
▁reaches	-12945
▁tactics	-12946
▁Stresses	-12947
▁Documents	-12948
▁correctly	-12949
▁landscape	-12950
▁interviews	-12951
▁compilation	-12952
▁financially	-12953
54	-12954
Ad	-12955
2),	-12956
rar	-12957
▁tu	-12958
itic	-12959
tism	-12960
▁Dam	-12961
books	-12962
orous	-12963
▁Shin	-12964
▁seal	-12965
▁1980’	-12966
▁rally	-12967
▁theat	-12968
▁absent	-12969
▁praise	-12970
▁Senator	-12971
▁Whereas	-12972
▁aggress	-12973
▁hosting	-12974
▁irrever	-12975
▁appealed	-12976
▁settling	-12977
▁Lithuania	-12978
▁privately	-12979
▁totalling	-12980
obyl	-12981
rium	-12982
▁ech	-12983
oline	-12984
venia	-12985
▁Star	-12986
▁gest	-12987
▁unav	-12988
▁stolen	-12989
hernobyl	-12990
▁vacancy	-12991
▁implicit	-12992
▁pregnancy	-12993
▁Supplement	-12994
▁marginalized	-12995
ett	-12996
nis	-12997
▁van	-12998
▁Coun	-12999
▁2013,	-13000
▁array	-13001
ignment	-13002
▁mature	-13003
▁Banking	-13004
▁Germans	-13005
▁invalid	-13006
▁punishments	-13007
▁unification	-13008
CE	-13009
ala	-13010
odes	-13011
uate	-13012
▁18,	-13013
▁Few	-13014
ushar	-13015
▁Alan	-13016
▁UNMIH	-13017
▁audio	-13018
▁label	-13019
▁paint	-13020
▁unres	-13021
urately	-13022
▁Saddam	-13023
▁francs	-13024
▁geared	-13025
▁submar	-13026
▁Freedom	-13027
▁ensures	-13028
▁consular	-13029
▁prohibit	-13030
▁Personnel	-13031
▁artillery	-13032
▁diagnosis	-13033
▁prevailed	-13034
▁searching	-13035
▁sentences	-13036
▁likelihood	-13037
▁objections	-13038
▁restricting	-13039
▁interregional	-13040
▁disintegration	-13041
")	-13042
iji	-13043
▁EM	-13044
asty	-13045
▁dust	-13046
Palest	-13047
member	-13048
▁Class	-13049
▁Judge	-13050
▁attor	-13051
▁shell	-13052
▁impair	-13053
▁tribal	-13054
▁Question	-13055
▁instituted	-13056
▁references	-13057
hema	-13058
leep	-13059
rears	-13060
▁1987,	-13061
▁farms	-13062
▁Mother	-13063
▁copper	-13064
▁indisc	-13065
▁junior	-13066
▁tracks	-13067
▁waited	-13068
▁blocked	-13069
▁criterion	-13070
▁dialogues	-13071
▁thereafter	-13072
▁notwithstanding	-13073
▁99	-13074
such	-13075
▁83.	-13076
▁Old	-13077
▁Vis	-13078
▁SIDS	-13079
▁rebal	-13080
umbered	-13081
▁tended	-13082
usharraf	-13083
▁seizure	-13084
▁ambition	-13085
▁archives	-13086
▁dispatch	-13087
▁logistic	-13088
▁warnings	-13089
▁challenged	-13090
▁definitely	-13091
▁helicopter	-13092
▁trademarks	-13093
▁enlargement	-13094
▁depreciation	-13095
ads	-13096
▁Club	-13097
Habitat	-13098
▁30,000	-13099
▁Valley	-13100
▁albeit	-13101
▁Torture	-13102
▁shaping	-13103
▁symptoms	-13104
▁Conventional	-13105
▁confidential	-13106
34	-13107
▁$30	-13108
▁20,	-13109
▁mel	-13110
archy	-13111
voire	-13112
▁Iron	-13113
▁Gates	-13114
▁Moham	-13115
▁corrid	-13116
▁painting	-13117
▁versions	-13118
▁consulted	-13119
▁preserved	-13120
▁ammunition	-13121
▁combatants	-13122
▁presenting	-13123
▁respecting	-13124
▁immunization	-13125
▁destabilizing	-13126
Good	-13127
eted	-13128
sche	-13129
▁30-	-13130
enter	-13131
umped	-13132
▁brib	-13133
school	-13134
▁sugar	-13135
titutes	-13136
▁fierce	-13137
▁trustee	-13138
▁warfare	-13139
▁embodied	-13140
▁landmines	-13141
▁pursuance	-13142
▁fellowship	-13143
▁moratorium	-13144
&#160;&#160;	-13145
International	-13146
▁deteriorated	-13147
▁intensifying	-13148
Let	-13149
gery	-13150
▁89.	-13151
▁UNS	-13152
▁Face	-13153
▁Holy	-13154
▁Soph	-13155
▁fasc	-13156
author	-13157
▁antib	-13158
▁drain	-13159
▁infer	-13160
▁Carrie	-13161
▁Employ	-13162
▁perman	-13163
▁Culture	-13164
▁profess	-13165
▁wonderful	-13166
established	-13167
▁architecture	-13168
▁psychotropic	-13169
GDP	-13170
airy	-13171
▁slo	-13172
amble	-13173
Ivoire	-13174
People	-13175
crisis	-13176
ulsion	-13177
▁civic	-13178
▁consp	-13179
▁incur	-13180
▁relies	-13181
▁reduces	-13182
ventional	-13183
▁External	-13184
▁feedback	-13185
▁holidays	-13186
▁finalized	-13187
▁workplace	-13188
▁Antarctica	-13189
ika	-13190
▁AD	-13191
▁FM	-13192
▁130	-13193
▁19,	-13194
▁INST	-13195
▁Make	-13196
▁owed	-13197
▁thee	-13198
ulatory	-13199
ortunate	-13200
▁arrears	-13201
▁scandal	-13202
▁Investig	-13203
▁briefing	-13204
▁disclose	-13205
▁narcotic	-13206
▁overview	-13207
▁inherited	-13208
▁benefiting	-13209
▁jeopardize	-13210
▁compatriots	-13211
▁stabilizing	-13212
asha	-13213
▁17,	-13214
▁250	-13215
ulent	-13216
▁1967	-13217
▁lady	-13218
▁mood	-13219
adjust	-13220
▁Burma	-13221
▁Hague	-13222
▁sweet	-13223
▁tanks	-13224
▁Higher	-13225
▁aiming	-13226
▁babies	-13227
▁clause	-13228
▁holder	-13229
▁200,000	-13230
▁300,000	-13231
▁boosted	-13232
treatment	-13233
▁Francisco	-13234
▁encounter	-13235
▁atrocities	-13236
▁procession	-13237
▁AL	-13238
Aust	-13239
Come	-13240
Islam	-13241
isons	-13242
▁Prop	-13243
▁Vill	-13244
▁cher	-13245
▁Golan	-13246
finding	-13247
▁ambass	-13248
▁adolesc	-13249
▁segments	-13250
▁describes	-13251
▁Employment	-13252
▁inconsistent	-13253
ima	-13254
sein	-13255
▁Has	-13256
▁Occ	-13257
elson	-13258
▁Soft	-13259
▁tide	-13260
esters	-13261
▁stamp	-13262
▁Mechan	-13263
▁Mobile	-13264
▁layout	-13265
▁wishing	-13266
connected	-13267
▁declaring	-13268
▁replacing	-13269
▁Agreements	-13270
▁aspiration	-13271
▁emphasizing	-13272
ato	-13273
ila	-13274
▁89	-13275
▁CON	-13276
inity	-13277
▁Jeff	-13278
▁Early	-13279
▁Malawi	-13280
▁Senior	-13281
▁stayed	-13282
reliance	-13283
▁arguing	-13284
▁tickets	-13285
▁Albanian	-13286
▁absorbed	-13287
▁acquiring	-13288
▁assistant	-13289
▁compelled	-13290
▁partially	-13291
▁varieties	-13292
▁inspectors	-13293
▁unfortunate	-13294
▁advertisements	-13295
▁Tor	-13296
▁pup	-13297
▁obsc	-13298
▁quit	-13299
▁Trial	-13300
▁parks	-13301
▁finish	-13302
▁picked	-13303
▁richer	-13304
▁vested	-13305
▁mapping	-13306
▁rewards	-13307
▁stating	-13308
▁smoothly	-13309
▁communist	-13310
▁evaluating	-13311
▁stakeholders	-13312
▁protectionist	-13313
cl	-13314
irm	-13315
▁Enh	-13316
▁WSJ	-13317
After	-13318
▁Snow	-13319
▁hath	-13320
▁roof	-13321
▁artic	-13322
▁Sahara	-13323
▁absten	-13324
ologists	-13325
▁Traffic	-13326
▁bolster	-13327
▁notable	-13328
▁opposes	-13329
▁prudent	-13330
▁crossing	-13331
▁refusing	-13332
▁cigarette	-13333
▁overnight	-13334
▁welcoming	-13335
▁supposedly	-13336
▁differently	-13337
▁manipulation	-13338
▁uncertainties	-13339
hem	-13340
van	-13341
URSO	-13342
drew	-13343
▁98.	-13344
added	-13345
sixth	-13346
▁Emir	-13347
▁aven	-13348
raries	-13349
▁2009.	-13350
▁buried	-13351
▁quoted	-13352
pectives	-13353
▁arrests	-13354
▁talents	-13355
▁withdrew	-13356
▁prefectures	-13357
Par	-13358
oir	-13359
ura	-13360
high	-13361
wana	-13362
▁1.2	-13363
▁97.	-13364
▁Ron	-13365
Ghali	-13366
acent	-13367
ourcing	-13368
▁Nearly	-13369
▁thrust	-13370
aughters	-13371
▁assumes	-13372
▁convinc	-13373
▁ratings	-13374
▁Princess	-13375
▁shooting	-13376
▁Developed	-13377
▁Musharraf	-13378
▁occupying	-13379
▁viability	-13380
▁participates	-13381
▁transforming	-13382
wind	-13383
▁88.	-13384
▁Jal	-13385
▁Jun	-13386
▁piv	-13387
▁rests	-13388
holding	-13389
▁farmer	-13390
▁discoura	-13391
▁remedial	-13392
▁shortfall	-13393
▁supplying	-13394
▁Minorities	-13395
▁Advancement	-13396
gue	-13397
▁94	-13398
▁($1	-13399
▁20-	-13400
▁Hus	-13401
▁Mel	-13402
▁asp	-13403
▁reop	-13404
▁Amend	-13405
▁Owing	-13406
▁fever	-13407
▁ECOWAS	-13408
▁lacked	-13409
▁metals	-13410
▁passes	-13411
▁photos	-13412
▁twelve	-13413
▁Neither	-13414
▁invites	-13415
▁borrowed	-13416
▁shipment	-13417
▁Chernobyl	-13418
▁regretted	-13419
▁dedication	-13420
▁protective	-13421
▁convenience	-13422
▁inefficient	-13423
8).	-13424
ICS	-13425
RAW	-13426
▁HS	-13427
▁Wu	-13428
rint	-13429
▁28,	-13430
▁Mass	-13431
▁OPEC	-13432
▁rand	-13433
ferring	-13434
▁Little	-13435
▁persec	-13436
lessness	-13437
▁briefly	-13438
▁entails	-13439
▁erupted	-13440
▁implied	-13441
▁counting	-13442
▁foreseen	-13443
▁rotation	-13444
▁undergone	-13445
▁accurately	-13446
▁measurement	-13447
▁proportions	-13448
▁transferring	-13449
OT	-13450
▁92	-13451
▁XI	-13452
eals	-13453
rine	-13454
tory	-13455
uffs	-13456
▁$15	-13457
▁93.	-13458
▁eco	-13459
reason	-13460
redict	-13461
rupted	-13462
▁genes	-13463
▁naval	-13464
▁steep	-13465
▁wheat	-13466
▁cement	-13467
▁iPhone	-13468
▁medals	-13469
▁barrier	-13470
▁horizon	-13471
▁Belgrade	-13472
▁distress	-13473
ignificant	-13474
▁cooperatives	-13475
▁surprisingly	-13476
74	-13477
Sp	-13478
Res	-13479
▁1/	-13480
ette	-13481
ected	-13482
vency	-13483
▁loud	-13484
▁outp	-13485
▁sear	-13486
▁steal	-13487
ouncing	-13488
▁lender	-13489
artments	-13490
ilibrium	-13491
▁Johnson	-13492
▁contest	-13493
▁accuracy	-13494
▁hardware	-13495
cellaneous	-13496
▁observing	-13497
▁recording	-13498
▁schooling	-13499
▁counterpart	-13500
▁periodically	-13501
▁Desertification	-13502
▁infrastructures	-13503
-8	-13504
zo	-13505
ona	-13506
▁81	-13507
ihad	-13508
▁85.	-13509
▁gamb	-13510
ARICOM	-13511
hering	-13512
otions	-13513
riages	-13514
▁Ahmad	-13515
▁Which	-13516
leading	-13517
▁UNIFIL	-13518
▁bombard	-13519
▁categor	-13520
▁vacation	-13521
▁cumulative	-13522
▁resilience	-13523
▁rectification	-13524
/0	-13525
▁91	-13526
▁QE	-13527
sets	-13528
▁pig	-13529
▁tab	-13530
aults	-13531
▁Opin	-13532
▁ardu	-13533
▁impl	-13534
▁inad	-13535
asting	-13536
▁PolyU	-13537
▁Price	-13538
▁grasp	-13539
bearing	-13540
▁silent	-13541
▁tenure	-13542
▁catalog	-13543
servicing	-13544
▁arriving	-13545
▁complied	-13546
▁struggles	-13547
▁wholesale	-13548
▁afterwards	-13549
▁linguistic	-13550
▁separatist	-13551
▁practically	-13552
▁!	-13553
▁ped	-13554
▁wed	-13555
▁nerv	-13556
tistic	-13557
▁milest	-13558
▁revive	-13559
▁Systems	-13560
▁conscienti	-13561
▁executions	-13562
▁protesters	-13563
▁collaborative	-13564
ba	-13565
▁TR	-13566
▁Tre	-13567
▁pit	-13568
ersed	-13569
peace	-13570
▁2014	-13571
▁Chan	-13572
▁2014,	-13573
▁ultra	-13574
ranging	-13575
▁sewage	-13576
▁Mandela	-13577
▁dominate	-13578
investment	-13579
orestation	-13580
▁historically	-13581
▁developmental	-13582
nan	-13583
vin	-13584
heav	-13585
uese	-13586
▁Att	-13587
▁Say	-13588
▁afore	-13589
Chinese	-13590
▁devise	-13591
▁hungry	-13592
▁augment	-13593
▁obstruc	-13594
▁imminent	-13595
▁Protocols	-13596
▁battalion	-13597
▁deficiencies	-13598
69	-13599
cul	-13600
▁Lou	-13601
▁Yah	-13602
ordon	-13603
owing	-13604
▁batt	-13605
▁Abbas	-13606
▁Audit	-13607
▁indiff	-13608
▁remitt	-13609
▁logical	-13610
▁cleaning	-13611
▁underway	-13612
▁apportion	-13613
▁periphery	-13614
▁Intellectual	-13615
▁disappointed	-13616
▁revitalization	-13617
Reg	-13618
▁Mo	-13619
uity	-13620
▁Bon	-13621
▁IBM	-13622
▁rej	-13623
frame	-13624
▁Coop	-13625
▁Rico	-13626
▁tent	-13627
▁draws	-13628
▁Square	-13629
▁campus	-13630
▁energe	-13631
▁Stephen	-13632
▁arduous	-13633
▁vicious	-13634
▁delicate	-13635
▁adjusting	-13636
▁practiced	-13637
▁vacancies	-13638
▁localities	-13639
▁experimental	-13640
UNC	-13641
Who	-13642
Wor	-13643
▁Vo	-13644
date	-13645
▁700	-13646
▁Hot	-13647
▁sab	-13648
▁wet	-13649
asant	-13650
uests	-13651
▁1978	-13652
▁Marx	-13653
▁pair	-13654
▁crunch	-13655
▁detect	-13656
▁rebels	-13657
▁versus	-13658
▁consume	-13659
▁Violence	-13660
▁massacre	-13661
tifications	-13662
▁Guidelines	-13663
▁Verification	-13664
▁83	-13665
▁MG	-13666
/51/	-13667
arat	-13668
▁30,	-13669
▁Mas	-13670
▁cens	-13671
▁cycl	-13672
▁Ababa	-13673
▁Delhi	-13674
▁Later	-13675
▁bombs	-13676
▁penet	-13677
▁trips	-13678
▁racist	-13679
▁gravity	-13680
▁harbour	-13681
▁Aviation	-13682
▁Colonial	-13683
▁designate	-13684
▁enforcing	-13685
▁placement	-13686
▁destroying	-13687
▁sponsoring	-13688
▁Azerbaijani	-13689
▁Conferences	-13690
▁continually	-13691
▁evaluations	-13692
81	-13693
ITR	-13694
orny	-13695
rows	-13696
▁gif	-13697
▁nom	-13698
▁pin	-13699
duced	-13700
▁cler	-13701
listed	-13702
▁Addis	-13703
▁UNTAC	-13704
▁mirac	-13705
▁exempt	-13706
▁influx	-13707
▁weekly	-13708
▁annexed	-13709
▁founder	-13710
▁Slovenia	-13711
▁fighters	-13712
▁Standards	-13713
▁husbandry	-13714
▁mobilized	-13715
▁strengths	-13716
▁valuation	-13717
▁administrators	-13718
▁characteristic	-13719
aby	-13720
afi	-13721
▁Ram	-13722
lated	-13723
trans	-13724
▁epis	-13725
▁frat	-13726
▁stro	-13727
▁extends	-13728
▁handful	-13729
▁winners	-13730
▁Customer	-13731
▁analysed	-13732
▁awaiting	-13733
▁dynamism	-13734
▁gasoline	-13735
▁Effective	-13736
▁Otherwise	-13737
▁defensive	-13738
▁hostility	-13739
▁diminished	-13740
▁occurrence	-13741
▁problematic	-13742
ae	-13743
non	-13744
sum	-13745
▁SM	-13746
icts	-13747
loom	-13748
▁$12	-13749
▁acid	-13750
▁eman	-13751
▁Short	-13752
▁grows	-13753
▁cycles	-13754
▁hotels	-13755
▁pestic	-13756
▁posted	-13757
▁Kurdish	-13758
▁Subject	-13759
▁Swedish	-13760
▁equities	-13761
▁troubles	-13762
▁Convinced	-13763
▁curricula	-13764
▁discontin	-13765
▁completing	-13766
▁perspectives	-13767
▁jurisdictions	-13768
▁appropriations	-13769
AMO	-13770
dig	-13771
sur	-13772
▁Gl	-13773
▁mu	-13774
lick	-13775
ston	-13776
▁Get	-13777
▁Guy	-13778
▁los	-13779
ghten	-13780
tably	-13781
▁2013	-13782
▁bell	-13783
▁photo	-13784
otswana	-13785
western	-13786
▁analog	-13787
▁Appeals	-13788
▁margins	-13789
▁organic	-13790
▁consumed	-13791
▁disorder	-13792
▁outright	-13793
▁sensible	-13794
▁cancelled	-13795
▁contraction	-13796
▁deprivation	-13797
▁complementarity	-13798
hop	-13799
ito	-13800
▁8%	-13801
▁Du	-13802
▁192	-13803
▁Tay	-13804
▁WMO	-13805
▁beef	-13806
▁Using	-13807
▁incon	-13808
▁shops	-13809
▁Identi	-13810
▁alumin	-13811
▁domain	-13812
▁indict	-13813
▁relied	-13814
sponsors	-13815
▁redress	-13816
▁sensing	-13817
▁endeavor	-13818
▁dominance	-13819
▁magazines	-13820
▁explaining	-13821
▁appreciates	-13822
▁streamlining	-13823
▁kg	-13824
gian	-13825
imal	-13826
▁bis	-13827
tiles	-13828
▁Deut	-13829
▁Pearl	-13830
▁Relig	-13831
▁dilig	-13832
▁slept	-13833
ectoral	-13834
enaries	-13835
▁forged	-13836
▁regrets	-13837
▁wording	-13838
▁Facebook	-13839
▁backstop	-13840
▁meanwhile	-13841
▁specialist	-13842
▁bureaucracy	-13843
▁prosecutors	-13844
▁subprogrammes	-13845
cold	-13846
▁$4.	-13847
▁(8)	-13848
▁687	-13849
▁Ach	-13850
▁FOR	-13851
▁Corr	-13852
▁exag	-13853
▁1980,	-13854
▁Award	-13855
▁Judic	-13856
▁ignor	-13857
▁incap	-13858
▁reads	-13859
lective	-13860
▁occupy	-13861
▁random	-13862
▁engages	-13863
▁plunged	-13864
▁budgeted	-13865
▁unstable	-13866
▁Municipal	-13867
▁daughters	-13868
▁Individual	-13869
▁complained	-13870
▁prosecutor	-13871
▁restrictive	-13872
▁countermeasures	-13873
Pr	-13874
▁Eb	-13875
othe	-13876
▁Gib	-13877
iders	-13878
▁Fail	-13879
▁Papua	-13880
▁bonus	-13881
▁exert	-13882
▁juven	-13883
porting	-13884
▁affair	-13885
▁dozens	-13886
▁famine	-13887
▁Liaison	-13888
▁beating	-13889
▁clarity	-13890
▁Disabled	-13891
▁residing	-13892
▁empowered	-13893
▁evaluated	-13894
▁genuinely	-13895
▁offenders	-13896
▁Integrated	-13897
▁cultivated	-13898
cri	-13899
tar	-13900
▁OAS	-13901
utual	-13902
▁$500	-13903
▁Flor	-13904
▁Rule	-13905
▁dogs	-13906
▁pale	-13907
▁Psych	-13908
▁Steel	-13909
▁Demand	-13910
▁Master	-13911
▁grades	-13912
▁unfold	-13913
▁Already	-13914
▁insured	-13915
▁Emirates	-13916
▁detected	-13917
▁overhaul	-13918
▁releases	-13919
▁Voluntary	-13920
▁childhood	-13921
▁consisted	-13922
▁peninsula	-13923
▁reproduced	-13924
emer	-13925
▁91.	-13926
ITRAL	-13927
endix	-13928
urial	-13929
houses	-13930
▁Motor	-13931
▁arena	-13932
▁chart	-13933
▁dairy	-13934
▁Safegu	-13935
▁breaks	-13936
▁eighth	-13937
▁stored	-13938
▁Conserv	-13939
▁ranking	-13940
▁shorter	-13941
▁Honduras	-13942
▁moreover	-13943
▁Stressing	-13944
▁reception	-13945
▁selecting	-13946
-9	-13947
ye	-13948
alin	-13949
enza	-13950
mers	-13951
oston	-13952
▁Jong	-13953
▁encl	-13954
headed	-13955
▁Yahoo	-13956
▁inner	-13957
▁pound	-13958
▁seism	-13959
▁Sophie	-13960
▁Housing	-13961
▁antibio	-13962
▁longest	-13963
▁privacy	-13964
▁Holdings	-13965
▁believing	-13966
▁detection	-13967
▁extremist	-13968
▁exhibitions	-13969
▁catastrophic	-13970
EY	-13971
TAT	-13972
▁AG	-13973
erry	-13974
▁160	-13975
▁94.	-13976
▁fake	-13977
orting	-13978
▁embark	-13979
▁worthy	-13980
▁Counsel	-13981
▁convert	-13982
performing	-13983
▁everybody	-13984
▁remainder	-13985
▁endangered	-13986
▁Engineering	-13987
▁credentials	-13988
▁endorsement	-13989
▁preferences	-13990
▁restaurants	-13991
▁assassination	-13992
▁incorporating	-13993
▁Ol	-13994
▁Sk	-13995
▁"3.	-13996
▁96.	-13997
▁IPO	-13998
▁Soon	-13999
▁Tang	-14000
▁Temp	-14001
▁odds	-14002
▁reli	-14003
ieving	-14004
public	-14005
▁Benin	-14006
▁angel	-14007
▁Doctor	-14008
▁accomp	-14009
▁resent	-14010
▁accords	-14011
▁cleaner	-14012
▁embraced	-14013
▁theories	-14014
▁statistic	-14015
▁surveying	-14016
▁ineffective	-14017
▁methodologies	-14018
▁Notwithstanding	-14019
.6	-14020
aze	-14021
▁pu	-14022
lude	-14023
ourg	-14024
▁180	-14025
▁Hit	-14026
▁cup	-14027
▁Yuan	-14028
▁poly	-14029
people	-14030
roller	-14031
▁burst	-14032
▁empire	-14033
▁horses	-14034
▁metric	-14035
▁unpaid	-14036
ribunals	-14037
▁annexes	-14038
▁besides	-14039
▁paradox	-14040
▁Meetings	-14041
▁tireless	-14042
▁libraries	-14043
▁privilege	-14044
▁speculative	-14045
▁irreversible	-14046
Comm	-14047
ISION	-14048
eches	-14049
mbuds	-14050
sibly	-14051
▁Think	-14052
▁frank	-14053
▁telec	-14054
▁disord	-14055
currency	-14056
▁accepts	-14057
▁exclude	-14058
▁plastic	-14059
▁revival	-14060
▁scrutiny	-14061
▁Improving	-14062
▁neglected	-14063
▁participatory	-14064
AA	-14065
▁IX	-14066
inian	-14067
rying	-14068
▁ride	-14069
▁thir	-14070
▁Prior	-14071
▁modes	-14072
▁stark	-14073
▁vigil	-14074
▁enters	-14075
▁guests	-14076
▁precip	-14077
lections	-14078
▁INSTRAW	-14079
▁Pension	-14080
▁optimal	-14081
recurrent	-14082
▁Telecomm	-14083
▁displayed	-14084
▁photograph	-14085
▁Certificate	-14086
▁frustration	-14087
▁permanently	-14088
▁intentionally	-14089
▁understandable	-14090
BL	-14091
LN	-14092
Did	-14093
.1).	-14094
▁90.	-14095
▁95.	-14096
▁ine	-14097
value	-14098
▁stal	-14099
estyle	-14100
▁lunch	-14101
▁plate	-14102
▁Boston	-14103
▁Joseph	-14104
▁heaven	-14105
▁provoc	-14106
▁compare	-14107
▁concert	-14108
▁hostage	-14109
▁airlines	-14110
▁1996-1997	-14111
▁Portuguese	-14112
▁Procurement	-14113
▁adolescents	-14114
▁businessmen	-14115
▁functionaries	-14116
.‘	-14117
52	-14118
Ah	-14119
sell	-14120
▁31,	-14121
▁Put	-14122
▁TPP	-14123
▁dub	-14124
▁mir	-14125
Women	-14126
▁porn	-14127
▁synd	-14128
▁teen	-14129
artite	-14130
valued	-14131
▁Goods	-14132
▁Phase	-14133
▁hyper	-14134
▁UNITAR	-14135
▁decrees	-14136
▁Decision	-14137
▁treasury	-14138
▁surrender	-14139
▁popularity	-14140
▁demonstrating	-14141
OU	-14142
ois	-14143
mble	-14144
need	-14145
▁Kig	-14146
▁Rob	-14147
▁Rou	-14148
endas	-14149
Africa	-14150
soever	-14151
spirit	-14152
▁Overs	-14153
▁rebel	-14154
▁publis	-14155
▁lowered	-14156
▁scourge	-14157
▁hampered	-14158
▁rainfall	-14159
▁Argentine	-14160
▁Contracting	-14161
▁perpetrated	-14162
72	-14163
ums	-14164
prom	-14165
▁Teac	-14166
▁cart	-14167
▁hang	-14168
▁warn	-14169
fourth	-14170
intend	-14171
▁Fried	-14172
▁Money	-14173
▁Watch	-14174
▁mayor	-14175
▁score	-14176
▁shore	-14177
▁reperc	-14178
▁timber	-14179
atellite	-14180
▁Improve	-14181
▁marking	-14182
▁nowhere	-14183
▁Marshall	-14184
▁Statement	-14185
▁converted	-14186
▁precarious	-14187
▁communicated	-14188
▁intermediate	-14189
VD	-14190
ki	-14191
isen	-14192
▁meal	-14193
points	-14194
▁1986,	-14195
▁Recon	-14196
▁Sales	-14197
▁yours	-14198
▁Sector	-14199
▁cables	-14200
▁nurses	-14201
graduate	-14202
planning	-14203
▁expires	-14204
▁profile	-14205
▁Domestic	-14206
▁adapting	-14207
▁agreeing	-14208
▁Taiwanese	-14209
traditional	-14210
▁exploiting	-14211
▁heightened	-14212
▁subordinate	-14213
▁supplements	-14214
▁repercussions	-14215
▁interdependent	-14216
PD	-14217
TH	-14218
arr	-14219
arns	-14220
▁Mae	-14221
ENAMO	-14222
▁Fran	-14223
▁Hand	-14224
▁IMIS	-14225
▁Less	-14226
▁Wach	-14227
▁anch	-14228
▁plum	-14229
ibouti	-14230
inning	-14231
▁2015.	-14232
▁Banks	-14233
▁Qaeda	-14234
defense	-14235
▁booming	-14236
▁readers	-14237
▁Festival	-14238
▁inviting	-14239
▁licences	-14240
▁colleague	-14241
▁earmarked	-14242
▁maternity	-14243
▁submarine	-14244
▁Procedures	-14245
▁Conservation	-14246
Am	-14247
May	-14248
▁96	-14249
▁ts	-14250
▁191	-14251
▁Disp	-14252
▁hole	-14253
equity	-14254
▁Aware	-14255
▁ninth	-14256
▁smile	-14257
▁tonnes	-14258
▁Hillary	-14259
▁MINURSO	-14260
▁affirmed	-14261
▁artistic	-14262
▁confirms	-14263
▁protocols	-14264
▁geological	-14265
▁motivation	-14266
▁signatories	-14267
▁condemnation	-14268
▁standardized	-14269
79	-14270
)).	-14271
▁("	-14272
.109	-14273
host	-14274
play	-14275
▁13,	-14276
▁MIC	-14277
erved	-14278
world	-14279
▁Know	-14280
▁Modi	-14281
▁sens	-14282
ourses	-14283
▁ample	-14284
▁lofty	-14285
forward	-14286
▁Kigali	-14287
▁herein	-14288
▁Serious	-14289
▁clinics	-14290
▁passion	-14291
▁fertiliz	-14292
▁flagrant	-14293
▁Oversight	-14294
▁developers	-14295
▁domination	-14296
▁equilibrium	-14297
▁extensively	-14298
▁commencement	-14299
0)	-14300
IVIH	-14301
drop	-14302
test	-14303
World	-14304
arios	-14305
overy	-14306
▁corn	-14307
▁holy	-14308
abetes	-14309
social	-14310
urches	-14311
▁Rural	-14312
▁Steve	-14313
▁Andrew	-14314
▁bacter	-14315
▁enroll	-14316
▁panels	-14317
imension	-14318
▁disrupt	-14319
▁reconna	-14320
clearance	-14321
▁Contracts	-14322
▁Stability	-14323
▁organised	-14324
▁rationale	-14325
▁shrinking	-14326
▁unpredict	-14327
▁Assessment	-14328
▁Presidents	-14329
▁unremitting	-14330
▁normalization	-14331
vol	-14332
▁CM	-14333
▁Py	-14334
idal	-14335
ixon	-14336
▁ele	-14337
▁unb	-14338
▁Expl	-14339
▁eggs	-14340
▁pand	-14341
reated	-14342
▁Seoul	-14343
▁rigid	-14344
▁spots	-14345
▁thick	-14346
▁foodst	-14347
▁immune	-14348
▁revise	-14349
▁Hussein	-14350
▁Various	-14351
▁agendas	-14352
▁somehow	-14353
▁verbale	-14354
▁UNCITRAL	-14355
▁prescrib	-14356
ologically	-14357
▁utilizing	-14358
▁discourage	-14359
▁accusations	-14360
▁perceptions	-14361
▁calculations	-14362
▁inequalities	-14363
▁miscellaneous	-14364
▁transboundary	-14365
alt	-14366
esc	-14367
jad	-14368
rov	-14369
link	-14370
▁Lam	-14371
inees	-14372
ouble	-14373
▁2002.	-14374
▁Being	-14375
▁medal	-14376
▁spill	-14377
▁hereby	-14378
rational	-14379
producing	-14380
▁deferred	-14381
▁everyday	-14382
▁taxpayer	-14383
▁confusion	-14384
▁indicator	-14385
▁stationed	-14386
▁1994-1995,	-14387
▁accredited	-14388
▁periodical	-14389
▁transported	-14390
▁disseminated	-14391
▁reconnaissance	-14392
iev	-14393
▁93	-14394
▁Ra	-14395
site	-14396
▁$5.	-14397
▁Hun	-14398
▁Mold	-14399
▁Oslo	-14400
▁leap	-14401
▁lobb	-14402
▁ramp	-14403
▁deems	-14404
▁Thomas	-14405
▁births	-14406
▁Stearns	-14407
▁demilit	-14408
▁supreme	-14409
▁credited	-14410
▁engineer	-14411
▁patience	-14412
▁Cambodian	-14413
▁travelling	-14414
▁countryside	-14415
▁Transnational	-14416
▁interrelations	-14417
oys	-14418
▁Chad	-14419
▁nets	-14420
arming	-14421
ticism	-14422
▁lying	-14423
▁levied	-14424
▁Markets	-14425
▁dilemma	-14426
▁dressed	-14427
▁tonight	-14428
▁Analysis	-14429
▁Botswana	-14430
▁Language	-14431
▁immunity	-14432
▁pointing	-14433
▁readjust	-14434
▁Armistice	-14435
▁apartment	-14436
▁immunities	-14437
▁treatments	-14438
▁devaluation	-14439
▁confiscation	-14440
▁interrelated	-14441
IB	-14442
▁AM	-14443
▁Po	-14444
osia	-14445
▁IPR	-14446
▁rum	-14447
▁Need	-14448
▁folk	-14449
▁Above	-14450
seekers	-14451
▁videos	-14452
▁winner	-14453
▁Looking	-14454
[...]
