<pad>	0
<unk>	0
<s>	0
</s>	0
——	-0
经济	-1
国家	-2
美国	-3
▁但	-4
一个	-5
20	-6
我们	-7
政府	-8
中国	-9
可能	-10
他们	-11
欧洲	-12
问题	-13
▁这	-14
世界	-15
可以	-16
▁在	-17
政治	-18
政策	-19
全球	-20
没有	-21
这一	-22
增长	-23
已经	-24
主义	-25
需要	-26
这些	-27
其他	-28
如果	-29
因为	-30
以及	-31
市场	-32
银行	-33
投资	-34
金融	-35
社会	-36
必须	-37
欧盟	-38
国际	-39
发展	-40
支持	-41
不是	-42
应该	-43
危机	-44
重要	-45
大的	-46
影响	-47
领导	-48
地区	-49
它们	-50
200	-51
因此	-52
19	-53
货币	-54
通过	-55
事实	-56
所有	-57
▁而	-58
00	-59
认为	-60
总统	-61
这样	-62
民主	-63
方面	-64
尽管	-65
组织	-66
美元	-67
的是	-68
的人	-69
成为	-70
201	-71
提供	-72
计划	-73
部分	-74
现在	-75
无法	-76
自己	-77
包括	-78
▁但是	-79
英国	-80
就是	-81
同时	-82
许多	-83
进行	-84
导致	-85
公司	-86
改革	-87
目标	-88
实现	-89
贸易	-90
开始	-91
情况	-92
解决	-93
增加	-94
罗斯	-95
能够	-96
欧元	-97
如此	-98
债务	-99
自由	-100
正在	-101
德国	-102
日本	-103
这个	-104
人们	-105
▁如果	-106
俄罗斯	-107
安全	-108
事实上	-109
印度	-110
的一	-111
机构	-112
企业	-113
收入	-114
带来	-115
的经济	-116
财政	-117
风险	-118
获得	-119
主要	-120
发生	-121
未来	-122
斯坦	-123
什么	-124
▁当	-125
之间	-126
一些	-127
任何	-128
行动	-129
世纪	-130
长期	-131
结果	-132
伊朗	-133
变化	-134
关系	-135
持续	-136
要求	-137
人的	-138
工作	-139
技术	-140
存在	-141
▁事实上	-142
那些	-143
基础	-144
这种	-145
作为	-146
目前	-147
到了	-148
那么	-149
研究	-150
资本	-151
的国家	-152
年的	-153
性的	-154
生产	-155
领导人	-156
成功	-157
利亚	-158
稳定	-159
以色	-160
以色列	-161
不会	-162
采取	-163
联合	-164
国家的	-165
甚至	-166
造成	-167
更加	-168
▁此	-169
中的	-170
并不	-171
最近	-172
法国	-173
过去	-174
价格	-175
特别	-176
也是	-177
时间	-178
对于	-179
更多	-180
一种	-181
建立	-182
决定	-183
成员	-184
不同	-185
比如	-186
合作	-187
利益	-188
国内	-189
新的	-190
▁我们	-191
战争	-192
规模	-193
这样的	-194
如何	-195
保护	-196
以来	-197
an	-198
十年	-199
er	-200
并且	-201
力的	-202
如今	-203
严重	-204
产生	-205
选择	-206
反对	-207
教育	-208
历史	-209
意味	-210
一直	-211
只有	-212
)。	-213
挑战	-214
继续	-215
希望	-216
▁因此	-217
面临	-218
公共	-219
央行	-220
拉克	-221
能源	-222
▁此外	-223
出现	-224
作用	-225
行为	-226
水平	-227
美国的	-228
威胁	-229
他们的	-230
意味着	-231
on	-232
西方	-233
环境	-234
同样	-235
国的	-236
利率	-237
协议	-238
来说	-239
选举	-240
令人	-241
气候	-242
生活	-243
不能	-244
措施	-245
实际	-246
方案	-247
希腊	-248
表明	-249
实施	-250
成本	-251
DP	-252
部门	-253
最终	-254
人民	-255
竞争	-256
战略	-257
机会	-258
下降	-259
提高	-260
似乎	-261
消费	-262
的问题	-263
特朗	-264
拥有	-265
制度	-266
系统	-267
上的	-268
学家	-269
GDP	-270
欧元区	-271
控制	-272
特朗普	-273
亿美元	-274
原因	-275
接受	-276
还是	-277
),	-278
能力	-279
伊斯	-280
使用	-281
”。	-282
▁尽管	-283
伊斯兰	-284
需求	-285
或者	-286
多数	-287
亚洲	-288
时候	-289
资产	-290
他的	-291
基金	-292
是否	-293
不仅	-294
谈判	-295
服务	-296
方式	-297
改变	-298
为了	-299
和平	-300
一步	-301
巴马	-302
随着	-303
不可	-304
冲突	-305
0%	-306
奥巴马	-307
联盟	-308
▁美国	-309
阿拉	-310
而且	-311
程度	-312
承诺	-313
关键	-314
军事	-315
外交	-316
来自	-317
资源	-318
特别是	-319
的政治	-320
仍然	-321
有效	-322
非常	-323
非洲	-324
体系	-325
减少	-326
降低	-327
管理	-328
资金	-329
人口	-330
一样	-331
委员	-332
ar	-333
从而	-334
而不是	-335
其中	-336
是一个	-337
伊拉克	-338
联合国	-339
由于	-340
得到	-341
价值	-342
共同	-343
▁”	-344
几乎	-345
真正	-346
en	-347
受到	-348
的情况	-349
▁这一	-350
即使	-351
▁这些	-352
阿拉伯	-353
叙利亚	-354
力量	-355
监管	-356
大部分	-357
还有	-358
一次	-359
各国	-360
重新	-361
完全	-362
劳动	-363
经济体	-364
就业	-365
自己的	-366
出口	-367
项目	-368
委员会	-369
土耳	-370
的最	-371
虽然	-372
类似	-373
和其他	-374
土耳其	-375
因素	-376
出了	-377
考虑	-378
那样	-379
创造	-380
年代	-381
观点	-382
移民	-383
有可能	-384
石油	-385
中国的	-386
参与	-387
也许	-388
者的	-389
决策	-390
▁与	-391
不断	-392
之一	-393
保持	-394
援助	-395
相反	-396
确保	-397
出的	-398
▁他们	-399
某些	-400
进一步	-401
化的	-402
变得	-403
in	-404
越来	-405
越来越	-406
地方	-407
▁不	-408
自身	-409
帮助	-410
破坏	-411
避免	-412
结构	-413
”,	-414
都是	-415
as	-416
恐怖	-417
设施	-418
基本	-419
贷款	-420
活动	-421
超过	-422
责任	-423
运动	-424
领域	-425
之间的	-426
了一	-427
好的	-428
赤字	-429
中东	-430
关注	-431
权力	-432
利用	-433
发达	-434
根本	-435
将会	-436
巴勒	-437
的大	-438
巴勒斯坦	-439
地位	-440
今天	-441
限制	-442
al	-443
模式	-444
取得	-445
起来	-446
民族	-447
武器	-448
制定	-449
平等	-450
数据	-451
个人	-452
关于	-453
条件	-454
过程	-455
失业	-456
表现	-457
但是	-458
具有	-459
改善	-460
法律	-461
只是	-462
199	-463
%。	-464
公民	-465
现实	-466
知道	-467
民众	-468
ti	-469
方法	-470
在于	-471
独立	-472
的新	-473
很多	-474
刺激	-475
通胀	-476
努力	-477
▁对	-478
城市	-479
发展中	-480
成员国	-481
家庭	-482
贫困	-483
的话	-484
传统	-485
会议	-486
革命	-487
大量	-488
危险	-489
相当	-490
支出	-491
结束	-492
联储	-493
推动	-494
预算	-495
状况	-496
000	-497
维持	-498
▁从	-499
重要的	-500
共和	-501
就会	-502
首先	-503
信息	-504
▁中国	-505
事件	-506
▁他	-507
美联储	-508
私人	-509
应对	-510
▁当然	-511
的影响	-512
的政策	-513
朝鲜	-514
至少	-515
气候变化	-516
相关	-517
两个	-518
是在	-519
医疗	-520
之后	-521
整个	-522
时代	-523
全世界	-524
最后	-525
当前	-526
发现	-527
显然	-528
▁欧洲	-529
or	-530
上述	-531
可能会	-532
健康	-533
巨大的	-534
创新	-535
直接	-536
克兰	-537
规则	-538
上升	-539
繁荣	-540
新兴	-541
确定	-542
而言	-543
成了	-544
债券	-545
乌克兰	-546
第二	-547
尼亚	-548
而是	-549
压力	-550
税收	-551
基础设施	-552
代表	-553
%,	-554
试图	-555
这是	-556
及其	-557
报告	-558
错误	-559
尤其	-560
平衡	-561
人类	-562
巴基	-563
我们的	-564
相对	-565
机制	-566
政权	-567
经济增长	-568
巴基斯坦	-569
极端	-570
埃及	-571
公众	-572
之前	-573
▁比如	-574
用于	-575
才能	-576
2008	-577
日益	-578
必要	-579
根据	-580
▁我	-581
所谓	-582
投资者	-583
穆斯	-584
官员	-585
可持续	-586
此同时	-587
▁其	-588
陷入	-589
选民	-590
穆斯林	-591
或许	-592
制造	-593
▁如今	-594
证明	-595
不再	-596
的情况下	-597
依然	-598
失败	-599
识到	-600
做出	-601
标准	-602
文化	-603
意大	-604
担心	-605
后果	-606
总理	-607
主权	-608
布什	-609
衰退	-610
更为	-611
理解	-612
意大利	-613
现代	-614
▁有	-615
的时候	-616
金融危机	-617
科学	-618
难民	-619
交易	-620
扩大	-621
进步	-622
50	-623
达到	-624
不可能	-625
明确	-626
经济的	-627
30	-628
难以	-629
一场	-630
反应	-631
意义	-632
唯一	-633
来的	-634
普京	-635
产品	-636
商品	-637
解释	-638
流动	-639
大规模	-640
爆发	-641
10	-642
商业	-643
经济学家	-644
预测	-645
拒绝	-646
十分	-647
核心	-648
相信	-649
依赖	-650
进入	-651
更多的	-652
大多数	-653
政府的	-654
并没有	-655
es	-656
然而	-657
分子	-658
权利	-659
今年	-660
有的	-661
达成	-662
引发	-663
理由	-664
ash	-665
融资	-666
▁它	-667
60	-668
有所	-669
内部	-670
外国	-671
劳动力	-672
暴力	-673
并非	-674
个月	-675
损失	-676
▁S	-677
问题的	-678
排放	-679
承认	-680
这一点	-681
行的	-682
宗教	-683
缺乏	-684
领袖	-685
比亚	-686
指出	-687
统治	-688
针对	-689
儿童	-690
不足	-691
▁相反	-692
手段	-693
讨论	-694
调整	-695
削减	-696
复杂	-697
工业	-698
MF	-699
愿意	-700
只能	-701
年前	-702
正确	-703
;&	-704
年轻	-705
,“	-706
准备	-707
md	-708
视为	-709
主义者	-710
面对	-711
mdash	-712
工资	-713
数字	-714
的全球	-715
积极	-716
媒体	-717
每年	-718
时期	-719
重大	-720
伙伴	-721
应当	-722
大学	-723
阻止	-724
后的	-725
IMF	-726
正如	-727
复苏	-728
期间	-729
广泛	-730
趋势	-731
加入	-732
干预	-733
范围	-734
议会	-735
短期	-736
阿富	-737
阿富汗	-738
不到	-739
网络	-740
容易	-741
灾难	-742
数量	-743
带来的	-744
形成	-745
袭击	-746
年来	-747
允许	-748
原则	-749
巴西	-750
经历	-751
发展中国家	-752
去年	-753
进程	-754
政策的	-755
协定	-756
储蓄	-757
也不	-758
宣布	-759
建设	-760
财富	-761
主义的	-762
无论	-763
共和党	-764
一位	-765
欧洲央行	-766
吸引	-767
条约	-768
自然	-769
下的	-770
知识	-771
..	-772
高的	-773
汇率	-774
开发	-775
大幅	-776
▁与此同时	-777
方面的	-778
地区的	-779
代价	-780
毫无	-781
欧洲的	-782
充分	-783
往往	-784
中央	-785
仅仅	-786
紧缩	-787
将在	-788
不平等	-789
开放	-790
迅速	-791
实际上	-792
了一个	-793
最大的	-794
联系	-795
调查	-796
▁C	-797
快速	-798
过度	-799
集团	-800
沙特	-801
第三	-802
失去	-803
投票	-804
▁然而	-805
▁虽然	-806
反映	-807
11	-808
办法	-809
▁首先	-810
促进	-811
腐败	-812
一致	-813
道德	-814
合法	-815
某种	-816
12	-817
正是	-818
平均	-819
行业	-820
足够	-821
并不是	-822
政党	-823
联邦	-824
通常	-825
主席	-826
有关	-827
承担	-828
恢复	-829
购买	-830
它们的	-831
经常	-832
之外	-833
韩国	-834
显示	-835
所以	-836
感到	-837
的支持	-838
在一	-839
宪法	-840
预期	-841
保证	-842
形式	-843
批评	-844
赢得	-845
,000	-846
多的	-847
ic	-848
好处	-849
女性	-850
一项	-851
纽约	-852
市场的	-853
疾病	-854
助于	-855
墨西	-856
提出	-857
即便	-858
西班	-859
墨西哥	-860
西班牙	-861
目的	-862
工人	-863
治理	-864
el	-865
除了	-866
潜在	-867
▁现在	-868
死亡	-869
合理	-870
基于	-871
is	-872
部长	-873
有利	-874
困难	-875
it	-876
巨大	-877
再次	-878
工具	-879
确实	-880
军队	-881
收益	-882
简单	-883
支付	-884
卫生	-885
▁“	-886
国会	-887
崩溃	-888
加强	-889
引起	-890
程度上	-891
角色	-892
两国	-893
▁随着	-894
曾经	-895
5%	-896
国际货币	-897
态度	-898
中心	-899
立场	-900
储备	-901
鼓励	-902
经验	-903
公开	-904
人都	-905
思想	-906
为什么	-907
效果	-908
:“	-909
基金组织	-910
理论	-911
评估	-912
美国和	-913
执行	-914
分析	-915
的方式	-916
处于	-917
货币政策	-918
的主要	-919
的社会	-920
精神	-921
优势	-922
寻求	-923
也会	-924
建议	-925
另一个	-926
任务	-927
肯定	-928
福利	-929
▁一	-930
看到	-931
▁这种	-932
它的	-933
转移	-934
生物	-935
事情	-936
扩张	-937
苏联	-938
生产率	-939
的不	-940
美国人	-941
打击	-942
经济学	-943
也有	-944
全球经济	-945
强调	-946
▁P	-947
am	-948
毕竟	-949
2010	-950
伦敦	-951
只要	-952
速度	-953
▁该	-954
妇女	-955
框架	-956
发达国家	-957
集中	-958
198	-959
其他国家	-960
明显	-961
不管	-962
成立	-963
遏制	-964
生命	-965
本身	-966
的信	-967
想要	-968
是因为	-969
崛起	-970
例子	-971
农业	-972
表示	-973
供应	-974
防止	-975
候选	-976
全球化	-977
效率	-978
完成	-979
追求	-980
所谓的	-981
人员	-982
外部	-983
▁更	-984
实力	-985
转变	-986
全面	-987
决策者	-988
这场	-989
的风险	-990
国民	-991
坚持	-992
另一	-993
保险	-994
情绪	-995
tion	-996
东西	-997
”(	-998
担忧	-999
很大	-1000
公平	-1001
的政府	-1002
民粹	-1003
国际社会	-1004
处理	-1005
的目标	-1006
▁由于	-1007
动荡	-1008
和经济	-1009
核武器	-1010
第一	-1011
贬值	-1012
15	-1013
使得	-1014
同意	-1015
秩序	-1016
削弱	-1017
少数	-1018
认识到	-1019
比例	-1020
▁为了	-1021
大约	-1022
人权	-1023
百万	-1024
种族	-1025
负债	-1026
基因	-1027
治疗	-1028
群体	-1029
的增长	-1030
放弃	-1031
更大的	-1032
执政	-1033
证据	-1034
的结果	-1035
▁A	-1036
怀疑	-1037
▁这样	-1038
的一个	-1039
统一	-1040
进口	-1041
真正的	-1042
il	-1043
满足	-1044
共产	-1045
分配	-1046
国际货币基金组织	-1047
找到	-1048
有助于	-1049
当时	-1050
问题上	-1051
组成	-1052
当局	-1053
就像	-1054
相比	-1055
造成的	-1056
逐渐	-1057
策略	-1058
天然	-1059
膨胀	-1060
转型	-1061
可能性	-1062
70	-1063
专家	-1064
re	-1065
马斯	-1066
▁毕竟	-1067
例如	-1068
区域	-1069
一定	-1070
at	-1071
犹太	-1072
补贴	-1073
都会	-1074
民主党	-1075
▁M	-1076
和政治	-1077
俄国	-1078
退出	-1079
强化	-1080
也在	-1081
保守	-1082
▁发	-1083
前景	-1084
很难	-1085
▁结果	-1086
▁200	-1087
系列	-1088
北约	-1089
失业率	-1090
状态	-1091
的欧洲	-1092
ro	-1093
制裁	-1094
常常	-1095
燃料	-1096
增长的	-1097
做法	-1098
意识	-1099
独裁	-1100
将是	-1101
其实	-1102
胜利	-1103
2015	-1104
分裂	-1105
▁许多	-1106
各种	-1107
负担	-1108
的原因	-1109
冲击	-1110
巴黎	-1111
正式	-1112
观察	-1113
恶化	-1114
现象	-1115
一切	-1116
美国总统	-1117
普遍	-1118
▁目前	-1119
大选	-1120
政客	-1121
具体	-1122
值得	-1123
事务	-1124
利润	-1125
解决方案	-1126
18	-1127
也没有	-1128
欧盟的	-1129
回报	-1130
糟糕	-1131
该国	-1132
债权	-1133
规定	-1134
▁最后	-1135
加剧	-1136
严重的	-1137
消费者	-1138
不得	-1139
技能	-1140
的世界	-1141
通货	-1142
的重要	-1143
远远	-1144
人民币	-1145
▁发自	-1146
峰会	-1147
立法	-1148
宽松	-1149
年中	-1150
清楚	-1151
斗争	-1152
波兰	-1153
1.	-1154
争论	-1155
强大的	-1156
需要的	-1157
进展	-1158
▁一个	-1159
左右	-1160
竞选	-1161
了解	-1162
总体	-1163
注意	-1164
也就是	-1165
▁而且	-1166
得多	-1167
永远	-1168
精英	-1169
体制	-1170
角度	-1171
道路	-1172
势力	-1173
设计	-1174
宏观	-1175
最高	-1176
负责	-1177
▁即使	-1178
二十	-1179
迫使	-1180
▁对于	-1181
并未	-1182
克里	-1183
则是	-1184
25	-1185
阶级	-1186
不同的	-1187
不过	-1188
局面	-1189
▁但这	-1190
提供了	-1191
人士	-1192
方向	-1193
2012	-1194
即将	-1195
的美国	-1196
的关键	-1197
团结	-1198
工程	-1199
的高	-1200
的那样	-1201
om	-1202
为止	-1203
▁同样	-1204
泡沫	-1205
真实	-1206
天然气	-1207
障碍	-1208
年以来	-1209
贡献	-1210
增长率	-1211
不但	-1212
华盛	-1213
华盛顿	-1214
空间	-1215
候选人	-1216
ac	-1217
为何	-1218
2011	-1219
重要的是	-1220
质量	-1221
激励	-1222
▁但在	-1223
发挥	-1224
总是	-1225
的对	-1226
▁R	-1227
停滞	-1228
学生	-1229
的国际	-1230
也将	-1231
提升	-1232
个国家	-1233
th	-1234
见的	-1235
而非	-1236
的能力	-1237
下跌	-1238
想象	-1239
有着	-1240
看来	-1241
和社会	-1242
▁5	-1243
武装	-1244
官方	-1245
新闻	-1246
双方	-1247
可以在	-1248
人和	-1249
显著	-1250
相互	-1251
▁最	-1252
至关	-1253
信心	-1254
岗位	-1255
▁它们	-1256
取决	-1257
投入	-1258
内的	-1259
土地	-1260
很快	-1261
ol	-1262
脆弱	-1263
▁欧盟	-1264
取决于	-1265
在美国	-1266
多少	-1267
食品	-1268
这样做	-1269
银行的	-1270
局势	-1271
之中	-1272
符合	-1273
共识	-1274
正常	-1275
情况下	-1276
在过去	-1277
效应	-1278
几十年	-1279
是对	-1280
2013	-1281
有效的	-1282
当今	-1283
盟友	-1284
阶段	-1285
从未	-1286
互联	-1287
尔德	-1288
巴嫩	-1289
彻底	-1290
黎巴嫩	-1291
停止	-1292
面临着	-1293
类似的	-1294
信用	-1295
否则	-1296
孩子	-1297
本国	-1298
▁世界	-1299
教训	-1300
计算	-1301
2009	-1302
▁要	-1303
产业	-1304
依靠	-1305
欢迎	-1306
和美国	-1307
变革	-1308
方针	-1309
领土	-1310
不仅仅	-1311
考虑到	-1312
金融市场	-1313
呼吁	-1314
前的	-1315
最大	-1316
预计	-1317
90	-1318
信任	-1319
直到	-1320
而不	-1321
接近	-1322
还要	-1323
▁G	-1324
克林	-1325
有人	-1326
▁自	-1327
消息	-1328
分之一	-1329
称为	-1330
竞争力	-1331
哈马斯	-1332
破产	-1333
身份	-1334
流动性	-1335
当选	-1336
替代	-1337
幸的是	-1338
▁因为	-1339
2014	-1340
当地	-1341
禁止	-1342
一体	-1343
忽视	-1344
▁B	-1345
更好	-1346
都在	-1347
ent	-1348
▁所有	-1349
法院	-1350
尤其是	-1351
160	-1352
后者	-1353
充满	-1354
塞尔	-1355
紧张	-1356
结构性	-1357
对其	-1358
估计	-1359
对此	-1360
普通	-1361
有些	-1362
退休	-1363
最近的	-1364
外交政策	-1365
攻击	-1366
▁F	-1367
过程中	-1368
通货膨胀	-1369
透明	-1370
强烈	-1371
但却	-1372
汽车	-1373
主导	-1374
的基础	-1375
大国	-1376
大大	-1377
学校	-1378
是一	-1379
遭到	-1380
ation	-1381
除非	-1382
出现了	-1383
推进	-1384
ed	-1385
摆脱	-1386
更大	-1387
激进	-1388
被迫	-1389
的机会	-1390
有限	-1391
这类	-1392
地产	-1393
万亿美元	-1394
重组	-1395
197	-1396
利比亚	-1397
协调	-1398
氧化	-1399
安倍	-1400
就能	-1401
100	-1402
寻找	-1403
旨在	-1404
采用	-1405
年轻人	-1406
发表	-1407
怎样	-1408
面临的	-1409
新兴市场	-1410
真的	-1411
程序	-1412
右翼	-1413
地球	-1414
互联网	-1415
萧条	-1416
恐怖主义	-1417
以上	-1418
警告	-1419
也可以	-1420
痛苦	-1421
批准	-1422
自我	-1423
首相	-1424
差异	-1425
伤害	-1426
自身的	-1427
▁(	-1428
社区	-1429
#160	-1430
取代	-1431
开支	-1432
当然	-1433
格兰	-1434
克尔	-1435
而易	-1436
分歧	-1437
约束	-1438
不确定	-1439
转向	-1440
的观点	-1441
民粹主义	-1442
未能	-1443
现有	-1444
概念	-1445
波动	-1446
指责	-1447
消除	-1448
适应	-1449
0.	-1450
正确的	-1451
民族主义	-1452
团体	-1453
要么	-1454
质疑	-1455
▁新	-1456
低于	-1457
单一	-1458
股票	-1459
带来了	-1460
供给	-1461
世界上	-1462
上涨	-1463
取消	-1464
阻碍	-1465
and	-1466
发生的	-1467
更好的	-1468
该地区	-1469
来源	-1470
保障	-1471
在这	-1472
增强	-1473
▁人们	-1474
多样	-1475
对手	-1476
世界的	-1477
长的	-1478
》(	-1479
周期	-1480
说法	-1481
遭受	-1482
发动	-1483
ou	-1484
比较	-1485
▁正如	-1486
的一部分	-1487
出来	-1488
边境	-1489
那里	-1490
▁那么	-1491
是不	-1492
药物	-1493
▁政府	-1494
层面	-1495
部队	-1496
这意味着	-1497
得以	-1498
提振	-1499
不得不	-1500
)、	-1501
生存	-1502
集体	-1503
在未来	-1504
邻国	-1505
言论	-1506
几个	-1507
▁类似	-1508
性和	-1509
那就是	-1510
将其	-1511
有一	-1512
混乱	-1513
疑问	-1514
凯恩	-1515
左翼	-1516
年后	-1517
克林顿	-1518
相当于	-1519
受益	-1520
然后	-1521
签署	-1522
▁根据	-1523
今天的	-1524
严格	-1525
答案	-1526
增加了	-1527
伊斯兰教	-1528
举行	-1529
双边	-1530
最为	-1531
量的	-1532
争议	-1533
包容	-1534
美洲	-1535
另外	-1536
有利于	-1537
的行为	-1538
造成了	-1539
2.	-1540
多边	-1541
让我们	-1542
▁D	-1543
实行	-1544
并在	-1545
的前	-1546
的确	-1547
获得了	-1548
二氧化	-1549
差距	-1550
扮演	-1551
的反	-1552
相同	-1553
80	-1554
担任	-1555
阿根	-1556
le	-1557
的投资	-1558
属于	-1559
成就	-1560
明白	-1561
过于	-1562
得到了	-1563
的财政	-1564
盈余	-1565
随后	-1566
阿根廷	-1567
▁)	-1568
告诉	-1569
▁没有	-1570
中央银行	-1571
导致了	-1572
在其	-1573
背景	-1574
指标	-1575
重建	-1576
一直在	-1577
司法	-1578
帝国	-1579
三个	-1580
学习	-1581
辩论	-1582
危机的	-1583
所带来的	-1584
ad	-1585
报道	-1586
房地产	-1587
二氧化碳	-1588
二战	-1589
变暖	-1590
缺少	-1591
尔兰	-1592
由此	-1593
监督	-1594
▁作为	-1595
的研究	-1596
意愿	-1597
大陆	-1598
▁一些	-1599
爱尔兰	-1600
ch	-1601
内容	-1602
富裕	-1603
重点	-1604
反对派	-1605
意识到	-1606
强大	-1607
▁这是	-1608
提出了	-1609
自由贸易	-1610
指数	-1611
显而易	-1612
40	-1613
▁I	-1614
持有	-1615
乐观	-1616
力于	-1617
放缓	-1618
▁英国	-1619
温和	-1620
不应该	-1621
取得了	-1622
影响力	-1623
逊尼	-1624
困境	-1625
安排	-1626
官僚	-1627
理想	-1628
假设	-1629
以前	-1630
升值	-1631
▁德国	-1632
et	-1633
倾向	-1634
成果	-1635
科技	-1636
管制	-1637
▁这个	-1638
2007	-1639
之下	-1640
电视	-1641
者们	-1642
高达	-1643
定义	-1644
的同时	-1645
矛盾	-1646
▁类似地	-1647
▁就	-1648
与其	-1649
致力于	-1650
可以通过	-1651
基地	-1652
▁通过	-1653
生活在	-1654
的发展	-1655
时刻	-1656
都有	-1657
可靠	-1658
而这	-1659
至于	-1660
加速	-1661
捍卫	-1662
of	-1663
地缘	-1664
理会	-1665
鉴于	-1666
发生了	-1667
法案	-1668
尔多	-1669
恐惧	-1670
▁但如果	-1671
的可能性	-1672
▁据	-1673
金融机构	-1674
国有	-1675
思维	-1676
形态	-1677
量化	-1678
▁不幸的是	-1679
宣称	-1680
才是	-1681
机器	-1682
这项	-1683
▁T	-1684
我的	-1685
者和	-1686
定的	-1687
德里	-1688
维亚	-1689
可能是	-1690
下去	-1691
什叶	-1692
足以	-1693
▁只有	-1694
45	-1695
议院	-1696
需的	-1697
产生的	-1698
克服	-1699
发布	-1700
给予	-1701
价值观	-1702
妥协	-1703
感觉	-1704
日程	-1705
滋病	-1706
走向	-1707
违约	-1708
都不	-1709
同样的	-1710
众多	-1711
全国	-1712
疫苗	-1713
缺陷	-1714
10%	-1715
全部	-1716
所未	-1717
理念	-1718
贫穷	-1719
其它	-1720
对抗	-1721
很少	-1722
深刻	-1723
提出的	-1724
的民主	-1725
可持续发展	-1726
逊尼派	-1727
这些国家	-1728
污染	-1729
记录	-1730
犯罪	-1731
缅甸	-1732
会在	-1733
加沙	-1734
缓慢	-1735
艾滋病	-1736
展开	-1737
明智	-1738
▁2	-1739
具备	-1740
拯救	-1741
衡量	-1742
就必须	-1743
访问	-1744
▁纽约	-1745
党派	-1746
实验	-1747
思考	-1748
抗议	-1749
”——	-1750
还没有	-1751
世界银行	-1752
沙特阿拉伯	-1753
油价	-1754
的改革	-1755
冷战	-1756
许多人	-1757
启动	-1758
认识	-1759
两大	-1760
扩散	-1761
杠杆	-1762
粮食	-1763
安理会	-1764
毫无疑问	-1765
17	-1766
所需要的	-1767
年间	-1768
构建	-1769
毫不	-1770
什叶派	-1771
是一种	-1772
的计划	-1773
▁特朗普	-1774
特别是在	-1775
足够的	-1776
账户	-1777
▁实际上	-1778
特征	-1779
信贷	-1780
描述	-1781
示威	-1782
有时	-1783
公司的	-1784
掌握	-1785
遭遇	-1786
预防	-1787
瑞拉	-1788
统计	-1789
地缘政治	-1790
的作用	-1791
意识形态	-1792
委内	-1793
表达	-1794
委内瑞拉	-1795
发达经济体	-1796
中产	-1797
占据	-1798
凯恩斯	-1799
伊朗的	-1800
事会	-1801
说明	-1802
奇怪	-1803
损害	-1804
说服	-1805
▁印度	-1806
按照	-1807
习近	-1808
灵活	-1809
结论	-1810
几年	-1811
尝试	-1812
习近平	-1813
危险的	-1814
科学家	-1815
▁以	-1816
低的	-1817
政府和	-1818
os	-1819
传播	-1820
兄弟	-1821
屠杀	-1822
用来	-1823
能否	-1824
制造业	-1825
的核心	-1826
美国在	-1827
us	-1828
一代	-1829
农民	-1830
喜欢	-1831
抑制	-1832
高于	-1833
看起来	-1834
第一次	-1835
占领	-1836
资本主义	-1837
专业	-1838
加上	-1839
动力	-1840
究竟	-1841
传染	-1842
税率	-1843
▁其次	-1844
入侵	-1845
历史上	-1846
刚刚	-1847
国外	-1848
荷兰	-1849
的人口	-1850
问题是	-1851
俄罗斯的	-1852
受害	-1853
实体	-1854
▁日本	-1855
就可以	-1856
宏观经济	-1857
这么	-1858
经历了	-1859
尊重	-1860
的工作	-1861
之处	-1862
体现	-1863
来看	-1864
欧洲人	-1865
整体	-1866
中国和	-1867
世界经济	-1868
操纵	-1869
早期	-1870
萨德	-1871
债权人	-1872
外汇	-1873
心理	-1874
更高	-1875
法庭	-1876
巨额	-1877
抵制	-1878
▁20	-1879
拉美	-1880
更高的	-1881
14	-1882
起到	-1883
2000	-1884
主张	-1885
内战	-1886
时的	-1887
反映了	-1888
稳定的	-1889
中产阶级	-1890
▁E	-1891
孤立	-1892
香港	-1893
各地	-1894
潜力	-1895
▁同时	-1896
组织的	-1897
国防	-1898
宣传	-1899
恰恰	-1900
股市	-1901
以后	-1902
巩固	-1903
推翻	-1904
著名	-1905
成功的	-1906
所在	-1907
至关重要	-1908
故事	-1909
行长	-1910
促使	-1911
她们	-1912
斯科	-1913
▁全球	-1914
有一个	-1915
的长期	-1916
私人部门	-1917
之路	-1918
南非	-1919
句话	-1920
跨国	-1921
对美国	-1922
出于	-1923
愤怒	-1924
因为它	-1925
我们必须	-1926
农村	-1927
形势	-1928
森林	-1929
议员	-1930
所有的	-1931
他在	-1932
包含	-1933
回归	-1934
一体化	-1935
引入	-1936
诸多	-1937
未来的	-1938
表现出	-1939
不受	-1940
ri	-1941
ing	-1942
几个月	-1943
人在	-1944
权的	-1945
测试	-1946
特殊	-1947
牺牲	-1948
▁of	-1949
澳大	-1950
很大程度上	-1951
回到	-1952
边界	-1953
伊斯兰国	-1954
一起	-1955
不愿	-1956
培训	-1957
承受	-1958
月份	-1959
相似	-1960
研发	-1961
评论	-1962
了这一	-1963
一点	-1964
是个	-1965
绿色	-1966
模型	-1967
在一起	-1968
任期	-1969
对话	-1970
维护	-1971
这次	-1972
默克尔	-1973
澳大利亚	-1974
▁到	-1975
格鲁	-1976
进行了	-1977
借贷	-1978
也无法	-1979
量化宽松	-1980
化石	-1981
条款	-1982
第一个	-1983
▁H	-1984
两种	-1985
合法性	-1986
13	-1987
一旦	-1988
医生	-1989
无疑	-1990
被认为	-1991
但在	-1992
▁无论	-1993
于是	-1994
变成	-1995
情报	-1996
构成	-1997
ter	-1998
▁最近	-1999
前所未	-2000
各国政府	-2001
采取行动	-2002
动物	-2003
标志	-2004
和金融	-2005
的金融	-2006
极大	-2007
涉及	-2008
纳税	-2009
巴拉克	-2010
阿萨德	-2011
义务	-2012
公投	-2013
大型	-2014
拉丁	-2015
用的	-2016
阿尔	-2017
的威胁	-2018
▁例如	-2019
在欧洲	-2020
很可能	-2021
的未来	-2022
举措	-2023
过渡	-2024
伙伴关系	-2025
一般	-2026
强硬	-2027
现状	-2028
结合	-2029
劳动力市场	-2030
公正	-2031
边缘	-2032
释放	-2033
▁法国	-2034
不可避免	-2035
绝对	-2036
试验	-2037
改革的	-2038
更不	-2039
▁3	-2040
西洋	-2041
支持者	-2042
政治家	-2043
参加	-2044
极为	-2045
负债表	-2046
达到了	-2047
变得更加	-2048
资格	-2049
错误的	-2050
产量	-2051
仍在	-2052
约旦	-2053
库尔德	-2054
产出	-2055
中所	-2056
对待	-2057
化石燃料	-2058
▁d	-2059
幸运	-2060
早已	-2061
流入	-2062
紧密	-2063
也是如此	-2064
16	-2065
现金	-2066
▁奥巴马	-2067
职业	-2068
▁而在	-2069
2005	-2070
各自	-2071
导弹	-2072
的地区	-2073
共产主义	-2074
ur	-2075
不满	-2076
高度	-2077
▁第二	-2078
的需求	-2079
资产负债表	-2080
21	-2081
位于	-2082
做的	-2083
决心	-2084
▁——	-2085
的行动	-2086
不仅仅是	-2087
目前为止	-2088
被视为	-2089
声称	-2090
月的	-2091
196	-2092
▁伦敦	-2093
强制	-2094
▁除了	-2095
民主的	-2096
计划的	-2097
▁尽管如此	-2098
▁7	-2099
中间	-2100
公约	-2101
意见	-2102
更有	-2103
大西洋	-2104
以此	-2105
尚未	-2106
解放	-2107
非法	-2108
首次	-2109
在经济	-2110
必要的	-2111
不太	-2112
比率	-2113
看法	-2114
目前的	-2115
亿美元的	-2116
不久	-2117
作出	-2118
居民	-2119
想法	-2120
营养	-2121
还会	-2122
500	-2123
▁在这	-2124
一下	-2125
升级	-2126
哥伦	-2127
惩罚	-2128
紧急	-2129
贝尔	-2130
之所以	-2131
命运	-2132
斯特	-2133
尔多安	-2134
付出	-2135
2%	-2136
兴趣	-2137
一系列	-2138
哥伦比亚	-2139
最重要的	-2140
约翰	-2141
同时也	-2142
....	-2143
⁄4	-2144
之时	-2145
员工	-2146
渴望	-2147
ul	-2148
减税	-2149
te	-2150
不利	-2151
循环	-2152
期望	-2153
要比	-2154
超越	-2155
在全球	-2156
的挑战	-2157
打破	-2158
消失	-2159
回应	-2160
海洋	-2161
▁6	-2162
忽略	-2163
新兴经济体	-2164
激烈	-2165
离开	-2166
紧迫	-2167
通缩	-2168
2016	-2169
住房	-2170
有了	-2171
语言	-2172
镇压	-2173
原因是	-2174
▁K	-2175
数百万	-2176
让他们	-2177
▁为	-2178
还需要	-2179
埃尔多安	-2180
PP	-2181
不够	-2182
基督	-2183
尼斯	-2184
尼日	-2185
推行	-2186
给了	-2187
马克	-2188
例外	-2189
怎么	-2190
驱动	-2191
与美国	-2192
所面临的	-2193
货币联盟	-2194
东盟	-2195
北京	-2196
穷人	-2197
而在	-2198
▁过去	-2199
的历史	-2200
选举中	-2201
受到了	-2202
的军事	-2203
这个问题	-2204
▁L	-2205
人物	-2206
持久	-2207
能在	-2208
和中国	-2209
▁俄罗斯	-2210
随之	-2211
▁第三	-2212
是如此	-2213
的中国	-2214
都没有	-2215
规划	-2216
▁也许	-2217
的生活	-2218
拉丁美洲	-2219
▁换	-2220
再生	-2221
消灭	-2222
纳德	-2223
自动	-2224
发生在	-2225
成功地	-2226
的时间	-2227
交通	-2228
组合	-2229
的努力	-2230
万人	-2231
下来	-2232
至今	-2233
让人	-2234
逻辑	-2235
▁其他	-2236
的措施	-2237
任命	-2238
太平	-2239
已经在	-2240
台湾	-2241
瑞典	-2242
限于	-2243
马里	-2244
将继续	-2245
的地方	-2246
采取了	-2247
已经开始	-2248
多元	-2249
强劲	-2250
西亚	-2251
▁今天	-2252
借款	-2253
姆林	-2254
和投资	-2255
也不会	-2256
的银行	-2257
平民	-2258
必然	-2259
是美国	-2260
的战略	-2261
▁中国的	-2262
▁在美国	-2263
▁简	-2264
平台	-2265
突然	-2266
▁其中	-2267
产生了	-2268
的利益	-2269
的承诺	-2270
一年	-2271
疲软	-2272
迹象	-2273
之上	-2274
度的	-2275
摧毁	-2276
细胞	-2277
诚然	-2278
亿欧元	-2279
全球变暖	-2280
巴勒斯坦人	-2281
欧盟委员会	-2282
召开	-2283
外的	-2284
获益	-2285
过来	-2286
ment	-2287
另一方面	-2288
1%	-2289
数十	-2290
正义	-2291
演讲	-2292
的安全	-2293
全民	-2294
分之	-2295
法治	-2296
议程	-2297
谴责	-2298
民主国家	-2299
个体	-2300
利班	-2301
艰难	-2302
到的	-2303
是有	-2304
太平洋	-2305
比方	-2306
气体	-2307
遵守	-2308
人均	-2309
人数	-2310
顾问	-2311
发展的	-2312
机构的	-2313
恐怖分子	-2314
▁8	-2315
保留	-2316
发行	-2317
各方	-2318
建筑	-2319
经营	-2320
言之	-2321
证券	-2322
领导的	-2323
业务	-2324
加拿	-2325
超级	-2326
在政治	-2327
2001	-2328
上去	-2329
协助	-2330
生态	-2331
存在的	-2332
这一目标	-2333
ers	-2334
低收入	-2335
▁4	-2336
互相	-2337
否认	-2338
大会	-2339
病毒	-2340
脱离	-2341
的方法	-2342
的环境	-2343
目的是	-2344
我们需要	-2345
un	-2346
名义	-2347
性别	-2348
阵营	-2349
失去了	-2350
是为了	-2351
▁这意味着	-2352
优先	-2353
化和	-2354
吉亚	-2355
尔的	-2356
布鲁	-2357
患者	-2358
指导	-2359
短缺	-2360
▁即便	-2361
在内的	-2362
实现了	-2363
关税	-2364
只会	-2365
拉夫	-2366
暴露	-2367
终于	-2368
2006	-2369
之为	-2370
人道	-2371
以往	-2372
观念	-2373
身上	-2374
一部分	-2375
加拉	-2376
论坛	-2377
谨慎	-2378
)——	-2379
的债务	-2380
的市场	-2381
格鲁吉亚	-2382
偿还	-2383
声明	-2384
整合	-2385
股东	-2386
获胜	-2387
都将	-2388
阶层	-2389
▁上述	-2390
共和国	-2391
塔利班	-2392
支持的	-2393
常规	-2394
罗马	-2395
脱欧	-2396
▁去年	-2397
的领导	-2398
的经济增长	-2399
世俗	-2400
哪些	-2401
恐慌	-2402
放在	-2403
费用	-2404
▁诚然	-2405
段时间	-2406
二十世纪	-2407
克里姆林	-2408
以便	-2409
修正	-2410
垄断	-2411
年龄	-2412
廉价	-2413
每个	-2414
高级	-2415
▁不过	-2416
最新	-2417
柏林	-2418
也应该	-2419
的理由	-2420
▁W	-2421
使其	-2422
存款	-2423
▁还有	-2424
的人们	-2425
东亚	-2426
以下	-2427
份额	-2428
经过	-2429
▁f	-2430
式的	-2431
是由	-2432
逆转	-2433
十年代	-2434
陷入了	-2435
建立一个	-2436
战斗	-2437
0%。	-2438
收入的	-2439
#160;&	-2440
可信	-2441
温室	-2442
还在	-2443
违反	-2444
麻烦	-2445
ce	-2446
准确	-2447
运作	-2448
的东西	-2449
以色列的	-2450
已经成为	-2451
美国经济	-2452
不良	-2453
日渐	-2454
以及其他	-2455
ob	-2456
判断	-2457
区别	-2458
失衡	-2459
文章	-2460
▁美国的	-2461
不如	-2462
出售	-2463
逐步	-2464
都要	-2465
的唯一	-2466
主流	-2467
注意力	-2468
的例子	-2469
的最佳	-2470
绝大多数	-2471
一半	-2472
古巴	-2473
支撑	-2474
一条	-2475
无力	-2476
资助	-2477
选票	-2478
▁问题	-2479
在一个	-2480
的自由	-2481
南亚	-2482
电力	-2483
突破	-2484
要素	-2485
3⁄4	-2486
可再生	-2487
尼日利亚	-2488
了对	-2489
朋友	-2490
永久	-2491
越南	-2492
都能	-2493
加拿大	-2494
ab	-2495
警察	-2496
还能	-2497
人们对	-2498
的权利	-2499
从来	-2500
纳入	-2501
良好	-2502
受害者	-2503
的价格	-2504
我们可以	-2505
五年	-2506
减轻	-2507
功能	-2508
太阳	-2509
理性	-2510
▁所以	-2511
为基础	-2512
所有人	-2513
比方说	-2514
也门	-2515
半岛	-2516
操作	-2517
企业的	-2518
两者	-2519
化为	-2520
回答	-2521
国务	-2522
扭曲	-2523
art	-2524
▁19	-2525
当前的	-2526
可能导致	-2527
3.	-2528
im	-2529
▁N	-2530
产权	-2531
信仰	-2532
海外	-2533
渠道	-2534
记者	-2535
起了	-2536
▁今年	-2537
所造成的	-2538
oo	-2539
本质	-2540
句话说	-2541
的决定	-2542
的技术	-2543
集中在	-2544
中期	-2545
形象	-2546
指控	-2547
缓解	-2548
不确定性	-2549
丧失	-2550
手中	-2551
共产党	-2552
其在	-2553
可怕	-2554
密切	-2555
智利	-2556
此前	-2557
没能	-2558
距离	-2559
人们的	-2560
仅仅是	-2561
的选择	-2562
▁这就是	-2563
不要	-2564
复兴	-2565
负面	-2566
近期	-2567
▁In	-2568
温室气体	-2569
,”	-2570
id	-2571
不了	-2572
性质	-2573
私有	-2574
▁th	-2575
他们在	-2576
的成本	-2577
浪费	-2578
事业	-2579
抵押	-2580
终结	-2581
人口的	-2582
sp	-2583
医学	-2584
最低	-2585
投资于	-2586
信号	-2587
情形	-2588
根源	-2589
黄金	-2590
的公共	-2591
称之为	-2592
1990	-2593
中国经济	-2594
经常项目	-2595
ag	-2596
做好	-2597
动机	-2598
国债	-2599
排除	-2600
百分	-2601
绝非	-2602
▁那些	-2603
预算赤字	-2604
▁她	-2605
专制	-2606
减速	-2607
困扰	-2608
悲剧	-2609
活力	-2610
重塑	-2611
销售	-2612
的做法	-2613
的变化	-2614
客户	-2615
抓住	-2616
林斯	-2617
留在	-2618
的关系	-2619
▁所有这些	-2620
养老	-2621
加以	-2622
多年	-2623
殖民	-2624
每天	-2625
这一问题	-2626
有能力	-2627
范围内	-2628
超过了	-2629
某种程度上	-2630
一名	-2631
东欧	-2632
疟疾	-2633
▁他的	-2634
和服务	-2635
犹太人	-2636
降低了	-2637
这个国家	-2638
加坡	-2639
应用	-2640
致命	-2641
教育和	-2642
2004	-2643
也能	-2644
但这	-2645
政变	-2646
也必须	-2647
社会的	-2648
克里姆林宫	-2649
完美	-2650
工会	-2651
第四	-2652
职位	-2653
葡萄	-2654
进行的	-2655
实质	-2656
物质	-2657
那种	-2658
但它	-2659
南部	-2660
否决	-2661
固定	-2662
投机	-2663
是最	-2664
设备	-2665
人认为	-2666
美元的	-2667
▁以色列	-2668
争取	-2669
多么	-2670
抵消	-2671
拉斯	-2672
更快	-2673
政府在	-2674
施加	-2675
积累	-2676
纳粹	-2677
青年	-2678
吸引力	-2679
现代化	-2680
部门的	-2681
▁在过去	-2682
日本的	-2683
▁不管	-2684
▁伊朗	-2685
国家和	-2686
广泛的	-2687
接着	-2688
煽动	-2689
电子	-2690
合理的	-2691
升高	-2692
印尼	-2693
层次	-2694
所得	-2695
认真	-2696
的事实	-2697
都必须	-2698
巴沙	-2699
本地	-2700
覆盖	-2701
大萧条	-2702
权力的	-2703
的后果	-2704
没有任何	-2705
却是	-2706
实践	-2707
巴斯	-2708
▁显然	-2709
▁但这一	-2710
不平等性	-2711
放松	-2712
文明	-2713
深远	-2714
会导致	-2715
幸运的是	-2716
um	-2717
原本	-2718
对外	-2719
或是	-2720
材料	-2721
途径	-2722
震惊	-2723
引发了	-2724
良好的	-2725
感染	-2726
用说	-2727
诺贝尔	-2728
所有这些	-2729
里的	-2730
一直是	-2731
负责任	-2732
干涉	-2733
权威	-2734
某个	-2735
游戏	-2736
行政	-2737
▁鉴于	-2738
关系的	-2739
反过来	-2740
形式的	-2741
投资的	-2742
的一些	-2743
经济发展	-2744
ev	-2745
办公	-2746
发起	-2747
壁垒	-2748
导向	-2749
接触	-2750
立刻	-2751
增长和	-2752
两位	-2753
蔓延	-2754
举行的	-2755
的任务	-2756
主权债务	-2757
前所未有的	-2758
上了	-2759
当中	-2760
流行	-2761
面前	-2762
所需的	-2763
的成功	-2764
许多国家	-2765
下滑	-2766
专注	-2767
位置	-2768
动作	-2769
害怕	-2770
开展	-2771
暂时	-2772
中国在	-2773
经济和	-2774
金融体系	-2775
低估	-2776
物价	-2777
认定	-2778
不管是	-2779
也可能	-2780
可能的	-2781
自由化	-2782
ec	-2783
▁和	-2784
临时	-2785
群众	-2786
背景下	-2787
一家	-2788
显得	-2789
歧视	-2790
参与者	-2791
的战争	-2792
英格兰	-2793
丰富	-2794
意料	-2795
会议上	-2796
印度的	-2797
财政政策	-2798
冒险	-2799
本人	-2800
补偿	-2801
▁只要	-2802
塔尼亚	-2803
因为他们	-2804
更不用说	-2805
ve	-2806
僵局	-2807
道理	-2808
很容易	-2809
可再生能源	-2810
小的	-2811
年度	-2812
饱受	-2813
▁希腊	-2814
只不过	-2815
导致的	-2816
时代的	-2817
兑现	-2818
决议	-2819
匈牙	-2820
化学	-2821
审判	-2822
比重	-2823
米尔	-2824
主义和	-2825
匈牙利	-2826
理事会	-2827
的危险	-2828
的最新	-2829
布什政府	-2830
越来越多	-2831
ig	-2832
发电	-2833
圣战	-2834
担保	-2835
过剩	-2836
一开始	-2837
德国的	-2838
服务业	-2839
的人民	-2840
严厉	-2841
产能	-2842
从事	-2843
成熟	-2844
才会	-2845
法官	-2846
男性	-2847
融合	-2848
不足以	-2849
是什么	-2850
突尼斯	-2851
不可持续	-2852
所有人都	-2853
契约	-2854
讽刺	-2855
和欧洲	-2856
孟加拉	-2857
将成为	-2858
的态度	-2859
的重要性	-2860
季度	-2861
急剧	-2862
经合	-2863
0%,	-2864
的力量	-2865
布鲁塞尔	-2866
到底	-2867
坚定	-2868
敌人	-2869
觉得	-2870
不需要	-2871
的贸易	-2872
的资金	-2873
▁换句话说	-2874
nb	-2875
外围	-2876
考验	-2877
长时间	-2878
与此同时	-2879
3%	-2880
ir	-2881
▁9	-2882
为此	-2883
享受	-2884
剑桥	-2885
大战	-2886
失望	-2887
愿景	-2888
武力	-2889
注入	-2890
训练	-2891
商品价格	-2892
不少	-2893
军方	-2894
卡梅	-2895
引导	-2896
德拉	-2897
提议	-2898
获取	-2899
▁199	-2900
▁and	-2901
改进	-2902
昂贵	-2903
清晰	-2904
清洁	-2905
真主	-2906
私营	-2907
解体	-2908
部署	-2909
仍然是	-2910
有力的	-2911
的速度	-2912
▁可	-2913
不安	-2914
中有	-2915
律宾	-2916
设立	-2917
赋予	-2918
也不是	-2919
巴沙尔	-2920
菲律宾	-2921
葡萄牙	-2922
三分之一	-2923
内塔尼亚	-2924
这样一个	-2925
越来越多的	-2926
此次	-2927
ity	-2928
监管者	-2929
苏格兰	-2930
内塔尼亚胡	-2931
定居	-2932
就在	-2933
授权	-2934
苏丹	-2935
十年的	-2936
的数据	-2937
的权力	-2938
专利	-2939
完整	-2940
象征	-2941
安全的	-2942
应该是	-2943
利息	-2944
北部	-2945
和解	-2946
布莱	-2947
总值	-2948
抛弃	-2949
纷纷	-2950
建立在	-2951
▁你	-2952
两次	-2953
审查	-2954
最初	-2955
对中国	-2956
这两个	-2957
▁p	-2958
▁近	-2959
小时	-2960
心的	-2961
泰国	-2962
真相	-2963
诊断	-2964
迫切	-2965
首要	-2966
的最大	-2967
真主党	-2968
一份	-2969
人群	-2970
共享	-2971
声音	-2972
明年	-2973
煤炭	-2974
也不能	-2975
企业家	-2976
十年中	-2977
很多人	-2978
还必须	-2979
重要性	-2980
▁华盛顿	-2981
下了	-2982
两年	-2983
大多	-2984
她的	-2985
小组	-2986
没人	-2987
运转	-2988
基金会	-2989
相对较	-2990
肯尼亚	-2991
长期以来	-2992
严峻	-2993
团队	-2994
拿出	-2995
敏感	-2996
无人	-2997
生的	-2998
空气	-2999
看上去	-3000
世界各地	-3001
乔治	-3002
何种	-3003
分别	-3004
助长	-3005
深度	-3006
药品	-3007
这将	-3008
不稳定	-3009
明确的	-3010
主宰	-3011
全力	-3012
纪念	-3013
罗姆	-3014
落后	-3015
水平的	-3016
▁the	-3017
全球化的	-3018
▁c	-3019
富有	-3020
期待	-3021
工业化	-3022
甚至是	-3023
领域的	-3024
▁他们的	-3025
▁这样的	-3026
成员国的	-3027
点是	-3028
创造了	-3029
在这个	-3030
2003	-3031
密集	-3032
深入	-3033
电脑	-3034
那个	-3035
提供的	-3036
更好地	-3037
保护主义	-3038
la	-3039
到来	-3040
吸收	-3041
战争的	-3042
技术的	-3043
英国的	-3044
很有可能	-3045
恐怖袭击	-3046
欧洲国家	-3047
发展中国家的	-3048
为其	-3049
习惯	-3050
克斯	-3051
分享	-3052
后来	-3053
忧虑	-3054
波斯	-3055
工作的	-3056
显而易见	-3057
NA	-3058
合适	-3059
来讲	-3060
规范	-3061
能力的	-3062
▁但我们	-3063
一轮	-3064
压倒	-3065
变为	-3066
毁灭	-3067
秘密	-3068
退欧	-3069
首席	-3070
低利率	-3071
形成了	-3072
的公司	-3073
外汇储备	-3074
▁幸运的是	-3075
欧盟成员国	-3076
全球金融危机	-3077
▁上	-3078
不在	-3079
仍有	-3080
修改	-3081
加大	-3082
幸福	-3083
说是	-3084
防御	-3085
纳税人	-3086
显而易见的	-3087
合同	-3088
将军	-3089
癌症	-3090
表面	-3091
首脑	-3092
好消息	-3093
的压力	-3094
的反应	-3095
的方案	-3096
的法律	-3097
的问题是	-3098
▁。	-3099
信誉	-3100
出台	-3101
的要求	-3102
前任	-3103
瑞士	-3104
萨达	-3105
融入	-3106
讲话	-3107
高效	-3108
▁于是	-3109
办公室	-3110
nbsp	-3111
财政部长	-3112
基础设施投资	-3113
做到	-3114
并将	-3115
步骤	-3116
母亲	-3117
特定	-3118
马来	-3119
唐纳德	-3120
在中国	-3121
的责任	-3122
的领导人	-3123
但其	-3124
各个	-3125
席位	-3126
花费	-3127
与其他	-3128
主要是	-3129
更多地	-3130
的货币	-3131
领导人的	-3132
24	-3133
反而	-3134
和对	-3135
沦为	-3136
盈利	-3137
看似	-3138
TPP	-3139
的所有	-3140
了其	-3141
作物	-3142
动员	-3143
教授	-3144
相应	-3145
纠正	-3146
要想	-3147
和国际	-3148
的事情	-3149
目标的	-3150
一国	-3151
印象	-3152
多大	-3153
强势	-3154
所说	-3155
机遇	-3156
300	-3157
多年来	-3158
的角色	-3159
几十年来	-3160
▁大	-3161
更具	-3162
只有在	-3163
庞大的	-3164
总需求	-3165
这也是	-3166
▁考虑到	-3167
予以	-3168
沃尔	-3169
流向	-3170
金砖	-3171
▁简言之	-3172
自然资源	-3173
ra	-3174
to	-3175
公布	-3176
士兵	-3177
奥斯	-3178
拉里	-3179
爆炸	-3180
运用	-3181
20%	-3182
债务的	-3183
百分点	-3184
▁另一个	-3185
一个国家	-3186
中国政府	-3187
制约	-3188
悲观	-3189
财务	-3190
和政府	-3191
获得的	-3192
▁联合国	-3193
经合组织	-3194
▁是	-3195
剥夺	-3196
民意	-3197
签订	-3198
能让	-3199
艺术	-3200
▁如此	-3201
▁有些	-3202
的最后	-3203
世界其他	-3204
这些问题	-3205
#160;	-3206
也就	-3207
从中	-3208
充足	-3209
前进	-3210
推迟	-3211
雄心	-3212
amp	-3213
▁当时	-3214
▁的确	-3215
专注于	-3216
没有什么	-3217
在很大程度上	-3218
不上	-3219
严肃	-3220
家族	-3221
更是	-3222
评级	-3223
时间里	-3224
起作用	-3225
残酷	-3226
游说	-3227
生素	-3228
马拉	-3229
以至于	-3230
倾向于	-3231
太阳能	-3232
相对于	-3233
▁让	-3234
学院	-3235
很大的	-3236
系统的	-3237
适用于	-3238
政策制定	-3239
特朗普的	-3240
出资	-3241
制药	-3242
智能	-3243
用户	-3244
起诉	-3245
和日本	-3246
新加坡	-3247
组成的	-3248
2030	-3249
▁美联储	-3250
美国政府	-3251
▁将	-3252
扭转	-3253
梦想	-3254
协议的	-3255
存在着	-3256
得不到	-3257
的说法	-3258
偿付	-3259
分散	-3260
医院	-3261
学术	-3262
容忍	-3263
救助	-3264
科索	-3265
站在	-3266
萨尔	-3267
出现在	-3268
相关的	-3269
使命	-3270
保罗	-3271
倒闭	-3272
无关	-3273
现任	-3274
背后	-3275
每一个	-3276
的一种	-3277
的效果	-3278
he	-3279
▁年	-3280
地说	-3281
型的	-3282
太多	-3283
延长	-3284
报纸	-3285
迄今	-3286
金正	-3287
做出了	-3288
卡梅伦	-3289
2020	-3290
响应	-3291
监控	-3292
领先	-3293
▁西方	-3294
科索沃	-3295
▁1	-3296
关闭	-3297
压制	-3298
布雷	-3299
彼此	-3300
战后	-3301
综合	-3302
运行	-3303
零售	-3304
利益的	-3305
基督教	-3306
的基本	-3307
过去的	-3308
领导层	-3309
伊拉克的	-3310
开发银行	-3311
不应	-3312
亿人	-3313
关心	-3314
幅度	-3315
情景	-3316
毒品	-3317
认可	-3318
这位	-3319
也许是	-3320
变成了	-3321
的水平	-3322
▁for	-3323
穆巴拉克	-3324
eb	-3325
不论	-3326
举动	-3327
介入	-3328
哪里	-3329
披露	-3330
等待	-3331
还将	-3332
依赖于	-3333
养老金	-3334
建立了	-3335
有效地	-3336
国家安全	-3337
SD	-3338
可行	-3339
抵抗	-3340
唯一的	-3341
是否会	-3342
em	-3343
切尔	-3344
塞浦	-3345
斯基	-3346
最佳	-3347
案例	-3348
结核	-3349
路斯	-3350
里斯	-3351
▁5%	-3352
其他人	-3353
国家都	-3354
▁但这些	-3355
财政赤字	-3356
#160;&#160;&	-3357
为例	-3358
侵犯	-3359
日的	-3360
极其	-3361
电影	-3362
ill	-3363
▁土耳其	-3364
塞浦路斯	-3365
▁,	-3366
人力	-3367
发明	-3368
工厂	-3369
所能	-3370
最好	-3371
滥用	-3372
热情	-3373
秘书	-3374
足球	-3375
雇主	-3376
▁可以	-3377
必须在	-3378
还可以	-3379
主教	-3380
在内	-3381
大众	-3382
房价	-3383
衰落	-3384
▁巴黎	-3385
再一次	-3386
的信息	-3387
地带	-3388
特里	-3389
监狱	-3390
补充	-3391
▁经济	-3392
生产力	-3393
的收入	-3394
自由的	-3395
转化为	-3396
中共	-3397
履行	-3398
排名	-3399
无所	-3400
沉重	-3401
申请	-3402
遗传	-3403
马上	-3404
193	-3405
破坏了	-3406
基地组织	-3407
金融稳定	-3408
年底	-3409
的小	-3410
移动	-3411
立即	-3412
▁国际	-3413
和安全	-3414
我们在	-3415
赢得了	-3416
交换	-3417
榜样	-3418
消极	-3419
而已	-3420
路线	-3421
野心	-3422
额外	-3423
传染病	-3424
冲突的	-3425
没有人	-3426
生产总值	-3427
至关重要的	-3428
单位	-3429
女孩	-3430
弱势	-3431
选项	-3432
重重	-3433
高昂	-3434
他们所	-3435
国务卿	-3436
影响到	-3437
影响的	-3438
投资和	-3439
背后的	-3440
莫斯科	-3441
中国领导人	-3442
oh	-3443
加快	-3444
就将	-3445
看作	-3446
配置	-3447
下降到	-3448
参议院	-3449
极大的	-3450
的地位	-3451
1980	-3452
ci	-3453
人才	-3454
哈拉	-3455
工党	-3456
智慧	-3457
街头	-3458
不存在	-3459
总统的	-3460
的代价	-3461
的增加	-3462
估算	-3463
凸显	-3464
分离	-3465
在此	-3466
展示	-3467
提醒	-3468
也需要	-3469
和全球	-3470
大学的	-3471
的一切	-3472
资产价格	-3473
定价	-3474
庇护	-3475
愿望	-3476
无可	-3477
活跃	-3478
物理	-3479
而被	-3480
了美国	-3481
目标是	-3482
这些人	-3483
CC	-3484
多种	-3485
当的	-3486
神经	-3487
继任	-3488
重视	-3489
▁这就	-3490
基本上	-3491
对欧洲	-3492
就业机会	-3493
证据表明	-3494
南欧	-3495
宣言	-3496
富人	-3497
难题	-3498
饥饿	-3499
▁除非	-3500
研究所	-3501
并不意味着	-3502
op	-3503
si	-3504
一套	-3505
口号	-3506
周边	-3507
延续	-3508
总额	-3509
检查	-3510
莫迪	-3511
身体	-3512
长达	-3513
问责	-3514
危机中	-3515
已成为	-3516
并不能	-3517
的影响力	-3518
的经济体	-3519
8%	-3520
▁《	-3521
夏天	-3522
学者	-3523
病人	-3524
记忆	-3525
man	-3526
已经被	-3527
独立的	-3528
第二次	-3529
人道主义	-3530
石油价格	-3531
ational	-3532
qu	-3533
仍是	-3534
填补	-3535
大宗	-3536
实在	-3537
时机	-3538
间的	-3539
各国的	-3540
复杂的	-3541
7%	-3542
ov	-3543
▁·	-3544
事故	-3545
哈根	-3546
意外	-3547
注定	-3548
也同样	-3549
意义的	-3550
角度看	-3551
4.	-3552
▁&	-3553
便是	-3554
减排	-3555
千年	-3556
物种	-3557
确认	-3558
追随	-3559
#45	-3560
多样性	-3561
让人们	-3562
都无法	-3563
出生	-3564
哥本	-3565
居住	-3566
强的	-3567
白宫	-3568
陷阱	-3569
194	-3570
制度的	-3571
排放量	-3572
接受的	-3573
构成了	-3574
法国和	-3575
行为的	-3576
行动的	-3577
都可以	-3578
银行家	-3579
哥本哈根	-3580
▁欧洲央行	-3581
会谈	-3582
地理	-3583
弱点	-3584
所作	-3585
英镑	-3586
都被	-3587
了一场	-3588
企业和	-3589
年代的	-3590
控制的	-3591
被称为	-3592
风险的	-3593
马来西亚	-3594
▁如果我们	-3595
1,	-3596
下台	-3597
中等	-3598
互动	-3599
今后	-3600
先进	-3601
地中	-3602
失所	-3603
开启	-3604
ard	-3605
二十年	-3606
至少在	-3607
阿巴斯	-3608
▁除	-3609
不必	-3610
会对	-3611
会有	-3612
催生	-3613
可谓	-3614
外界	-3615
斯大	-3616
日元	-3617
继承	-3618
证实	-3619
诱惑	-3620
那时	-3621
世纪的	-3622
做出的	-3623
几年来	-3624
出来的	-3625
取得的	-3626
可能在	-3627
我们应该	-3628
▁2008	-3629
▁J	-3630
伯特	-3631
发放	-3632
后代	-3633
ran	-3634
也因此	-3635
2002	-3636
联合国安理会	-3637
做得	-3638
战胜	-3639
的海	-3640
保守派	-3641
提高了	-3642
遭到了	-3643
35	-3644
丹麦	-3645
之际	-3646
仇恨	-3647
很有	-3648
慈善	-3649
截然	-3650
暗示	-3651
焦点	-3652
绝望	-3653
舞台	-3654
传统的	-3655
透明度	-3656
的大规模	-3657
▁在这方面	-3658
ay	-3659
低迷	-3660
刑事	-3661
威尔	-3662
推广	-3663
电话	-3664
防务	-3665
▁任何	-3666
▁最终	-3667
不再是	-3668
也包括	-3669
包容性	-3670
另一种	-3671
引起了	-3672
萨达姆	-3673
▁s	-3674
一再	-3675
三大	-3676
好像	-3677
知的	-3678
薪酬	-3679
高速	-3680
鼓吹	-3681
▁普京	-3682
不愿意	-3683
大屠杀	-3684
几乎所有	-3685
IS	-3686
▁马	-3687
人为	-3688
创业	-3689
勃勃	-3690
大于	-3691
引擎	-3692
敦促	-3693
西欧	-3694
出现的	-3695
即使是	-3696
抗生素	-3697
财政部	-3698
因为它们	-3699
地方政府	-3700
到目前为止	-3701
结构性改革	-3702
阿拉伯国家	-3703
以为	-3704
律师	-3705
换取	-3706
掩盖	-3707
罪行	-3708
适合	-3709
隔离	-3710
些时候	-3711
因为这	-3712
的欧盟	-3713
的能源	-3714
都需要	-3715
中东地区	-3716
▁毫无疑问	-3717
阿拉伯世界	-3718
ak	-3719
依据	-3720
切实	-3721
北欧	-3722
挽救	-3723
的无	-3724
可行的	-3725
在国际	-3726
来自于	-3727
核计划	-3728
统治者	-3729
▁欧元区	-3730
公共部门	-3731
该地区的	-3732
▁像	-3733
慷慨	-3734
社交	-3735
萨科	-3736
阵线	-3737
的价值	-3738
计算机	-3739
▁O	-3740
之春	-3741
危害	-3742
在线	-3743
少的	-3744
效益	-3745
萎靡	-3746
风暴	-3747
▁一旦	-3748
尽可能	-3749
作为一个	-3750
大概	-3751
我在	-3752
按揭	-3753
普及	-3754
此类	-3755
沮丧	-3756
阻挠	-3757
鼓舞	-3758
ich	-3759
地中海	-3760
水资源	-3761
证明了	-3762
1989	-3763
塞尔维亚	-3764
tu	-3765
乃至	-3766
争夺	-3767
以外	-3768
均衡	-3769
审慎	-3770
暴跌	-3771
裁决	-3772
不平衡	-3773
石油和	-3774
ap	-3775
▁总	-3776
伟大	-3777
其对	-3778
卡扎	-3779
本月	-3780
要在	-3781
颠覆	-3782
食物	-3783
就需要	-3784
斯大林	-3785
更容易	-3786
的一项	-3787
的和平	-3788
肯定会	-3789
▁比方说	-3790
成为一个	-3791
组成部分	-3792
同事	-3793
处在	-3794
完善	-3795
年到	-3796
老龄	-3797
运输	-3798
以及对	-3799
体系的	-3800
削弱了	-3801
威胁到	-3802
布莱尔	-3803
的条件	-3804
第二个	-3805
转移到	-3806
非政府	-3807
▁特别是	-3808
国王	-3809
尔西	-3810
模糊	-3811
缩小	-3812
进而	-3813
▁在此	-3814
反映出	-3815
实施了	-3816
我们对	-3817
的现实	-3818
这是一个	-3819
代理	-3820
核电	-3821
盟国	-3822
纠纷	-3823
改变了	-3824
明显的	-3825
被认为是	-3826
转移支付	-3827
▁在这样的	-3828
丑闻	-3829
中美	-3830
何时	-3831
出版	-3832
劳工	-3833
叛乱	-3834
塔赫	-3835
提名	-3836
撒冷	-3837
深化	-3838
缓和	-3839
让步	-3840
跨境	-3841
▁另外	-3842
价值的	-3843
卡扎菲	-3844
路撒冷	-3845
几乎没有	-3846
在这方面	-3847
结构改革	-3848
自由主义	-3849
4%	-3850
企图	-3851
区分	-3852
哈佛	-3853
数千	-3854
美军	-3855
不扩散	-3856
与中国	-3857
可以从	-3858
耶路撒冷	-3859
尼克	-3860
纪录	-3861
维奇	-3862
缺口	-3863
落实	-3864
认同	-3865
下降了	-3866
他们对	-3867
参议员	-3868
最好的	-3869
系统性	-3870
世界大战	-3871
迄今为止	-3872
▁前	-3873
世贸	-3874
依旧	-3875
博拉	-3876
满意	-3877
加剧了	-3878
重大的	-3879
6.	-3880
上限	-3881
两倍	-3882
就要	-3883
巴尔	-3884
日常	-3885
自愿	-3886
艰巨	-3887
连续	-3888
▁要想	-3889
成为了	-3890
政权的	-3891
银行和	-3892
解决办法	-3893
借口	-3894
动摇	-3895
反弹	-3896
同一	-3897
死于	-3898
议题	-3899
走上	-3900
达尔	-3901
▁非洲	-3902
不仅是	-3903
伴随着	-3904
埃博拉	-3905
的企业	-3906
就业岗位	-3907
极端主义	-3908
的基础上	-3909
实现这一目标	-3910
ne	-3911
做了	-3912
内阁	-3913
北方	-3914
妨碍	-3915
寿命	-3916
将来	-3917
流离	-3918
游行	-3919
频繁	-3920
和环境	-3921
的一次	-3922
非常规	-3923
27	-3924
争端	-3925
交流	-3926
反复	-3927
成长	-3928
撤军	-3929
日子	-3930
早就	-3931
课程	-3932
韦斯	-3933
的总统	-3934
能够在	-3935
ge	-3936
ow	-3937
▁-	-3938
侵略	-3939
全新	-3940
同情	-3941
将让	-3942
建造	-3943
授予	-3944
提案	-3945
理应	-3946
软件	-3947
其中的	-3948
的担忧	-3949
▁问题在于	-3950
公决	-3951
就越	-3952
总量	-3953
清算	-3954
等等	-3955
财产	-3956
以确保	-3957
所面临	-3958
批评者	-3959
政治的	-3960
的反对	-3961
穆尔西	-3962
绝不是	-3963
和西班牙	-3964
在政治上	-3965
政府债券	-3966
掌权	-3967
狂热	-3968
西岸	-3969
里根	-3970
▁确实	-3971
大量的	-3972
机器人	-3973
可持续性	-3974
奥巴马政府	-3975
份子	-3976
但也	-3977
和新	-3978
拖累	-3979
毕业	-3980
源自	-3981
识别	-3982
减少了	-3983
和国家	-3984
和技术	-3985
将导致	-3986
希拉里	-3987
极大地	-3988
每个人	-3989
比以往	-3990
的立场	-3991
索马里	-3992
2017	-3993
流离失所	-3994
糟糕的是	-3995
经济复苏	-3996
公路	-3997
华尔	-3998
局限	-3999
50%	-4000
实现的	-4001
德国和	-4002
是如何	-4003
法塔赫	-4004
生活的	-4005
破坏性	-4006
......	-4007
东京	-4008
你的	-4009
保健	-4010
借助	-4011
庞大	-4012
强国	-4013
挪威	-4014
网站	-4015
连任	-4016
间接	-4017
分之二	-4018
华尔街	-4019
查韦斯	-4020
的好处	-4021
这一切	-4022
▁叙利亚	-4023
ni	-4024
会被	-4025
弥补	-4026
聪明	-4027
页岩	-4028
飙升	-4029
ert	-4030
CD	-4031
北美	-4032
太大	-4033
姿态	-4034
引人	-4035
最有	-4036
果断	-4037
首都	-4038
主要的	-4039
但他们	-4040
地位的	-4041
是通过	-4042
23	-4043
6%	-4044
地震	-4045
将对	-4046
年初	-4047
意图	-4048
所赐	-4049
旅游	-4050
独特	-4051
难度	-4052
支出的	-4053
的一半	-4054
的协议	-4055
简单的	-4056
解释了	-4057
转变为	-4058
达成一致	-4059
免费	-4060
前提	-4061
民间	-4062
漏洞	-4063
辛格	-4064
令人惊	-4065
伟大的	-4066
几年中	-4067
绝大部分	-4068
穆斯林兄弟	-4069
▁由	-4070
下一	-4071
之以	-4072
之急	-4073
之道	-4074
四个	-4075
地的	-4076
多个	-4077
手机	-4078
最多	-4079
设定	-4080
较低	-4081
金钱	-4082
中获益	-4083
天主教	-4084
有机会	-4085
的共同	-4086
毫不奇怪	-4087
的问题上	-4088
问题上的	-4089
对立	-4090
特勒	-4091
自杀	-4092
这笔	-4093
众议院	-4094
的必要	-4095
结果是	-4096
▁另一方面	-4097
伦理	-4098
务实	-4099
压迫	-4100
发言	-4101
周年	-4102
婴儿	-4103
灭绝	-4104
狭隘	-4105
的主	-4106
著作	-4107
赞成	-4108
霸权	-4109
不知道	-4110
中国人	-4111
到来的	-4112
独裁者	-4113
▁为什么	-4114
▁大部分	-4115
三分之二	-4116
他对	-4117
偏好	-4118
免疫	-4119
几周	-4120
原子	-4121
反恐	-4122
大使	-4123
沟通	-4124
生育	-4125
细节	-4126
西斯	-4127
面积	-4128
人民的	-4129
有什么	-4130
民众的	-4131
深层次	-4132
环境下	-4133
现在的	-4134
短期内	-4135
四分之一	-4136
伊拉克战争	-4137
低碳	-4138
剧烈	-4139
发出	-4140
培养	-4141
将被	-4142
征税	-4143
收缩	-4144
而论	-4145
保守党	-4146
再加上	-4147
国集团	-4148
技术和	-4149
的合作	-4150
高收入	-4151
任何时候	-4152
和平进程	-4153
年金融危机	-4154
专门	-4155
他人	-4156
因而	-4157
弗里	-4158
贾德	-4159
40%	-4160
的支持者	-4161
22	-4162
中小	-4163
以南	-4164
地利	-4165
忘记	-4166
朗德	-4167
的有	-4168
迈向	-4169
▁或者	-4170
▁有人	-4171
很好的	-4172
的机构	-4173
的选举	-4174
公共债务	-4175
财政刺激	-4176
这一观点	-4177
IP	-4178
克利	-4179
它在	-4180
急需	-4181
时任	-4182
面的	-4183
预料	-4184
-20	-4185
195	-4186
前总统	-4187
即使在	-4188
实施的	-4189
我们所	-4190
教育的	-4191
以色列和	-4192
这种情况	-4193
可持续发展目标	-4194
▁平	-4195
别无	-4196
大胆	-4197
奥运	-4198
废除	-4199
恶性	-4200
下一个	-4201
内贾德	-4202
西方的	-4203
让美国	-4204
不太可能	-4205
阿拉伯之春	-4206
li	-4207
也被	-4208
只占	-4209
就有	-4210
巨头	-4211
父母	-4212
种植	-4213
飞机	-4214
似乎是	-4215
务之急	-4216
奥地利	-4217
希特勒	-4218
撒哈拉	-4219
收益率	-4220
谈判的	-4221
1997	-4222
生活水平	-4223
▁我们需要	-4224
创建	-4225
在不	-4226
已有	-4227
核能	-4228
论文	-4229
遗产	-4230
高企	-4231
▁或许	-4232
严格的	-4233
今年的	-4234
历史的	-4235
并因此	-4236
清楚地	-4237
观察家	-4238
阿尔及	-4239
个百分点	-4240
ep	-4241
一天	-4242
仔细	-4243
先例	-4244
千万	-4245
发射	-4246
哈尼	-4247
堪称	-4248
尊严	-4249
收集	-4250
教旨	-4251
未必	-4252
竭尽	-4253
▁由此	-4254
东南亚	-4255
之一是	-4256
会带来	-4257
受欢迎	-4258
和发展	-4259
奥朗德	-4260
引发的	-4261
危机爆发	-4262
提供资金	-4263
极有可能	-4264
却在	-4265
抨击	-4266
海军	-4267
长久	-4268
▁国家	-4269
了一项	-4270
再平衡	-4271
就不会	-4272
有关的	-4273
现有的	-4274
国有企业	-4275
自由贸易协定	-4276
29	-4277
党的	-4278
哪个	-4279
年内	-4280
烟草	-4281
自治	-4282
误导	-4283
▁甚至	-4284
▁至于	-4285
北朝鲜	-4286
原教旨	-4287
标志着	-4288
沙拉夫	-4289
灾难性	-4290
程度的	-4291
快速增长	-4292
上台	-4293
不及	-4294
哪怕	-4295
差别	-4296
广告	-4297
抵御	-4298
激发	-4299
股权	-4300
轻易	-4301
ate	-4302
在这一	-4303
根本上	-4304
类似于	-4305
都应该	-4306
▁IMF	-4307
公共卫生	-4308
穆沙拉夫	-4309
金融部门	-4310
势头	-4311
各大	-4312
并为	-4313
幻想	-4314
很高	-4315
案件	-4316
海湾	-4317
源于	-4318
起义	-4319
迎来	-4320
重振	-4321
▁不仅	-4322
亚洲的	-4323
年代末	-4324
意义上	-4325
运动的	-4326
通胀率	-4327
富裕国家	-4328
民粹主义者	-4329
CE	-4330
nd	-4331
▁两	-4332
充斥	-4333
凝聚	-4334
动态	-4335
十九	-4336
卡塔	-4337
吉尔	-4338
呈现	-4339
围绕	-4340
大家	-4341
姆斯	-4342
始于	-4343
崩盘	-4344
无数	-4345
星期	-4346
有过	-4347
焦虑	-4348
疗法	-4349
目光	-4350
谷歌	-4351
长远	-4352
400	-4353
以上的	-4354
力量的	-4355
变得更	-4356
在世界	-4357
定居点	-4358
的形式	-4359
而言之	-4360
软实力	-4361
也就是说	-4362
大规模的	-4363
生态系统	-4364
研究表明	-4365
发达国家的	-4366
人所	-4367
强迫	-4368
征收	-4369
成年	-4370
抱怨	-4371
无能	-4372
的年	-4373
雇员	-4374
和教育	-4375
接受了	-4376
的时代	-4377
一段时间	-4378
知识产权	-4379
西方国家	-4380
▁我们必须	-4381
大力	-4382
消耗	-4383
耐药	-4384
诸如	-4385
30%	-4386
不久前	-4387
共同的	-4388
十年前	-4389
和就业	-4390
积极的	-4391
公民社会	-4392
资本市场	-4393
▁这是一个	-4394
▁阿	-4395
中最	-4396
坚决	-4397
左派	-4398
捐助	-4399
父亲	-4400
的名	-4401
高管	-4402
▁而这	-4403
克斯坦	-4404
就无法	-4405
政治和	-4406
政策和	-4407
的巨大	-4408
一些国家	-4409
军事行动	-4410
库尔德人	-4411
非洲国家	-4412
其他国家的	-4413
穆斯林兄弟会	-4414
一道	-4415
修订	-4416
它是	-4417
德斯	-4418
探讨	-4419
提到	-4420
议定	-4421
谈论	-4422
逮捕	-4423
▁埃及	-4424
可以让	-4425
秘书长	-4426
而这些	-4427
董事会	-4428
亚洲国家	-4429
竞争对手	-4430
不容	-4431
前往	-4432
埃塞	-4433
文件	-4434
既然	-4435
穷国	-4436
路径	-4437
身为	-4438
供应链	-4439
心而论	-4440
有必要	-4441
欧洲和	-4442
民主和	-4443
起到了	-4444
一体化的	-4445
告诉我们	-4446
pe	-4447
▁用	-4448
入了	-4449
动用	-4450
所为	-4451
浓缩	-4452
详细	-4453
斯科尼	-4454
根本性	-4455
的谈判	-4456
第一步	-4457
自由和	-4458
这一事实	-4459
卡尔	-4460
带着	-4461
树立	-4462
根深	-4463
瘫痪	-4464
结盟	-4465
转而	-4466
铁路	-4467
ook	-4468
在国内	-4469
工人的	-4470
指出的	-4471
1979	-4472
恰恰相反	-4473
自由市场	-4474
av	-4475
一边	-4476
之势	-4477
双重	-4478
干扰	-4479
数百	-4480
有望	-4481
毛泽	-4482
浪潮	-4483
管道	-4484
邪恶	-4485
预言	-4486
伯克利	-4487
埃塞俄	-4488
毛泽东	-4489
结束了	-4490
鲁哈尼	-4491
取得成功	-4492
孟加拉国	-4493
阿尔及利亚	-4494
▁正	-4495
商界	-4496
它将	-4497
指挥	-4498
摩洛	-4499
民调	-4500
环保	-4501
自信	-4502
通往	-4503
但它们	-4504
却没有	-4505
本质上	-4506
的信号	-4507
的实际	-4508
的概念	-4509
议定书	-4510
▁在这个	-4511
尤其是在	-4512
当务之急	-4513
埃塞俄比亚	-4514
28	-4515
和不	-4516
扩展	-4517
法规	-4518
犹豫	-4519
邀请	-4520
驱逐	-4521
▁这场	-4522
可以为	-4523
对经济	-4524
应该在	-4525
的国内	-4526
的程度	-4527
稳定和	-4528
▁在这一	-4529
工作岗位	-4530
不变	-4531
倡议	-4532
击败	-4533
南海	-4534
受过	-4535
教师	-4536
无视	-4537
此后	-4538
破裂	-4539
维尔	-4540
蒂固	-4541
存在于	-4542
的胜利	-4543
影响力的	-4544
美国总统奥巴马	-4545
ah	-4546
▁那	-4547
不出	-4548
东部	-4549
临床	-4550
便利	-4551
免受	-4552
名为	-4553
愚蠢	-4554
收购	-4555
梅内	-4556
棘手	-4557
纯粹	-4558
能量	-4559
适用	-4560
▁St	-4561
二十一	-4562
的信心	-4563
的真正	-4564
著名的	-4565
2050	-4566
伊拉克和	-4567
根深蒂固	-4568
非政府组织	-4569
亦然	-4570
制衡	-4571
力和	-4572
勇气	-4573
反抗	-4574
同性	-4575
子女	-4576
宣扬	-4577
数以	-4578
晋三	-4579
本来	-4580
海啸	-4581
设置	-4582
过了	-4583
高等	-4584
▁关于	-4585
伊朗和	-4586
多年的	-4587
的印度	-4588
的外交	-4589
的需要	-4590
该国的	-4591
退休金	-4592
银行系统	-4593
英格兰银行	-4594
EC	-4595
不大	-4596
中亚	-4597
也更	-4598
也要	-4599
亚太	-4600
写道	-4601
加州	-4602
小心	-4603
敌意	-4604
死刑	-4605
灾害	-4606
着眼	-4607
辩护	-4608
这里	-4609
▁接着	-4610
充满了	-4611
单方面	-4612
数十年	-4613
时间的	-4614
普林斯	-4615
的一大	-4616
的税收	-4617
罗姆尼	-4618
其中包括	-4619
安倍晋三	-4620
所产生的	-4621
早些时候	-4622
欧元区的	-4623
竞争力的	-4624
解决问题	-4625
7.	-4626
体育	-4627
分化	-4628
排斥	-4629
收支	-4630
无限	-4631
进化	-4632
Mar	-4633
▁政治	-4634
公司和	-4635
哈梅内	-4636
年代初	-4637
经济危机	-4638
商品和服务	-4639
减弱	-4640
当年	-4641
攀升	-4642
效仿	-4643
方的	-4644
极权	-4645
诞生	-4646
150	-4647
60%	-4648
最贫困	-4649
本世纪	-4650
碳排放	-4651
该计划	-4652
民主制度	-4653
od	-4654
ub	-4655
乐部	-4656
信念	-4657
兰克	-4658
厌恶	-4659
待遇	-4660
性地	-4661
收紧	-4662
效的	-4663
敌对	-4664
特点	-4665
祖国	-4666
萎缩	-4667
贝卢	-4668
连接	-4669
遥远	-4670
采购	-4671
顽固	-4672
▁相比	-4673
俱乐部	-4674
再分配	-4675
创新的	-4676
印度和	-4677
对全球	-4678
很重要	-4679
所得税	-4680
的状况	-4681
私有化	-4682
只不过是	-4683
法国总统	-4684
贸易协定	-4685
即将到来的	-4686
美国和欧洲	-4687
26	-4688
ia	-4689
st	-4690
▁的	-4691
不堪	-4692
为首	-4693
但他	-4694
减免	-4695
同盟	-4696
玻利	-4697
航空	-4698
认知	-4699
赢家	-4700
ist	-4701
安全和	-4702
摩洛哥	-4703
的办法	-4704
继任者	-4705
罗伯特	-4706
1999	-4707
发展目标	-4708
核不扩散	-4709
贝卢斯科尼	-4710
二氧化碳排放	-4711
5.	-4712
万亿	-4713
不起	-4714
加利	-4715
对比	-4716
平价	-4717
房屋	-4718
政坛	-4719
的事	-4720
眼下	-4721
在今年	-4722
活动的	-4723
的冲突	-4724
的经验	-4725
看到了	-4726
美国对	-4727
都不会	-4728
合作伙伴	-4729
普林斯顿	-4730
的俄罗斯	-4731
温室气体排放	-4732
出人	-4733
在了	-4734
太过	-4735
忠诚	-4736
扼杀	-4737
放任	-4738
更低	-4739
杀害	-4740
炸弹	-4741
缩减	-4742
诉讼	-4743
走出	-4744
遵循	-4745
80%	-4746
uro	-4747
▁de	-4748
▁布什	-4749
上个月	-4750
储蓄率	-4751
的关注	-4752
▁但如今	-4753
世界贸易	-4754
其他地方	-4755
传递	-4756
修复	-4757
全体	-4758
协会	-4759
对象	-4760
意志	-4761
生涯	-4762
看看	-4763
竞赛	-4764
默德	-4765
▁当前	-4766
就业和	-4767
的下降	-4768
繁荣的	-4769
联盟的	-4770
灾难性的	-4771
▁平心而论	-4772
克鲁	-4773
加深	-4774
可见	-4775
学会	-4776
得出	-4777
折磨	-4778
提前	-4779
缺失	-4780
而又	-4781
选战	-4782
预见	-4783
飓风	-4784
一些人	-4785
下来的	-4786
就没有	-4787
收入和	-4788
死亡率	-4789
法国的	-4790
移民的	-4791
随之而	-4792
全民公决	-4793
金砖国家	-4794
古老	-4795
地下	-4796
报复	-4797
救援	-4798
沉默	-4799
解读	-4800
远比	-4801
使用的	-4802
国际法	-4803
是否能	-4804
最高法院	-4805
货币政策的	-4806
CA	-4807
不顾	-4808
偏见	-4809
北非	-4810
反思	-4811
富国	-4812
对付	-4813
旅行	-4814
有害	-4815
英雄	-4816
▁in	-4817
▁否则	-4818
万美元	-4819
年开始	-4820
机构和	-4821
的德国	-4822
罕默德	-4823
世贸组织	-4824
根本没有	-4825
ot	-4826
uc	-4827
分布	-4828
判决	-4829
南克	-4830
天气	-4831
归咎	-4832
果真	-4833
特权	-4834
组建	-4835
行事	-4836
邓小	-4837
部落	-4838
个世纪	-4839
也许会	-4840
充斥着	-4841
和伊朗	-4842
国内的	-4843
大幅度	-4844
峰会上	-4845
货币的	-4846
我们已经	-4847
欧盟国家	-4848
贸易伙伴	-4849
变得越来越	-4850
你们	-4851
充当	-4852
再度	-4853
准则	-4854
常态	-4855
干旱	-4856
年里	-4857
很好	-4858
指望	-4859
比利	-4860
90%	-4861
尼克松	-4862
新技术	-4863
现实的	-4864
的前提	-4865
的危机	-4866
的新兴	-4867
邓小平	-4868
银行业	-4869
▁意大利	-4870
强有力的	-4871
波斯尼亚	-4872
金融系统	-4873
▁2010	-4874
之间的关系	-4875
▁每	-4876
不前	-4877
两党	-4878
典型	-4879
力度	-4880
大脑	-4881
支柱	-4882
更少	-4883
有权	-4884
极度	-4885
比赛	-4886
职责	-4887
虐待	-4888
远离	-4889
颇为	-4890
可以用	-4891
失败的	-4892
无论是	-4893
理论上	-4894
的讨论	-4895
老龄化	-4896
增长模式	-4897
社交媒体	-4898
联合国的	-4899
联邦政府	-4900
跨大西洋	-4901
▁l	-4902
优惠	-4903
优秀	-4904
创立	-4905
好事	-4906
尔斯	-4907
就连	-4908
揭示	-4909
考察	-4910
增加的	-4911
显然是	-4912
暴力的	-4913
的一份	-4914
的资产	-4915
哈梅内伊	-4916
平均水平	-4917
撒哈拉以南	-4918
▁更糟糕的是	-4919
倒台	-4920
年将	-4921
开采	-4922
所需	-4923
掌控	-4924
教徒	-4925
症状	-4926
而对	-4927
辞职	-4928
无人机	-4929
的使用	-4930
的规模	-4931
根本无法	-4932
这一趋势	-4933
▁Part	-4934
和高	-4935
大肆	-4936
广场	-4937
成绩	-4938
挣扎	-4939
推高	-4940
斯蒂	-4941
涌入	-4942
熟悉	-4943
看待	-4944
鲜明	-4945
con	-4946
est	-4947
▁对此	-4948
什么样	-4949
其经济	-4950
卡塔尔	-4951
去杠杆	-4952
可怕的	-4953
在某些	-4954
在这些	-4955
很简单	-4956
结核病	-4957
非正式	-4958
非洲的	-4959
▁从这个	-4960
竭尽全力	-4961
上海	-4962
不住	-4963
会让	-4964
兴起	-4965
失灵	-4966
布里	-4967
这条	-4968
遇到	-4969
▁并且	-4970
▁这将	-4971
不那么	-4972
与伊朗	-4973
合作的	-4974
新一轮	-4975
服务的	-4976
来实现	-4977
环境中	-4978
英国人	-4979
aceb	-4980
▁但他们	-4981
▁这也是	-4982
令人震惊	-4983
所作所为	-4984
▁无论如何	-4985
▁经济学家	-4986
气候变化的	-4987
石油和天然气	-4988
不对	-4989
为时	-4990
京都	-4991
会上	-4992
侵蚀	-4993
信服	-4994
卢旺	-4995
改造	-4996
明证	-4997
激增	-4998
理事	-4999
精力	-5000
重申	-5001
附近	-5002
限度	-5003
aul	-5004
ell	-5005
在最近	-5006
归咎于	-5007
活力的	-5008
资本流	-5009
进入了	-5010
世界各国	-5011
人民银行	-5012
很可能会	-5013
知识分子	-5014
西班牙和	-5015
acebook	-5016
产物	-5017
低下	-5018
打造	-5019
有点	-5020
的那	-5021
目睹	-5022
置于	-5023
衍生	-5024
逃离	-5025
70%	-5026
omm	-5027
▁直到	-5028
劳动者	-5029
它们在	-5030
对这些	-5031
就已经	-5032
撒切尔	-5033
日本和	-5034
的传统	-5035
的报告	-5036
金正恩	-5037
tern	-5038
▁大多数	-5039
奥巴马的	-5040
二十一世纪	-5041
,《	-5042
ff	-5043
一小	-5044
不知	-5045
他所	-5046
便宜	-5047
如同	-5048
教皇	-5049
福祉	-5050
以及在	-5051
卢旺达	-5052
可靠的	-5053
巴尔干	-5054
最新的	-5055
的趋势	-5056
▁乌克兰	-5057
投资者的	-5058
是正确的	-5059
更有可能	-5060
石油公司	-5061
紧张局势	-5062
的货币政策	-5063
In	-5064
不惜	-5065
以致	-5066
威慑	-5067
定期	-5068
是以	-5069
显现	-5070
更广	-5071
比尔	-5072
渐进	-5073
第五	-5074
等于	-5075
附加	-5076
代表了	-5077
其自身	-5078
在没有	-5079
是可以	-5080
电视台	-5081
的城市	-5082
的控制	-5083
选择了	-5084
都不是	-5085
市场经济	-5086
并非如此	-5087
极端分子	-5088
ry	-5089
享有	-5090
会使	-5091
否定	-5092
含义	-5093
大有	-5094
宗派	-5095
超出	-5096
还不	-5097
这让	-5098
ohn	-5099
▁就像	-5100
但如果	-5101
全球性	-5102
变化的	-5103
的其他	-5104
角度讲	-5105
经常账户	-5106
美国国会	-5107
采取措施	-5108
全球经济的	-5109
”)	-5110
仅有	-5111
住宅	-5112
促成	-5113
出色	-5114
卜杜	-5115
德曼	-5116
戈尔	-5117
成分	-5118
日内	-5119
有多	-5120
的低	-5121
过多	-5122
▁on	-5123
▁但它	-5124
不公平	-5125
不可或	-5126
和平的	-5127
外交官	-5128
忽略了	-5129
欧元的	-5130
1998	-5131
做好准备	-5132
跨太平洋	-5133
奥巴马总统	-5134
交给	-5135
大气	-5136
布尔	-5137
精确	-5138
自主	-5139
触发	-5140
设法	-5141
随时	-5142
600	-5143
DNA	-5144
不相同	-5145
些什么	-5146
多样化	-5147
布雷顿	-5148
疾病的	-5149
的制度	-5150
的暴力	-5151
的最高	-5152
的资源	-5153
稳定性	-5154
▁在欧洲	-5155
不可或缺	-5156
营养不良	-5157
雄心勃勃	-5158
经常项目赤字	-5159
▁V	-5160
买入	-5161
作家	-5162
到达	-5163
在与	-5164
基准	-5165
已久	-5166
强加	-5167
形容	-5168
架构	-5169
正统	-5170
突出	-5171
老年	-5172
股价	-5173
转换	-5174
▁Ch	-5175
▁某些	-5176
伯南克	-5177
反对者	-5178
增加到	-5179
对他们	-5180
小布什	-5181
得多的	-5182
或其他	-5183
金融业	-5184
所有国家	-5185
欧洲经济	-5186
贸易赤字	-5187
中国和印度	-5188
作者	-5189
几天	-5190
博弈	-5191
埔寨	-5192
子孙	-5193
宝贵	-5194
展现	-5195
接收	-5196
杂志	-5197
模仿	-5198
欺骗	-5199
流失	-5200
缓冲	-5201
价格的	-5202
会发生	-5203
加利福	-5204
和他的	-5205
密集型	-5206
排除在	-5207
柬埔寨	-5208
罗斯福	-5209
▁结果是	-5210
世界上最	-5211
令人担忧	-5212
全球贸易	-5213
央行行长	-5214
财富基金	-5215
通胀目标	-5216
▁最重要的是	-5217
卫星	-5218
回合	-5219
小国	-5220
尤为	-5221
成千	-5222
捷克	-5223
探索	-5224
自豪	-5225
苦难	-5226
苹果	-5227
The	-5228
ber	-5229
▁亚洲	-5230
依然是	-5231
在许多	-5232
外国人	-5233
大银行	-5234
实力的	-5235
就开始	-5236
市场上	-5237
法国人	-5238
的因素	-5239
结束后	-5240
1970	-5241
欧洲议会	-5242
经济政策	-5243
欧元区国家	-5244
ew	-5245
▁m	-5246
修建	-5247
友好	-5248
周围	-5249
奇迹	-5250
强力	-5251
归根	-5252
当作	-5253
打算	-5254
指引	-5255
接种	-5256
曾在	-5257
有益	-5258
杀戮	-5259
种种	-5260
米亚	-5261
行使	-5262
▁按照	-5263
他们将	-5264
健康的	-5265
充分的	-5266
内部的	-5267
决不能	-5268
准备好	-5269
史以来	-5270
和欧盟	-5271
政治上	-5272
比其他	-5273
潜在的	-5274
痛苦的	-5275
的标准	-5276
领导力	-5277
也有可能	-5278
全世界的	-5279
叙利亚的	-5280
抵押贷款	-5281
玻利维亚	-5282
不可避免的	-5283
加利福尼亚	-5284
▁到目前为止	-5285
国内生产总值	-5286
一词	-5287
人工	-5288
他将	-5289
停火	-5290
增税	-5291
年在	-5292
建国	-5293
数的	-5294
种子	-5295
秘鲁	-5296
舆论	-5297
轰炸	-5298
迫害	-5299
通信	-5300
重启	-5301
——“	-5302
▁中东	-5303
也已经	-5304
德国人	-5305
格林斯	-5306
深刻的	-5307
的局面	-5308
自由派	-5309
▁在这种	-5310
土耳其的	-5311
替代方案	-5312
IC	-5313
▁b	-5314
一无	-5315
元素	-5316
免于	-5317
将使	-5318
最小	-5319
来到	-5320
混合	-5321
芬兰	-5322
通讯	-5323
遗憾	-5324
采纳	-5325
高出	-5326
ine	-5327
一方面	-5328
奥运会	-5329
就应该	-5330
日内瓦	-5331
是中国	-5332
极右翼	-5333
的目的	-5334
的策略	-5335
的选民	-5336
▁第二个	-5337
格林斯潘	-5338
财政紧缩	-5339
布雷顿森林	-5340
欧洲领导人	-5341
进一步恶化	-5342
▁a	-5343
一路	-5344
之内	-5345
公债	-5346
关联	-5347
名单	-5348
寻常	-5349
意思	-5350
拖延	-5351
支配	-5352
着手	-5353
运营	-5354
雷曼	-5355
风格	-5356
包括了	-5357
反应堆	-5358
和文化	-5359
局限于	-5360
必不可	-5361
成千上	-5362
政府对	-5363
正常化	-5364
注意到	-5365
独立性	-5366
的移民	-5367
的道路	-5368
确定性	-5369
商业银行	-5370
新兴国家	-5371
社会保障	-5372
▁2009	-5373
);	-5374
▁反	-5375
三年	-5376
之地	-5377
抑郁	-5378
白人	-5379
累积	-5380
纪律	-5381
计价	-5382
许可	-5383
这两	-5384
▁巴西	-5385
▁必须	-5386
三十年	-5387
出口国	-5388
又一次	-5389
引起的	-5390
相结合	-5391
项目的	-5392
马克龙	-5393
1991	-5394
别无选择	-5395
年增长率	-5396
所提出的	-5397
直接投资	-5398
言论自由	-5399
资本流入	-5400
ud	-5401
会给	-5402
听到	-5403
地将	-5404
宪章	-5405
应付	-5406
态势	-5407
沃斯	-5408
绑架	-5409
轻松	-5410
较为	-5411
边际	-5412
近乎	-5413
配额	-5414
▁新的	-5415
也开始	-5416
公众对	-5417
在去年	-5418
在英国	-5419
政府将	-5420
此之外	-5421
灵活性	-5422
的家庭	-5423
的建议	-5424
的进步	-5425
等国家	-5426
统一的	-5427
一个新的	-5428
充分就业	-5429
出人意料	-5430
欧洲大陆	-5431
的一系列	-5432
生产率增长	-5433
主动	-5434
作战	-5435
布拉	-5436
引用	-5437
影子	-5438
忍受	-5439
打开	-5440
提及	-5441
政体	-5442
本土	-5443
的总	-5444
经理	-5445
解除	-5446
诚实	-5447
重复	-5448
难道	-5449
▁就连	-5450
▁很多	-5451
但我们	-5452
只需要	-5453
和印度	-5454
已不再	-5455
扩大的	-5456
有理由	-5457
的创新	-5458
而美国	-5459
那样的	-5460
从根本上	-5461
各成员国	-5462
德国总理	-5463
总统选举	-5464
政府支出	-5465
的过程中	-5466
ik	-5467
▁若	-5468
三倍	-5469
主持	-5470
卫队	-5471
家们	-5472
当代	-5473
挂钩	-5474
暴行	-5475
本位	-5476
权衡	-5477
温度	-5478
留下	-5479
短暂	-5480
能为	-5481
让他	-5482
谋杀	-5483
▁面对	-5484
中获得	-5485
二战后	-5486
和政策	-5487
在中东	-5488
在这里	-5489
并且在	-5490
的任何	-5491
莫过于	-5492
总体而言	-5493
经济衰退	-5494
儿子	-5495
兰卡	-5496
单边	-5497
南方	-5498
它所	-5499
异常	-5500
恶劣	-5501
用水	-5502
盖茨	-5503
给出	-5504
西藏	-5505
追溯	-5506
ati	-5507
来解决	-5508
法西斯	-5509
萨科齐	-5510
让它们	-5511
追随者	-5512
令人信服	-5513
并不一定	-5514
的方式来	-5515
▁更重要的是	-5516
AR	-5517
Ch	-5518
QE	-5519
代替	-5520
以使	-5521
号召	-5522
塑料	-5523
已是	-5524
族裔	-5525
本应	-5526
维和	-5527
▁与此	-5528
▁金融	-5529
付出的	-5530
和英国	-5531
工程师	-5532
并最终	-5533
成本的	-5534
的竞争	-5535
的过程	-5536
ence	-5537
不可能的	-5538
中等收入	-5539
了一系列	-5540
军事干预	-5541
医疗保险	-5542
政府必须	-5543
长期利率	-5544
8.	-5545
II	-5546
会晤	-5547
哲学	-5548
州和	-5549
描绘	-5550
▁其实	-5551
▁各国	-5552
两国的	-5553
其实是	-5554
助长了	-5555
占据了	-5556
危机前	-5557
应该被	-5558
的数量	-5559
的新闻	-5560
的比例	-5561
购买力	-5562
这就是	-5563
里斯本	-5564
需求的	-5565
1000	-5566
加入欧盟	-5567
总统大选	-5568
诺贝尔奖	-5569
阿拉伯人	-5570
不可避免地	-5571
的经济学家	-5572
aw	-5573
举办	-5574
像是	-5575
公私	-5576
年和	-5577
推出	-5578
正好	-5579
注重	-5580
爱国	-5581
自从	-5582
行列	-5583
转折	-5584
软弱	-5585
雇佣	-5586
黑暗	-5587
会造成	-5588
可以被	-5589
同性恋	-5590
实验室	-5591
生产商	-5592
的争论	-5593
阻碍了	-5594
乌克兰的	-5595
克里米亚	-5596
和俄罗斯	-5597
美联储主席	-5598
Al	-5599
▁0	-5600
仍将	-5601
件事	-5602
冻结	-5603
叛军	-5604
后续	-5605
土壤	-5606
奥尔	-5607
家园	-5608
恰当	-5609
斯里	-5610
核武	-5611
节约	-5612
跨越	-5613
令人瞩	-5614
会产生	-5615
共同体	-5616
增长了	-5617
工作者	-5618
的信任	-5619
共和党人	-5620
如果没有	-5621
弗里德曼	-5622
超级大国	-5623
▁2012	-5624
和其他国家	-5625
经济增长的	-5626
在某种程度上	-5627
--	-5628
se	-5629
▁说	-5630
不想	-5631
与之	-5632
主题	-5633
化了	-5634
匹配	-5635
及时	-5636
失误	-5637
席卷	-5638
指向	-5639
收回	-5640
民选	-5641
注册	-5642
破灭	-5643
身处	-5644
面向	-5645
▁事实	-5646
和企业	-5647
建立起	-5648
引人注	-5649
归根结	-5650
历史学家	-5651
穆罕默德	-5652
达成协议	-5653
▁2015	-5654
▁不仅如此	-5655
▁相比之下	-5656
总统奥巴马	-5657
”、	-5658
▁再	-5659
一方	-5660
事关	-5661
伴随	-5662
大了	-5663
岁的	-5664
彼得	-5665
得益	-5666
挑衅	-5667
期限	-5668
来为	-5669
测量	-5670
稳步	-5671
经典	-5672
豁免	-5673
阿里	-5674
雇用	-5675
魅力	-5676
了一份	-5677
借款人	-5678
周期性	-5679
最高的	-5680
理性的	-5681
的教育	-5682
的日本	-5683
的错误	-5684
着眼于	-5685
行动方	-5686
还包括	-5687
高质量	-5688
发展援助	-5689
归根结底	-5690
成员资格	-5691
政府债务	-5692
斯里兰卡	-5693
是错误的	-5694
民意调查	-5695
民族国家	-5696
社会主义	-5697
私人投资	-5698
这些措施	-5699
▁国际货币基金组织	-5700
ip	-5701
▁被	-5702
不振	-5703
临近	-5704
之争	-5705
切地	-5706
前途	-5707
占了	-5708
呼声	-5709
寡头	-5710
尼迪	-5711
恐怕	-5712
无从	-5713
时报	-5714
气温	-5715
的中	-5716
的非	-5717
筹集	-5718
警惕	-5719
野蛮	-5720
高层	-5721
已开始	-5722
演变为	-5723
的严重	-5724
的人均	-5725
的斗争	-5726
的规则	-5727
而不能	-5728
表面上	-5729
evel	-5730
英国退出	-5731
9%	-5732
gt	-5733
▁U	-5734
不去	-5735
命令	-5736
回忆	-5737
总结	-5738
成百	-5739
所周	-5740
施压	-5741
易事	-5742
是将	-5743
此外	-5744
补助	-5745
评价	-5746
过分	-5747
,20	-5748
ern	-5749
和宗教	-5750
战争中	-5751
是全球	-5752
的个人	-5753
的组织	-5754
第三个	-5755
警告说	-5756
▁墨西哥	-5757
▁欧洲的	-5758
国际贸易	-5759
提高利率	-5760
罗马尼亚	-5761
低收入国家	-5762
储量	-5763
出手	-5764
前者	-5765
大体	-5766
尖锐	-5767
屈服	-5768
情感	-5769
抱有	-5770
推移	-5771
数学	-5772
更新	-5773
海岸	-5774
漫长	-5775
燃烧	-5776
生效	-5777
肥胖	-5778
若干	-5779
过早	-5780
进了	-5781
阴谋	-5782
顺差	-5783
5%。	-5784
▁以及	-5785
克鲁格	-5786
前苏联	-5787
因为他	-5788
我认为	-5789
持有的	-5790
接近于	-5791
提高到	-5792
来源于	-5793
比利时	-5794
1995	-5795
▁伯克利	-5796
在阿富汗	-5797
如果我们	-5798
▁2011	-5799
政策制定者	-5800
不止	-5801
之比	-5802
事态	-5803
农场	-5804
剩余	-5805
原油	-5806
小型	-5807
概率	-5808
歇尔	-5809
派的	-5810
港口	-5811
电网	-5812
疯狂	-5813
类型	-5814
记住	-5815
论者	-5816
设想	-5817
这也	-5818
上升到	-5819
众所周	-5820
副作用	-5821
基因组	-5822
多元化	-5823
找不到	-5824
明智的	-5825
是无法	-5826
没什么	-5827
能带来	-5828
行业的	-5829
以色列人	-5830
好消息是	-5831
永远不会	-5832
种族灭绝	-5833
货币贬值	-5834
总统候选人	-5835
这些国家的	-5836
up	-5837
▁本	-5838
体验	-5839
内在	-5840
凭借	-5841
勇敢	-5842
区的	-5843
圣地	-5844
塑造	-5845
多哈	-5846
巴布	-5847
无辜	-5848
有意	-5849
植物	-5850
洪水	-5851
花了	-5852
谎言	-5853
ank	-5854
体现在	-5855
决定了	-5856
因为在	-5857
国家庭	-5858
影响了	-5859
成百上	-5860
近年来	-5861
他们认为	-5862
双边关系	-5863
委员会的	-5864
子孙后代	-5865
巴基斯坦的	-5866
提供了一个	-5867
▁坎	-5868
▁谁	-5869
不难	-5870
他说	-5871
兴奋	-5872
多次	-5873
成的	-5874
杀伤	-5875
稀缺	-5876
范畴	-5877
过的	-5878
都对	-5879
预示	-5880
▁但对	-5881
▁具体	-5882
▁这项	-5883
不断地	-5884
之外的	-5885
制定了	-5886
和平与	-5887
和能源	-5888
最大化	-5889
根本不	-5890
的大量	-5891
的时期	-5892
规则的	-5893
达沃斯	-5894
还应该	-5895
都认为	-5896
十九世纪	-5897
在伊拉克	-5898
工业革命	-5899
最严重的	-5900
▁可以肯定	-5901
Facebook	-5902
2,	-5903
两岸	-5904
也对	-5905
分割	-5906
分担	-5907
半年	-5908
地图	-5909
天的	-5910
庆祝	-5911
很低	-5912
心脏	-5913
步伐	-5914
清洗	-5915
这就	-5916
阴影	-5917
son	-5918
▁是的	-5919
▁答案	-5920
与欧洲	-5921
势力的	-5922
和长期	-5923
希腊的	-5924
是非常	-5925
有一天	-5926
的资本	-5927
的预测	-5928
第二大	-5929
萨尔科	-5930
衍生品	-5931
马克思	-5932
▁5%。	-5933
人力资本	-5934
借贷成本	-5935
其他地区	-5936
唯一一个	-5937
国家主席	-5938
很大一部分	-5939
撒哈拉以南非洲	-5940
og	-5941
减缓	-5942
前沿	-5943
勒庞	-5944
受损	-5945
布朗	-5946
机关	-5947
申科	-5948
紧要	-5949
逃避	-5950
SDR	-5951
lob	-5952
▁柏林	-5953
▁自从	-5954
▁银行	-5955
下一次	-5956
不利于	-5957
与欧盟	-5958
伊朗核	-5959
可以说	-5960
和公共	-5961
新政府	-5962
是一场	-5963
是对的	-5964
是欧洲	-5965
模式的	-5966
贷款人	-5967
Paul	-5968
▁000	-5969
▁我们的	-5970
与俄罗斯	-5971
九十年代	-5972
国防部长	-5973
就是一个	-5974
现在已经	-5975
领导人必须	-5976
出席	-5977
各州	-5978
国界	-5979
将为	-5980
将于	-5981
平面	-5982
德尔	-5983
必将	-5984
成效	-5985
房子	-5986
提交	-5987
深深	-5988
短短	-5989
赞助	-5990
起草	-5991
隐含	-5992
隐藏	-5993
音乐	-5994
▁这次	-5995
从而使	-5996
任总统	-5997
传统上	-5998
加入了	-5999
和债务	-6000
困难的	-6001
地认为	-6002
布里奇	-6003
年前的	-6004
时期的	-6005
普京的	-6006
生产的	-6007
的原则	-6008
采取的	-6009
金本位	-6010
阿卜杜	-6011
#45;	-6012
▁但这种	-6013
中央政府	-6014
任何一个	-6015
发挥作用	-6016
和土耳其	-6017
成千上万	-6018
经济表现	-6019
外交政策的	-6020
恐怖主义的	-6021
千年发展目标	-6022
欧元区成员国	-6023
SA	-6024
lt	-6025
ut	-6026
一支	-6027
中学	-6028
从前	-6029
代人	-6030
价还	-6031
借钱	-6032
制止	-6033
同等	-6034
回事	-6035
基石	-6036
悬崖	-6037
更能	-6038
杀死	-6039
民兵	-6040
界限	-6041
级别	-6042
草案	-6043
荒谬	-6044
误解	-6045
阿布	-6046
风能	-6047
▁社会	-6048
从而让	-6049
全面的	-6050
在整个	-6051
有限的	-6052
的前景	-6053
的石油	-6054
表明了	-6055
资源的	-6056
预见的	-6057
1945	-6058
停滞不前	-6059
克鲁格曼	-6060
化学武器	-6061
就有可能	-6062
很快就会	-6063
主权财富基金	-6064
一片	-6065
切断	-6066
单独	-6067
四年	-6068
声誉	-6069
奖励	-6070
捐赠	-6071
揭露	-6072
猜测	-6073
现行	-6074
禁令	-6075
25%	-6076
oun	-6077
世界中	-6078
中国对	-6079
也存在	-6080
产品的	-6081
以来的	-6082
保持着	-6083
去年的	-6084
反对党	-6085
合适的	-6086
性武器	-6087
扩大了	-6088
持续的	-6089
显示出	-6090
的不同	-6091
约旦河	-6092
资产的	-6093
医疗保健	-6094
国内政治	-6095
监管机构	-6096
空气污染	-6097
经济活动	-6098
的经济发展	-6099
不已	-6100
事物	-6101
入盟	-6102
医保	-6103
始终	-6104
开罗	-6105
最具	-6106
涵盖	-6107
真空	-6108
降至	-6109
▁to	-6110
一致的	-6111
不信任	-6112
会出现	-6113
会成为	-6114
如果你	-6115
德拉吉	-6116
我们将	-6117
或许是	-6118
支持率	-6119
的一致	-6120
的民众	-6121
的领域	-6122
要求的	-6123
这么做	-6124
需要在	-6125
▁如果你	-6126
从来没有	-6127
单一市场	-6128
大宗商品	-6129
教育程度	-6130
雷曼兄弟	-6131
政治和经济	-6132
oc	-6133
▁很	-6134
一大	-6135
他信	-6136
协商	-6137
叙事	-6138
戏剧	-6139
把它	-6140
撤离	-6141
曝光	-6142
根除	-6143
约为	-6144
置疑	-6145
虚假	-6146
不过是	-6147
了大量	-6148
价还价	-6149
俄国的	-6150
前总理	-6151
在亚洲	-6152
城市化	-6153
基督徒	-6154
基础上	-6155
女性的	-6156
所做的	-6157
相同的	-6158
脆弱性	-6159
英国和	-6160
2018	-6161
▁这样做	-6162
不断增加	-6163
朝鲜半岛	-6164
讨价还价	-6165
京都议定书	-6166
ex	-6167
ug	-6168
不清	-6169
倡导	-6170
各样	-6171
对策	-6172
很小	-6173
故意	-6174
溢价	-6175
用途	-6176
美好	-6177
这对	-6178
一样的	-6179
为自己	-6180
了这些	-6181
任理事	-6182
少数派	-6183
所有权	-6184
日本人	-6185
涉及到	-6186
的比重	-6187
的第一	-6188
该组织	-6189
起来的	-6190
还不如	-6191
长期的	-6192
▁让我们	-6193
所有人的	-6194
无法获得	-6195
▁2014	-6196
安倍经济学	-6197
联系在一起	-6198
贸易和投资	-6199
金融市场的	-6200
1/	-6201
》,	-6202
会计	-6203
但对	-6204
倒退	-6205
学科	-6206
尽快	-6207
执法	-6208
斯洛	-6209
无需	-6210
机场	-6211
流程	-6212
稳健	-6213
策划	-6214
而其	-6215
饥荒	-6216
高涨	-6217
CEO	-6218
all	-6219
▁第四	-6220
个人的	-6221
之前的	-6222
人民党	-6223
如此之	-6224
文化的	-6225
更广泛	-6226
有一些	-6227
的道德	-6228
的部分	-6229
被广泛	-6230
说明了	-6231
谈判中	-6232
较低的	-6233
追溯到	-6234
▁Pro	-6235
▁伊拉克	-6236
的大部分	-6237
私营部门	-6238
跨国公司	-6239
凯恩斯主义	-6240
也为	-6241
但仍	-6242
创始	-6243
初级	-6244
场合	-6245
多久	-6246
多尔	-6247
婚姻	-6248
尼泊	-6249
并无	-6250
总裁	-6251
情愿	-6252
想到	-6253
房产	-6254
指令	-6255
推向	-6256
既得	-6257
是其	-6258
极限	-6259
氛围	-6260
沙龙	-6261
派遣	-6262
糖尿	-6263
花钱	-6264
蛋白	-6265
血腥	-6266
低成本	-6267
及其他	-6268
同时又	-6269
基本面	-6270
忽视了	-6271
急需的	-6272
想象的	-6273
是一位	-6274
最近在	-6275
条件下	-6276
的希望	-6277
肯尼迪	-6278
货币和	-6279
▁马德里	-6280
自由民主	-6281
艾滋病毒	-6282
lobal	-6283
▁巴勒斯坦	-6284
▁普林斯顿	-6285
evelop	-6286
不像	-6287
伐克	-6288
卷入	-6289
哈里	-6290
囚犯	-6291
土重	-6292
境内	-6293
复制	-6294
宇宙	-6295
审视	-6296
宽容	-6297
将给	-6298
就职	-6299
掉了	-6300
收到	-6301
新增	-6302
每一	-6303
汽油	-6304
道而	-6305
颇具	-6306
ord	-6307
全新的	-6308
创造出	-6309
就可能	-6310
是我们	-6311
津巴布	-6312
美国将	-6313
邻国的	-6314
领导者	-6315
▁今天的	-6316
▁即使是	-6317
不是一个	-6318
债务负担	-6319
国家利益	-6320
有所下降	-6321
极端贫困	-6322
的人来说	-6323
紧缩政策	-6324
▁坎布里奇	-6325
▁美国剑桥	-6326
东道	-6327
中欧	-6328
内政	-6329
列为	-6330
别人	-6331
卡特	-6332
君主	-6333
在他	-6334
增速	-6335
奏效	-6336
实用	-6337
就此	-6338
拉动	-6339
提款	-6340
是让	-6341
有力	-6342
格尔	-6343
潮流	-6344
瓦解	-6345
话题	-6346
这份	-6347
错了	-6348
隐私	-6349
高估	-6350
end	-6351
几年前	-6352
卷土重	-6353
得到的	-6354
更低的	-6355
的儿童	-6356
的英国	-6357
精神病	-6358
耐药性	-6359
表现得	-6360
调整的	-6361
阻止了	-6362
在叙利亚	-6363
帝国主义	-6364
技术进步	-6365
津巴布韦	-6366
试图通过	-6367
这一比例	-6368
1,000	-6369
conom	-6370
NP	-6371
▁拉	-6372
五个	-6373
伤亡	-6374
储存	-6375
几十	-6376
因于	-6377
地点	-6378
增值	-6379
平息	-6380
延伸	-6381
总部	-6382
战术	-6383
束缚	-6384
竭力	-6385
等国	-6386
贪婪	-6387
▁Re	-6388
压力的	-6389
定义为	-6390
所必须	-6391
核电站	-6392
的决策	-6393
的利率	-6394
的土地	-6395
的意愿	-6396
的潜在	-6397
贸易和	-6398
资本外	-6399
▁即使在	-6400
中小企业	-6401
公共投资	-6402
当选总统	-6403
生活方式	-6404
通货紧缩	-6405
都是如此	-6406
的全球经济	-6407
的解决方案	-6408
比以往任何时候	-6409
▁举	-6410
十二	-6411
哈萨	-6412
对方	-6413
就被	-6414
市长	-6415
年时	-6416
慢性	-6417
政界	-6418
新鲜	-6419
检察	-6420
派别	-6421
的可	-6422
维也	-6423
股份	-6424
胜出	-6425
采访	-6426
Rob	-6427
▁至少	-6428
体现了	-6429
创新和	-6430
和世界	-6431
来进行	-6432
的失败	-6433
的持续	-6434
糖尿病	-6435
能获得	-6436
▁在一个	-6437
军事力量	-6438
恶性循环	-6439
所导致的	-6440
有史以来	-6441
有所不同	-6442
甚至可能	-6443
资本流动	-6444
urope	-6445
TA	-6446
ta	-6447
不复	-6448
以巴	-6449
其反	-6450
军备	-6451
军官	-6452
加哥	-6453
吸取	-6454
头上	-6455
封闭	-6456
已被	-6457
并对	-6458
微妙	-6459
批判	-6460
早在	-6461
朝着	-6462
汲取	-6463
流血	-6464
热衷	-6465
稳固	-6466
致死	-6467
葛兰	-6468
起着	-6469
迎接	-6470
2%。	-6471
ess	-6472
iti	-6473
sti	-6474
事件的	-6475
制造商	-6476
即便是	-6477
完全是	-6478
归因于	-6479
总量的	-6480
感兴趣	-6481
拒绝了	-6482
最重要	-6483
的商业	-6484
的存在	-6485
的手段	-6486
的监管	-6487
脆弱的	-6488
芝加哥	-6489
观察者	-6490
达成了	-6491
1994	-6492
▁新德里	-6493
和以色列	-6494
如何应对	-6495
实体经济	-6496
果真如此	-6497
税收收入	-6498
近几年来	-6499
迹象表明	-6500
生物多样性	-6501
中止	-6502
低了	-6503
和非	-6504
咨询	-6505
商人	-6506
将从	-6507
撤出	-6508
眼中	-6509
耗尽	-6510
耗费	-6511
西部	-6512
轨道	-6513
输出	-6514
骚乱	-6515
▁但他	-6516
▁当今	-6517
受益者	-6518
和地区	-6519
和监管	-6520
对欧盟	-6521
感受到	-6522
把自己	-6523
放弃了	-6524
斯拉夫	-6525
是一项	-6526
桑德斯	-6527
视而不	-6528
违反了	-6529
▁Con	-6530
与以色列	-6531
人均收入	-6532
似乎已经	-6533
债务危机	-6534
其中一个	-6535
只是一个	-6536
同时也是	-6537
就不可能	-6538
消费者的	-6539
的美国人	-6540
▁国际社会	-6541
▁巴基斯坦	-6542
合作伙伴关系	-6543
信奉	-6544
增进	-6545
据说	-6546
整整	-6547
暂停	-6548
源泉	-6549
病例	-6550
着陆	-6551
趋同	-6552
迁徙	-6553
防卫	-6554
阻力	-6555
麦肯	-6556
付出了	-6557
在印度	-6558
对那些	-6559
并不会	-6560
恶化的	-6561
正确地	-6562
温和的	-6563
的想法	-6564
的故事	-6565
通常是	-6566
▁5%,	-6567
▁但尽管	-6568
不幸的是	-6569
为基础的	-6570
恐怖组织	-6571
的另一个	-6572
英国脱欧	-6573
英国退欧	-6574
拥有核武器	-6575
政治领导人	-6576
一倍	-6577
一如	-6578
上帝	-6579
单纯	-6580
和谐	-6581
器官	-6582
就算	-6583
巴以	-6584
平静	-6585
开端	-6586
手里	-6587
报酬	-6588
标签	-6589
深陷	-6590
火箭	-6591
股本	-6592
赞同	-6593
起点	-6594
进攻	-6595
800	-6596
▁但当	-6597
一个人	-6598
他们会	-6599
公司税	-6600
在他们	-6601
强化了	-6602
成立了	-6603
推动了	-6604
核试验	-6605
的崛起	-6606
的联系	-6607
示威者	-6608
签署了	-6609
给我们	-6610
维也纳	-6611
远低于	-6612
都知道	-6613
少数族裔	-6614
就是明证	-6615
所指出的	-6616
是否能够	-6617
负面影响	-6618
哈萨克斯坦	-6619
年全球金融危机	-6620
▁三	-6621
亚美	-6622
依存	-6623
几百	-6624
到期	-6625
回避	-6626
境地	-6627
大党	-6628
想想	-6629
搜索	-6630
放眼	-6631
方便	-6632
科夫	-6633
聚集	-6634
邻居	-6635
钢铁	-6636
顶峰	-6637
马尔	-6638
▁然后	-6639
人死亡	-6640
人类的	-6641
会议员	-6642
但这一	-6643
吸引了	-6644
和民主	-6645
因素是	-6646
在那里	-6647
承诺的	-6648
生物学	-6649
的不满	-6650
规模的	-6651
限制了	-6652
随后的	-6653
1967	-6654
1992	-6655
sion	-6656
令人不安	-6657
其自身的	-6658
刺激计划	-6659
前所未有	-6660
外交部长	-6661
常任理事	-6662
当今世界	-6663
所取得的	-6664
有足够的	-6665
的经济政策	-6666
上演	-6667
作品	-6668
关押	-6669
其所	-6670
境况	-6671
头脑	-6672
对冲	-6673
巴格	-6674
惊人	-6675
的老	-6676
经受	-6677
维克	-6678
羞辱	-6679
职务	-6680
萨斯	-6681
赌注	-6682
1%。	-6683
ton	-6684
关注的	-6685
刺激了	-6686
惊人的	-6687
比美国	-6688
独一无	-6689
的人数	-6690
的思想	-6691
的文化	-6692
的项目	-6693
运动员	-6694
还不到	-6695
通过了	-6696
John	-6697
▁但美国	-6698
亚美尼亚	-6699
应对措施	-6700
这方面的	-6701
迫切需要	-6702
难民危机	-6703
民族主义者	-6704
经济和社会	-6705
evelopment	-6706
az	-6707
▁多	-6708
上加	-6709
主管	-6710
会面	-6711
光明	-6712
名的	-6713
居高	-6714
战场	-6715
法特	-6716
波多	-6717
的自	-6718
神圣	-6719
被人	-6720
警方	-6721
赫尔	-6722
▁俄国	-6723
▁未来	-6724
▁第一	-6725
他们是	-6726
占全球	-6727
回报率	-6728
大选中	-6729
层面上	-6730
挑战的	-6731
控制权	-6732
海平面	-6733
的一年	-6734
的依赖	-6735
竞争性	-6736
管理者	-6737
类型的	-6738
而中国	-6739
高科技	-6740
麦肯锡	-6741
储备货币	-6742
医疗服务	-6743
大幅下降	-6744
布什总统	-6745
总统普京	-6746
投资银行	-6747
拒绝接受	-6748
特别提款	-6749
独一无二	-6750
萨尔科奇	-6751
▁2007	-6752
▁世界银行	-6753
▁毫不奇怪	-6754
▁Party	-6755
ES	-6756
ld	-6757
一段	-6758
分支	-6759
升息	-6760
在对	-6761
外包	-6762
尼古	-6763
弗拉	-6764
弗朗	-6765
所做	-6766
掠夺	-6767
机械	-6768
臭名	-6769
致使	-6770
英语	-6771
700	-6772
▁朝鲜	-6773
代表着	-6774
在其他	-6775
并以此	-6776
有很多	-6777
波多黎	-6778
演讲中	-6779
的批评	-6780
的表现	-6781
社会党	-6782
额外的	-6783
▁但中国	-6784
令人失望	-6785
债务重组	-6786
政治制度	-6787
正在经历	-6788
行动起来	-6789
重要作用	-6790
经济和政治	-6791
联合国大会	-6792
iv	-6793
人心	-6794
初衷	-6795
回顾	-6796
场所	-6797
够的	-6798
失控	-6799
带有	-6800
有序	-6801
清醒	-6802
清除	-6803
照顾	-6804
理所	-6805
裁军	-6806
让它	-6807
论点	-6808
诉求	-6809
输家	-6810
远未	-6811
鲁莽	-6812
und	-6813
▁民主	-6814
▁随后	-6815
一个更	-6816
哲学家	-6817
微不足	-6818
所造成	-6819
更愿意	-6820
最严重	-6821
殖民地	-6822
的出现	-6823
的有效	-6824
过去了	-6825
这表明	-6826
限制在	-6827
▁第一个	-6828
▁这一点	-6829
和伊拉克	-6830
波多黎各	-6831
美国国债	-6832
选举结果	-6833
阿拉法特	-6834
#45;&	-6835
▁2013	-6836
杀伤性武器	-6837
Robert	-6838
大宗商品价格	-6839
人对	-6840
克制	-6841
协作	-6842
名字	-6843
哈特	-6844
坚挺	-6845
奉行	-6846
奠定	-6847
安抚	-6848
手术	-6849
接管	-6850
揽子	-6851
旁观	-6852
权益	-6853
正当	-6854
游击	-6855
直升	-6856
直面	-6857
确立	-6858
而后	-6859
胡锦	-6860
适当	-6861
马车	-6862
3%。	-6863
▁关键	-6864
▁原因	-6865
低估了	-6866
供应商	-6867
办法是	-6868
可以将	-6869
在欧盟	-6870
的事件	-6871
的伊朗	-6872
的现象	-6873
胡锦涛	-6874
这使得	-6875
▁比如说	-6876
不受欢迎	-6877
俄罗斯和	-6878
半个世纪	-6879
微不足道	-6880
视而不见	-6881
这些政策	-6882
远远不够	-6883
收入不平等	-6884
An	-6885
OM	-6886
之久	-6887
借此	-6888
偏离	-6889
动乱	-6890
变迁	-6891
合物	-6892
妻子	-6893
意的	-6894
最快	-6895
有趣	-6896
村庄	-6897
浮动	-6898
牵涉	-6899
电动	-6900
的重	-6901
空中	-6902
罕见	-6903
论证	-6904
较高	-6905
过时	-6906
造就	-6907
▁基于	-6908
参与了	-6909
双方都	-6910
召开的	-6911
对伊朗	-6912
尼泊尔	-6913
找到了	-6914
是不可	-6915
的迹象	-6916
▁Sch	-6917
▁全世界	-6918
▁在中国	-6919
从一开始	-6920
对美国的	-6921
年代以来	-6922
是不够的	-6923
社会福利	-6924
经济改革	-6925
这一结果	-6926
欧洲一体化	-6927
#45;&#45;	-6928
65	-6929
不多	-6930
丧生	-6931
互换	-6932
哪种	-6933
在新	-6934
城镇	-6935
外来	-6936
巨型	-6937
想起	-6938
是要	-6939
特区	-6940
王朝	-6941
生计	-6942
的核	-6943
的罪	-6944
科研	-6945
管辖	-6946
红利	-6947
要让	-6948
里亚	-6949
▁Ac	-6950
决定性	-6951
准备金	-6952
发展和	-6953
发现了	-6954
和商业	-6955
回到了	-6956
坏消息	-6957
太多的	-6958
权利的	-6959
温和派	-6960
的人类	-6961
的工具	-6962
的教训	-6963
的理论	-6964
移民和	-6965
而没有	-6966
臭名昭	-6967
高风险	-6968
全球金融	-6969
加沙地带	-6970
政府应该	-6971
权力机构	-6972
股票市场	-6973
问题在于	-6974
▁好消息是	-6975
▁简而言之	-6976
带来巨大的	-6977
时间的推移	-6978
的不确定性	-6979
ternational	-6980
不错	-6981
之举	-6982
也让	-6983
交道	-6984
住了	-6985
侯赛	-6986
假定	-6987
加泰	-6988
受困	-6989
家长	-6990
容克	-6991
开创	-6992
心态	-6993
收获	-6994
无比	-6995
派系	-6996
王国	-6997
直觉	-6998
等同	-6999
野生	-7000
不在于	-7001
使他们	-7002
加泰罗	-7003
城市的	-7004
已经有	-7005
往往是	-7006
生活中	-7007
的人权	-7008
的贷款	-7009
的预期	-7010
财政和	-7011
10%。	-7012
1993	-7013
▁许多人	-7014
不负责任	-7015
利益集团	-7016
卷土重来	-7017
根本性的	-7018
这场危机	-7019
stitu	-7020
不可持续的	-7021
加泰罗尼亚	-7022
io	-7023
一件	-7024
两极	-7025
光是	-7026
出发	-7027
功于	-7028
加纳	-7029
去了	-7030
吸烟	-7031
大为	-7032
慕尼	-7033
找出	-7034
拙劣	-7035
无情	-7036
更强	-7037
杰夫	-7038
正规	-7039
特拉	-7040
社团	-7041
简直	-7042
较少	-7043
这与	-7044
远见	-7045
适得	-7046
ani	-7047
▁但我	-7048
▁来自	-7049
保持在	-7050
几乎是	-7051
国家在	-7052
在哪里	-7053
复杂性	-7054
完成了	-7055
希望的	-7056
建立的	-7057
强烈的	-7058
接下来	-7059
政客们	-7060
无法在	-7061
的出口	-7062
的损失	-7063
的数字	-7064
的调查	-7065
研究者	-7066
糟糕的	-7067
都不能	-7068
主导地位	-7069
保险公司	-7070
工作人员	-7071
联合政府	-7072
臭名昭著	-7073
越来越大	-7074
适得其反	-7075
,2008	-7076
约旦河西岸	-7077
越来越多地	-7078
随之而来的	-7079
&#45;&#45;	-7080
3,	-7081
▁第	-7082
利钦	-7083
可观	-7084
存活	-7085
愈烈	-7086
招募	-7087
教科	-7088
波罗	-7089
深受	-7090
短视	-7091
虚拟	-7092
让其	-7093
让我	-7094
选区	-7095
里夫	-7096
顶层	-7097
15%	-7098
▁欧元	-7099
与西方	-7100
丘吉尔	-7101
但这些	-7102
做什么	-7103
凝聚力	-7104
副总统	-7105
叶利钦	-7106
听起来	-7107
在一定	-7108
威胁的	-7109
将面临	-7110
归功于	-7111
执政的	-7112
控制着	-7113
本国的	-7114
的大幅	-7115
的重大	-7116
自动化	-7117
获得者	-7118
该协议	-7119
1973	-7120
从而导致	-7121
农村地区	-7122
成为现实	-7123
数百万人	-7124
无关紧要	-7125
生物燃料	-7126
资本主义的	-7127
9.	-7128
IT	-7129
IV	-7130
▁w	-7131
不相	-7132
亲密	-7133
则在	-7134
创伤	-7135
和反	-7136
外债	-7137
大臣	-7138
夺走	-7139
定位	-7140
得上	-7141
愈演	-7142
搜集	-7143
撰写	-7144
教条	-7145
数额	-7146
更深	-7147
检验	-7148
此举	-7149
民党	-7150
版本	-7151
牛津	-7152
精心	-7153
艾哈	-7154
营造	-7155
越发	-7156
道歉	-7157
避难	-7158
4%。	-7159
▁一种	-7160
世界最	-7161
和市场	-7162
和支持	-7163
在我们	-7164
已经从	-7165
慕尼黑	-7166
正处于	-7167
毕业生	-7168
的分析	-7169
的稳定	-7170
监管和	-7171
组织和	-7172
维持在	-7173
预示着	-7174
国家政府	-7175
少数民族	-7176
愈演愈烈	-7177
无法解决	-7178
的领导下	-7179
财政状况	-7180
高等教育	-7181
不幸	-7182
为期	-7183
书中	-7184
亚于	-7185
人选	-7186
他是	-7187
公里	-7188
准入	-7189
包围	-7190
又是	-7191
名列	-7192
多极	-7193
大麻	-7194
娱乐	-7195
小学	-7196
悖论	-7197
惠及	-7198
投行	-7199
抬头	-7200
接纳	-7201
明星	-7202
春天	-7203
是很	-7204
有用	-7205
极少	-7206
民用	-7207
河流	-7208
治国	-7209
用了	-7210
留给	-7211
结局	-7212
美中	-7213
蓬勃	-7214
论调	-7215
金额	-7216
顶尖	-7217
▁一位	-7218
之后的	-7219
代表的	-7220
凸显出	-7221
和创新	-7222
在非洲	-7223
希拉克	-7224
很好地	-7225
必然会	-7226
拥有的	-7227
来应对	-7228
流行的	-7229
的内容	-7230
的科学	-7231
的证据	-7232
的限制	-7233
能源和	-7234
转基因	-7235
选举的	-7236
驾马车	-7237
1960	-7238
▁而如果	-7239
产能过剩	-7240
债券市场	-7241
取得进展	-7242
所发生的	-7243
政府官员	-7244
的伊斯兰	-7245
竞选活动	-7246
▁他们认为	-7247
而不仅仅是	-7248
ht	-7249
▁卡	-7250
一来	-7251
估值	-7252
冷静	-7253
制作	-7254
垃圾	-7255
多重	-7256
幻觉	-7257
开来	-7258
弹性	-7259
必需	-7260
战士	-7261
携带	-7262
摇摆	-7263
渗透	-7264
纳米	-7265
艰苦	-7266
花在	-7267
范式	-7268
董事	-7269
覆辙	-7270
说过	-7271
追踪	-7272
顺利	-7273
SDG	-7274
▁这也	-7275
不住脚	-7276
军事实	-7277
大国的	-7278
对这一	-7279
就在于	-7280
尼西亚	-7281
建设性	-7282
成年人	-7283
或许会	-7284
有意义	-7285
的人道	-7286
的恐惧	-7287
的援助	-7288
腐败的	-7289
边缘化	-7290
都已经	-7291
ance	-7292
做些什么	-7293
将在未来	-7294
并不是说	-7295
得到解决	-7296
成为世界	-7297
的全球化	-7298
的穆斯林	-7299
货币市场	-7300
这样一种	-7301
▁我们应该	-7302
外国投资者	-7303
世界其他国家	-7304
▁Development	-7305
不下	-7306
个性	-7307
使之	-7308
傲慢	-7309
内需	-7310
在近	-7311
埃尔	-7312
对峙	-7313
广播	-7314
抵达	-7315
新型	-7316
新生	-7317
梅德	-7318
正面	-7319
海地	-7320
疫情	-7321
监测	-7322
看成	-7323
硅谷	-7324
确信	-7325
纽黑	-7326
细菌	-7327
终极	-7328
赫鲁	-7329
难免	-7330
集权	-7331
▁我的	-7332
▁正是	-7333
▁解决	-7334
中东和	-7335
十年来	-7336
原子能	-7337
发挥了	-7338
发生过	-7339
在所有	-7340
家庭的	-7341
巴塞尔	-7342
巴格达	-7343
当时的	-7344
形成的	-7345
恢复力	-7346
损害了	-7347
活动家	-7348
的亚洲	-7349
的保护	-7350
的方向	-7351
科维奇	-7352
纽黑文	-7353
他们可以	-7354
可能造成	-7355
在经历了	-7356
最有可能	-7357
站不住脚	-7358
需要时间	-7359
常任理事国	-7360
意味着什么	-7361
首相安倍晋三	-7362
FD	-7363
一贯	-7364
与会	-7365
中位	-7366
亚努	-7367
史上	-7368
向前	-7369
吞并	-7370
商务	-7371
坚信	-7372
小说	-7373
展望	-7374
救济	-7375
海上	-7376
涌现	-7377
热带	-7378
略有	-7379
真理	-7380
神话	-7381
耐心	-7382
职能	-7383
背叛	-7384
重创	-7385
重演	-7386
陷于	-7387
雷斯	-7388
颁布	-7389
首尔	-7390
骄傲	-7391
250	-7392
ang	-7393
为美国	-7394
侯赛因	-7395
在德国	-7396
时间内	-7397
的生产	-7398
的统治	-7399
的非洲	-7400
秩序的	-7401
落后于	-7402
评论家	-7403
cial	-7404
也不可能	-7405
几十年的	-7406
没有一个	-7407
资本管制	-7408
需要一个	-7409
非常重要	-7410
之间的联系	-7411
更重要的是	-7412
上任	-7413
上市	-7414
与此	-7415
今日	-7416
减记	-7417
分为	-7418
原始	-7419
和水	-7420
大军	-7421
宣告	-7422
就不	-7423
州的	-7424
意在	-7425
戈登	-7426
教派	-7427
检测	-7428
激起	-7429
的公	-7430
的更	-7431
罗德	-7432
记得	-7433
重蹈	-7434
饮食	-7435
are	-7436
▁不久	-7437
▁历史	-7438
▁在我	-7439
了许多	-7440
以避免	-7441
利用其	-7442
将这些	-7443
就像是	-7444
帝国的	-7445
是不是	-7446
是时候	-7447
替代品	-7448
有许多	-7449
欧盟和	-7450
由美国	-7451
被证明	-7452
选民的	-7453
1930	-7454
▁但现在	-7455
▁但随着	-7456
▁共和党	-7457
▁在这些	-7458
▁我认为	-7459
价格上涨	-7460
制药公司	-7461
去杠杆化	-7462
安全问题	-7463
社会和经济	-7464
世行	-7465
入学	-7466
化解	-7467
大致	-7468
奢侈	-7469
已故	-7470
市民	-7471
并以	-7472
并论	-7473
当下	-7474
微软	-7475
戴维	-7476
撤销	-7477
方济	-7478
杀人	-7479
沿海	-7480
溢出	-7481
特色	-7482
相提	-7483
纲领	-7484
缔造	-7485
缴纳	-7486
解散	-7487
迈进	-7488
2%,	-7489
ens	-7490
上世纪	-7491
不能再	-7492
可能对	-7493
如果不	-7494
安全网	-7495
尔多瓦	-7496
往往会	-7497
打交道	-7498
执行官	-7499
有多少	-7500
漫长的	-7501
的联盟	-7502
的难民	-7503
直升机	-7504
统治的	-7505
腐败和	-7506
较高的	-7507
▁一方面	-7508
▁全球化	-7509
与美国的	-7510
人的生命	-7511
共同利益	-7512
持续下去	-7513
理所当然	-7514
相提并论	-7515
▁布鲁塞尔	-7516
最重要的是	-7517
部分是因为	-7518
▁Econom	-7519
大规模杀伤性武器	-7520
if	-7521
▁把	-7522
两名	-7523
为主	-7524
任职	-7525
体面	-7526
兑换	-7527
出一	-7528
医药	-7529
受伤	-7530
大相	-7531
女儿	-7532
径庭	-7533
技巧	-7534
清理	-7535
男女	-7536
的水	-7537
种类	-7538
经费	-7539
色彩	-7540
该党	-7541
货物	-7542
过高	-7543
进来	-7544
雅典	-7545
▁韩国	-7546
中扮演	-7547
为代价	-7548
任何人	-7549
大得多	-7550
执政党	-7551
是世界	-7552
梅德韦	-7553
环境的	-7554
的人群	-7555
的根源	-7556
管理的	-7557
而这一	-7558
被用于	-7559
革命的	-7560
▁在英国	-7561
▁多年来	-7562
专业人士	-7563
令人惊讶	-7564
债权人的	-7565
劳动力的	-7566
单一货币	-7567
在经济上	-7568
尤其如此	-7569
摩尔多瓦	-7570
需要的是	-7571
▁2001	-7572
▁2005	-7573
特别提款权	-7574
经常项目盈余	-7575
Th	-7576
▁也	-7577
与否	-7578
买单	-7579
仅为	-7580
传达	-7581
和无	-7582
品牌	-7583
存量	-7584
孟买	-7585
得起	-7586
急于	-7587
所欲	-7588
无一	-7589
某一	-7590
法则	-7591
波特	-7592
瓦尔	-7593
的要	-7594
等到	-7595
越大	-7596
高乐	-7597
ach	-7598
▁7%	-7599
▁实现	-7600
▁改革	-7601
信息和	-7602
同一个	-7603
媒体的	-7604
工资和	-7605
应有的	-7606
恰恰是	-7607
方法是	-7608
有些人	-7609
留下的	-7610
的主权	-7611
的状态	-7612
的独立	-7613
的生命	-7614
的直接	-7615
篇文章	-7616
规则和	-7617
达成的	-7618
零利率	-7619
▁哈马斯	-7620
个国家的	-7621
其中一些	-7622
南斯拉夫	-7623
在俄罗斯	-7624
很少有人	-7625
欧洲银行	-7626
正在发生	-7627
资产泡沫	-7628
▁归根结底	-7629
伊斯兰国的	-7630
联合国秘书长	-7631
为人	-7632
其余	-7633
劣势	-7634
各项	-7635
圣诞	-7636
夸张	-7637
将把	-7638
将比	-7639
平稳	-7640
弥合	-7641
把持	-7642
挑选	-7643
捕捞	-7644
推特	-7645
教会	-7646
月在	-7647
有其	-7648
未知	-7649
来了	-7650
格局	-7651
欧美	-7652
汇款	-7653
演说	-7654
界线	-7655
眼前	-7656
萨默	-7657
调节	-7658
车臣	-7659
逆差	-7660
阻挡	-7661
靠拢	-7662
ind	-7663
mer	-7664
ron	-7665
▁al	-7666
▁不论	-7667
▁企业	-7668
▁北京	-7669
▁应该	-7670
为他们	-7671
债权国	-7672
将决定	-7673
戴高乐	-7674
方济各	-7675
的最低	-7676
的看法	-7677
国民阵线	-7678
在全世界	-7679
收入分配	-7680
是否应该	-7681
经济体的	-7682
联系起来	-7683
这一过程	-7684
亚努科维奇	-7685
原教旨主义	-7686
首席执行官	-7687
核不扩散条约	-7688
▁向	-7689
▁斯	-7690
一度	-7691
不定	-7692
先决	-7693
危及	-7694
合约	-7695
多德	-7696
学位	-7697
家宝	-7698
指定	-7699
挫折	-7700
摩根	-7701
比起	-7702
法德	-7703
监禁	-7704
违背	-7705
迟早	-7706
避税	-7707
随机	-7708
▁就在	-7709
了他的	-7710
修正案	-7711
公共和	-7712
受影响	-7713
国务院	-7714
恰当的	-7715
或者说	-7716
改革和	-7717
文化和	-7718
有责任	-7719
标准的	-7720
理解的	-7721
生产者	-7722
的公民	-7723
的工人	-7724
的解释	-7725
看到的	-7726
而后者	-7727
充分利用	-7728
反恐战争	-7729
可以成为	-7730
增长放缓	-7731
大相径庭	-7732
如果不是	-7733
死亡人数	-7734
福利国家	-7735
英国首相	-7736
金融服务	-7737
—2009	-7738
▁发自纽约	-7739
▁我们可以	-7740
可以追溯到	-7741
总统巴沙尔	-7742
德国总理默克尔	-7743
ey	-7744
▁高	-7745
不善	-7746
也比	-7747
会将	-7748
伯格	-7749
何处	-7750
加勒	-7751
告终	-7752
头条	-7753
安德	-7754
宝座	-7755
将近	-7756
抗药	-7757
民营	-7758
知名	-7759
空袭	-7760
节省	-7761
被捕	-7762
裨益	-7763
规避	-7764
解雇	-7765
调和	-7766
里程	-7767
首位	-7768
5%,	-7769
▁还是	-7770
▁香港	-7771
为我们	-7772
以外的	-7773
健康和	-7774
制定的	-7775
可不是	-7776
在法国	-7777
得益于	-7778
永久性	-7779
温家宝	-7780
的信贷	-7781
穷人的	-7782
路线图	-7783
▁习近平	-7784
三驾马车	-7785
变得更为	-7786
可以获得	-7787
吸引力的	-7788
增长速度	-7789
才能实现	-7790
既得利益	-7791
的经济学	-7792
研究人员	-7793
贫困人口	-7794
还有其他	-7795
▁Comm	-7796
房地产泡沫	-7797
ission	-7798
世界其他地区	-7799
阿拉伯世界的	-7800
一届	-7801
一百	-7802
不当	-7803
不用	-7804
东方	-7805
了吗	-7806
仍未	-7807
保卫	-7808
关塔	-7809
匮乏	-7810
和大	-7811
富豪	-7812
局部	-7813
征服	-7814
得主	-7815
拉登	-7816
拓展	-7817
无意	-7818
查德	-7819
欧亚	-7820
欺诈	-7821
每次	-7822
疑虑	-7823
真是	-7824
称的	-7825
编辑	-7826
缩短	-7827
节目	-7828
蒙受	-7829
西奈	-7830
要为	-7831
视角	-7832
词汇	-7833
资料	-7834
麦克	-7835
▁东京	-7836
▁这里	-7837
世纪初	-7838
人来说	-7839
公平的	-7840
因如此	-7841
国大党	-7842
妇女和	-7843
弗兰克	-7844
或者是	-7845
流行病	-7846
物理学	-7847
的产品	-7848
的信誉	-7849
的理解	-7850
那以后	-7851
预计将	-7852
先决条件	-7853
卫生组织	-7854
就业创造	-7855
性别平等	-7856
阿富汗的	-7857
2,000	-7858
▁恰恰相反	-7859
世界领导人	-7860
截然不同的	-7861
新兴市场国家	-7862
uropean	-7863
▁Y	-7864
乌干	-7865
五大	-7866
会把	-7867
储户	-7868
十字	-7869
启发	-7870
安南	-7871
尴尬	-7872
得更	-7873
报导	-7874
效力	-7875
有机	-7876
有毒	-7877
本币	-7878
治愈	-7879
照片	-7880
物流	-7881
生意	-7882
科尔	-7883
药方	-7884
莱斯	-7885
见证	-7886
120	-7887
▁6%	-7888
▁有时	-7889
不允许	-7890
不同于	-7891
乌干达	-7892
但没有	-7893
债券的	-7894
决定的	-7895
如何在	-7896
官员们	-7897
挑战是	-7898
推动力	-7899
政府间	-7900
法律和	-7901
的理念	-7902
看不到	-7903
算不上	-7904
给他们	-7905
能够让	-7906
这是个	-7907
预测的	-7908
1996	-7909
▁这两个	-7910
一个世纪	-7911
他们自己	-7912
关键作用	-7913
普遍认为	-7914
正在进行	-7915
▁2006	-7916
gr	-7917
▁中	-7918
▁另	-7919
上周	-7920
业的	-7921
厚的	-7922
各类	-7923
和我	-7924
威特	-7925
尊敬	-7926
很久	-7927
忧心	-7928
拨款	-7929
摩擦	-7930
星球	-7931
暴动	-7932
月初	-7933
标题	-7934
此时	-7935
比喻	-7936
源头	-7937
现今	-7938
腺癌	-7939
蓝图	-7940
表演	-7941
重回	-7942
阅读	-7943
队伍	-7944
6%。	-7945
our	-7946
▁通常	-7947
不符合	-7948
会议的	-7949
似乎也	-7950
体系中	-7951
创纪录	-7952
努力的	-7953
向美国	-7954
实在在	-7955
对国家	-7956
市场和	-7957
带一路	-7958
开始了	-7959
很快就	-7960
最终将	-7961
有两个	-7962
税收和	-7963
立法者	-7964
站出来	-7965
表达了	-7966
詹姆斯	-7967
转折点	-7968
这导致	-7969
10%,	-7970
▁但它们	-7971
▁在未来	-7972
不同的是	-7973
付出代价	-7974
决定性的	-7975
可能成为	-7976
实实在在	-7977
强烈反对	-7978
无法实现	-7979
资本账户	-7980
这个世界	-7981
领导作用	-7982
▁除此之外	-7983
联合国气候变化	-7984
sh	-7985
▁"	-7986
下令	-7987
付诸	-7988
共存	-7989
北极	-7990
发育	-7991
变异	-7992
合成	-7993
州长	-7994
幕后	-7995
底层	-7996
开明	-7997
徘徊	-7998
必定	-7999
智力	-8000
月底	-8001
期的	-8002
根于	-8003
看护	-8004
看着	-8005
眼光	-8006
肆虐	-8007
般的	-8008
落入	-8009
贿赂	-8010
赶超	-8011
ner	-8012
▁Tr	-8013
▁多数	-8014
下一代	-8015
丰富的	-8016
公众的	-8017
公共品	-8018
原材料	-8019
可信度	-8020
和德国	-8021
在国家	-8022
多年前	-8023
对未来	-8024
将会是	-8025
扩张性	-8026
源自于	-8027
生产性	-8028
艾哈迈	-8029
该公司	-8030
资金的	-8031
避免了	-8032
金正日	-8033
20%。	-8034
众所周知	-8035
全球性的	-8036
和平协议	-8037
国际合作	-8038
经济学奖	-8039
▁2000	-8040
▁这些国家	-8041
通货膨胀率	-8042
宏观经济政策	-8043
国家主席习近平	-8044
(“	-8045
AI	-8046
▁如	-8047
▁巴	-8048
不乏	-8049
东北	-8050
中被	-8051
也与	-8052
于此	-8053
低效	-8054
余地	-8055
佛罗	-8056
和更	-8057
困惑	-8058
奋斗	-8059
子的	-8060
将由	-8061
崇拜	-8062
挑起	-8063
挥霍	-8064
无处	-8065
格拉	-8066
次于	-8067
的三	-8068
签证	-8069
跟踪	-8070
配合	-8071
阐述	-8072
ant	-8073
arl	-8074
ort	-8075
row	-8076
▁为何	-8077
▁人类	-8078
▁既然	-8079
不会有	-8080
中心的	-8081
了一些	-8082
争议的	-8083
仅限于	-8084
印度人	-8085
因为其	-8086
因此而	-8087
在任何	-8088
强硬派	-8089
持久的	-8090
数量的	-8091
曾经是	-8092
检察官	-8093
的政党	-8094
的法国	-8095
的激励	-8096
研究的	-8097
科威特	-8098
至少是	-8099
负利率	-8100
选择的	-8101
▁在许多	-8102
使用武力	-8103
健康状况	-8104
因为这些	-8105
对以色列	-8106
少数群体	-8107
左翼联盟	-8108
我们现在	-8109
政治领袖	-8110
的政治家	-8111
苏联解体	-8112
贫穷国家	-8113
达成共识	-8114
▁如果美国	-8115
民族主义的	-8116
中国人民银行	-8117
CP	-8118
一看	-8119
偏向	-8120
偶尔	-8121
几次	-8122
半数	-8123
可图	-8124
司机	-8125
夫人	-8126
对他	-8127
徒劳	-8128
打败	-8129
本次	-8130
次级	-8131
激怒	-8132
益处	-8133
群岛	-8134
而出	-8135
英里	-8136
要好	-8137
计的	-8138
通道	-8139
麻痹	-8140
FTA	-8141
tic	-8142
▁令人	-8143
▁报告	-8144
不清楚	-8145
世界杯	-8146
了欧洲	-8147
他们也	-8148
受益于	-8149
可能比	-8150
四分之	-8151
奥斯陆	-8152
富有的	-8153
就是在	-8154
年美国	-8155
急切地	-8156
持有人	-8157
民主化	-8158
经济中	-8159
萨默斯	-8160
被用来	-8161
贡献了	-8162
适当的	-8163
长期看	-8164
页岩气	-8165
▁如果说	-8166
▁西班牙	-8167
仍然存在	-8168
他们必须	-8169
依然存在	-8170
受到影响	-8171
坚持认为	-8172
将进一步	-8173
希腊政府	-8174
技术官僚	-8175
政策利率	-8176
整个世界	-8177
美联储的	-8178
联合起来	-8179
讽刺的是	-8180
进一步的	-8181
ility	-8182
▁我们希望	-8183
▁果真如此	-8184
▁在这种情况下	-8185
Sh	-8186
ib	-8187
ss	-8188
一座	-8189
一是	-8190
一部	-8191
两项	-8192
中立	-8193
之力	-8194
但我	-8195
十亿	-8196
岛屿	-8197
强奸	-8198
振奋	-8199
攻势	-8200
放大	-8201
教学	-8202
时所	-8203
桥梁	-8204
死去	-8205
没了	-8206
清单	-8207
自行	-8208
良机	-8209
表态	-8210
装备	-8211
门槛	-8212
ker	-8213
ris	-8214
▁Sh	-8215
不喜欢	-8216
不安全	-8217
与发展	-8218
中东的	-8219
债务和	-8220
危机后	-8221
和管理	-8222
埃及的	-8223
它们所	-8224
的优势	-8225
的公众	-8226
的可能	-8227
的西方	-8228
等同于	-8229
贸易的	-8230
这两种	-8231
Fran	-8232
▁198	-8233
也是一个	-8234
公共服务	-8235
另外一个	-8236
可能需要	-8237
国民债务	-8238
截然不同	-8239
执政联盟	-8240
更重要的	-8241
欧元危机	-8242
法治精神	-8243
自由流动	-8244
自身利益	-8245
这场战争	-8246
▁发展中国家	-8247
MD	-8248
》。	-8249
三种	-8250
丝绸	-8251
为零	-8252
分钟	-8253
卡拉	-8254
可疑	-8255
培育	-8256
惊讶	-8257
感情	-8258
所言	-8259
拉圭	-8260
次要	-8261
沿岸	-8262
生殖	-8263
界定	-8264
福岛	-8265
胜任	-8266
西兰	-8267
询问	-8268
购物	-8269
铺平	-8270
3%,	-8271
▁12	-8272
▁Al	-8273
▁他说	-8274
▁他还	-8275
▁几乎	-8276
▁此次	-8277
▁波兰	-8278
信息的	-8279
催生了	-8280
压倒性	-8281
大革命	-8282
它可以	-8283
将自己	-8284
居住在	-8285
岁以下	-8286
年轻的	-8287
推出了	-8288
斯坦福	-8289
是完全	-8290
有一种	-8291
消费的	-8292
的人的	-8293
积极地	-8294
等问题	-8295
而应该	-8296
认为是	-8297
让中国	-8298
2025	-8299
▁伊斯兰	-8300
▁但即便	-8301
个成员国	-8302
五分之一	-8303
信息技术	-8304
大幅增加	-8305
我们能够	-8306
政府已经	-8307
日本经济	-8308
生产率的	-8309
的原因是	-8310
的支持率	-8311
目前正在	-8312
评级机构	-8313
这一数字	-8314
数十亿美元	-8315
诺贝尔经济学奖	-8316
一番	-8317
为数	-8318
了近	-8319
催化	-8320
公务	-8321
兼并	-8322
剩下	-8323
卢拉	-8324
吃惊	-8325
听证	-8326
地面	-8327
安置	-8328
审核	-8329
客观	-8330
并把	-8331
微观	-8332
极低	-8333
核弹	-8334
根基	-8335
猛烈	-8336
率的	-8337
甚远	-8338
百姓	-8339
的后	-8340
被告	-8341
较小	-8342
道义	-8343
邮件	-8344
ism	-8345
▁安倍	-8346
▁支持	-8347
一定会	-8348
中间派	-8349
之上的	-8350
公民的	-8351
包括在	-8352
另一场	-8353
启动了	-8354
和公司	-8355
和其它	-8356
孩子们	-8357
对我们	-8358
影响着	-8359
所带来	-8360
描述为	-8361
甚至连	-8362
的信用	-8363
背道而	-8364
范围的	-8365
贫困和	-8366
避免的	-8367
韩国的	-8368
麦凯恩	-8369
▁上个月	-8370
▁最近的	-8371
▁问题是	-8372
一直以来	-8373
价格稳定	-8374
保守主义	-8375
全世界最	-8376
全球增长	-8377
八十年代	-8378
公共政策	-8379
几乎肯定	-8380
美国人的	-8381
背道而驰	-8382
做到这一点	-8383
巴勒斯坦国	-8384
退出欧元区	-8385
里斯本条约	-8386
在一定程度上	-8387
▁在这样的背景下	-8388
不动	-8389
世卫	-8390
两难	-8391
个别	-8392
事项	-8393
却不	-8394
厄瓜	-8395
可供	-8396
同胞	-8397
噩梦	-8398
固然	-8399
坐视	-8400
备受	-8401
富翁	-8402
广义	-8403
微弱	-8404
忙于	-8405
慢慢	-8406
把握	-8407
无非	-8408
日趋	-8409
淘汰	-8410
瑟夫	-8411
甘地	-8412
生机	-8413
电厂	-8414
美金	-8415
能使	-8416
脊髓	-8417
赞扬	-8418
走私	-8419
霍乱	-8420
▁央行	-8421
▁市场	-8422
▁教育	-8423
也正在	-8424
代理人	-8425
以一种	-8426
冲突中	-8427
化合物	-8428
国家中	-8429
将带来	-8430
小部分	-8431
并不像	-8432
我们就	-8433
是多么	-8434
暴力和	-8435
热衷于	-8436
社会中	-8437
经济上	-8438
自己在	-8439
▁它们的	-8440
之间存在	-8441
人工智能	-8442
做出选择	-8443
国际刑事	-8444
成为可能	-8445
才有可能	-8446
清洁能源	-8447
的必要性	-8448
精英阶层	-8449
经济问题	-8450
讽刺意味	-8451
这一方针	-8452
这个数字	-8453
委员会主席	-8454
这样的国家	-8455
发展中经济体	-8456
”:	-8457
三国	-8458
为之	-8459
买卖	-8460
于事	-8461
亚马	-8462
克劳	-8463
冲动	-8464
决裂	-8465
减小	-8466
加德	-8467
升温	-8468
协力	-8469
南美	-8470
原理	-8471
外长	-8472
大批	-8473
大笔	-8474
带领	-8475
并让	-8476
托克	-8477
援引	-8478
未经	-8479
水和	-8480
灌溉	-8481
罪犯	-8482
轨迹	-8483
辐射	-8484
这在	-8485
送到	-8486
酝酿	-8487
顶级	-8488
▁举例	-8489
▁但从	-8490
▁公司	-8491
▁此后	-8492
不足为	-8493
以防止	-8494
会继续	-8495
依然在	-8496
六个月	-8497
典型的	-8498
创造性	-8499
发表了	-8500
同时还	-8501
已经是	-8502
强调了	-8503
必须是	-8504
方案的	-8505
更重要	-8506
条件的	-8507
来说是	-8508
核协议	-8509
激进的	-8510
特定的	-8511
的女性	-8512
的感觉	-8513
的时刻	-8514
的某些	-8515
的认识	-8516
的领袖	-8517
精英们	-8518
还是在	-8519
那些在	-8520
非国家	-8521
5000	-8522
▁但对于	-8523
▁决策者	-8524
▁首先是	-8525
丝绸之路	-8526
可能出现	-8527
合法性的	-8528
将有助于	-8529
政治联盟	-8530
日益增加	-8531
最低工资	-8532
的年轻人	-8533
经济繁荣	-8534
美国家庭	-8535
能够获得	-8536
银行体系	-8537
▁但这样的	-8538
▁其结果是	-8539
中央银行的	-8540
和基础设施	-8541
比以往任何时候都	-8542
37	-8543
Ge	-8544
ie	-8545
▁̧	-8546
一群	-8547
中之	-8548
制的	-8549
剥削	-8550
加尔	-8551
十八	-8552
反常	-8553
反驳	-8554
合并	-8555
回购	-8556
国籍	-8557
垮台	-8558
外资	-8559
广大	-8560
掀起	-8561
无效	-8562
来临	-8563
极具	-8564
构想	-8565
残忍	-8566
残疾	-8567
深思	-8568
点燃	-8569
看出	-8570
福音	-8571
等级	-8572
终止	-8573
背负	-8574
观众	-8575
越多	-8576
返回	-8577
遍布	-8578
间谍	-8579
鲜有	-8580
ion	-8581
▁大约	-8582
▁真正	-8583
上升的	-8584
人们所	-8585
仍然在	-8586
伊斯坦	-8587
传染性	-8588
但美国	-8589
关键性	-8590
利率的	-8591
发行的	-8592
外围国	-8593
实质性	-8594
将不会	-8595
并通过	-8596
弗拉基	-8597
摆脱了	-8598
斯特罗	-8599
施罗德	-8600
最小化	-8601
爆发了	-8602
的理想	-8603
给出了	-8604
还有待	-8605
这方面	-8606
那么它	-8607
预防性	-8608
1950	-8609
50%。	-8610
▁美国人	-8611
俄罗斯人	-8612
军事实力	-8613
十分重要	-8614
和美国的	-8615
国会议员	-8616
多哈回合	-8617
所提供的	-8618
提醒我们	-8619
明确表示	-8620
的受害者	-8621
的经济和	-8622
相当大的	-8623
绝非易事	-8624
还有很多	-8625
itter	-8626
▁发自剑桥	-8627
的基础设施	-8628
▁无	-8629
乐于	-8630
事先	-8631
亿万	-8632
分崩	-8633
分类	-8634
包装	-8635
却被	-8636
右派	-8637
已然	-8638
很长	-8639
我所	-8640
截止	-8641
是与	-8642
灰质	-8643
砍伐	-8644
确切	-8645
约有	-8646
结婚	-8647
老牌	-8648
耻辱	-8649
聚焦	-8650
装置	-8651
都与	-8652
重的	-8653
驾驶	-8654
黑人	-8655
齐聚	-8656
...	-8657
enc	-8658
que	-8659
▁18	-8660
▁8%	-8661
▁Cl	-8662
▁la	-8663
为目标	-8664
仅次于	-8665
以前的	-8666
以实现	-8667
以换取	-8668
会增加	-8669
保护和	-8670
债务国	-8671
儿麻痹	-8672
分崩离	-8673
参与到	-8674
大公司	-8675
并将其	-8676
庸置疑	-8677
成立的	-8678
所有者	-8679
改善了	-8680
有时候	-8681
灰质炎	-8682
甚至在	-8683
的空间	-8684
的角度	-8685
的选票	-8686
第二轮	-8687
答案是	-8688
菲尔德	-8689
萨科奇	-8690
解放军	-8691
讲话中	-8692
贫困线	-8693
选民们	-8694
全球气候	-8695
公共支出	-8696
各种各样	-8697
哈佛大学	-8698
外交关系	-8699
就意味着	-8700
政治家们	-8701
更广泛的	-8702
现代化的	-8703
能源价格	-8704
过度负债	-8705
▁2003	-8706
大西洋两岸	-8707
必不可少的	-8708
的主要原因	-8709
的经济衰退	-8710
穆斯林世界	-8711
脊髓灰质炎	-8712
国民生产总值	-8713
ph	-8714
▁下	-8715
三次	-8716
之不	-8717
于衷	-8718
克罗	-8719
博客	-8720
占总	-8721
去世	-8722
基文	-8723
大卫	-8724
将以	-8725
开战	-8726
引领	-8727
掩饰	-8728
泛滥	-8729
流通	-8730
结成	-8731
绝不	-8732
范例	-8733
蒙特	-8734
薄弱	-8735
诽谤	-8736
遗留	-8737
重返	-8738
金属	-8739
1%,	-8740
”、“	-8741
▁如何	-8742
▁贸易	-8743
他们就	-8744
似乎在	-8745
分析师	-8746
动于衷	-8747
又一个	-8748
可贸易	-8749
后者的	-8750
和收入	-8751
它们是	-8752
就业率	-8753
年后的	-8754
应该将	-8755
我们也	-8756
所说的	-8757
所需要	-8758
显著的	-8759
更有效	-8760
曼德拉	-8761
最基本	-8762
潘基文	-8763
状况的	-8764
的一位	-8765
的一步	-8766
的冲击	-8767
的模式	-8768
的管理	-8769
的话说	-8770
的边缘	-8771
的障碍	-8772
规定的	-8773
这个词	-8774
金融和	-8775
降低到	-8776
Mich	-8777
▁但即使	-8778
▁如果不	-8779
▁有些人	-8780
伊拉克人	-8781
做出反应	-8782
公共财政	-8783
分崩离析	-8784
厄瓜多尔	-8785
可以提供	-8786
周年纪念	-8787
大多数人	-8788
就是如此	-8789
必须得到	-8790
意义上的	-8791
普通民众	-8792
没有得到	-8793
的世界中	-8794
的候选人	-8795
的叙利亚	-8796
银行联盟	-8797
▁在经历了	-8798
令人瞩目的	-8799
国际社会的	-8800
弗拉基米尔	-8801
欧洲和美国	-8802
社会和政治	-8803
劳动力市场的	-8804
stitute	-8805
▁&#160;&#160;&	-8806
Je	-8807
Tw	-8808
▁非	-8809
上面	-8810
主意	-8811
乔夫	-8812
任由	-8813
佩克	-8814
健全	-8815
偿债	-8816
克森	-8817
军力	-8818
只需	-8819
可言	-8820
同步	-8821
和他	-8822
品质	-8823
多万	-8824
太少	-8825
奖金	-8826
它对	-8827
家人	-8828
家的	-8829
年末	-8830
普世	-8831
最坏	-8832
本能	-8833
朴槿	-8834
混淆	-8835
演化	-8836
玉米	-8837
米兰	-8838
翻番	-8839
脂肪	-8840
要说	-8841
贝鲁	-8842
迁移	-8843
降到	-8844
隐性	-8845
顾虑	-8846
驱使	-8847
ass	-8848
▁Le	-8849
▁两国	-8850
▁没人	-8851
▁长期	-8852
专家们	-8853
主要由	-8854
也非常	-8855
亚投行	-8856
人心的	-8857
全球的	-8858
制造了	-8859
加起来	-8860
发生后	-8861
可能被	-8862
合法化	-8863
和增长	-8864
对英国	-8865
常见的	-8866
很少有	-8867
必须要	-8868
承担起	-8869
普拉斯	-8870
朴槿惠	-8871
生育率	-8872
的结论	-8873
知识和	-8874
第三次	-8875
而在于	-8876
能产生	-8877
超出了	-8878
迈克尔	-8879
也有助于	-8880
只有一个	-8881
可能带来	-8882
我们知道	-8883
比较优势	-8884
的全球性	-8885
的大多数	-8886
的时候了	-8887
种族隔离	-8888
自然灾害	-8889
认真对待	-8890
▁如果没有	-8891
付出的代价	-8892
提出了一个	-8893
梅德韦杰夫	-8894
欧盟领导人	-8895
解决问题的	-8896
世界经济论坛	-8897
所面临的挑战	-8898
European	-8899
AA	-8900
上学	-8901
上风	-8902
会是	-8903
充其	-8904
公然	-8905
其后	-8906
冒着	-8907
冰川	-8908
冷漠	-8909
利于	-8910
和中	-8911
囤积	-8912
大门	-8913
太空	-8914
安慰	-8915
定律	-8916
封锁	-8917
尽力	-8918
常见	-8919
总共	-8920
恐吓	-8921
拥护	-8922
教堂	-8923
无知	-8924
既有	-8925
格里	-8926
殆尽	-8927
法定	-8928
法的	-8929
流感	-8930
渺茫	-8931
的好	-8932
秋天	-8933
穿越	-8934
而代	-8935
获利	-8936
蒙蒂	-8937
言辞	-8938
说辞	-8939
防范	-8940
零和	-8941
▁2%	-8942
▁25	-8943
▁为此	-8944
▁他在	-8945
▁包括	-8946
▁这在	-8947
上加霜	-8948
亚马逊	-8949
促成了	-8950
债务人	-8951
关键的	-8952
加勒比	-8953
可能让	-8954
将无法	-8955
将这一	-8956
怎么做	-8957
情报局	-8958
戈尔巴	-8959
打破了	-8960
承诺要	-8961
爆发的	-8962
现实中	-8963
生命的	-8964
的学生	-8965
社会和	-8966
竞争者	-8967
简单地	-8968
这不是	-8969
里程碑	-8970
预算的	-8971
不复存在	-8972
令人沮丧	-8973
卡斯特罗	-8974
受到威胁	-8975
各不相同	-8976
在这样的	-8977
对俄罗斯	-8978
并不令人	-8979
必须通过	-8980
抗议活动	-8981
拉美国家	-8982
政府可以	-8983
整个地区	-8984
无动于衷	-8985
无论如何	-8986
更进一步	-8987
有意义的	-8988
甚至可以	-8989
这些因素	-8990
这些目标	-8991
重要性的	-8992
5,000	-8993
伊斯坦布尔	-8994
和巴基斯坦	-8995
欧洲央行的	-8996
的外交政策	-8997
National	-8998
亨利	-8999
人听	-9000
仪式	-9001
在眉	-9002
坚实	-9003
多于	-9004
多人	-9005
失调	-9006
委托	-9007
峰值	-9008
德克	-9009
摄氏	-9010
本已	-9011
枯竭	-9012
残暴	-9013
沙漠	-9014
没错	-9015
测算	-9016
甚微	-9017
电池	-9018
的受	-9019
禁运	-9020
罪名	-9021
被杀	-9022
裁定	-9023
触及	-9024
请求	-9025
谈话	-9026
谋求	-9027
赚取	-9028
近来	-9029
选出	-9030
钓鱼	-9031
随处	-9032
预先	-9033
HIV	-9034
ica	-9035
res	-9036
▁传统	-9037
▁而当	-9038
▁该国	-9039
▁这类	-9040
众多的	-9041
但是它	-9042
包含了	-9043
和家庭	-9044
和资本	-9045
在眉睫	-9046
奥斯曼	-9047
必须与	-9048
手中的	-9049
措施的	-9050
最多的	-9051
有利的	-9052
极高的	-9053
生产国	-9054
的对手	-9055
的言论	-9056
的转变	-9057
约瑟夫	-9058
能够以	-9059
资本和	-9060
达尔富	-9061
达尔文	-9062
道导弹	-9063
集团的	-9064
中的一个	-9065
几十年中	-9066
国民收入	-9067
国际金融	-9068
小儿麻痹	-9069
武装冲突	-9070
没有理由	-9071
财政整合	-9072
迫在眉睫	-9073
雪上加霜	-9074
印度尼西亚	-9075
戈尔巴乔夫	-9076
房地产市场	-9077
新兴市场的	-9078
外国直接投资	-9079
EA	-9080
TT	-9081
▁同	-9082
不力	-9083
也很	-9084
亏损	-9085
亚历	-9086
优质	-9087
伦齐	-9088
出去	-9089
勉强	-9090
国企	-9091
多名	-9092
女权	-9093
学派	-9094
定向	-9095
巧妙	-9096
并使	-9097
幸存	-9098
感谢	-9099
接入	-9100
文学	-9101
无异	-9102
既是	-9103
是为	-9104
服从	-9105
泰勒	-9106
终身	-9107
额的	-9108
ect	-9109
▁re	-9110
▁有关	-9111
▁针对	-9112
上一次	-9113
卡尔德	-9114
合法的	-9115
和保护	-9116
和军事	-9117
实现其	-9118
实际的	-9119
对世界	-9120
将如何	-9121
并确保	-9122
应该为	-9123
必须以	-9124
托马斯	-9125
昂贵的	-9126
服务于	-9127
极少数	-9128
植根于	-9129
民众对	-9130
治下的	-9131
的份额	-9132
的发生	-9133
而受到	-9134
让世界	-9135
辅之以	-9136
▁197	-9137
▁一些人	-9138
▁类似的	-9139
原因在于	-9140
在最近的	-9141
在此期间	-9142
工资增长	-9143
市场力量	-9144
政治上的	-9145
是否真的	-9146
更多的人	-9147
某些国家	-9148
欧元债券	-9149
这种方式	-9150
金融改革	-9151
▁长期以来	-9152
和世界银行	-9153
美国和英国	-9154
解决的问题	-9155
tr	-9156
▁n	-9157
一张	-9158
不合	-9159
人人	-9160
倒塌	-9161
党内	-9162
加索	-9163
参选	-9164
变动	-9165
同僚	-9166
咖啡	-9167
回来	-9168
士顿	-9169
处境	-9170
处的	-9171
大声	-9172
奴隶	-9173
年均	-9174
归属	-9175
得太	-9176
德黑	-9177
手无	-9178
据此	-9179
无不	-9180
最不	-9181
治下	-9182
生长	-9183
省份	-9184
罗塞	-9185
花旗	-9186
荣誉	-9187
莱坞	-9188
蔑视	-9189
调停	-9190
预想	-9191
鸿沟	-9192
ary	-9193
▁10	-9194
▁3%	-9195
▁出于	-9196
▁现代	-9197
低通胀	-9198
充其量	-9199
具体的	-9200
冲突和	-9201
分析家	-9202
创新性	-9203
剩下的	-9204
加利亚	-9205
取消了	-9206
国内外	-9207
开始时	-9208
患者的	-9209
情形中	-9210
成本和	-9211
抑郁症	-9212
方面都	-9213
最终会	-9214
有没有	-9215
波士顿	-9216
波斯湾	-9217
消费税	-9218
理由是	-9219
的财富	-9220
着一个	-9221
给美国	-9222
肯定的	-9223
肺结核	-9224
首先是	-9225
orld	-9226
▁Pol	-9227
▁第三个	-9228
▁这不是	-9229
▁这需要	-9230
一带一路	-9231
世界秩序	-9232
中的作用	-9233
亚太地区	-9234
债务水平	-9235
将不得不	-9236
应该成为	-9237
很难想象	-9238
欧洲各国	-9239
的支持下	-9240
这是因为	-9241
遗憾的是	-9242
齐普拉斯	-9243
他们自己的	-9244
叙利亚内战	-9245
的经济复苏	-9246
▁这就是为什么	-9247
新兴市场经济体	-9248
36	-9249
▁各	-9250
▁后	-9251
▁美	-9252
一笔	-9253
上下	-9254
不啻	-9255
人体	-9256
伪善	-9257
位居	-9258
僵化	-9259
先锋	-9260
克格	-9261
典范	-9262
初始	-9263
前瞻	-9264
华沙	-9265
反腐	-9266
四倍	-9267
宪政	-9268
尽量	-9269
幽灵	-9270
库存	-9271
延缓	-9272
延迟	-9273
护理	-9274
时常	-9275
末日	-9276
热烈	-9277
球员	-9278
相近	-9279
私下	-9280
筛查	-9281
罹患	-9282
肺炎	-9283
血液	-9284
讲述	-9285
迎合	-9286
里约	-9287
铭记	-9288
齐心	-9289
ald	-9290
ood	-9291
▁11	-9292
▁Ag	-9293
▁主要	-9294
▁仅仅	-9295
一百万	-9296
不作为	-9297
不具备	-9298
为首的	-9299
主导的	-9300
也并不	-9301
亚洲和	-9302
克格勃	-9303
公司在	-9304
剥夺了	-9305
发布的	-9306
合理性	-9307
在西方	-9308
埃及和	-9309
失去的	-9310
她们的	-9311
德黑兰	-9312
扩大到	-9313
技术上	-9314
控制了	-9315
数字化	-9316
暴露了	-9317
欧佩克	-9318
法兰克	-9319
的范围	-9320
看作是	-9321
约翰逊	-9322
还不够	-9323
还要多	-9324
远高于	-9325
不足为奇	-9326
候选人的	-9327
共和国的	-9328
土耳其和	-9329
如果他们	-9330
或许可以	-9331
无处不在	-9332
有利可图	-9333
武装力量	-9334
气候政策	-9335
独裁政权	-9336
独裁统治	-9337
白俄罗斯	-9338
美元贬值	-9339
能源效率	-9340
这一进程	-9341
非洲大陆	-9342
▁发自伦敦	-9343
根深蒂固的	-9344
的经济危机	-9345
美国和其他	-9346
世界贸易组织	-9347
跨太平洋合作伙伴关系	-9348
af	-9349
一面	-9350
也正	-9351
南北	-9352
占比	-9353
含量	-9354
呼吸	-9355
大部	-9356
宽带	-9357
巨量	-9358
建制	-9359
归结	-9360
志愿	-9361
悲惨	-9362
抉择	-9363
敢于	-9364
替换	-9365
流亡	-9366
渔业	-9367
澄清	-9368
理智	-9369
疏远	-9370
维系	-9371
老板	-9372
自卫	-9373
苦苦	-9374
行之	-9375
赖以	-9376
错的	-9377
颇有	-9378
高峰	-9379
黑客	-9380
Jam	-9381
lan	-9382
ork	-9383
▁值得	-9384
▁剑桥	-9385
▁危机	-9386
东道国	-9387
举行了	-9388
交易的	-9389
凸显了	-9390
出一个	-9391
和自由	-9392
增值税	-9393
夜之间	-9394
大衰退	-9395
将达到	-9396
引入了	-9397
投票权	-9398
摧毁了	-9399
日本在	-9400
欧盟在	-9401
游击队	-9402
的政权	-9403
的还有	-9404
硬着陆	-9405
绝不会	-9406
能力和	-9407
致命的	-9408
苏联的	-9409
集中于	-9410
1982	-9411
avid	-9412
orge	-9413
▁Res	-9414
之处在于	-9415
他们应该	-9416
令人印象	-9417
令人难以	-9418
医疗卫生	-9419
在短期内	-9420
大幅削减	-9421
将是一个	-9422
我们正在	-9423
正好相反	-9424
破坏性的	-9425
种族主义	-9426
还有一个	-9427
集体行动	-9428
高级官员	-9429
▁如果中国	-9430
不断增长的	-9431
以色列总理	-9432
原子能机构	-9433
成百上千万	-9434
某种形式的	-9435
特朗普政府	-9436
意大利和西班牙	-9437
非常规货币政策	-9438
BR	-9439
ue	-9440
▁v	-9441
不无	-9442
主办	-9443
之手	-9444
也已	-9445
侵害	-9446
保密	-9447
六个	-9448
加工	-9449
压低	-9450
同行	-9451
名叫	-9452
四大	-9453
图景	-9454
在为	-9455
塞拉	-9456
天安	-9457
定在	-9458
尼尔	-9459
巴罗	-9460
市政	-9461
彰显	-9462
影片	-9463
挤兑	-9464
捐款	-9465
是无	-9466
月中	-9467
核子	-9468
相去	-9469
神秘	-9470
科斯	-9471
罚款	-9472
者在	-9473
视频	-9474
赤裸	-9475
退化	-9476
金斯	-9477
钞票	-9478
鼓动	-9479
NCD	-9480
ack	-9481
ark	-9482
ice	-9483
▁需要	-9484
乳腺癌	-9485
了一半	-9486
人听闻	-9487
出口商	-9488
发动了	-9489
取而代	-9490
可以以	-9491
可行性	-9492
对其他	-9493
年来的	-9494
心脏病	-9495
必需的	-9496
推翻了	-9497
教训是	-9498
新一代	-9499
旅游业	-9500
是一次	-9501
的中心	-9502
的对话	-9503
相关性	-9504
而这种	-9505
舞台上	-9506
解决的	-9507
这不仅	-9508
那里的	-9509
马歇尔	-9510
▁但欧洲	-9511
▁没有人	-9512
对他们的	-9513
很长时间	-9514
拒绝承认	-9515
的增长率	-9516
研究中心	-9517
继续下去	-9518
美国及其	-9519
而不能倒	-9520
英国政府	-9521
贸易谈判	-9522
长久以来	-9523
,2013	-9524
▁如果他们	-9525
企业家精神	-9526
多大程度上	-9527
扮演的角色	-9528
的问题在于	-9529
,3	-9530
44	-9531
sk	-9532
▁h	-9533
一股	-9534
丈夫	-9535
中介	-9536
中叶	-9537
偏远	-9538
关门	-9539
兴亚	-9540
到处	-9541
压抑	-9542
回了	-9543
国土	-9544
在我	-9545
地在	-9546
夸大	-9547
希尔	-9548
并与	-9549
愉快	-9550
携手	-9551
攫取	-9552
改良	-9553
是被	-9554
普尔	-9555
服装	-9556
浮现	-9557
燃煤	-9558
的近	-9559
者是	-9560
耶伦	-9561
能给	-9562
节奏	-9563
议案	-9564
说话	-9565
身边	-9566
连贯	-9567
迪拜	-9568
7%。	-9569
Jos	-9570
eal	-9571
ond	-9572
▁更为	-9573
为一个	-9574
例子中	-9575
再融资	-9576
几年的	-9577
十年后	-9578
历史性	-9579
发现的	-9580
它们对	-9581
小规模	-9582
局限性	-9583
希腊和	-9584
帮助下	-9585
必须将	-9586
最后一	-9587
条约的	-9588
来支持	-9589
演变成	-9590
甚至比	-9591
的健康	-9592
的对象	-9593
的极端	-9594
的革命	-9595
等其他	-9596
经通胀	-9597
罗兴亚	-9598
蛋白质	-9599
被允许	-9600
认为这	-9601
还可能	-9602
通胀的	-9603
铀浓缩	-9604
错误地	-9605
阿尔巴	-9606
1981	-9607
arry	-9608
▁但事实	-9609
也不应该	-9610
以及美国	-9611
全球市场	-9612
取而代之	-9613
国际机构	-9614
我们不能	-9615
的投资者	-9616
科学家们	-9617
贸易壁垒	-9618
降低利率	-9619
不平等性的	-9620
主要经济体	-9621
入侵伊拉克	-9622
已经发生了	-9623
Global	-9624
▁沙特阿拉伯	-9625
第二次世界大战	-9626
38	-9627
iz	-9628
上而	-9629
下行	-9630
之多	-9631
之年	-9632
之旅	-9633
会说	-9634
利斯	-9635
卓越	-9636
印刷	-9637
原料	-9638
可危	-9639
可用	-9640
多米	-9641
大获	-9642
宣誓	-9643
岌岌	-9644
废墟	-9645
开了	-9646
异见	-9647
引向	-9648
战役	-9649
收拾	-9650
是从	-9651
景象	-9652
曾说	-9653
次贷	-9654
没完	-9655
沿着	-9656
波及	-9657
注资	-9658
洞见	-9659
电信	-9660
的纳	-9661
相符	-9662
粒子	-9663
维基	-9664
维夫	-9665
缩水	-9666
罗夫	-9667
罗格	-9668
螺旋	-9669
贫富	-9670
赫特	-9671
跻身	-9672
金氏	-9673
飞行	-9674
马丁	-9675
鹰派	-9676
ree	-9677
▁现实	-9678
▁货币	-9679
▁这对	-9680
一定的	-9681
为世界	-9682
为核心	-9683
主权的	-9684
也十分	-9685
五年前	-9686
军队的	-9687
创始人	-9688
制度和	-9689
原则上	-9690
可信的	-9691
否决权	-9692
和实施	-9693
和未来	-9694
坚定的	-9695
如今的	-9696
威胁要	-9697
实行的	-9698
宣布了	-9699
将产生	-9700
将会在	-9701
将增加	-9702
差不多	-9703
必要性	-9704
思想的	-9705
承担了	-9706
潜力的	-9707
生产和	-9708
的大选	-9709
的消息	-9710
的袭击	-9711
的身份	-9712
竞争的	-9713
等方面	-9714
而且在	-9715
说服力	-9716
财富的	-9717
▁黎巴嫩	-9718
也不例外	-9719
了他们的	-9720
保加利亚	-9721
出口导向	-9722
名义利率	-9723
宪法法院	-9724
岌岌可危	-9725
引人注目	-9726
技术创新	-9727
更有效的	-9728
更深层次	-9729
武装分子	-9730
环境保护	-9731
经济制裁	-9732
统计数据	-9733
能源安全	-9734
贸易协议	-9735
这些挑战	-9736
重大影响	-9737
ative	-9738
▁2004	-9739
民主国家的	-9740
民粹主义的	-9741
的一个重要	-9742
的人道主义	-9743
经济增长率	-9744
阿尔巴尼亚	-9745
阿萨德政权	-9746
和发展中国家	-9747
▁从这个角度讲	-9748
▁Economic	-9749
48	-9750
BM	-9751
DA	-9752
PA	-9753
▁仅	-9754
▁受	-9755
▁西	-9756
一战	-9757
中断	-9758
余额	-9759
修补	-9760
光靠	-9761
冰岛	-9762
凌驾	-9763
几千	-9764
利的	-9765
加重	-9766
动议	-9767
反馈	-9768
和在	-9769
增量	-9770
夫妇	-9771
奥塞	-9772
她在	-9773
或多	-9774
打消	-9775
斯堪	-9776
斯托	-9777
最优	-9778
服用	-9779
泄漏	-9780
深感	-9781
添加	-9782
滑向	-9783
现场	-9784
空白	-9785
表决	-9786
规律	-9787
许诺	-9788
诊所	-9789
践踏	-9790
轴心	-9791
连串	-9792
遗忘	-9793
那次	-9794
部族	-9795
里达	-9796
重于	-9797
隐瞒	-9798
霍尔	-9799
马利	-9800
鸦片	-9801
▁两个	-9802
也不再	-9803
低技能	-9804
公正的	-9805
去监管	-9806
发言权	-9807
呈现出	-9808
和法国	-9809
地区和	-9810
就一直	-9811
平衡的	-9812
年期间	-9813
建筑业	-9814
开启了	-9815
引出了	-9816
很长的	-9817
我们要	-9818
战争和	-9819
报告中	-9820
指出了	-9821
政党的	-9822
是一件	-9823
机制的	-9824
欧洲在	-9825
的人物	-9826
的进程	-9827
知识的	-9828
第一位	-9829
维持了	-9830
美国与	-9831
能够为	-9832
能得到	-9833
这正是	-9834
▁但是在	-9835
▁欧盟的	-9836
不仅限于	-9837
了这一点	-9838
其领导人	-9839
国际秩序	-9840
国际组织	-9841
多个国家	-9842
宗教信仰	-9843
实现这一	-9844
实质性的	-9845
年代中期	-9846
想象一下	-9847
所引发的	-9848
援助计划	-9849
斯洛伐克	-9850
日本银行	-9851
波罗的海	-9852
流动性的	-9853
消费支出	-9854
特拉维夫	-9855
的共和党	-9856
的前提下	-9857
的成员国	-9858
的目标是	-9859
约束力的	-9860
纽约时报	-9861
重新思考	-9862
长期停滞	-9863
领导地位	-9864
,2015	-9865
中东地区的	-9866
主要是因为	-9867
会发生什么	-9868
发展中世界	-9869
实现这一点	-9870
美国和中国	-9871
一只	-9872
不敢	-9873
他还	-9874
仲裁	-9875
侮辱	-9876
倾斜	-9877
先发	-9878
公认	-9879
几位	-9880
刚果	-9881
南极	-9882
又会	-9883
可比	-9884
女人	-9885
截至	-9886
新药	-9887
明天	-9888
本周	-9889
杀手	-9890
枢纽	-9891
油气	-9892
特的	-9893
离岸	-9894
空军	-9895
管齐	-9896
篮子	-9897
超额	-9898
过往	-9899
过热	-9900
降临	-9901
革新	-9902
顾客	-9903
额度	-9904
高官	-9905
ath	-9906
ian	-9907
一个由	-9908
与其说	-9909
了一条	-9910
了我们	-9911
你可以	-9912
充足的	-9913
凌驾于	-9914
参与率	-9915
只是在	-9916
基辛格	-9917
宏大的	-9918
战略的	-9919
政府所	-9920
教科书	-9921
来维持	-9922
理查德	-9923
的就业	-9924
的成员	-9925
的日子	-9926
的机制	-9927
的真实	-9928
究竟是	-9929
管理层	-9930
经历过	-9931
罗塞夫	-9932
罗格夫	-9933
而且还	-9934
被忽视	-9935
让欧洲	-9936
设计的	-9937
资源和	-9938
轻易地	-9939
还为时	-9940
问题时	-9941
25%。	-9942
▁投资者	-9943
▁纽黑文	-9944
▁而尽管	-9945
一切代价	-9946
不良贷款	-9947
世卫组织	-9948
人口增长	-9949
俄罗斯在	-9950
军事政变	-9951
利益相关	-9952
可以帮助	-9953
家庭收入	-9954
巴黎协定	-9955
接下来的	-9956
更多的钱	-9957
的国家的	-9958
紧张关系	-9959
解决之道	-9960
议会选举	-9961
重新谈判	-9962
阿卜杜拉	-9963
▁布什政府	-9964
小儿麻痹症	-9965
法国和德国	-9966
的财政政策	-9967
美国和欧盟	-9968
创造就业机会	-9969
▁果真如此的话	-9970
,9	-9971
IA	-9972
KP	-9973
çš	-9974
万个	-9975
不快	-9976
不禁	-9977
不计	-9978
世人	-9979
之门	-9980
乘数	-9981
书籍	-9982
二次	-9983
他也	-9984
伊始	-9985
伊布	-9986
伎俩	-9987
体重	-9988
偶然	-9989
划定	-9990
列宁	-9991
初期	-9992
利差	-9993
参考	-9994
发病	-9995
只在	-9996
可怜	-9997
坚守	-9998
复燃	-9999
好转	-10000
宁愿	-10001
宏大	-10002
少年	-10003
当权	-10004
总数	-10005
所要	-10006
掣肘	-10007
收取	-10008
数年	-10009
权势	-10010
格林	-10011
热门	-10012
男人	-10013
略微	-10014
盯住	-10015
突变	-10016
节能	-10017
观看	-10018
论据	-10019
象棋	-10020
起初	-10021
通用	-10022
重现	-10023
闻名	-10024
预警	-10025
Ben	-10026
▁也有	-10027
▁北约	-10028
▁另一	-10029
▁认为	-10030
丧失了	-10031
中得到	-10032
农产品	-10033
因素的	-10034
国防部	-10035
大体上	-10036
失败了	-10037
年全球	-10038
并导致	-10039
很显然	-10040
思想家	-10041
所产生	-10042
明确地	-10043
有一点	-10044
朝鲜的	-10045
核设施	-10046
犯下的	-10047
的人才	-10048
的信念	-10049
的妇女	-10050
的年轻	-10051
的盟友	-10052
相矛盾	-10053
等领域	-10054
观点的	-10055
解决了	-10056
讨论的	-10057
赤裸裸	-10058
过时的	-10059
迈出了	-10060
通常会	-10061
道理的	-10062
都表明	-10063
附加值	-10064
难民营	-10065
20%,	-10066
▁而如今	-10067
▁阿根廷	-10068
仍然没有	-10069
似乎正在	-10070
发生变化	-10071
可预见的	-10072
国内经济	-10073
多边主义	-10074
大经济体	-10075
怀疑态度	-10076
成为全球	-10077
效率低下	-10078
有所增加	-10079
欧盟宪法	-10080
特朗普在	-10081
社会民主	-10082
而是因为	-10083
贸易顺差	-10084
资本外逃	-10085
达尔富尔	-10086
金融企业	-10087
领导人们	-10088
,2011	-10089
3,000	-10090
▁正因如此	-10091
▁这是因为	-10092
所说的那样	-10093
提高生产率	-10094
的新兴市场	-10095
这个国家的	-10096
世界其他地方	-10097
伊斯兰主义者	-10098
Twitter	-10099
75	-10100
三角	-10101
下属	-10102
事后	-10103
伊尔	-10104
但不	-10105
低廉	-10106
偏执	-10107
再到	-10108
军人	-10109
出身	-10110
区区	-10111
古典	-10112
史蒂	-10113
向来	-10114
吸纳	-10115
基点	-10116
复国	-10117
实证	-10118
布托	-10119
带给	-10120
强权	-10121
惨重	-10122
折扣	-10123
捕捉	-10124
推测	-10125
搁置	-10126
摇摇	-10127
斯克	-10128
有待	-10129
激情	-10130
特性	-10131
犯下	-10132
男子	-10133
而有	-10134
而未	-10135
蚊子	-10136
被动	-10137
要高	-10138
转化	-10139
这座	-10140
透露	-10141
高兴	-10142
高盛	-10143
ael	-10144
anc	-10145
one	-10146
▁un	-10147
▁每年	-10148
▁沙特	-10149
▁美元	-10150
不同意	-10151
严厉的	-10152
中国海	-10153
为欧洲	-10154
亿人口	-10155
从现在	-10156
他们都	-10157
以支持	-10158
任期内	-10159
停留在	-10160
包括对	-10161
危机和	-10162
发表的	-10163
在危机	-10164
增强了	-10165
大使馆	-10166
某些人	-10167
核国家	-10168
的名字	-10169
的命运	-10170
的基因	-10171
的声音	-10172
的大型	-10173
的消费	-10174
的美元	-10175
的话题	-10176
缺陷的	-10177
自民党	-10178
至今日	-10179
资本的	-10180
这可能	-10181
风险和	-10182
食品和	-10183
30%。	-10184
reen	-10185
▁同样地	-10186
▁在这里	-10187
▁美国在	-10188
▁这对于	-10189
任何国家	-10190
佛罗里达	-10191
包括美国	-10192
变得日益	-10193
合作组织	-10194
和他们的	-10195
因为美国	-10196
固定汇率	-10197
已经证明	-10198
弹道导弹	-10199
更加难以	-10200
核武器的	-10201
没完没了	-10202
生活质量	-10203
相互依存	-10204
艾哈迈迪	-10205
这一政策	-10206
金融监管	-10207
长期增长	-10208
▁但是如果	-10209
▁总体而言	-10210
社会民主党	-10211
经济增长和	-10212
自己的国家	-10213
George	-10214
欧洲货币联盟	-10215
越来越多的人	-10216
39	-10217
lo	-10218
▁̄	-10219
▁人	-10220
东海	-10221
以内	-10222
借鉴	-10223
入狱	-10224
出任	-10225
出租	-10226
利昂	-10227
剧变	-10228
力地	-10229
加斯	-10230
卢卡	-10231
反犹	-10232
向下	-10233
处决	-10234
大楼	-10235
带头	-10236
景气	-10237
更别	-10238
欲坠	-10239
演变	-10240
累计	-10241
考量	-10242
耗资	-10243
肿瘤	-10244
自满	-10245
茶党	-10246
莫拉	-10247
营商	-10248
被判	-10249
论断	-10250
赌博	-10251
走了	-10252
连锁	-10253
重负	-10254
验证	-10255
ina	-10256
▁4%	-10257
▁到了	-10258
一小撮	-10259
不会在	-10260
也只能	-10261
也随之	-10262
他认为	-10263
伊布勒	-10264
兰克林	-10265
创造力	-10266
加强了	-10267
发出了	-10268
可以是	-10269
国有化	-10270
多大的	-10271
崛起的	-10272
年之前	-10273
很高的	-10274
把这些	-10275
支持下	-10276
数十万	-10277
新常态	-10278
时间和	-10279
比以前	-10280
环境和	-10281
现在就	-10282
的人士	-10283
的孩子	-10284
的改变	-10285
确定的	-10286
结束时	-10287
而感到	-10288
而是在	-10289
西方人	-10290
计划在	-10291
试图将	-10292
还远未	-10293
这两大	-10294
进程的	-10295
都存在	-10296
面对的	-10297
马德里	-10298
able	-10299
▁阿拉伯	-10300
主权国家	-10301
也越来越	-10302
发展趋势	-10303
巴黎气候	-10304
成立一个	-10305
摇摇欲坠	-10306
最高领袖	-10307
朔伊布勒	-10308
特里赫特	-10309
相去甚远	-10310
这一点上	-10311
这种方法	-10312
退休年龄	-10313
通胀预期	-10314
都有可能	-10315
David	-10316
▁近几年来	-10317
基础设施和	-10318
大部分国家	-10319
的巴勒斯坦	-10320
美国国务卿	-10321
的经济和政治	-10322
讽刺意味的是	-10323
马斯特里赫特	-10324
UN	-10325
不公	-10326
不成	-10327
不时	-10328
乎其	-10329
买家	-10330
亲眼	-10331
优点	-10332
侨民	-10333
便已	-10334
克莱	-10335
军费	-10336
列强	-10337
则会	-10338
助推	-10339
卢比	-10340
原有	-10341
又在	-10342
叫做	-10343
名言	-10344
四分	-10345
堕落	-10346
好比	-10347
尔顿	-10348
平常	-10349
强人	-10350
微小	-10351
恰好	-10352
托斯	-10353
振兴	-10354
提倡	-10355
教义	-10356
旧的	-10357
最早	-10358
步入	-10359
男孩	-10360
磋商	-10361
禁忌	-10362
而来	-10363
胚胎	-10364
自称	-10365
营销	-10366
薄熙	-10367
虚弱	-10368
赶上	-10369
跟进	-10370
还未	-10371
逃脱	-10372
重获	-10373
闹剧	-10374
集会	-10375
霸主	-10376
骗局	-10377
骚扰	-10378
▁9%	-10379
▁放眼	-10380
一揽子	-10381
也并非	-10382
了中国	-10383
低下的	-10384
利益和	-10385
和医疗	-10386
和控制	-10387
和治疗	-10388
困扰着	-10389
基础的	-10390
将受到	-10391
性行为	-10392
恢复了	-10393
想起了	-10394
我们会	-10395
手段来	-10396
执行的	-10397
掩盖了	-10398
既没有	-10399
是他们	-10400
最需要	-10401
有任何	-10402
柏林墙	-10403
格拉斯	-10404
每一次	-10405
永远是	-10406
的平均	-10407
的攻击	-10408
的运动	-10409
签署的	-10410
结束的	-10411
要求在	-10412
观点是	-10413
认为的	-10414
超越了	-10415
这对于	-10416
领导下	-10417
1968	-10418
50%,	-10419
▁其中的	-10420
▁阿富汗	-10421
什么时候	-10422
关键问题	-10423
国内消费	-10424
外国投资	-10425
大幅提高	-10426
它们可以	-10427
对冲基金	-10428
希腊债务	-10429
收入水平	-10430
整个欧洲	-10431
无法通过	-10432
本国货币	-10433
法兰克福	-10434
现实主义	-10435
研究发现	-10436
经济上的	-10437
美国公司	-10438
美国应该	-10439
这些机构	-10440
▁气候变化	-10441
世界各地的	-10442
之间的冲突	-10443
灾难性后果	-10444
▁这并不是说	-10445
不惜一切代价	-10446
基础设施项目	-10447
应对气候变化	-10448
货币基金组织	-10449
北美自由贸易协定	-10450
PD	-10451
au	-10452
yn	-10453
▁十	-10454
▁小	-10455
一块	-10456
一批	-10457
中全	-10458
为由	-10459
为负	-10460
了他	-10461
仅占	-10462
令其	-10463
保住	-10464
初步	-10465
半叶	-10466
吉拉	-10467
听众	-10468
因其	-10469
地亚	-10470
处置	-10471
快乐	-10472
快于	-10473
惯例	-10474
打着	-10475
抗击	-10476
挤出	-10477
撒钱	-10478
放宽	-10479
新政	-10480
无穷	-10481
枪击	-10482
森堡	-10483
消退	-10484
瓦哈	-10485
看见	-10486
神社	-10487
筹资	-10488
联网	-10489
行径	-10490
话语	-10491
读者	-10492
贯彻	-10493
输入	-10494
迟迟	-10495
陌生	-10496
靠近	-10497
驻扎	-10498
ace	-10499
olf	-10500
▁1%	-10501
▁具有	-10502
▁冷战	-10503
▁我在	-10504
▁眼下	-10505
不亚于	-10506
中受益	-10507
为全球	-10508
主席国	-10509
也不愿	-10510
事件中	-10511
交易所	-10512
产出的	-10513
作为其	-10514
公务员	-10515
取代了	-10516
合作和	-10517
在日本	-10518
如果它	-10519
对政府	-10520
性力量	-10521
手旁观	-10522
才能够	-10523
无疑是	-10524
是基于	-10525
灵活的	-10526
现在是	-10527
的不是	-10528
的医疗	-10529
的宗教	-10530
的贡献	-10531
蔓延到	-10532
融资的	-10533
让经济	-10534
该如何	-10535
该机构	-10536
财富和	-10537
贫困的	-10538
辩论中	-10539
过程的	-10540
遭受了	-10541
非洲和	-10542
eter	-10543
▁一开始	-10544
不难理解	-10545
也出现了	-10546
也面临着	-10547
他们就会	-10548
北欧国家	-10549
发现自己	-10550
可能已经	-10551
和叙利亚	-10552
哪个国家	-10553
外围国家	-10554
安全部队	-10555
将取决于	-10556
工作时间	-10557
市场份额	-10558
承担责任	-10559
投资组合	-10560
最后一个	-10561
犹太人的	-10562
相似之处	-10563
相关利益	-10564
经验表明	-10565
结合起来	-10566
联邦储备	-10567
这一挑战	-10568
领导下的	-10569
齐心协力	-10570
—2008	-10571
▁2016	-10572
▁特朗普的	-10573
从一开始就	-10574
充满活力的	-10575
已经取得了	-10576
清楚地表明	-10577
高收入国家	-10578
欧洲央行行长	-10579
▁Institute	-10580
FS	-10581
GO	-10582
MR	-10583
一周	-10584
一日	-10585
不被	-10586
不见	-10587
不通	-10588
也曾	-10589
也都	-10590
克什	-10591
制于	-10592
前例	-10593
加息	-10594
占到	-10595
卡尼	-10596
和谈	-10597
堕胎	-10598
塞族	-10599
天堂	-10600
夺取	-10601
审计	-10602
审议	-10603
度和	-10604
当成	-10605
忠实	-10606
战线	-10607
挫败	-10608
捕获	-10609
据称	-10610
明的	-10611
智库	-10612
杀虫	-10613
杜罗	-10614
欠缺	-10615
海峡	-10616
游客	-10617
特质	-10618
的钱	-10619
礼物	-10620
纯属	-10621
耶夫	-10622
肆意	-10623
虔诚	-10624
输送	-10625
迷于	-10626
7%,	-10627
75%	-10628
MDG	-10629
erv	-10630
ick	-10631
per	-10632
ven	-10633
▁建立	-10634
▁自由	-10635
下降至	-10636
不相信	-10637
中之重	-10638
为导向	-10639
乎其微	-10640
也不太	-10641
但如今	-10642
使用了	-10643
先发制	-10644
却依然	-10645
地球上	-10646
总体上	-10647
才开始	-10648
拥有了	-10649
指挥官	-10650
支持了	-10651
无前例	-10652
显示了	-10653
更强的	-10654
最初的	-10655
有多大	-10656
有用的	-10657
来帮助	-10658
泰米尔	-10659
的两个	-10660
的具体	-10661
的大学	-10662
的网络	-10663
的腐败	-10664
罗纳德	-10665
而易举	-10666
计划和	-10667
进行过	-10668
遭遇了	-10669
饮用水	-10670
高技能	-10671
▁但由于	-10672
▁克林顿	-10673
▁看起来	-10674
▁而这些	-10675
令人鼓舞	-10676
十分困难	-10677
和墨西哥	-10678
大不相同	-10679
实际上是	-10680
实际利率	-10681
寻求庇护	-10682
建设性的	-10683
微乎其微	-10684
必不可少	-10685
总统竞选	-10686
提供一个	-10687
每个国家	-10688
溢出效应	-10689
纳税人的	-10690
贫困国家	-10691
资本要求	-10692
轻而易举	-10693
这种做法	-10694
重新分配	-10695
金融资产	-10696
高速公路	-10697
,2010	-10698
▁迄今为止	-10699
▁这个问题	-10700
万亿美元的	-10701
已经过去了	-10702
▁欧盟委员会	-10703
以色列和巴勒斯坦	-10704
▁%	-10705
不让	-10706
五裂	-10707
亚当	-10708
作俑	-10709
作风	-10710
俱增	-10711
倘若	-10712
共担	-10713
划分	-10714
博士	-10715
原先	-10716
向其	-10717
回国	-10718
复仇	-10719
大坝	-10720
大谈	-10721
失踪	-10722
子里	-10723
巧合	-10724
年会	-10725
并由	-10726
总和	-10727
想让	-10728
战火	-10729
明了	-10730
暴涨	-10731
更糟	-10732
枪支	-10733
滋生	-10734
潜能	-10735
申根	-10736
监视	-10737
税务	-10738
绕过	-10739
薪水	-10740
贫民	-10741
轻微	-10742
运气	-10743
迷失	-10744
频率	-10745
鱼类	-10746
默许	-10747
黯淡	-10748
350	-10749
age	-10750
ail	-10751
▁一项	-10752
▁它还	-10753
一国的	-10754
不一定	-10755
两年前	-10756
中东欧	-10757
以失败	-10758
伙伴国	-10759
但现在	-10760
催化剂	-10761
其政治	-10762
卢森堡	-10763
变革的	-10764
各自的	-10765
向中国	-10766
告诉我	-10767
和个人	-10768
和西方	-10769
和贸易	-10770
始作俑	-10771
将美国	-10772
强制性	-10773
性问题	-10774
或多或	-10775
拉加德	-10776
数据的	-10777
无条件	-10778
最贫穷	-10779
有组织	-10780
核扩散	-10781
法律的	-10782
的大国	-10783
的群体	-10784
的逻辑	-10785
老年人	-10786
而那些	-10787
还存在	-10788
都非常	-10789
锋相对	-10790
高加索	-10791
TTIP	-10792
▁换言之	-10793
临床试验	-10794
人们认为	-10795
他们已经	-10796
共同货币	-10797
几个世纪	-10798
压力测试	-10799
可持续的	-10800
史无前例	-10801
四分五裂	-10802
国家主权	-10803
对中国的	-10804
对于那些	-10805
应该采取	-10806
弱势群体	-10807
我们这个	-10808
提供帮助	-10809
支出削减	-10810
数据表明	-10811
无所作为	-10812
时至今日	-10813
电动汽车	-10814
的合法性	-10815
的环境中	-10816
这一决定	-10817
远远超过	-10818
▁其他国家	-10819
▁埃尔多安	-10820
叙利亚难民	-10821
亚洲金融危机	-10822
,5	-10823
32	-10824
uk	-10825
▁Z	-10826
不佳	-10827
临界	-10828
也使	-10829
乱象	-10830
他国	-10831
免遭	-10832
公立	-10833
几率	-10834
反击	-10835
取缔	-10836
名声	-10837
商店	-10838
善意	-10839
四处	-10840
回升	-10841
回收	-10842
基辅	-10843
壮大	-10844
多克	-10845
它会	-10846
对该	-10847
就得	-10848
巴林	-10849
平庸	-10850
感受	-10851
扎伊	-10852
新任	-10853
明朗	-10854
是谁	-10855
晓夫	-10856
普罗	-10857
更像	-10858
更迭	-10859
死灰	-10860
气氛	-10861
特使	-10862
用作	-10863
登上	-10864
碎片	-10865
红色	-10866
缺点	-10867
联酋	-10868
能以	-10869
腐蚀	-10870
自私	-10871
落到	-10872
被控	-10873
视作	-10874
课税	-10875
转为	-10876
远程	-10877
连通	-10878
逃税	-10879
都市	-10880
附带	-10881
随意	-10882
面目	-10883
ear	-10884
ish	-10885
下跌了	-10886
不可及	-10887
为中心	-10888
乌拉圭	-10889
从美国	-10890
从而在	-10891
低工资	-10892
儿童的	-10893
军政府	-10894
农作物	-10895
和货币	-10896
在一些	-10897
在今天	-10898
在很多	-10899
央行的	-10900
失业和	-10901
威尔逊	-10902
安全与	-10903
寄希望	-10904
希望在	-10905
希腊人	-10906
并要求	-10907
应该由	-10908
开放的	-10909
总统和	-10910
摄氏度	-10911
日俱增	-10912
是没有	-10913
的一面	-10914
的商品	-10915
的工资	-10916
的成就	-10917
的报道	-10918
的最初	-10919
的疾病	-10920
的系统	-10921
的过度	-10922
的那些	-10923
碳定价	-10924
紧迫性	-10925
通过的	-10926
30%,	-10927
ican	-10928
▁近年来	-10929
之一就是	-10930
了自己的	-10931
做出贡献	-10932
克罗地亚	-10933
八国集团	-10934
关于如何	-10935
创造一个	-10936
可以作为	-10937
团结起来	-10938
大部分人	-10939
完全没有	-10940
富兰克林	-10941
导弹防御	-10942
将注意力	-10943
居高不下	-10944
并不总是	-10945
并不需要	-10946
德克萨斯	-10947
执政期间	-10948
改革计划	-10949
更加复杂	-10950
更有效地	-10951
死灰复燃	-10952
毫无意义	-10953
海湾国家	-10954
税收制度	-10955
联邦基金	-10956
这种观点	-10957
金融交易	-10958
,2014	-10959
▁总而言之	-10960
世界经济的	-10961
中国共产党	-10962
伊斯兰教徒	-10963
伊朗核计划	-10964
发生的事情	-10965
欧元区危机	-10966
加利福尼亚州	-10967
量化宽松政策	-10968
布雷顿森林体系	-10969
随着时间的推移	-10970
34	-10971
Ar	-10972
不入	-10973
乌里	-10974
也从	-10975
但又	-10976
全职	-10977
公园	-10978
共鸣	-10979
前夕	-10980
区间	-10981
发的	-10982
发酵	-10983
含糊	-10984
唯有	-10985
嘲笑	-10986
土著	-10987
天真	-10988
将与	-10989
把钱	-10990
抵挡	-10991
推理	-10992
放贷	-10993
无序	-10994
日报	-10995
显露	-10996
更长	-10997
更难	-10998
期货	-10999
李克	-11000
欢呼	-11001
理工	-11002
直至	-11003
税制	-11004
简化	-11005
纺织	-11006
维利	-11007
置信	-11008
美日	-11009
而生	-11010
聚变	-11011
营利	-11012
觉醒	-11013
说的	-11014
起源	-11015
迈出	-11016
这三	-11017
这会	-11018
逍遥	-11019
除外	-11020
▁债务	-11021
▁唯一	-11022
▁想想	-11023
▁最新	-11024
▁此前	-11025
▁这与	-11026
也因为	-11027
也应当	-11028
了这个	-11029
五年中	-11030
会认为	-11031
保持了	-11032
共同点	-11033
其国内	-11034
减少对	-11035
北部的	-11036
和暴力	-11037
孩子的	-11038
对所有	-11039
对政治	-11040
将他们	-11041
将军们	-11042
当今的	-11043
政客和	-11044
效率的	-11045
无异于	-11046
明智地	-11047
有更多	-11048
来形容	-11049
来确保	-11050
正面临	-11051
的一点	-11052
的举动	-11053
的全部	-11054
的愤怒	-11055
的活动	-11056
的破坏	-11057
的积极	-11058
的高度	-11059
硬实力	-11060
科学的	-11061
繁荣和	-11062
美国所	-11063
而导致	-11064
被要求	-11065
韩国和	-11066
▁凯恩斯	-11067
▁在最近	-11068
一小部分	-11069
亿万富翁	-11070
全球治理	-11071
公私合作	-11072
南中国海	-11073
历史性的	-11074
可能无法	-11075
四分之三	-11076
在华盛顿	-11077
多元化的	-11078
形成一个	-11079
得出结论	-11080
排除在外	-11081
数以百万	-11082
极权主义	-11083
核反应堆	-11084
研究成果	-11085
移动电话	-11086
职业生涯	-11087
袖手旁观	-11088
认为自己	-11089
货币操纵	-11090
赫鲁晓夫	-11091
这一现象	-11092
重点放在	-11093
金融动荡	-11094
领导人在	-11095
,2012	-11096
▁中国政府	-11097
▁几十年来	-11098
世界银行的	-11099
形成了鲜明	-11100
是不可能的	-11101
欧洲理事会	-11102
的政治制度	-11103
预算办公室	-11104
世界上最大的	-11105
作为一个整体	-11106
政策制定者们	-11107
欧盟委员会主席	-11108
)”	-11109
31	-11110
FC	-11111
OP	-11112
▁布	-11113
三十	-11114
不为	-11115
不抵	-11116
业绩	-11117
以其	-11118
写照	-11119
冠军	-11120
出路	-11121
初选	-11122
力更	-11123
反美	-11124
口气	-11125
合乎	-11126
听取	-11127
坦克	-11128
天才	-11129
市值	-11130
带动	-11131
平方	-11132
年就	-11133
并向	-11134
广受	-11135
异议	-11136
忌惮	-11137
扶贫	-11138
投向	-11139
接替	-11140
推断	-11141
推销	-11142
放心	-11143
政见	-11144
救命	-11145
旧金	-11146
极高	-11147
法外	-11148
海域	-11149
清真	-11150
演习	-11151
火车	-11152
灵魂	-11153
熟练	-11154
现存	-11155
眼里	-11156
祸首	-11157
笔者	-11158
米洛	-11159
累进	-11160
良多	-11161
西非	-11162
要走	-11163
角落	-11164
赞美	-11165
路易	-11166
轮值	-11167
这点	-11168
这部	-11169
违法	-11170
那摩	-11171
重心	-11172
高中	-11173
AKP	-11174
ARC	-11175
amm	-11176
cil	-11177
ith	-11178
red	-11179
umm	-11180
▁投资	-11181
▁整个	-11182
▁而是	-11183
一代人	-11184
中国将	-11185
事务的	-11186
价值链	-11187
促进了	-11188
保守的	-11189
保护的	-11190
削减了	-11191
南苏丹	-11192
发生时	-11193
向世界	-11194
和国内	-11195
和腐败	-11196
国神社	-11197
在他的	-11198
大城市	-11199
天安门	-11200
对日本	-11201
屈服于	-11202
已久的	-11203
应该对	-11204
心理学	-11205
悬而未	-11206
成员的	-11207
扮演着	-11208
据估计	-11209
掌握了	-11210
援助的	-11211
旧金山	-11212
有多么	-11213
正常的	-11214
清真寺	-11215
的情绪	-11216
而不会	-11217
自上而	-11218
让所有	-11219
进步的	-11220
都同意	-11221
都是在	-11222
1962	-11223
▁爱尔兰	-11224
▁而中国	-11225
▁而这一	-11226
不断上升	-11227
不稳定的	-11228
中国已经	-11229
也意味着	-11230
保护责任	-11231
关塔那摩	-11232
创造就业	-11233
即所谓的	-11234
反过来又	-11235
和其他人	-11236
因为我们	-11237
塞拉利昂	-11238
大大增加	-11239
孤立主义	-11240
完全可以	-11241
寄希望于	-11242
希望看到	-11243
所获得的	-11244
更加严重	-11245
欧盟内部	-11246
特别是对	-11247
的结果是	-11248
竞争优势	-11249
美元升值	-11250
英国选民	-11251
这些风险	-11252
退休基金	-11253
造成严重	-11254
陷入衰退	-11255
James	-11256
ealth	-11257
▁即便如此	-11258
印度和中国	-11259
工业化国家	-11260
某种意义上	-11261
的增长模式	-11262
的民主国家	-11263
臭名昭著的	-11264
这一问题的	-11265
这样的结果	-11266
麦肯锡全球	-11267
发达经济体的	-11268
太大而不能倒	-11269
特别是考虑到	-11270
▁从某种程度上	-11271
基础设施投资银行	-11272
ya	-11273
za	-11274
▁拜	-11275
一月	-11276
万名	-11277
下调	-11278
中日	-11279
仿佛	-11280
信徒	-11281
党员	-11282
全胜	-11283
其与	-11284
受灾	-11285
合格	-11286
和阿	-11287
塞拜	-11288
多达	-11289
大错	-11290
好了	-11291
媲美	-11292
嫌疑	-11293
托尼	-11294
拥挤	-11295
擅长	-11296
更小	-11297
极化	-11298
测验	-11299
班农	-11300
算盘	-11301
能将	-11302
要做	-11303
财长	-11304
贩毒	-11305
赔偿	-11306
走到	-11307
蹂躏	-11308
阈值	-11309
陆军	-11310
隔绝	-11311
ley	-11312
pro	-11313
▁总之	-11314
上升了	-11315
了道路	-11316
仍处于	-11317
会引发	-11318
但是却	-11319
作出了	-11320
十年期	-11321
受制于	-11322
另一位	-11323
和行动	-11324
和银行	-11325
塞拜疆	-11326
将因此	-11327
就不能	-11328
布拉格	-11329
年之后	-11330
并开始	-11331
所取代	-11332
所导致	-11333
抑制了	-11334
支出和	-11335
支持和	-11336
改革派	-11337
是由于	-11338
有超过	-11339
束手无	-11340
比里亚	-11341
瓦哈比	-11342
的主题	-11343
的内部	-11344
的高级	-11345
而无法	-11346
规模和	-11347
计划中	-11348
试图在	-11349
贷款的	-11350
都可能	-11351
预见到	-11352
1914	-11353
1971	-11354
ital	-11355
▁Act	-11356
不仅包括	-11357
公共资金	-11358
在以色列	-11359
容易受到	-11360
已经不再	-11361
悬而未决	-11362
或多或少	-11363
报告显示	-11364
收入差距	-11365
收支平衡	-11366
施加压力	-11367
犹太复国	-11368
科学研究	-11369
自由化的	-11370
范围内的	-11371
获得成功	-11372
萎靡不振	-11373
认为这是	-11374
认识到了	-11375
退出欧盟	-11376
重新考虑	-11377
重要角色	-11378
野生动物	-11379
陷入困境	-11380
▁而事实上	-11381
▁这一观点	-11382
一个国家的	-11383
伊斯兰革命	-11384
共产主义的	-11385
加入欧盟的	-11386
和其他地方	-11387
完全不同的	-11388
根本不可能	-11389
私人投资者	-11390
远远超过了	-11391
▁内塔尼亚胡	-11392
巴勒斯坦人的	-11393
欧盟成员资格	-11394
经合组织国家	-11395
第一次世界大战	-11396
叙利亚总统巴沙尔	-11397
2°	-11398
ty	-11399
一句	-11400
上来	-11401
主体	-11402
之初	-11403
乌托	-11404
二世	-11405
们的	-11406
会为	-11407
元首	-11408
关乎	-11409
关切	-11410
减贫	-11411
出不	-11412
力求	-11413
召集	-11414
同期	-11415
启蒙	-11416
大小	-11417
实例	-11418
宣战	-11419
屈从	-11420
巨资	-11421
已在	-11422
年份	-11423
度假	-11424
度过	-11425
强行	-11426
得不	-11427
悲哀	-11428
愈加	-11429
抗拒	-11430
数目	-11431
日期	-11432
权重	-11433
每周	-11434
油田	-11435
泄露	-11436
法制	-11437
消亡	-11438
炮制	-11439
班加	-11440
的两	-11441
突发	-11442
简称	-11443
类别	-11444
素质	-11445
维埃	-11446
网上	-11447
罪恶	-11448
而他	-11449
街道	-11450
要将	-11451
设在	-11452
访者	-11453
说他	-11454
谬误	-11455
这家	-11456
避开	-11457
4%,	-11458
OMT	-11459
ade	-11460
uel	-11461
▁但其	-11462
▁假设	-11463
▁公共	-11464
▁国会	-11465
▁她们	-11466
▁拥有	-11467
▁改善	-11468
▁本月	-11469
▁财政	-11470
一个新	-11471
一半的	-11472
三个月	-11473
不一样	-11474
不抵债	-11475
与政府	-11476
与日本	-11477
从而为	-11478
作用的	-11479
供给侧	-11480
占多数	-11481
国政府	-11482
将最终	-11483
将超过	-11484
层面的	-11485
常常被	-11486
平等的	-11487
必须为	-11488
把他们	-11489
抗药性	-11490
持不同	-11491
数据库	-11492
更紧密	-11493
本可以	-11494
杀虫剂	-11495
标志性	-11496
正在向	-11497
没有被	-11498
波兰和	-11499
的复苏	-11500
的打击	-11501
目的地	-11502
眼中的	-11503
确保了	-11504
福克斯	-11505
管理和	-11506
管理局	-11507
经验的	-11508
而欧洲	-11509
自力更	-11510
被推翻	-11511
迅速地	-11512
钦斯基	-11513
面对着	-11514
驱动的	-11515
魁祸首	-11516
ency	-11517
ersh	-11518
rans	-11519
▁2%,	-11520
▁不久前	-11521
▁另一种	-11522
▁这表明	-11523
主义者的	-11524
以及如何	-11525
其它国家	-11526
减少贫困	-11527
几个月中	-11528
利比里亚	-11529
叙利亚和	-11530
只有通过	-11531
可能会在	-11532
多元文化	-11533
平均而言	-11534
并非所有	-11535
恐怖活动	-11536
意大利的	-11537
投资项目	-11538
提供融资	-11539
改革方案	-11540
束手无策	-11541
泡沫破裂	-11542
的纳维亚	-11543
网络空间	-11544
资不抵债	-11545
长远来看	-11546
随处可见	-11547
▁举例来讲	-11548
▁具体而言	-11549
▁发达国家	-11550
▁我们已经	-11551
▁这些问题	-11552
中国经济的	-11553
几乎肯定会	-11554
极端主义的	-11555
的民族主义	-11556
的生活水平	-11557
的经济表现	-11558
世界卫生组织	-11559
主权债务危机	-11560
俄罗斯和中国	-11561
原教旨主义者	-11562
吞并克里米亚	-11563
是显而易见的	-11564
国际原子能机构	-11565
49	-11566
CB	-11567
▁g	-11568
▁—	-11569
不休	-11570
仿效	-11571
会比	-11572
停顿	-11573
内亚	-11574
力图	-11575
名誉	-11576
后面	-11577
坦桑	-11578
天赋	-11579
威廉	-11580
常识	-11581
并被	-11582
建成	-11583
思议	-11584
悠久	-11585
抽象	-11586
拍卖	-11587
拿破	-11588
提起	-11589
无核	-11590
时日	-11591
昔日	-11592
替罪	-11593
有余	-11594
术语	-11595
权限	-11596
条路	-11597
板球	-11598
欲望	-11599
沙文	-11600
演员	-11601
激动	-11602
竟然	-11603
纳斯	-11604
罢了	-11605
罢工	-11606
节节	-11607
英美	-11608
萨利	-11609
萨拉	-11610
要对	-11611
讨厌	-11612
赞赏	-11613
通向	-11614
阳光	-11615
180	-11616
1⁄4	-11617
▁总统	-11618
▁移民	-11619
不对称	-11620
不断的	-11621
与印度	-11622
乌托邦	-11623
也有所	-11624
也能够	-11625
习惯于	-11626
事务上	-11627
人权和	-11628
代表团	-11629
以及与	-11630
会不会	-11631
先进的	-11632
关系到	-11633
出现过	-11634
各自为	-11635
和工作	-11636
在伊朗	-11637
在政府	-11638
地进行	-11639
坚定地	-11640
埃及人	-11641
失业者	-11642
媒体和	-11643
对这种	-11644
巴西的	-11645
干细胞	-11646
并不比	-11647
开始的	-11648
战略性	-11649
抵押品	-11650
拿破仑	-11651
描述了	-11652
提供者	-11653
新西兰	-11654
无助于	-11655
无法再	-11656
暂时的	-11657
最后的	-11658
月以来	-11659
权利和	-11660
查尔斯	-11661
此前的	-11662
济于事	-11663
牵涉到	-11664
由政府	-11665
百万人	-11666
的一样	-11667
的定义	-11668
的意义	-11669
的最好	-11670
的来说	-11671
的结束	-11672
的难度	-11673
监管的	-11674
缅甸的	-11675
观察员	-11676
谈判桌	-11677
道德上	-11678
马杜罗	-11679
▁Cor	-11680
▁GDP	-11681
▁Uni	-11682
▁当前的	-11683
一种新的	-11684
世界上的	-11685
主要来自	-11686
事实证明	-11687
传统智慧	-11688
军备竞赛	-11689
出口市场	-11690
国内需求	-11691
坦桑尼亚	-11692
宏观审慎	-11693
官僚机构	-11694
并不足以	-11695
形成一致	-11696
影子银行	-11697
德国政府	-11698
成百上千	-11699
物理学家	-11700
进行谈判	-11701
长期债券	-11702
风险溢价	-11703
▁我们知道	-11704
▁这一方针	-11705
在巴基斯坦	-11706
的一小部分	-11707
越来越大的	-11708
International	-11709
,(	-11710
aj	-11711
”;	-11712
▁还	-11713
不该	-11714
之又	-11715
人性	-11716
仇外	-11717
兴建	-11718
刻意	-11719
变量	-11720
名词	-11721
吞噬	-11722
含有	-11723
坏事	-11724
增大	-11725
处方	-11726
外人	-11727
大事	-11728
头巾	-11729
宏伟	-11730
实时	-11731
小额	-11732
年所	-11733
年至	-11734
弊端	-11735
弹劾	-11736
怨恨	-11737
息息	-11738
憎恨	-11739
支箭	-11740
政局	-11741
族群	-11742
是他	-11743
是说	-11744
暴政	-11745
有损	-11746
权宜	-11747
每月	-11748
激活	-11749
物品	-11750
用以	-11751
的多	-11752
真心	-11753
矛头	-11754
童工	-11755
脚步	-11756
良性	-11757
血管	-11758
警示	-11759
诉诸	-11760
说得	-11761
貌似	-11762
财阀	-11763
资深	-11764
赚钱	-11765
走势	-11766
轻重	-11767
这套	-11768
远超	-11769
里克	-11770
默认	-11771
35%	-11772
Con	-11773
FDI	-11774
NPT	-11775
Ste	-11776
ain	-11777
old	-11778
不仅要	-11779
也只是	-11780
也成为	-11781
产量的	-11782
代人的	-11783
但这种	-11784
低增长	-11785
信用卡	-11786
占世界	-11787
只能在	-11788
和行为	-11789
哈里发	-11790
基金的	-11791
它们将	-11792
安全感	-11793
届政府	-11794
很明显	-11795
很清楚	-11796
德意志	-11797
怎么办	-11798
情况是	-11799
我们都	-11800
改变其	-11801
暴露出	-11802
有三个	-11803
李克强	-11804
来决定	-11805
来推动	-11806
核武库	-11807
每年的	-11808
波动性	-11809
的交易	-11810
的排放	-11811
的结构	-11812
目前所	-11813
罗姆人	-11814
脱维亚	-11815
自由地	-11816
身上的	-11817
转向了	-11818
过多的	-11819
运行的	-11820
这只是	-11821
采取更	-11822
需要对	-11823
omas	-11824
▁他们还	-11825
▁即便是	-11826
▁尤其是	-11827
▁欧洲人	-11828
▁而那些	-11829
不大可能	-11830
与其说是	-11831
克什米尔	-11832
包括中国	-11833
发生改变	-11834
只能通过	-11835
可以带来	-11836
在联合国	-11837
如此多的	-11838
尤其重要	-11839
年轻人的	-11840
影响深远	-11841
情报机构	-11842
政治动荡	-11843
构建一个	-11844
每个人都	-11845
激进分子	-11846
的劳动力	-11847
的继任者	-11848
短期利率	-11849
经济状况	-11850
统计数字	-11851
继续保持	-11852
能够通过	-11853
自相矛盾	-11854
认为美国	-11855
靖国神社	-11856
▁Coun	-11857
▁讽刺的是	-11858
之间的差距	-11859
半岛电视台	-11860
带来的好处	-11861
建立了一个	-11862
方面取得了	-11863
经济和金融	-11864
财政政策的	-11865
购买力平价	-11866
伊拉克和阿富汗	-11867
西班牙和意大利	-11868
,6	-11869
Af	-11870
TO	-11871
US	-11872
▁r	-11873
▁好	-11874
不懈	-11875
两场	-11876
中部	-11877
为一	-11878
之计	-11879
书记	-11880
五十	-11881
们在	-11882
免税	-11883
冒犯	-11884
则被	-11885
十足	-11886
协同	-11887
博科	-11888
四国	-11889
在家	-11890
备忘	-11891
头的	-11892
它能	-11893
将要	-11894
局长	-11895
巴巴	-11896
序列	-11897
开辟	-11898
忠于	-11899
恶意	-11900
手笔	-11901
教士	-11902
新近	-11903
昂山	-11904
曙光	-11905
松散	-11906
校园	-11907
毁掉	-11908
民事	-11909
沃伦	-11910
海滩	-11911
灵丹	-11912
牢记	-11913
用处	-11914
积压	-11915
税负	-11916
细分	-11917
航班	-11918
莱因	-11919
视野	-11920
认清	-11921
越是	-11922
高额	-11923
▁数字	-11924
▁有了	-11925
▁科学	-11926
▁能源	-11927
▁这份	-11928
不会再	-11929
两年的	-11930
享受到	-11931
但是在	-11932
使人们	-11933
反周期	-11934
发布了	-11935
发电厂	-11936
发言人	-11937
可用于	-11938
和资源	-11939
在埃及	-11940
就能够	-11941
工作和	-11942
已经让	-11943
幸福感	-11944
应该从	-11945
我们能	-11946
扮演了	-11947
抛弃了	-11948
措施来	-11949
提到了	-11950
政府与	-11951
效率和	-11952
无限期	-11953
替罪羊	-11954
框架内	-11955
沃尔玛	-11956
没有在	-11957
留下了	-11958
的产物	-11959
的假设	-11960
的宪法	-11961
的文章	-11962
的灾难	-11963
盎格鲁	-11964
相应的	-11965
管齐下	-11966
美好的	-11967
艰难的	-11968
苏维埃	-11969
让自己	-11970
这一幕	-11971
采用了	-11972
钓鱼岛	-11973
,500	-11974
ight	-11975
▁7%,	-11976
▁For	-11977
▁但正如	-11978
▁但这个	-11979
▁在其他	-11980
▁当我们	-11981
▁慕尼黑	-11982
▁我们还	-11983
▁该地区	-11984
▁该计划	-11985
一个事实	-11986
与中国的	-11987
二战结束	-11988
公司税率	-11989
决策者的	-11990
几个国家	-11991
刺激经济	-11992
医疗体系	-11993
可以实现	-11994
商业周期	-11995
始作俑者	-11996
就是为了	-11997
已不再是	-11998
已经存在	-11999
应该得到	-12000
提供支持	-12001
政治体制	-12002
数十年的	-12003
新成员国	-12004
是巨大的	-12005
正在快速	-12006
的最重要	-12007
相互依赖	-12008
自力更生	-12009
莱因哈特	-12010
财政联盟	-12011
货币刺激	-12012
起的作用	-12013
▁全球经济	-12014
▁委内瑞拉	-12015
充分的理由	-12016
几乎不可能	-12017
大部分地区	-12018
的必要条件	-12019
穆斯林国家	-12020
自由贸易区	-12021
还远远不够	-12022
金融危机的	-12023
ership	-12024
Michael	-12025
2008—2009	-12026
跨大西洋贸易和投资	-12027
-7	-12028
DD	-12029
IR	-12030
Le	-12031
ly	-12032
上诉	-12033
之于	-12034
之和	-12035
人是	-12036
佩斯	-12037
信条	-12038
助益	-12039
勘探	-12040
半球	-12041
博物	-12042
压缩	-12043
可笑	-12044
善于	-12045
国度	-12046
基斯	-12047
大权	-12048
女童	-12049
它与	-12050
对准	-12051
年被	-12052
库德	-12053
应急	-12054
我对	-12055
招致	-12056
拿到	-12057
推荐	-12058
提取	-12059
斯密	-12060
斯诺	-12061
方位	-12062
旗帜	-12063
无常	-12064
既不	-12065
暗杀	-12066
树木	-12067
每桶	-12068
流出	-12069
特尔	-12070
系数	-12071
线索	-12072
美德	-12073
联手	-12074
茨基	-12075
评判	-12076
诚信	-12077
趋向	-12078
辉煌	-12079
远非	-12080
那场	-12081
顺序	-12082
麻省	-12083
190	-12084
6%,	-12085
And	-12086
arm	-12087
oal	-12088
▁en	-12089
▁不出	-12090
▁个人	-12091
▁其二	-12092
▁石油	-12093
个基点	-12094
中左翼	-12095
临时性	-12096
他自己	-12097
例子是	-12098
做好了	-12099
其中最	-12100
几内亚	-12101
出口的	-12102
制度性	-12103
区域性	-12104
却无法	-12105
发展出	-12106
只能是	-12107
后不久	-12108
否决了	-12109
和东欧	-12110
国际化	-12111
在国会	-12112
如果他	-12113
它应该	-12114
宗教和	-12115
就变得	-12116
怎样的	-12117
所创造	-12118
批准了	-12119
提供给	-12120
揭示了	-12121
新德里	-12122
新总统	-12123
方式来	-12124
普遍的	-12125
更快地	-12126
月中旬	-12127
有大量	-12128
来衡量	-12129
案例中	-12130
注定要	-12131
消失了	-12132
牺牲品	-12133
的则是	-12134
的对立	-12135
的性质	-12136
的民族	-12137
的规定	-12138
的领土	-12139
相似的	-12140
结论是	-12141
而如今	-12142
而德国	-12143
让政府	-12144
超国家	-12145
这两者	-12146
阿拉维	-12147
需求和	-12148
1929	-12149
1933	-12150
40%。	-12151
reat	-12152
▁利比亚	-12153
▁这正是	-12154
不可思议	-12155
不断扩大	-12156
与日俱增	-12157
令人惊奇	-12158
侵犯人权	-12159
债务融资	-12160
其他任何	-12161
刚刚开始	-12162
印度政府	-12163
双边贸易	-12164
可以利用	-12165
多样化的	-12166
应该如何	-12167
我们应当	-12168
注意的是	-12169
游戏规则	-12170
经济停滞	-12171
能够实现	-12172
货币升值	-12173
过程中的	-12174
这样才能	-12175
这种状况	-12176
都面临着	-12177
采取任何	-12178
陷入停滞	-12179
imate	-12180
▁这些措施	-12181
不断扩大的	-12182
不确定性的	-12183
人民币升值	-12184
以失败告终	-12185
其中大部分	-12186
劳动密集型	-12187
华盛顿共识	-12188
国家的政府	-12189
的军事行动	-12190
解决这一问题	-12191
国内生产总值的	-12192
Ab	-12193
EM	-12194
TC	-12195
▁安	-12196
▁月	-12197
▁试	-12198
不决	-12199
东正	-12200
中印	-12201
主任	-12202
之事	-12203
之行	-12204
亲信	-12205
体的	-12206
侨汇	-12207
侵入	-12208
信托	-12209
假装	-12210
僵尸	-12211
先是	-12212
克逊	-12213
免除	-12214
入主	-12215
出乎	-12216
口头	-12217
各式	-12218
吹嘘	-12219
品种	-12220
哈尔	-12221
因果	-12222
图拉	-12223
多了	-12224
大跌	-12225
小于	-12226
帐户	-12227
心目	-12228
怪异	-12229
抑或	-12230
曲线	-12231
款项	-12232
此人	-12233
濒临	-12234
熟虑	-12235
牢牢	-12236
独自	-12237
环节	-12238
由来	-12239
税基	-12240
突显	-12241
笼罩	-12242
腰包	-12243
自给	-12244
萨卡	-12245
蚊帐	-12246
负有	-12247
身后	-12248
近邻	-12249
这段	-12250
那就	-12251
钻石	-12252
领取	-12253
驳斥	-12254
驻军	-12255
org	-12256
”)。	-12257
▁可是	-12258
▁研究	-12259
上半年	-12260
不关心	-12261
东北亚	-12262
丝毫不	-12263
为目的	-12264
之中的	-12265
也知道	-12266
五年的	-12267
亚历山	-12268
但仍然	-12269
但只有	-12270
体现出	-12271
像美国	-12272
出不穷	-12273
原子弹	-12274
可支配	-12275
听上去	-12276
和平奖	-12277
备忘录	-12278
它必须	-12279
对自己	-12280
就不是	-12281
感觉到	-12282
所在的	-12283
所采取	-12284
技能和	-12285
把它们	-12286
控制在	-12287
政治中	-12288
昂山素	-12289
是不会	-12290
服务和	-12291
极端的	-12292
框架下	-12293
泛欧洲	-12294
激起了	-12295
独特的	-12296
疾病和	-12297
百分比	-12298
的前任	-12299
的口号	-12300
的时机	-12301
的最终	-12302
第三大	-12303
色革命	-12304
证实了	-12305
这一次	-12306
这笔钱	-12307
进口国	-12308
道德的	-12309
问题和	-12310
1986	-12311
Mart	-12312
▁新加坡	-12313
▁这可能	-12314
▁默克尔	-12315
不必要的	-12316
两极分化	-12317
似乎认为	-12318
偿还债务	-12319
决定是否	-12320
如果美国	-12321
层出不穷	-12322
已经导致	-12323
已经有了	-12324
应该通过	-12325
必要条件	-12326
投资不足	-12327
按揭贷款	-12328
摆脱贫困	-12329
更加糟糕	-12330
没有那么	-12331
的情况是	-12332
的环境下	-12333
科夫斯基	-12334
行动计划	-12335
裔美国人	-12336
这一战略	-12337
进行合作	-12338
金融中心	-12339
随之而来	-12340
▁Summ	-12341
▁这种情况	-12342
不可或缺的	-12343
他们的国家	-12344
和其他地区	-12345
必须认识到	-12346
持怀疑态度	-12347
政治和社会	-12348
欧洲央行和	-12349
生活在一个	-12350
直升机撒钱	-12351
规模最大的	-12352
俄罗斯天然气	-12353
国际刑事法庭	-12354
ability	-12355
二氧化碳排放量	-12356
俄罗斯总统普京	-12357
▁t	-12358
中华	-12359
之战	-12360
交战	-12361
产油	-12362
人文	-12363
会员	-12364
先前	-12365
公信	-12366
出访	-12367
分水	-12368
则为	-12369
别处	-12370
加紧	-12371
十倍	-12372
地向	-12373
多项	-12374
太高	-12375
委会	-12376
季莫	-12377
学历	-12378
安装	-12379
家和	-12380
对应	-12381
对称	-12382
年对	-12383
往常	-12384
忡忡	-12385
悲伤	-12386
挖掘	-12387
放射	-12388
晓波	-12389
有何	-12390
期权	-12391
比特	-12392
比索	-12393
永恒	-12394
流传	-12395
的阿	-12396
移植	-12397
立足	-12398
级的	-12399
纵容	-12400
纾困	-12401
置身	-12402
美丽	-12403
翼翼	-12404
而该	-12405
肮脏	-12406
脱贫	-12407
脱钩	-12408
舞弊	-12409
补救	-12410
要把	-12411
调解	-12412
贵族	-12413
迷惑	-12414
追加	-12415
邮报	-12416
酒店	-12417
锁定	-12418
集合	-12419
10.	-12420
eph	-12421
omp	-12422
ste	-12423
▁人口	-12424
▁反对	-12425
▁智利	-12426
▁确保	-12427
▁部分	-12428
不可靠	-12429
不应当	-12430
两年中	-12431
之前就	-12432
了新的	-12433
争论的	-12434
什么是	-12435
以保护	-12436
作出的	-12437
佩雷斯	-12438
使我们	-12439
加入到	-12440
博物馆	-12441
印度洋	-12442
可预测	-12443
和中东	-12444
和埃及	-12445
和移民	-12446
在应对	-12447
埃克森	-12448
季度的	-12449
家庭和	-12450
对银行	-12451
将通过	-12452
将需要	-12453
小企业	-12454
年危机	-12455
年时间	-12456
持有者	-12457
控制和	-12458
政府都	-12459
斗争中	-12460
时期内	-12461
是否有	-12462
是确保	-12463
沃尔福	-12464
独立于	-12465
的一场	-12466
的全面	-12467
的名义	-12468
的干预	-12469
的愿望	-12470
的正确	-12471
的气候	-12472
的潜力	-12473
的费用	-12474
给予了	-12475
至少有	-12476
该条约	-12477
资产和	-12478
转型的	-12479
较大的	-12480
驱动力	-12481
默多克	-12482
inan	-12483
▁所谓的	-12484
▁而美国	-12485
不无道理	-12486
令人振奋	-12487
低碳能源	-12488
作为一种	-12489
健康保险	-12490
历史上看	-12491
可以肯定	-12492
和什叶派	-12493
商业模式	-12494
困难重重	-12495
在欧元区	-12496
外交手段	-12497
多样性的	-12498
接近于零	-12499
提供援助	-12500
政府机构	-12501
政治意愿	-12502
教育体系	-12503
日常生活	-12504
日本政府	-12505
是否愿意	-12506
更不要说	-12507
有价值的	-12508
正在迅速	-12509
民主联盟	-12510
消极影响	-12511
深思熟虑	-12512
现在正在	-12513
的以色列	-12514
社会契约	-12515
紧急状态	-12516
经济合作	-12517
美元计价	-12518
西奈半岛	-12519
财政悬崖	-12520
这一局面	-12521
重大挑战	-12522
针锋相对	-12523
enter	-12524
▁俄罗斯的	-12525
▁其中一个	-12526
▁如果欧洲	-12527
债券持有人	-12528
已经达到了	-12529
日益增长的	-12530
正义与发展	-12531
的一个关键	-12532
在发展中国家	-12533
联邦基金利率	-12534
跨太平洋伙伴关系	-12535
JP	-12536
ef	-12537
上扬	-12538
与他	-12539
为他	-12540
亚哥	-12541
什图	-12542
使他	-12543
例证	-12544
制品	-12545
午餐	-12546
卸任	-12547
原来	-12548
受人	-12549
司令	-12550
哈利	-12551
在该	-12552
坐在	-12553
大惊	-12554
孕育	-12555
对新	-12556
强度	-12557
当初	-12558
思路	-12559
总能	-12560
惨遭	-12561
或在	-12562
拘留	-12563
拼命	-12564
排外	-12565
撤退	-12566
新高	-12567
普斯	-12568
暗中	-12569
更替	-12570
样子	-12571
样本	-12572
比作	-12573
没收	-12574
流氓	-12575
淹没	-12576
甚少	-12577
生理	-12578
盛行	-12579
矿产	-12580
种姓	-12581
空洞	-12582
符号	-12583
紧随	-12584
维艰	-12585
老人	-12586
艾伦	-12587
节制	-12588
裁量	-12589
裂痕	-12590
见解	-12591
警钟	-12592
说出	-12593
诸塞	-12594
赋权	-12595
较大	-12596
辩解	-12597
迅猛	-12598
选手	-12599
遗余	-12600
部件	-12601
顺从	-12602
arg	-12603
itz	-12604
lex	-12605
▁反之	-12606
▁增加	-12607
▁这位	-12608
一个月	-12609
一年前	-12610
下降的	-12611
不属于	-12612
不透明	-12613
两个月	-12614
中右翼	-12615
也难以	-12616
了一倍	-12617
以适应	-12618
价格和	-12619
但中国	-12620
关注点	-12621
关系中	-12622
准确地	-12623
分水岭	-12624
刘晓波	-12625
友好的	-12626
只能让	-12627
同样也	-12628
和平和	-12629
在希腊	-12630
地使用	-12631
外交部	-12632
威胁着	-12633
它需要	-12634
实践中	-12635
寻常的	-12636
将它们	-12637
尽管有	-12638
工人和	-12639
已经将	-12640
年达到	-12641
应用于	-12642
当我们	-12643
投票率	-12644
持续到	-12645
来解释	-12646
比特币	-12647
的上升	-12648
的多数	-12649
的根本	-12650
的立法	-12651
结构和	-12652
结果的	-12653
老布什	-12654
职人员	-12655
要实现	-12656
货币化	-12657
零售商	-12658
非洲人	-12659
高增长	-12660
100%	-12661
▁3%,	-12662
▁con	-12663
债务上限	-12664
全民公投	-12665
可以用来	-12666
商界领袖	-12667
基础上的	-12668
增长战略	-12669
多边机构	-12670
天主教徒	-12671
实力平衡	-12672
小心翼翼	-12673
开放社会	-12674
忧心忡忡	-12675
意大利人	-12676
我们如何	-12677
我们希望	-12678
拉脱维亚	-12679
改革措施	-12680
无一例外	-12681
是这样的	-12682
晚些时候	-12683
最终导致	-12684
毋庸置疑	-12685
民主选举	-12686
物价稳定	-12687
经济利益	-12688
经济崩溃	-12689
脱离欧盟	-12690
莫拉莱斯	-12691
蓬勃发展	-12692
资金支持	-12693
走上街头	-12694
过度依赖	-12695
远远低于	-12696
道德风险	-12697
食品价格	-12698
NAFTA	-12699
▁1989	-12700
▁Bank	-12701
▁二十世纪	-12702
▁在此期间	-12703
中央情报局	-12704
人民币汇率	-12705
劳动力成本	-12706
日本和韩国	-12707
机构投资者	-12708
的国家之一	-12709
的政治意愿	-12710
议会选举中	-12711
▁中国领导人	-12712
▁所有这些都	-12713
在全球范围内	-12714
基础设施建设	-12715
的政治和经济	-12716
诺贝尔和平奖	-12717
nership	-12718
▁Commission	-12719
Ph	-12720
ok	-12721
一去	-12722
一手	-12723
上都	-12724
专属	-12725
专栏	-12726
两人	-12727
两家	-12728
个州	-12729
也最	-12730
乱局	-12731
争相	-12732
代际	-12733
体化	-12734
佛教	-12735
保存	-12736
列入	-12737
劫持	-12738
勒颇	-12739
卓著	-12740
卖给	-12741
印钞	-12742
同比	-12743
和前	-12744
失效	-12745
套利	-12746
就任	-12747
归还	-12748
很不	-12749
患有	-12750
手握	-12751
扎尔	-12752
招聘	-12753
挤压	-12754
捐献	-12755
收买	-12756
整套	-12757
斯达	-12758
无误	-12759
旷日	-12760
暴乱	-12761
格雷	-12762
流的	-12763
漂亮	-12764
灌输	-12765
牛肉	-12766
生死	-12767
登记	-12768
的传	-12769
盲目	-12770
相形	-12771
真诚	-12772
离婚	-12773
端的	-12774
结算	-12775
菲利	-12776
见到	-12777
辅助	-12778
迟缓	-12779
问及	-12780
青睐	-12781
风潮	-12782
马士	-12783
黎加	-12784
170	-12785
ial	-12786
ild	-12787
nit	-12788
▁不难	-12789
▁利用	-12790
▁大量	-12791
▁就算	-12792
▁成功	-12793
不论是	-12794
与政治	-12795
严重性	-12796
中美洲	-12797
了那些	-12798
人们在	-12799
似乎都	-12800
光是在	-12801
出生的	-12802
则需要	-12803
到美国	-12804
原来的	-12805
和一个	-12806
和许多	-12807
在选举	-12808
大企业	-12809
大范围	-12810
大面积	-12811
奢侈品	-12812
密尔顿	-12813
对人类	-12814
对他的	-12815
就足以	-12816
市场中	-12817
怀疑派	-12818
慢性病	-12819
把美国	-12820
掌权的	-12821
提供商	-12822
方面也	-12823
无非是	-12824
是唯一	-12825
更少的	-12826
来处理	-12827
然而然	-12828
爆发后	-12829
的举措	-12830
的痛苦	-12831
的知识	-12832
矛盾的	-12833
而遭到	-12834
聚焦于	-12835
英国在	-12836
被人们	-12837
观察到	-12838
让伊朗	-12839
议会中	-12840
路要走	-12841
还不是	-12842
选择是	-12843
通过将	-12844
道路上	-12845
遗传学	-12846
降到了	-12847
青少年	-12848
马里奥	-12849
鲍威尔	-12850
ound	-12851
▁3%。	-12852
▁8%,	-12853
▁在一些	-12854
▁我们在	-12855
▁我相信	-12856
▁据估计	-12857
▁说到底	-12858
不可逆转	-12859
不断变化	-12860
不断增长	-12861
中国正在	-12862
做得更好	-12863
几乎完全	-12864
南欧国家	-12865
卡尔扎伊	-12866
可能不会	-12867
团结一致	-12868
圣地亚哥	-12869
大获全胜	-12870
实现目标	-12871
工作机会	-12872
必须接受	-12873
总统任期	-12874
息息相关	-12875
把注意力	-12876
拥有一个	-12877
政府干预	-12878
数据显示	-12879
无济于事	-12880
智能手机	-12881
暴力活动	-12882
欧洲政治	-12883
欧盟预算	-12884
民调显示	-12885
爱国主义	-12886
物价指数	-12887
生物技术	-12888
的欧元区	-12889
直到最近	-12890
移民问题	-12891
美元汇率	-12892
过去十年	-12893
这一方案	-12894
这是一种	-12895
重中之重	-12896
重新定义	-12897
重新评估	-12898
麻省理工	-12899
▁1999	-12900
▁但特朗普	-12901
▁如果这些	-12902
▁显而易见	-12903
▁美国总统	-12904
传染性疾病	-12905
各国领导人	-12906
完成的任务	-12907
房地产价格	-12908
的政策制定	-12909
经济发展的	-12910
结构性问题	-12911
美国经济的	-12912
许多人认为	-12913
金融机构的	-12914
Joseph	-12915
Thomas	-12916
人道主义援助	-12917
的经济和社会	-12918
经常账户赤字	-12919
inancial	-12920
CR	-12921
GB	-12922
一心	-12923
一提	-12924
中去	-12925
之源	-12926
乡村	-12927
人造	-12928
仅靠	-12929
仍旧	-12930
以免	-12931
伴侣	-12932
低位	-12933
借用	-12934
匹马	-12935
可归	-12936
地质	-12937
堆积	-12938
塞罗	-12939
头寸	-12940
孱弱	-12941
巴解	-12942
布斯	-12943
弥漫	-12944
悄悄	-12945
惨败	-12946
战败	-12947
扶持	-12948
承包	-12949
投了	-12950
拖入	-12951
支点	-12952
救世	-12953
断言	-12954
日后	-12955
旱灾	-12956
时就	-12957
本书	-12958
步履	-12959
殴打	-12960
水域	-12961
活着	-12962
涌向	-12963
热点	-12964
牧师	-12965
球迷	-12966
瓶颈	-12967
电台	-12968
知情	-12969
碰撞	-12970
祖先	-12971
福特	-12972
端倪	-12973
红线	-12974
考试	-12975
脱节	-12976
草根	-12977
虚伪	-12978
裙带	-12979
赦免	-12980
越过	-12981
足联	-12982
路上	-12983
远景	-12984
遇刺	-12985
避孕	-12986
酒精	-12987
重商	-12988
销毁	-12989
领地	-12990
首个	-12991
马哈	-12992
高点	-12993
11%	-12994
ans	-12995
ari	-12996
tor	-12997
▁le	-12998
▁南非	-12999
▁在其	-13000
▁它的	-13001
▁更加	-13002
▁气候	-13003
▁没错	-13004
▁瑞典	-13005
▁莫迪	-13006
▁近期	-13007
不足的	-13008
中全会	-13009
了一切	-13010
以美国	-13011
低水平	-13012
作斗争	-13013
克斯洛	-13014
全方位	-13015
副主席	-13016
加沙的	-13017
受教育	-13018
只剩下	-13019
和外部	-13020
和希腊	-13021
和非洲	-13022
哥斯达	-13023
在当今	-13024
在纽约	-13025
地区内	-13026
宣布将	-13027
将很快	-13028
尽一切	-13029
巩固了	-13030
廉价的	-13031
强加给	-13032
必须有	-13033
我们有	-13034
或至少	-13035
战争罪	-13036
持续了	-13037
政策是	-13038
普通人	-13039
更糟糕	-13040
此以后	-13041
沃尔夫	-13042
的人都	-13043
的位置	-13044
的声明	-13045
的复杂	-13046
的大门	-13047
的对比	-13048
的总体	-13049
的爆发	-13050
的特殊	-13051
的现代	-13052
的警告	-13053
的许多	-13054
的诱惑	-13055
的辩论	-13056
研究中	-13057
科尔宾	-13058
而且是	-13059
落后的	-13060
薄熙来	-13061
这部分	-13062
这需要	-13063
都拥有	-13064
难以为	-13065
集中的	-13066
马利基	-13067
马士革	-13068
1985	-13069
ried	-13070
vest	-13071
▁Ass	-13072
▁世界上	-13073
▁但许多	-13074
两国方案	-13075
严重依赖	-13076
似乎并不	-13077
公众支持	-13078
公平贸易	-13079
刺激方案	-13080
危机期间	-13081
受欢迎的	-13082
可以解释	-13083
各国央行	-13084
增长最快	-13085
大幅降低	-13086
存款保险	-13087
对其进行	-13088
很多国家	-13089
我们无法	-13090
捷克斯洛	-13091
更加重要	-13092
欧盟机构	-13093
汉密尔顿	-13094
没有多少	-13095
没有必要	-13096
的伊拉克	-13097
相对较小	-13098
积极参与	-13099
税收改革	-13100
调查显示	-13101
这一概念	-13102
除此之外	-13103
预期寿命	-13104
首脑会议	-13105
▁我们不能	-13106
▁这样一来	-13107
劳动生产率	-13108
哥斯达黎加	-13109
在未来十年	-13110
增长和就业	-13111
已经失去了	-13112
并没有什么	-13113
捷克共和国	-13114
收入和财富	-13115
特别是那些	-13116
的巴基斯坦	-13117
的最佳方式	-13118
的速度增长	-13119
相关利益方	-13120
重要的作用	-13121
全球经济增长	-13122
捷克斯洛伐克	-13123
正义与发展党	-13124
马斯特里赫特条约	-13125
,7	-13126
FA	-13127
一同	-13128
两周	-13129
丧命	-13130
亚的	-13131
些许	-13132
亿吨	-13133
仍能	-13134
他会	-13135
优化	-13136
优越	-13137
会见	-13138
倾听	-13139
假说	-13140
兰经	-13141
共有	-13142
几种	-13143
创设	-13144
助手	-13145
化肥	-13146
又一	-13147
可知	-13148
合情	-13149
后期	-13150
图书	-13151
地与	-13152
地域	-13153
声望	-13154
将它	-13155
得的	-13156
想在	-13157
我说	-13158
收效	-13159
明博	-13160
曾是	-13161
构造	-13162
此事	-13163
洛克	-13164
深渊	-13165
温床	-13166
牢固	-13167
犯了	-13168
球队	-13169
第十	-13170
筹码	-13171
索尔	-13172
警报	-13173
诺贝	-13174
谈到	-13175
错觉	-13176
陈述	-13177
降息	-13178
降雨	-13179
面孔	-13180
须知	-13181
顾及	-13182
频道	-13183
高位	-13184
魔鬼	-13185
1/3	-13186
CCS	-13187
NGO	-13188
min	-13189
ome	-13190
ump	-13191
▁但要	-13192
▁经过	-13193
不仅在	-13194
不但是	-13195
个人和	-13196
也承认	-13197
了一番	-13198
事实是	-13199
人人都	-13200
伊朗人	-13201
会因为	-13202
但他的	-13203
其主要	-13204
加拉瓜	-13205
印度教	-13206
反映在	-13207
只关注	-13208
号决议	-13209
合理地	-13210
在长期	-13211
地区性	-13212
地马拉	-13213
夸大了	-13214
奠定了	-13215
对国内	-13216
对它们	-13217
对希腊	-13218
对这个	-13219
将出现	-13220
将获得	-13221
就是要	-13222
常常是	-13223
年实现	-13224
担心的	-13225
更长的	-13226
最低的	-13227
最糟糕	-13228
本身的	-13229
李明博	-13230
来保护	-13231
来承担	-13232
桑托斯	-13233
正逐渐	-13234
毁灭性	-13235
沉迷于	-13236
消费品	-13237
略高于	-13238
的代表	-13239
的区域	-13240
的另一	-13241
的形象	-13242
的情形	-13243
的所谓	-13244
的支出	-13245
的精神	-13246
的预算	-13247
研究和	-13248
积累了	-13249
第三方	-13250
米歇尔	-13251
纯粹的	-13252
而不必	-13253
自卫队	-13254
萨尔瓦	-13255
萨诸塞	-13256
认真的	-13257
贝鲁特	-13258
责任的	-13259
足轻重	-13260
运动中	-13261
还远远	-13262
造就了	-13263
非如此	-13264
非理性	-13265
15%。	-13266
1948	-13267
1975	-13268
1987	-13269
ture	-13270
vers	-13271
▁6%,	-13272
▁委员会	-13273
▁很显然	-13274
▁有鉴于	-13275
▁真正的	-13276
保持沉默	-13277
其中许多	-13278
利益冲突	-13279
削减开支	-13280
历史上的	-13281
只是为了	-13282
只有不到	-13283
各自为政	-13284
固定资产	-13285
尼加拉瓜	-13286
市场准入	-13287
并不那么	-13288
所做出的	-13289
支持者的	-13290
方向发展	-13291
更长时间	-13292
最主要的	-13293
有所帮助	-13294
正在日益	-13295
永远无法	-13296
社会经济	-13297
私人企业	-13298
经济转型	-13299
自然而然	-13300
购买计划	-13301
贸易盈余	-13302
资本外流	-13303
远远高于	-13304
非法移民	-13305
高速增长	-13306
urity	-13307
▁在我看来	-13308
▁在最近的	-13309
▁我们现在	-13310
不平等现象	-13311
亿美元用于	-13312
在发达国家	-13313
在未来几年	-13314
基地组织的	-13315
法西斯主义	-13316
深远的影响	-13317
的国家来说	-13318
经济学家们	-13319
美国和日本	-13320
铺平了道路	-13321
Martin	-13322
斯堪的纳维亚	-13323
经通胀调整的	-13324
,4	-13325
33	-13326
BA	-13327
CN	-13328
ID	-13329
gl	-13330
下注	-13331
争吵	-13332
争辩	-13333
会令	-13334
会以	-13335
但从	-13336
位列	-13337
共处	-13338
写入	-13339
减支	-13340
加税	-13341
又能	-13342
启示	-13343
地讲	-13344
外币	-13345
小泉	-13346
局的	-13347
庄稼	-13348
当其	-13349
得势	-13350
感和	-13351
我和	-13352
战时	-13353
才华	-13354
把他	-13355
挽回	-13356
摆在	-13357
断然	-13358
斯塔	-13359
斯顿	-13360
无休	-13361
无遗	-13362
格斯	-13363
格莱	-13364
比克	-13365
演进	-13366
率和	-13367
甚于	-13368
用在	-13369
电站	-13370
眼睛	-13371
碳税	-13372
空缺	-13373
粗暴	-13374
纠缠	-13375
致富	-13376
舒适	-13377
船只	-13378
诺言	-13379
躲避	-13380
通知	-13381
长官	-13382
长足	-13383
饭店	-13384
/11	-13385
900	-13386
AMR	-13387
▁公众	-13388
▁双方	-13389
▁后来	-13390
▁年的	-13391
下一任	-13392
下半年	-13393
不承认	-13394
与他们	-13395
世界里	-13396
两位数	-13397
中国与	-13398
之不去	-13399
乌里韦	-13400
也确实	-13401
低油价	-13402
使美国	-13403
农业和	-13404
分配给	-13405
利库德	-13406
司法部	-13407
和波兰	-13408
和韩国	-13409
商品的	-13410
国内部	-13411
在巴黎	-13412
大约为	-13413
奥尔默	-13414
对国际	-13415
将再次	-13416
彻底的	-13417
必须由	-13418
所在地	-13419
投入了	-13420
投入到	-13421
投机者	-13422
持续性	-13423
捍卫者	-13424
推行的	-13425
提名人	-13426
更安全	-13427
最紧迫	-13428
枪匹马	-13429
浓缩铀	-13430
的一篇	-13431
的信仰	-13432
的分裂	-13433
的指控	-13434
的方针	-13435
的普遍	-13436
的相关	-13437
的福利	-13438
竞争和	-13439
竞选中	-13440
能够将	-13441
行不通	-13442
该区域	-13443
身份的	-13444
达不到	-13445
适应性	-13446
马拉雅	-13447
1988	-13448
3000	-13449
▁其结果	-13450
▁在全球	-13451
▁理论上	-13452
不满情绪	-13453
与土耳其	-13454
从中受益	-13455
他们需要	-13456
切尔诺贝	-13457
单边主义	-13458
卫生设施	-13459
危地马拉	-13460
和平谈判	-13461
并不存在	-13462
强劲增长	-13463
很可能是	-13464
新的全球	-13465
最大限度	-13466
极端天气	-13467
正面临着	-13468
民主政体	-13469
税收优惠	-13470
粮食安全	-13471
说服力的	-13472
货币战争	-13473
这一情况	-13474
都不可能	-13475
银行贷款	-13476
需要采取	-13477
▁作为一个	-13478
▁此外还有	-13479
伊斯兰世界	-13480
生活水平的	-13481
的民粹主义	-13482
的研究表明	-13483
美国财政部	-13484
资本市场的	-13485
ations	-13486
▁欧洲领导人	-13487
是至关重要的	-13488
遏制气候变化	-13489
▁但这并不意味着	-13490
58	-13491
Me	-13492
St	-13493
▁.	-13494
▁按	-13495
一时	-13496
一篇	-13497
不好	-13498
不尽	-13499
两可	-13500
严酷	-13501
之苦	-13502
互惠	-13503
人身	-13504
似的	-13505
低点	-13506
充裕	-13507
六方	-13508
养活	-13509
内尔	-13510
内陆	-13511
出国	-13512
分解	-13513
剔除	-13514
加之	-13515
劳力	-13516
勾结	-13517
匆忙	-13518
半个	-13519
占有	-13520
卢布	-13521
各有	-13522
合力	-13523
国与	-13524
圣经	-13525
处罚	-13526
外流	-13527
外科	-13528
大通	-13529
威茨	-13530
室内	-13531
将有	-13532
引进	-13533
弱化	-13534
怒火	-13535
所料	-13536
打印	-13537
扣除	-13538
抗衡	-13539
摒弃	-13540
无尽	-13541
更换	-13542
杉矶	-13543
极力	-13544
果实	-13545
概括	-13546
每人	-13547
水准	-13548
爱因	-13549
猖獗	-13550
用词	-13551
电报	-13552
症候	-13553
的下	-13554
的同	-13555
碳化	-13556
穆特	-13557
窗口	-13558
类比	-13559
精明	-13560
累累	-13561
缺位	-13562
老化	-13563
而战	-13564
自发	-13565
菲尔	-13566
裁员	-13567
要低	-13568
订立	-13569
讨好	-13570
诺斯	-13571
趋于	-13572
逼近	-13573
降级	-13574
12%	-13575
130	-13576
45%	-13577
GCC	-13578
air	-13579
ast	-13580
▁不要	-13581
▁之后	-13582
▁女性	-13583
▁家庭	-13584
▁战争	-13585
▁罗马	-13586
一年的	-13587
不会被	-13588
不超过	-13589
不遗余	-13590
了一位	-13591
仍没有	-13592
以促进	-13593
以致于	-13594
任务是	-13595
会引起	-13596
假新闻	-13597
全欧洲	-13598
原则的	-13599
参加了	-13600
反移民	-13601
可以把	-13602
和疟疾	-13603
国家间	-13604
在当前	-13605
大会上	-13606
奇怪的	-13607
它已经	-13608
它能够	-13609
官员的	-13610
家可归	-13611
尽管在	-13612
展示了	-13613
已经对	-13614
年龄段	-13615
并试图	-13616
延伸到	-13617
归结为	-13618
当地的	-13619
恐惧和	-13620
情况的	-13621
成熟的	-13622
我相信	-13623
接受过	-13624
提升了	-13625
放弃其	-13626
斯蒂格	-13627
是人类	-13628
本人的	-13629
沃尔克	-13630
洛杉矶	-13631
灾难的	-13632
的一代	-13633
的传播	-13634
的决心	-13635
的困境	-13636
的外国	-13637
的政客	-13638
的这一	-13639
的首要	-13640
目标和	-13641
米尔顿	-13642
美国也	-13643
解释是	-13644
该法案	-13645
赶下台	-13646
较小的	-13647
进入到	-13648
远大于	-13649
那么多	-13650
预计到	-13651
高昂的	-13652
高油价	-13653
1947	-13654
uman	-13655
▁7%。	-13656
▁互联网	-13657
▁再加上	-13658
▁民主党	-13659
▁这些人	-13660
一直没有	-13661
二十年前	-13662
亚历山大	-13663
仅仅因为	-13664
公共利益	-13665
制定一个	-13666
十分有限	-13667
单枪匹马	-13668
发动战争	-13669
发展日程	-13670
发展计划	-13671
另外一种	-13672
可能引发	-13673
喜马拉雅	-13674
尽可能地	-13675
希腊退出	-13676
平均每年	-13677
心理学家	-13678
所未有的	-13679
担任总统	-13680
指导原则	-13681
挥之不去	-13682
政府正在	-13683
整个国家	-13684
暴力冲突	-13685
未来十年	-13686
标准普尔	-13687
殖民主义	-13688
毁灭性的	-13689
游说集团	-13690
潜在增长	-13691
爱因斯坦	-13692
留在欧盟	-13693
的世界里	-13694
维和部队	-13695
美国已经	-13696
能够带来	-13697
营商环境	-13698
解决方法	-13699
货币宽松	-13700
货币当局	-13701
这种说法	-13702
阿塞拜疆	-13703
风险管理	-13704
骇人听闻	-13705
▁澳大利亚	-13706
▁许多国家	-13707
产品和服务	-13708
地区和全球	-13709
奥斯曼帝国	-13710
并不是一个	-13711
所做的那样	-13712
提供更多的	-13713
欧洲委员会	-13714
由此产生的	-13715
的原因之一	-13716
巴黎气候协定	-13717
带来了巨大的	-13718
所指出的那样	-13719
解决这个问题	-13720
解释了为什么	-13721
首席经济学家	-13722
▁可以肯定的是	-13723
国际货币基金组织的	-13724
ND	-13725
▁所	-13726
一组	-13727
三位	-13728
不胜	-13729
东扩	-13730
两院	-13731
举债	-13732
之所	-13733
倒是	-13734
八年	-13735
兴旺	-13736
冲绳	-13737
切尼	-13738
加盟	-13739
即可	-13740
古代	-13741
另类	-13742
吉斯	-13743
回家	-13744
国和	-13745
在向	-13746
如下	-13747
它来	-13748
寥寥	-13749
尔森	-13750
差额	-13751
市盈	-13752
年起	-13753
废物	-13754
惊奇	-13755
想一	-13756
打下	-13757
抵触	-13758
拉低	-13759
控股	-13760
摧残	-13761
曼谷	-13762
汇聚	-13763
法兰	-13764
潜艇	-13765
物资	-13766
率先	-13767
生动	-13768
界的	-13769
相差	-13770
给他	-13771
能对	-13772
自问	-13773
诅咒	-13774
调动	-13775
赞誉	-13776
运送	-13777
陈词	-13778
随心	-13779
高尚	-13780
ESM	-13781
▁An	-13782
▁Mo	-13783
▁保护	-13784
▁可能	-13785
▁外国	-13786
▁尤其	-13787
▁而对	-13788
不动产	-13789
世界观	-13790
中指出	-13791
为人知	-13792
也更加	-13793
了一套	-13794
产生于	-13795
以应对	-13796
以解决	-13797
会影响	-13798
但对于	-13799
免不了	-13800
其影响	-13801
军队和	-13802
出一辙	-13803
发出的	-13804
另一方	-13805
可以和	-13806
可能给	-13807
和媒体	-13808
和执行	-13809
大问题	-13810
好莱坞	-13811
完成的	-13812
将中国	-13813
屈从于	-13814
市场化	-13815
年以前	-13816
开放和	-13817
当美国	-13818
德国在	-13819
必须的	-13820
恢复到	-13821
政治化	-13822
是出于	-13823
是这一	-13824
有一半	-13825
权力和	-13826
核裁军	-13827
正处在	-13828
比现在	-13829
特征是	-13830
特里谢	-13831
理论的	-13832
病人的	-13833
的义务	-13834
的人力	-13835
的借口	-13836
的减少	-13837
的境地	-13838
的开始	-13839
的演讲	-13840
的通胀	-13841
稳定与	-13842
第一大	-13843
结构的	-13844
统治下	-13845
维持其	-13846
而他们	-13847
能实现	-13848
被发现	-13849
解释说	-13850
近一半	-13851
这一步	-13852
释放出	-13853
需要为	-13854
1500	-13855
edic	-13856
tain	-13857
▁中国在	-13858
▁他们在	-13859
▁而现在	-13860
▁这不仅	-13861
▁这两种	-13862
严重威胁	-13863
为什么要	-13864
也受到了	-13865
以及欧洲	-13866
任何人都	-13867
债务问题	-13868
健康问题	-13869
几个月来	-13870
刺激增长	-13871
势力范围	-13872
受害者的	-13873
在该地区	-13874
基本收入	-13875
外汇市场	-13876
平衡预算	-13877
应该获得	-13878
快速发展	-13879
持续增长	-13880
是全世界	-13881
是否定的	-13882
普通公民	-13883
武装部队	-13884
流动资金	-13885
清算银行	-13886
激励机制	-13887
特别是当	-13888
的不信任	-13889
的失业率	-13890
真实利率	-13891
科学家和	-13892
结构调整	-13893
绿色能源	-13894
能源供应	-13895
资本重组	-13896
资源配置	-13897
重新获得	-13898
随心所欲	-13899
马萨诸塞	-13900
ocial	-13901
▁2002	-13902
▁也就是说	-13903
世界银行和	-13904
中国的经济	-13905
在巴勒斯坦	-13906
极端主义者	-13907
欧盟和美国	-13908
沃尔福威茨	-13909
的中产阶级	-13910
的国家安全	-13911
社会安全网	-13912
贸易自由化	-13913
近几十年来	-13914
▁但不幸的是	-13915
使用化学武器	-13916
国际货币体系	-13917
所面临的问题	-13918
证明了这一点	-13919
ecurity	-13920
▁Health	-13921
▁同样重要的是	-13922
美国总统特朗普	-13923
▁Partnership	-13924
BC	-13925
▁乍	-13926
▁四	-13927
一书	-13928
一千	-13929
上层	-13930
上看	-13931
上空	-13932
不一	-13933
不切	-13934
严苛	-13935
中也	-13936
令我	-13937
你会	-13938
公告	-13939
军国	-13940
劝说	-13941
单个	-13942
卖出	-13943
参谋	-13944
固执	-13945
国库	-13946
坐等	-13947
契合	-13948
孤独	-13949
左倾	-13950
巨人	-13951
开设	-13952
弱小	-13953
怀孕	-13954
急迫	-13955
患病	-13956
成人	-13957
手下	-13958
手可	-13959
把这	-13960
拖欠	-13961
推论	-13962
提炼	-13963
收费	-13964
施以	-13965
更早	-13966
毛里	-13967
水面	-13968
法令	-13969
的头	-13970
皇家	-13971
监察	-13972
种群	-13973
科特	-13974
称作	-13975
算是	-13976
纠结	-13977
美俄	-13978
耶鲁	-13979
肆无	-13980
胜于	-13981
能与	-13982
规格	-13983
诗人	-13984
赖于	-13985
越好	-13986
路口	-13987
避风	-13988
防火	-13989
黑色	-13990
Moh	-13991
enn	-13992
for	-13993
icy	-13994
oci	-13995
ure	-13996
▁21	-13997
▁30	-13998
▁En	-13999
▁与其	-14000
▁在他	-14001
▁技术	-14002
▁改变	-14003
▁难民	-14004
一切都	-14005
一无所	-14006
不包括	-14007
中找到	-14008
中的一	-14009
也相当	-14010
了全球	-14011
了超过	-14012
从中国	-14013
会受到	-14014
使它们	-14015
其结果	-14016
出租车	-14017
则认为	-14018
占到了	-14019
占据着	-14020
另一次	-14021
可以对	-14022
和也门	-14023
和维持	-14024
在其中	-14025
地支持	-14026
大约有	-14027
宪法的	-14028
将不再	-14029
就会被	-14030
布什的	-14031
年以后	-14032
很难说	-14033
总额的	-14034
承认了	-14035
报告的	-14036
排除了	-14037
推动的	-14038
敌人的	-14039
普通的	-14040
暂时性	-14041
最脆弱	-14042
月开始	-14043
有问题	-14044
来看待	-14045
残酷的	-14046
的农民	-14047
的希腊	-14048
的短期	-14049
的联邦	-14050
的著作	-14051
的评估	-14052
目睹了	-14053
网络的	-14054
能说明	-14055
自主权	-14056
行为和	-14057
被告知	-14058
证券化	-14059
误导性	-14060
这些新	-14061
遥远的	-14062
都是由	-14063
革命性	-14064
风险是	-14065
40%,	-14066
roup	-14067
▁人民币	-14068
▁他认为	-14069
▁在印度	-14070
▁在某些	-14071
▁很多人	-14072
▁最新的	-14073
▁而随着	-14074
▁这使得	-14075
▁这是个	-14076
一致同意	-14077
七十年代	-14078
不断恶化	-14079
不是为了	-14080
世界主要	-14081
两个国家	-14082
中国必须	-14083
人的生活	-14084
从中获益	-14085
但是他们	-14086
公民自由	-14087
关系密切	-14088
其他许多	-14089
军事冲突	-14090
博科圣地	-14091
在乌克兰	-14092
在美国的	-14093
在选举中	-14094
奥尔默特	-14095
季莫申科	-14096
将在今年	-14097
建立新的	-14098
急剧下降	-14099
成为美国	-14100
把自己的	-14101
投资者和	-14102
收入增长	-14103
政治精英	-14104
昂山素季	-14105
是另一个	-14106
更强大的	-14107
沙文主义	-14108
犹豫不决	-14109
生产力的	-14110
的一体化	-14111
的什叶派	-14112
社会责任	-14113
管理不善	-14114
肆无忌惮	-14115
蒙受损失	-14116
表面上看	-14117
货币交易	-14118
足够多的	-14119
转移到了	-14120
逍遥法外	-14121
那么我们	-14122
重新开始	-14123
难以为继	-14124
—2012	-14125
▁Fund	-14126
▁一些国家	-14127
▁有鉴于此	-14128
▁这些都是	-14129
一定程度的	-14130
不平等状况	-14131
出人意料地	-14132
创造了一个	-14133
劳动力大军	-14134
富裕国家的	-14135
引人注目的	-14136
海平面上升	-14137
令人印象深刻	-14138
全球金融体系	-14139
可预见的未来	-14140
民意调查显示	-14141
▁在这样的环境下	-14142
亚洲基础设施投资银行	-14143
"。	-14144
,8	-14145
CS	-14146
Ed	-14147
ww	-14148
▁曾	-14149
▁皮	-14150
不移	-14151
丢失	-14152
丢掉	-14153
主人	-14154
也给	-14155
五倍	-14156
亲自	-14157
从其	-14158
伦斯	-14159
光荣	-14160
克拉	-14161
公顷	-14162
养殖	-14163
分娩	-14164
刊登	-14165
制订	-14166
匿名	-14167
取悦	-14168
同道	-14169
后才	-14170
坦白	-14171
基尼	-14172
天后	-14173
天生	-14174
失利	-14175
好奇	-14176
子和	-14177
学费	-14178
定于	-14179
定罪	-14180
密度	-14181
少于	-14182
屈辱	-14183
年为	-14184
底线	-14185
强健	-14186
录像	-14187
我是	-14188
房地	-14189
所属	-14190
手脚	-14191
拟议	-14192
拥抱	-14193
接班	-14194
撒谎	-14195
撤回	-14196
敏锐	-14197
文盲	-14198
旗号	-14199
无权	-14200
暗淡	-14201
有罪	-14202
村民	-14203
板上	-14204
极易	-14205
梅尼	-14206
求助	-14207
沙皇	-14208
法郎	-14209
爱沙	-14210
现已	-14211
的马	-14212
直言	-14213
相连	-14214
相邻	-14215
碳氢	-14216
离心	-14217
第六	-14218
签字	-14219
算计	-14220
细致	-14221
维度	-14222
罗毕	-14223
者所	-14224
能从	-14225
腹泻	-14226
舍尔	-14227
航天	-14228
英法	-14229
蛊惑	-14230
蹒跚	-14231
迁往	-14232
递交	-14233
错失	-14234
限额	-14235
雨林	-14236
食用	-14237
鲨鱼	-14238
WTO	-14239
lic	-14240
lin	-14241
ust	-14242
▁Ab	-14243
▁降低	-14244
一致性	-14245
上涨了	-14246
两者的	-14247
为实现	-14248
也未能	-14249
了很多	-14250
事务中	-14251
仅有的	-14252
他人的	-14253
储蓄者	-14254
全国性	-14255
其他的	-14256
利率和	-14257
制定出	-14258
加强对	-14259
危机时	-14260
压力下	-14261
和法律	-14262
圣诞节	-14263
在短期	-14264
在解决	-14265
对西方	-14266
尼日尔	-14267
年收入	-14268
并增加	-14269
并实施	-14270
强化的	-14271
我们从	-14272
所发生	-14273
承诺将	-14274
投机性	-14275
掌握着	-14276
收到了	-14277
数十亿	-14278
方设法	-14279
是欧盟	-14280
是这样	-14281
正义党	-14282
比如说	-14283
水平上	-14284
法基斯	-14285
的人员	-14286
的债券	-14287
的回报	-14288
的官员	-14289
的实施	-14290
的投票	-14291
的种族	-14292
的繁荣	-14293
的评论	-14294
的象征	-14295
真实的	-14296
穷人和	-14297
突破性	-14298
米洛舍	-14299
组成了	-14300
经济区	-14301
绝不能	-14302
而欧盟	-14303
至今仍	-14304
贸易战	-14305
路易斯	-14306
过高的	-14307
这三个	-14308
进程中	-14309
遇到了	-14310
避风港	-14311
那些被	-14312
银行在	-14313
限制的	-14314
预期的	-14315
领袖们	-14316
领袖的	-14317
4000	-14318
60%。	-14319
FARC	-14320
Jean	-14321
▁2%。	-14322
▁很明显	-14323
一个更加	-14324
一点都不	-14325
不是因为	-14326
严重问题	-14327
二十年中	-14328
债务减免	-14329
其中之一	-14330
冷战时期	-14331
几个月前	-14332
卡尔德隆	-14333
及其盟友	-14334
可以避免	-14335
合作关系	-14336
和联合国	-14337
土耳其人	-14338
增长前景	-14339
增长率为	-14340
如出一辙	-14341
实际情况	-14342
对叙利亚	-14343
市场失灵	-14344
德国经济	-14345
必须成为	-14346
怀疑论者	-14347
提供服务	-14348
摩根大通	-14349
政府开支	-14350
政治权力	-14351
最后一次	-14352
来说都是	-14353
核心问题	-14354
橙色革命	-14355
沙特王国	-14356
爆发以来	-14357
爱沙尼亚	-14358
环境问题	-14359
理由认为	-14360
的一点是	-14361
的是一个	-14362
的第二个	-14363
石油出口	-14364
研究显示	-14365
美国国家	-14366
苦苦挣扎	-14367
该委员会	-14368
边际税率	-14369
这项任务	-14370
金融时报	-14371
银行监管	-14372
长期投资	-14373
onald	-14374
ution	-14375
▁各国政府	-14376
▁哥本哈根	-14377
▁如果这一	-14378
中国的崛起	-14379
之间的分歧	-14380
之间的差异	-14381
取得了成功	-14382
和委内瑞拉	-14383
姆斯菲尔德	-14384
已经超过了	-14385
所有国家都	-14386
进一步加剧	-14387
年轻人失业率	-14388
很长一段时间	-14389
美国总统大选	-14390
货币市场基金	-14391
vestment	-14392
▁Council	-14393
跨大西洋贸易和投资伙伴关系	-14394
NI	-14395
PE	-14396
▁给	-14397
上调	-14398
乌兹	-14399
也好	-14400
也没	-14401
互补	-14402
他和	-14403
何况	-14404
保有	-14405
倾销	-14406
光耀	-14407
内涵	-14408
分量	-14409
别国	-14410
办事	-14411
厌倦	-14412
吸毒	-14413
周刊	-14414
哈耶	-14415
困局	-14416
塞内	-14417
声势	-14418
多家	-14419
大厦	-14420
大打	-14421
夭折	-14422
如其	-14423
层级	-14424
并存	-14425
怀有	-14426
意欲	-14427
手册	-14428
扰乱	-14429
抗争	-14430
护士	-14431
担当	-14432
拿马	-14433
指南	-14434
推崇	-14435
是的	-14436
本该	-14437
来做	-14438
欧安	-14439
民权	-14440
满了	-14441
研制	-14442
穆勒	-14443
算法	-14444
纸币	-14445
肉类	-14446
色情	-14447
蓝领	-14448
让你	-14449
身陷	-14450
较弱	-14451
追逐	-14452
队的	-14453
震荡	-14454
面包	-14455
领衔	-14456
首任	-14457
13%	-14458
ICT	-14459
ase	-14460
ier	-14461
ise	-14462
yan	-14463
·11	-14464
▁一份	-14465
▁上周	-14466
▁二战	-14467
▁当局	-14468
▁据说	-14469
▁曾经	-14470
▁超过	-14471
一个有	-14472
一书中	-14473
与我们	-14474
专业化	-14475
为中国	-14476
乌兹别	-14477
了整个	-14478
了解到	-14479
但许多	-14480
供给端	-14481
做的事	-14482
党派的	-14483
出生率	-14484
医疗和	-14485
卡特尔	-14486
古老的	-14487
可以使	-14488
和外交	-14489
围绕着	-14490
在面对	-14491
增加对	-14492
大气中	-14493
妨碍了	-14494
完整的	-14495
将得到	-14496
将被迫	-14497
就显得	-14498
开发和	-14499
或者在	-14500
提到的	-14501
斗争的	-14502
方方面	-14503
是怎样	-14504
更喜欢	-14505
最令人	-14506
有义务	-14507
有效性	-14508
李光耀	-14509
来管理	-14510
正在被	-14511
比过去	-14512
沉重的	-14513
治理的	-14514
法院的	-14515
理论家	-14516
的准备	-14517
的对策	-14518
的朝鲜	-14519
的汇率	-14520
的访问	-14521
石油的	-14522
系统和	-14523
而得到	-14524
联系的	-14525
萨利赫	-14526
让这些	-14527
该协定	-14528
调查局	-14529
贫困率	-14530
资金和	-14531
走上了	-14532
走到了	-14533
起源于	-14534
这一新	-14535
退出的	-14536
随时间	-14537
饥饿和	-14538
高效的	-14539
15%,	-14540
1974	-14541
2500	-14542
ISIS	-14543
Uber	-14544
ject	-14545
▁4%。	-14546
▁8%。	-14547
▁Mon	-14548
▁其他人	-14549
▁只有当	-14550
▁在经济	-14551
▁失业率	-14552
▁当时的	-14553
▁肯尼亚	-14554
▁莫斯科	-14555
▁这也许	-14556
不同国家	-14557
与欧盟的	-14558
中国官员	-14559
从长期看	-14560
他的政府	-14561
保持稳定	-14562
公开市场	-14563
六十年代	-14564
关键因素	-14565
军事基地	-14566
削减支出	-14567
国际收支	-14568
在过去的	-14569
外部需求	-14570
密切关注	-14571
已经非常	-14572
市场价格	-14573
并不容易	-14574
想方设法	-14575
所有问题	-14576
投资者们	-14577
无家可归	-14578
无法得到	-14579
更是如此	-14580
本身就是	-14581
没有哪个	-14582
环境破坏	-14583
生产成本	-14584
电子邮件	-14585
的反对者	-14586
的欧洲人	-14587
的目的是	-14588
的领导者	-14589
相互作用	-14590
社会保险	-14591
继续存在	-14592
美国国内	-14593
萨尔瓦多	-14594
西方世界	-14595
财政扩张	-14596
赢得选举	-14597
遭到破坏	-14598
金融抑制	-14599
阿卜杜勒	-14600
阿拉维派	-14601
4,000	-14602
overn	-14603
—2010	-14604
▁Bern	-14605
▁绝大多数	-14606
世界各国的	-14607
保护主义的	-14608
切尔诺贝利	-14609
发生了什么	-14610
可持续增长	-14611
和其他许多	-14612
和欧洲央行	-14613
哈佛大学的	-14614
奥巴马医保	-14615
实实在在的	-14616
持不同政见	-14617
指出的那样	-14618
根本不存在	-14619
的社会保障	-14620
的经济状况	-14621
米洛舍维奇	-14622
表现出来的	-14623
还有待观察	-14624
这样的情况	-14625
马克思主义	-14626
马歇尔计划	-14627
▁克里姆林宫	-14628
▁越来越多的	-14629
中等收入国家	-14630
今年早些时候	-14631
凯恩斯主义者	-14632
很长的路要走	-14633
欧洲中央银行	-14634
欧盟成员国的	-14635
民族主义情绪	-14636
经常账户盈余	-14637
100,000	-14638
▁Climate	-14639
▁Summers	-14640
2/	-14641
47	-14642
PR	-14643
ax	-14644
▁跟	-14645
一人	-14646
一生	-14647
三世	-14648
上一	-14649
下定	-14650
专政	-14651
丝毫	-14652
中俄	-14653
丰厚	-14654
乃是	-14655
五月	-14656
交接	-14657
亲属	-14658
以求	-14659
兜售	-14660
兴盛	-14661
内心	-14662
几项	-14663
利他	-14664
化身	-14665
却对	-14666
厄运	-14667
可悲	-14668
名人	-14669
向往	-14670
回落	-14671
国旗	-14672
在任	-14673
基什	-14674
堡垒	-14675
墨尔	-14676
够了	-14677
好战	-14678
存储	-14679
它也	-14680
它还	-14681
定为	-14682
寨卡	-14683
寻租	-14684
尔班	-14685
届时	-14686
已成	-14687
幼稚	-14688
弗雷	-14689
急速	-14690
投降	-14691
护照	-14692
接壤	-14693
收容	-14694
效忠	-14695
整顿	-14696
既定	-14697
是件	-14698
是它	-14699
暴君	-14700
渔民	-14701
热爱	-14702
狭窄	-14703
相容	-14704
税法	-14705
立陶	-14706
类的	-14707
而当	-14708
而无	-14709
胜选	-14710
能被	-14711
自足	-14712
莫桑	-14713
表象	-14714
贩卖	-14715
跌幅	-14716
跟上	-14717
迪克	-14718
雅克	-14719
韧性	-14720
高潮	-14721
,10	-14722
17%	-14723
9%。	-14724
ney	-14725
ore	-14726
ver	-14727
▁Ad	-14728
▁Kr	-14729
▁Th	-14730
▁东亚	-14731
▁同理	-14732
▁增长	-14733
▁当年	-14734
▁本周	-14735
▁牛津	-14736
▁第五	-14737
▁选举	-14738
一次性	-14739
一直被	-14740
一直都	-14741
下一步	-14742
东正教	-14743
中只有	-14744
也不应	-14745
了一致	-14746
享受着	-14747
什维利	-14748
从而将	-14749
他已经	-14750
以帮助	-14751
以每年	-14752
会持续	-14753
但是这	-14754
入学率	-14755
内罗毕	-14756
动荡的	-14757
发动机	-14758
向我们	-14759
和增加	-14760
和消费	-14761
哈耶克	-14762
在这种	-14763
墨尔本	-14764
多数人	-14765
多数派	-14766
富人的	-14767
对一个	-14768
对朝鲜	-14769
左右的	-14770
已故的	-14771
市盈率	-14772
常常会	-14773
微生物	-14774
想要的	-14775
想象力	-14776
我们还	-14777
所引发	-14778
推高了	-14779
明年的	-14780
是值得	-14781
是否是	-14782
更严重	-14783
更像是	-14784
有价值	-14785
欧尔班	-14786
由国家	-14787
疫苗的	-14788
的一方	-14789
的主张	-14790
的生存	-14791
签订了	-14792
翻一番	-14793
而我们	-14794
而政府	-14795
臂之力	-14796
艺术家	-14797
规定了	-14798
让市场	-14799
谢里夫	-14800
赋予了	-14801
进口品	-14802
部门和	-14803
都具有	-14804
阿布哈	-14805
预料到	-14806
高通胀	-14807
6000	-14808
anke	-14809
emoc	-14810
ront	-14811
tive	-14812
▁TPP	-14813
▁但上述	-14814
▁但人们	-14815
▁反过来	-14816
▁接下来	-14817
万美元的	-14818
世界最大	-14819
中国需要	-14820
中美两国	-14821
人们可以	-14822
从本质上	-14823
住房价格	-14824
共同努力	-14825
共同目标	-14826
其他部分	-14827
再次发生	-14828
军事打击	-14829
即使是在	-14830
参与其中	-14831
和伊斯兰	-14832
和共和党	-14833
国际体系	-14834
基因工程	-14835
基本原则	-14836
如何解决	-14837
对土耳其	-14838
导致美国	-14839
已经结束	-14840
意识到了	-14841
所引起的	-14842
所采取的	-14843
换句话说	-14844
数十年来	-14845
整体经济	-14846
斯蒂格尔	-14847
是不可能	-14848
有所改善	-14849
有更多的	-14850
构成威胁	-14851
民间社会	-14852
浮动汇率	-14853
的价值观	-14854
能够得到	-14855
莫桑比克	-14856
要归功于	-14857
认真考虑	-14858
这种现象	-14859
重新统一	-14860
金融公司	-14861
阿富汗和	-14862
风险资本	-14863
▁1979	-14864
▁但事实上	-14865
▁尼日利亚	-14866
▁拉丁美洲	-14867
俄罗斯总统	-14868
华盛顿特区	-14869
发生的事件	-14870
很好的例子	-14871
总理默克尔	-14872
新兴国家的	-14873
欧洲和日本	-14874
独一无二的	-14875
的关键因素	-14876
的经济利益	-14877
艰巨的任务	-14878
解释了为何	-14879
▁所有这一切	-14880
▁这就是为何	-14881
中低收入国家	-14882
和其他国家的	-14883
在过去十年中	-14884
merican	-14885
▁在这样的情况下	-14886
▁美国总统奥巴马	-14887
▁International	-14888
BS	-14889
ts	-14890
▁̃	-14891
▁并	-14892
▁照	-14893
一党	-14894
一线	-14895
上所	-14896
不放	-14897
东非	-14898
丽莎	-14899
之情	-14900
事宜	-14901
五国	-14902
人手	-14903
付款	-14904
传输	-14905
做过	-14906
公斤	-14907
决非	-14908
凯利	-14909
加倍	-14910
单身	-14911
单靠	-14912
却又	-14913
原谅	-14914
参拜	-14915
反之	-14916
可控	-14917
地被	-14918
场景	-14919
夺回	-14920
奴役	-14921
季节	-14922
对华	-14923
尚早	-14924
年才	-14925
广为	-14926
广袤	-14927
得过	-14928
德的	-14929
感知	-14930
所受	-14931
所持	-14932
拉宾	-14933
措辞	-14934
支援	-14935
斡旋	-14936
施行	-14937
无几	-14938
早先	-14939
有钱	-14940
机密	-14941
构筑	-14942
格格	-14943
正逢	-14944
泛美	-14945
注射	-14946
涨幅	-14947
滞后	-14948
珍视	-14949
疼痛	-14950
瘟疫	-14951
矿业	-14952
章程	-14953
管治	-14954
索瓦	-14955
紧紧	-14956
纵观	-14957
聚会	-14958
融化	-14959
表述	-14960
说了	-14961
车辆	-14962
邻邦	-14963
都已	-14964
铁幕	-14965
错配	-14966
闲置	-14967
雅图	-14968
餐厅	-14969
高价	-14970
ECB	-14971
Jer	-14972
agh	-14973
ech	-14974
lam	-14975
yri	-14976
▁·&	-14977
▁东盟	-14978
▁军事	-14979
▁更糟	-14980
▁约翰	-14981
▁议会	-14982
▁这笔	-14983
▁难道	-14984
▁首尔	-14985
不具有	-14986
不可行	-14987
不完全	-14988
世纪末	-14989
之以鼻	-14990
也变得	-14991
于美国	-14992
仍有待	-14993
以满足	-14994
以降低	-14995
儿童和	-14996
公信力	-14997
决定着	-14998
决策的	-14999
出台了	-15000
前首相	-15001
北约的	-15002
受到的	-15003
可能将	-15004
后危机	-15005
向公众	-15006
和改善	-15007
和越南	-15008
回答说	-15009
圣战者	-15010
在伦敦	-15011
奥斯本	-15012
妇女的	-15013
实行了	-15014
对任何	-15015
对民主	-15016
将大大	-15017
将欧洲	-15018
少数人	-15019
已经为	-15020
已经使	-15021
席之地	-15022
年中国	-15023
应当是	-15024
当其冲	-15025
得出的	-15026
必要时	-15027
必须从	-15028
想不到	-15029
所遭受	-15030
扩大其	-15031
扩展到	-15032
推出的	-15033
支付的	-15034
改革者	-15035
新生儿	-15036
是那些	-15037
朋友和	-15038
每个月	-15039
比任何	-15040
清晰地	-15041
独立党	-15042
生存的	-15043
的两倍	-15044
的就是	-15045
的收益	-15046
研究院	-15047
立场的	-15048
立陶宛	-15049
签署国	-15050
给自己	-15051
给那些	-15052
维持着	-15053
缓慢的	-15054
而其他	-15055
联合会	-15056
至少从	-15057
让许多	-15058
该政策	-15059
过渡期	-15060
连通性	-15061
部长们	-15062
都会被	-15063
需要有	-15064
非法的	-15065
面前的	-15066
1984	-15067
ange	-15068
▁4%,	-15069
▁今年的	-15070
▁只有在	-15071
▁对美国	-15072
▁美国和	-15073
▁而对于	-15074
一直处于	-15075
不仅没有	-15076
中的地位	-15077
也得到了	-15078
产业政策	-15079
今年夏天	-15080
从未有过	-15081
他自己的	-15082
令人瞩目	-15083
以及一个	-15084
六方会谈	-15085
共同市场	-15086
几个星期	-15087
创纪录的	-15088
包容性的	-15089
医疗补助	-15090
十字路口	-15091
发展战略	-15092
可以继续	-15093
可能引起	-15094
可能认为	-15095
和乌克兰	-15096
商业利益	-15097
嗤之以鼻	-15098
国际关系	-15099
坚定不移	-15100
墨西哥的	-15101
大幅上升	-15102
官僚主义	-15103
实现经济	-15104
对乌克兰	-15105
对欧洲的	-15106
将会继续	-15107
工作的人	-15108
帮助我们	-15109
平价医疗	-15110
成为一种	-15111
我们认为	-15112
所要求的	-15113
提振增长	-15114
是世界上	-15115
更倾向于	-15116
最有效的	-15117
有所改变	-15118
格格不入	-15119
段时间内	-15120
油价下跌	-15121
生产效率	-15122
生机勃勃	-15123
的人民币	-15124
的天然气	-15125
的联合国	-15126
社会动荡	-15127
私营企业	-15128
纳米比亚	-15129
经济顾问	-15130
能够提供	-15131
航空公司	-15132
英国经济	-15133
要大得多	-15134
贸易平衡	-15135
这一状况	-15136
这些数据	-15137
通胀压力	-15138
食品安全	-15139
首当其冲	-15140
▁伊斯兰国	-15141
▁哥伦比亚	-15142
▁对于那些	-15143
▁新兴市场	-15144
▁根据这一	-15145
▁这一过程	-15146
▁这些政策	-15147
▁遗憾的是	-15148
众所周知的	-15149
发生了变化	-15150
可以预见的	-15151
基础设施的	-15152
日益严重的	-15153
毫无意义的	-15154
由此带来的	-15155
的生活方式	-15156
碳氢化合物	-15157
自由主义的	-15158
越来越难以	-15159
面临的挑战	-15160
▁奥巴马政府	-15161
全球经济危机	-15162
解决这些问题	-15163
▁Global	-15164
巴勒斯坦权力机构	-15165
1⁄	-15166
GI	-15167
eg	-15168
—“	-15169
▁梅	-15170
一波	-15171
三项	-15172
下限	-15173
不停	-15174
不经	-15175
之嫌	-15176
人说	-15177
他就	-15178
付钱	-15179
代孕	-15180
代议	-15181
低价	-15182
儒家	-15183
分销	-15184
刑法	-15185
列举	-15186
初创	-15187
利特	-15188
前线	-15189
割裂	-15190
即在	-15191
另有	-15192
囚禁	-15193
地步	-15194
夏季	-15195
外衣	-15196
大亨	-15197
大增	-15198
对俄	-15199
少量	-15200
带到	-15201
干脆	-15202
引渡	-15203
引爆	-15204
惨痛	-15205
执掌	-15206
担负	-15207
拱手	-15208
文字	-15209
时宜	-15210
是用	-15211
曼努	-15212
档案	-15213
梵蒂	-15214
死了	-15215
死的	-15216
每位	-15217
派对	-15218
浓度	-15219
消化	-15220
炫耀	-15221
狼藉	-15222
电气	-15223
白白	-15224
皇帝	-15225
眼看	-15226
破碎	-15227
窒息	-15228
约合	-15229
约国	-15230
绩效	-15231
肥料	-15232
臭氧	-15233
苏尔	-15234
苛刻	-15235
蛋糕	-15236
谅解	-15237
贯穿	-15238
过大	-15239
运河	-15240
还多	-15241
还款	-15242
适度	-15243
遵从	-15244
钻井	-15245
错综	-15246
雅尔	-15247
饲养	-15248
12.	-15249
ign	-15250
off	-15251
▁0.	-15252
▁Ar	-15253
▁Mc	-15254
▁应对	-15255
与经济	-15256
与英国	-15257
个月中	-15258
中所占	-15259
为这一	-15260
也正是	-15261
了一篇	-15262
了他们	-15263
以保证	-15264
企业在	-15265
伊朗在	-15266
但最终	-15267
但由于	-15268
俄国人	-15269
克里斯	-15270
其长期	-15271
前主席	-15272
南奥塞	-15273
即便在	-15274
却未能	-15275
厢情愿	-15276
双方的	-15277
和南非	-15278
和失业	-15279
塞罗那	-15280
增加值	-15281
外交和	-15282
学校和	-15283
对环境	-15284
导致其	-15285
将减少	-15286
小得多	-15287
并鼓励	-15288
必须对	-15289
必须让	-15290
想一想	-15291
愚蠢的	-15292
所隐含	-15293
手段的	-15294
承诺在	-15295
把我们	-15296
抗议者	-15297
拉动型	-15298
掌握在	-15299
排放的	-15300
推动下	-15301
放大了	-15302
斯诺登	-15303
杠杆率	-15304
核聚变	-15305
根本就	-15306
梵蒂冈	-15307
理想的	-15308
痛苦和	-15309
的回应	-15310
的官方	-15311
的对外	-15312
的平衡	-15313
的忧虑	-15314
相形见	-15315
着重于	-15316
研究了	-15317
确实是	-15318
等国的	-15319
继续在	-15320
而且也	-15321
萨达特	-15322
表现在	-15323
袭击了	-15324
设计和	-15325
该报告	-15326
说到底	-15327
这件事	-15328
霍梅尼	-15329
高利率	-15330
1969	-15331
1972	-15332
berg	-15333
land	-15334
▁1%,	-15335
▁Pen	-15336
▁但只要	-15337
▁在他们	-15338
▁无论是	-15339
▁有人说	-15340
▁而由于	-15341
下降趋势	-15342
不可侵犯	-15343
不堪重负	-15344
世纪以来	-15345
也有一些	-15346
交易成本	-15347
他们能够	-15348
令人满意	-15349
优先事项	-15350
但并没有	-15351
做的事情	-15352
偿债能力	-15353
关注的是	-15354
养老基金	-15355
决定因素	-15356
出口增长	-15357
加入其中	-15358
历史记录	-15359
去年夏天	-15360
发展模式	-15361
可以采取	-15362
因为政府	-15363
地理位置	-15364
基什内尔	-15365
大有裨益	-15366
完全不同	-15367
寿命预期	-15368
尼古拉斯	-15369
年代早期	-15370
应该考虑	-15371
愿意接受	-15372
战略利益	-15373
截然相反	-15374
担任总理	-15375
提供更多	-15376
政治学家	-15377
整个经济	-15378
无法接受	-15379
无法避免	-15380
是美国的	-15381
更为重要	-15382
正在改变	-15383
毫不犹豫	-15384
治理结构	-15385
生产率和	-15386
的例子是	-15387
的国家中	-15388
的进一步	-15389
目前已经	-15390
直接影响	-15391
确实如此	-15392
碳排放量	-15393
精神疾病	-15394
经济结构	-15395
网络安全	-15396
网络攻击	-15397
而产生的	-15398
能源政策	-15399
葛兰运动	-15400
角度来看	-15401
解释为何	-15402
贸易逆差	-15403
资金用于	-15404
还有许多	-15405
这么一个	-15406
这些东西	-15407
阿布哈兹	-15408
需要进行	-15409
革命性的	-15410
预算盈余	-15411
Frank	-15412
Trans	-15413
—2011	-15414
▁1992	-15415
▁与此相反	-15416
▁所有人都	-15417
不足为奇了	-15418
世界最大的	-15419
也不太可能	-15420
低收入家庭	-15421
出口导向型	-15422
可持续性的	-15423
后共产主义	-15424
国民收入的	-15425
委员会成员	-15426
应该认识到	-15427
快速增长的	-15428
总统选举中	-15429
成立了一个	-15430
数万亿美元	-15431
新自由主义	-15432
更加可持续	-15433
的一个主要	-15434
的国家利益	-15435
的国际秩序	-15436
的地缘政治	-15437
的社会福利	-15438
的经济改革	-15439
自由主义者	-15440
萨卡什维利	-15441
问题的答案	-15442
两次世界大战	-15443
宏观经济稳定	-15444
巴勒斯坦民族	-15445
拉姆斯菲尔德	-15446
诺贝尔奖得主	-15447
至关重要的作用	-15448
逊尼派和什叶派	-15449
二十世纪九十年代	-15450
HP	-15451
SC	-15452
ek	-15453
▁个	-15454
▁波	-15455
一丝	-15456
不远	-15457
为新	-15458
之大	-15459
产值	-15460
付费	-15461
价比	-15462
储藏	-15463
先生	-15464
全盘	-15465
兼职	-15466
升至	-15467
卓识	-15468
又有	-15469
古怪	-15470
叫停	-15471
后尘	-15472
咄咄	-15473
喇嘛	-15474
团伙	-15475
大到	-15476
字母	-15477
安然	-15478
小农	-15479
尔尼	-15480
尔逊	-15481
尽头	-15482
年一	-15483
并能	-15484
引诱	-15485
当我	-15486
德罗	-15487
我国	-15488
托宾	-15489
扫地	-15490
收场	-15491
敌视	-15492
来者	-15493
杰出	-15494
橄榄	-15495
欣赏	-15496
歪曲	-15497
毁坏	-15498
泥潭	-15499
浪漫	-15500
热浪	-15501
然大	-15502
爱的	-15503
父辈	-15504
犀牛	-15505
瓦鲁	-15506
画面	-15507
留欧	-15508
疲劳	-15509
矿物	-15510
硬币	-15511
神奇	-15512
线上	-15513
终将	-15514
给人	-15515
绝佳	-15516
绿党	-15517
美孚	-15518
胜过	-15519
自决	-15520
自利	-15521
自尊	-15522
被占	-15523
被指	-15524
要点	-15525
谁来	-15526
财力	-15527
资质	-15528
越高	-15529
跟随	-15530
这片	-15531
违规	-15532
逝世	-15533
防治	-15534
附属	-15535
驯服	-15536
110	-15537
16%	-15538
Pro	-15539
ous	-15540
tec	-15541
▁不能	-15542
▁但有	-15543
▁扩大	-15544
▁提高	-15545
▁要么	-15546
与会者	-15547
两年内	-15548
之一的	-15549
之又少	-15550
也只有	-15551
也希望	-15552
了不起	-15553
亚图拉	-15554
从一个	-15555
从前的	-15556
从欧洲	-15557
他本人	-15558
令他们	-15559
以维持	-15560
会如何	-15561
会选择	-15562
准备着	-15563
利用了	-15564
制造的	-15565
又一场	-15566
另一些	-15567
和城市	-15568
和道德	-15569
因此在	-15570
圣保罗	-15571
在那些	-15572
在面临	-15573
复杂化	-15574
复苏的	-15575
如此多	-15576
学院的	-15577
安全性	-15578
官员和	-15579
密特朗	-15580
对印度	-15581
对外国	-15582
将会被	-15583
将迫使	-15584
就成为	-15585
尼古拉	-15586
已有的	-15587
并减少	-15588
徘徊在	-15589
恶化了	-15590
愿意为	-15591
承受着	-15592
支持其	-15593
是政府	-15594
机会的	-15595
条道路	-15596
极低的	-15597
沙特人	-15598
波兰人	-15599
深深地	-15600
然后再	-15601
爆发前	-15602
犯下了	-15603
甚至还	-15604
的动力	-15605
的各种	-15606
的呼声	-15607
的将来	-15608
的巨额	-15609
的快速	-15610
的服务	-15611
的榜样	-15612
的相对	-15613
的竞选	-15614
的背后	-15615
的衰退	-15616
的语言	-15617
的转型	-15618
的进展	-15619
看成是	-15620
称得上	-15621
突出的	-15622
第一批	-15623
第四次	-15624
纪念碑	-15625
给中国	-15626
罗德里	-15627
群体的	-15628
而如果	-15629
而遭受	-15630
被剥夺	-15631
要么是	-15632
这么多	-15633
这句话	-15634
透明的	-15635
1978	-15636
Mark	-15637
▁Rep	-15638
▁pro	-15639
▁但他的	-15640
▁但日本	-15641
▁尽管在	-15642
▁最大的	-15643
▁突尼斯	-15644
▁第一种	-15645
一个重要	-15646
不再需要	-15647
与叙利亚	-15648
二战以来	-15649
从而实现	-15650
伊朗政府	-15651
但大部分	-15652
信用评级	-15653
公众舆论	-15654
分离主义	-15655
制度改革	-15656
劳动者的	-15657
包括那些	-15658
卡钦斯基	-15659
即将到来	-15660
可能破坏	-15661
各式各样	-15662
同样重要	-15663
向全世界	-15664
国家层面	-15665
在利比亚	-15666
在欧洲的	-15667
地区安全	-15668
坚持要求	-15669
家庭消费	-15670
少之又少	-15671
工人阶级	-15672
巴以冲突	-15673
德国联邦	-15674
总统宝座	-15675
我们可能	-15676
所持有的	-15677
支持这一	-15678
政治人物	-15679
新领导人	-15680
无法承受	-15681
无法控制	-15682
更加容易	-15683
有所上升	-15684
权宜之计	-15685
某种形式	-15686
正在成为	-15687
治疗方法	-15688
深度衰退	-15689
漠不关心	-15690
由来已久	-15691
的阿拉伯	-15692
私人消费	-15693
紧缩措施	-15694
结果如何	-15695
统治下的	-15696
而导致的	-15697
财政契约	-15698
这些公司	-15699
远见卓识	-15700
重大变化	-15701
重新建立	-15702
预算平衡	-15703
高失业率	-15704
ilton	-15705
▁为了避免	-15706
▁在过去的	-15707
▁更糟的是	-15708
▁美国经济	-15709
▁这一问题	-15710
一次又一次	-15711
严重的问题	-15712
前所未有地	-15713
在过去十年	-15714
埃克森美孚	-15715
埃博拉病毒	-15716
已经出现了	-15717
最大限度地	-15718
瓦鲁法基斯	-15719
究竟是什么	-15720
系统性风险	-15721
经济的增长	-15722
部分原因是	-15723
全球金融市场	-15724
在这个问题上	-15725
所发生的事情	-15726
vention	-15727
▁Policy	-15728
▁这并不意味着	-15729
政府间气候变化	-15730
诺贝尔奖获得者	-15731
▁Bernanke	-15732
诺贝尔经济学奖获得者	-15733
",	-15734
we	-15735
▁e	-15736
▁二	-15737
▁奥	-15738
▁科	-15739
一向	-15740
一根	-15741
专长	-15742
严密	-15743
之国	-15744
他与	-15745
以期	-15746
任意	-15747
传说	-15748
住在	-15749
住所	-15750
先行	-15751
先驱	-15752
光诚	-15753
冰盖	-15754
决意	-15755
刑警	-15756
刺杀	-15757
剂量	-15758
卡车	-15759
印证	-15760
去做	-15761
和最	-15762
哈塔	-15763
圈子	-15764
地是	-15765
塔吉	-15766
大局	-15767
大片	-15768
大行	-15769
媒介	-15770
孤儿	-15771
学到	-15772
安纳	-15773
将向	-15774
尖端	-15775
干净	-15776
并于	-15777
引力	-15778
微型	-15779
心里	-15780
性格	-15781
所占	-15782
才有	-15783
扫清	-15784
捉摸	-15785
排挤	-15786
摄入	-15787
攸关	-15788
月度	-15789
木材	-15790
杜绝	-15791
流域	-15792
液压	-15793
温暖	-15794
点的	-15795
特纳	-15796
特网	-15797
狂欢	-15798
独有	-15799
珍珠	-15800
的书	-15801
的女	-15802
的长	-15803
着实	-15804
研讨	-15805
私募	-15806
而将	-15807
自拔	-15808
艾森	-15809
茂德	-15810
蒂亚	-15811
解救	-15812
警觉	-15813
识字	-15814
贪污	-15815
辍学	-15816
逾越	-15817
邻近	-15818
都比	-15819
采伐	-15820
问鼎	-15821
阴暗	-15822
阿赫	-15823
难怪	-15824
面值	-15825
餐馆	-15826
驾驭	-15827
麦加	-15828
,12	-15829
10—	-15830
14%	-15831
8%,	-15832
CDS	-15833
fer	-15834
▁1.	-15835
▁Pe	-15836
▁但该	-15837
▁媒体	-15838
▁希望	-15839
▁此时	-15840
▁泰国	-15841
▁谈判	-15842
▁资本	-15843
▁这让	-15844
下一场	-15845
不及待	-15846
不如说	-15847
不容易	-15848
不结盟	-15849
中占据	-15850
之不理	-15851
也很难	-15852
人员和	-15853
今后的	-15854
以及为	-15855
以时日	-15856
以阻止	-15857
会削弱	-15858
伯利亚	-15859
似乎对	-15860
公布了	-15861
再培训	-15862
准确的	-15863
反对票	-15864
古兰经	-15865
句名言	-15866
吸引着	-15867
和人权	-15868
哈维尔	-15869
因为对	-15870
国内和	-15871
圣彼得	-15872
在上述	-15873
地指出	-15874
大手笔	-15875
姆斯特	-15876
它们都	-15877
富裕的	-15878
将影响	-15879
将更加	-15880
尤科斯	-15881
尼赫鲁	-15882
尽管它	-15883
峰会的	-15884
巴拿马	-15885
平等性	-15886
并允许	-15887
并由此	-15888
性价比	-15889
戏剧性	-15890
我们是	-15891
所表明	-15892
所要求	-15893
批评家	-15894
承包商	-15895
报告说	-15896
指的是	-15897
收益的	-15898
政府会	-15899
政策上	-15900
是十分	-15901
普什图	-15902
更高效	-15903
最近对	-15904
机会和	-15905
来证明	-15906
棱两可	-15907
欧元和	-15908
正准备	-15909
正在为	-15910
泡沫的	-15911
活力和	-15912
的媒体	-15913
的对抗	-15914
的重点	-15915
直接的	-15916
相当的	-15917
科学和	-15918
科学界	-15919
突然间	-15920
罕见的	-15921
罪行的	-15922
股票和	-15923
背负着	-15924
能成为	-15925
被禁止	-15926
让国家	-15927
话语权	-15928
趣的是	-15929
这样说	-15930
那么他	-15931
都将是	-15932
阿联酋	-15933
陈光诚	-15934
陷入到	-15935
韩国人	-15936
驱逐出	-15937
8000	-15938
cker	-15939
▁事实是	-15940
▁但今天	-15941
▁匈牙利	-15942
▁在整个	-15943
▁在日本	-15944
▁如果要	-15945
▁尽管有	-15946
▁我希望	-15947
▁第二种	-15948
▁而这种	-15949
▁这一切	-15950
一臂之力	-15951
不可否认	-15952
不断加剧	-15953
严重不足	-15954
为自己的	-15955
也可以在	-15956
也适用于	-15957
产出增长	-15958
人类活动	-15959
仍在继续	-15960
令人吃惊	-15961
克里斯蒂	-15962
全球化和	-15963
关税壁垒	-15964
冷战结束	-15965
创造条件	-15966
危机前的	-15967
叛乱分子	-15968
因果关系	-15969
国际经济	-15970
在我们的	-15971
外部冲击	-15972
大马士革	-15973
如何处理	-15974
实现和平	-15975
实际工资	-15976
就业增长	-15977
所拥有的	-15978
政治力量	-15979
政治改革	-15980
数字技术	-15981
方方面面	-15982
方面起到	-15983
无法确定	-15984
最佳实践	-15985
最近一次	-15986
有时甚至	-15987
朝鲜政权	-15988
欧洲工程	-15989
欧洲需要	-15990
正在走向	-15991
民意测验	-15992
民间团体	-15993
注意力从	-15994
消除贫困	-15995
爱尔兰和	-15996
的背景下	-15997
私人债务	-15998
私人资本	-15999
移民政策	-16000
经济部门	-16001
继续进行	-16002
置之不理	-16003
美国官员	-16004
美国必须	-16005
而这正是	-16006
自由裁量	-16007
要求他们	-16008
观点认为	-16009
货币供应	-16010
货币扩张	-16011
贸易部门	-16012
这个目标	-16013
这些项目	-16014
迫不及待	-16015
透明度和	-16016
金融产品	-16017
金融工具	-16018
银行账户	-16019
,2009	-16020
6,000	-16021
nited	-16022
▁1998	-16023
▁有人认为	-16024
▁特拉维夫	-16025
严峻的挑战	-16026
二十国集团	-16027
仍然是一个	-16028
从而进一步	-16029
其他地区的	-16030
周年纪念日	-16031
已经成为了	-16032
德国和法国	-16033
特别是如果	-16034
特朗普总统	-16035
经济政策的	-16036
而与此同时	-16037
达成的协议	-16038
ichard	-16039
伊斯兰共和国	-16040
国务卿希拉里	-16041
民粹主义政党	-16042
日本首相安倍晋三	-16043
▁具有讽刺意味的是	-16044
中国国家主席习近平	-16045
54	-16046
CT	-16047
▁́	-16048
一窥	-16049
不丹	-16050
不开	-16051
之声	-16052
争斗	-16053
代谢	-16054
俘虏	-16055
偏袒	-16056
先科	-16057
兼容	-16058
几家	-16059
出面	-16060
利茨	-16061
到位	-16062
加里	-16063
单单	-16064
印巴	-16065
参照	-16066
双赢	-16067
可达	-16068
告知	-16069
哥拉	-16070
回复	-16071
回想	-16072
国营	-16073
多国	-16074
好好	-16075
察觉	-16076
导师	-16077
尚不	-16078
已知	-16079
年长	-16080
幻灭	-16081
幼儿	-16082
开销	-16083
情境	-16084
拉拉	-16085
拉迪	-16086
教导	-16087
文本	-16088
文献	-16089
斯库	-16090
朝向	-16091
期刊	-16092
未被	-16093
次数	-16094
水源	-16095
汇集	-16096
消防	-16097
淡化	-16098
火上	-16099
灭亡	-16100
犯有	-16101
相悖	-16102
看清	-16103
税的	-16104
精诚	-16105
约占	-16106
联络	-16107
荒唐	-16108
萌芽	-16109
虚构	-16110
血统	-16111
要多	-16112
贝巴	-16113
贬低	-16114
赛尔	-16115
赤贫	-16116
起步	-16117
酋长	-16118
重叠	-16119
铲除	-16120
领海	-16121
颓势	-16122
飞速	-16123
高地	-16124
高调	-16125
140	-16126
1⁄2	-16127
Ken	-16128
act	-16129
ini	-16130
ire	-16131
▁50	-16132
▁一般	-16133
▁无法	-16134
▁特别	-16135
▁短期	-16136
▁简单	-16137
▁米兰	-16138
▁那时	-16139
三角洲	-16140
不公正	-16141
丰厚的	-16142
也认为	-16143
了下来	-16144
亿美金	-16145
以使其	-16146
以来最	-16147
伐利亚	-16148
会怎样	-16149
会破坏	-16150
但显然	-16151
倡导者	-16152
僵化的	-16153
全人类	-16154
兴奋剂	-16155
军事化	-16156
决定在	-16157
分裂为	-16158
分裂的	-16159
到现在	-16160
制造出	-16161
南部的	-16162
即将在	-16163
却并未	-16164
只有当	-16165
可见的	-16166
和他们	-16167
和公民	-16168
和改革	-16169
和组织	-16170
和财政	-16171
国家对	-16172
国民党	-16173
图书馆	-16174
在这场	-16175
大数据	-16176
如是说	-16177
它们也	-16178
对许多	-16179
工资税	-16180
平均为	-16181
并非是	-16182
应该以	-16183
当然是	-16184
惩罚性	-16185
意思是	-16186
战争后	-16187
所接受	-16188
捐助国	-16189
放在了	-16190
政府为	-16191
救世主	-16192
数千名	-16193
无政府	-16194
无能为	-16195
月份的	-16196
期间的	-16197
来满足	-16198
来看看	-16199
杰出的	-16200
核安全	-16201
汽车和	-16202
现在正	-16203
的共识	-16204
的反抗	-16205
的姿态	-16206
的宣传	-16207
的崩溃	-16208
的来源	-16209
的梦想	-16210
的研发	-16211
的经历	-16212
的补贴	-16213
相当长	-16214
短暂的	-16215
破坏力	-16216
竞争中	-16217
第二天	-16218
纽约市	-16219
给出的	-16220
者提供	-16221
而增加	-16222
能提供	-16223
艺术品	-16224
行动者	-16225
认为它	-16226
讨论了	-16227
记者的	-16228
论文中	-16229
评论员	-16230
试图用	-16231
贷款和	-16232
足以让	-16233
这将是	-16234
高级别	-16235
鼓励了	-16236
Alan	-16237
eral	-16238
ount	-16239
▁Car	-16240
▁The	-16241
▁几年前	-16242
▁在德国	-16243
▁芝加哥	-16244
▁这导致	-16245
▁进一步	-16246
三中全会	-16247
不会发生	-16248
不可预测	-16249
严重后果	-16250
中国崛起	-16251
人的利益	-16252
假以时日	-16253
停火协议	-16254
储蓄过剩	-16255
减税政策	-16256
受过良好	-16257
可以忽略	-16258
可能发生	-16259
司法体系	-16260
司法系统	-16261
和特朗普	-16262
哈马斯和	-16263
商业投资	-16264
因为中国	-16265
国际储备	-16266
土地使用	-16267
在中国的	-16268
在墨西哥	-16269
基准利率	-16270
基本权利	-16271
外部势力	-16272
安全保障	-16273
实用主义	-16274
密切相关	-16275
对此表示	-16276
将人民币	-16277
尚不清楚	-16278
工资水平	-16279
已经变得	-16280
市场上的	-16281
帮助他们	-16282
思维方式	-16283
总人口的	-16284
慈善机构	-16285
所领导的	-16286
才能确保	-16287
政治压力	-16288
暂时性的	-16289
更严格的	-16290
未来几年	-16291
本世纪末	-16292
框架公约	-16293
模棱两可	-16294
民主体制	-16295
民选政府	-16296
没有能力	-16297
的时间里	-16298
石油收入	-16299
税收政策	-16300
等方面的	-16301
美国政治	-16302
而是为了	-16303
要求我们	-16304
贸易政策	-16305
这一角色	-16306
都能获得	-16307
重新回到	-16308
银行部门	-16309
陷入瘫痪	-16310
革命卫队	-16311
▁1990	-16312
▁1997	-16313
▁世界经济	-16314
▁有趣的是	-16315
▁特别是在	-16316
▁这一趋势	-16317
中东和北非	-16318
伊斯兰教的	-16319
伊朗领导人	-16320
华盛顿邮报	-16321
可能会导致	-16322
欧洲国家的	-16323
民族主义和	-16324
的世界经济	-16325
雄心勃勃的	-16326
领导的政府	-16327
▁Fried	-16328
不平等性加剧	-16329
并不令人奇怪	-16330
阿拉伯国家的	-16331
reement	-16332
伊拉克和叙利亚	-16333
国会预算办公室	-16334
itiative	-16335
▁Security	-16336
AC	-16337
eh	-16338
fr	-16339
▁因	-16340
▁萨	-16341
▁达	-16342
下而	-16343
不屑	-16344
不然	-16345
业已	-16346
之高	-16347
从不	-16348
代言	-16349
传导	-16350
但有	-16351
先知	-16352
入境	-16353
分权	-16354
创办	-16355
助澜	-16356
参观	-16357
友谊	-16358
反叛	-16359
反感	-16360
可是	-16361
名副	-16362
和马	-16363
喜剧	-16364
在前	-16365
在最	-16366
坏账	-16367
坦率	-16368
增幅	-16369
士气	-16370
多余	-16371
天鹅	-16372
奋力	-16373
契机	-16374
子弹	-16375
审讯	-16376
家乡	-16377
尸体	-16378
尼察	-16379
已将	-16380
巴菲	-16381
布兰	-16382
幕僚	-16383
忏悔	-16384
怀旧	-16385
战事	-16386
打压	-16387
把戏	-16388
抚养	-16389
抛售	-16390
抬高	-16391
推波	-16392
收成	-16393
无形	-16394
旦旦	-16395
明晰	-16396
易于	-16397
是指	-16398
有形	-16399
查理	-16400
水泥	-16401
沙拉	-16402
洗钱	-16403
浇油	-16404
渐行	-16405
热量	-16406
王室	-16407
痕迹	-16408
直观	-16409
看不	-16410
礼貌	-16411
票数	-16412
科菲	-16413
第九	-16414
等价	-16415
组装	-16416
美分	-16417
聆听	-16418
胃口	-16419
脱颖	-16420
臃肿	-16421
自负	-16422
莱恩	-16423
行星	-16424
西尔	-16425
诱导	-16426
请愿	-16427
谷物	-16428
转嫁	-16429
这给	-16430
邦的	-16431
邻为	-16432
错过	-16433
长大	-16434
阵痛	-16435
首选	-16436
高压	-16437
高薪	-16438
黑手	-16439
,18	-16440
8%。	-16441
eld	-16442
iam	-16443
ive	-16444
ren	-16445
▁宗教	-16446
▁政策	-16447
▁更有	-16448
▁最初	-16449
▁每个	-16450
一连串	-16451
不但要	-16452
不自由	-16453
与朝鲜	-16454
两方面	-16455
严肃的	-16456
个性化	-16457
中世纪	-16458
中汲取	-16459
中没有	-16460
之下的	-16461
之处是	-16462
也一样	-16463
他可以	-16464
以减少	-16465
以后的	-16466
低效的	-16467
像过去	-16468
公布的	-16469
几何时	-16470
利润的	-16471
制度化	-16472
副总理	-16473
包括我	-16474
区域内	-16475
卡梅隆	-16476
参谋长	-16477
又开始	-16478
发病率	-16479
发起的	-16480
各地的	-16481
和亚洲	-16482
和地方	-16483
和我们	-16484
和机构	-16485
和瑞典	-16486
和生物	-16487
在决定	-16488
在财政	-16489
基本的	-16490
境内的	-16491
大错特	-16492
它不会	-16493
安哥拉	-16494
将持续	-16495
就业的	-16496
就越大	-16497
工业园	-16498
应该把	-16499
忘记了	-16500
总数的	-16501
恐怖的	-16502
意见的	-16503
或间接	-16504
打开了	-16505
描述的	-16506
来换取	-16507
来获得	-16508
每一位	-16509
法兰西	-16510
消除了	-16511
渐行渐	-16512
现阶段	-16513
的公开	-16514
的农业	-16515
的双重	-16516
的年度	-16517
的敌人	-16518
的病人	-16519
的约束	-16520
破产法	-16521
确认了	-16522
种族和	-16523
站在了	-16524
经常会	-16525
美关系	-16526
而只是	-16527
而来的	-16528
被问及	-16529
见证了	-16530
让这一	-16531
议会的	-16532
费舍尔	-16533
近几年	-16534
追求的	-16535
退休者	-16536
都有着	-16537
难民的	-16538
高失业	-16539
1944	-16540
2100	-16541
IPCC	-16542
▁Ind	-16543
▁amp	-16544
▁但也有	-16545
▁但没有	-16546
▁但目前	-16547
▁但这是	-16548
▁卡梅伦	-16549
▁在希腊	-16550
▁在法国	-16551
▁斯坦福	-16552
▁日内瓦	-16553
▁鲁哈尼	-16554
一个问题	-16555
一直保持	-16556
万亿欧元	-16557
上述目标	-16558
不再能够	-16559
东乌克兰	-16560
两国关系	-16561
中东国家	-16562
主权债券	-16563
二十年的	-16564
人口数量	-16565
从而降低	-16566
价值观和	-16567
价格下跌	-16568
但他们的	-16569
但同时也	-16570
先发制人	-16571
公共开支	-16572
公司治理	-16573
公立学校	-16574
其成员国	-16575
创造新的	-16576
刺激政策	-16577
可以理解	-16578
名副其实	-16579
和决策者	-16580
因为没有	-16581
在历史上	-16582
在土耳其	-16583
增长公约	-16584
大部分是	-16585
对伊拉克	-16586
就是这样	-16587
已经通过	-16588
年轻一代	-16589
并不十分	-16590
形成鲜明	-16591
很多人都	-16592
必须确保	-16593
必须采取	-16594
意想不到	-16595
抓住机会	-16596
推波助澜	-16597
收效甚微	-16598
政府需要	-16599
新闻媒体	-16600
新闻自由	-16601
无法提供	-16602
暴力事件	-16603
欧洲安全	-16604
正在崛起	-16605
法律框架	-16606
流动性和	-16607
火上浇油	-16608
盈利能力	-16609
监管者的	-16610
税收减免	-16611
穆斯林的	-16612
粮食生产	-16613
紧张局面	-16614
终于开始	-16615
经济学的	-16616
美国需要	-16617
翻了一番	-16618
联合行动	-16619
自给自足	-16620
证据证明	-16621
负担得起	-16622
贷款利率	-16623
都出现了	-16624
首要任务	-16625
▁中央银行	-16626
▁重要的是	-16627
三分之一的	-16628
不断增加的	-16629
中国和南非	-16630
主要集中在	-16631
之所以如此	-16632
加入欧元区	-16633
在这方面的	-16634
布什政府的	-16635
斯蒂格利茨	-16636
是因为他们	-16637
最为重要的	-16638
有可能导致	-16639
欧盟国家的	-16640
正确的方向	-16641
法国和荷兰	-16642
的最重要的	-16643
经济学家的	-16644
自己的利益	-16645
这个问题的	-16646
迫切需要的	-16647
金融稳定性	-16648
首相卡梅伦	-16649
以前所未有的	-16650
刺激经济增长	-16651
是不可避免的	-16652
气候变化问题	-16653
的新兴经济体	-16654
Richard	-16655
五大常任理事国	-16656
宽松的货币政策	-16657
艾哈迈迪内贾德	-16658
麦肯锡全球研究所	-16659
59	-16660
TM	-16661
co	-16662
gy	-16663
oy	-16664
▁又	-16665
▁水	-16666
上游	-16667
下游	-16668
举步	-16669
之火	-16670
之谜	-16671
乘客	-16672
也令	-16673
了与	-16674
仰仗	-16675
伦堡	-16676
倒向	-16677
借债	-16678
其道	-16679
农地	-16680
冲浪	-16681
助理	-16682
卡因	-16683
去除	-16684
受众	-16685
告别	-16686
在必	-16687
坚称	-16688
大受	-16689
奉献	-16690
安娜	-16691
定时	-16692
实物	-16693
容纳	-16694
寄望	-16695
将此	-16696
居然	-16697
并从	-16698
并用	-16699
归为	-16700
影像	-16701
得知	-16702
心怀	-16703
总会	-16704
意地	-16705
或将	-16706
截了	-16707
所致	-16708
指示	-16709
挺身	-16710
损伤	-16711
插手	-16712
摊子	-16713
散布	-16714
斯亚	-16715
斯登	-16716
时光	-16717
朝圣	-16718
条例	-16719
某人	-16720
标榜	-16721
核查	-16722
模拟	-16723
死后	-16724
死胡	-16725
流量	-16726
浮出	-16727
涉嫌	-16728
深信	-16729
珊瑚	-16730
畅销	-16731
看重	-16732
知晓	-16733
石头	-16734
祈祷	-16735
离任	-16736
离谱	-16737
空想	-16738
窘境	-16739
等量	-16740
粉碎	-16741
纷争	-16742
联军	-16743
脱盟	-16744
获奖	-16745
蔬菜	-16746
视同	-16747
误判	-16748
诺基	-16749
走强	-16750
越长	-16751
转让	-16752
还给	-16753
这块	-16754
这股	-16755
退缩	-16756
量子	-16757
非凡	-16758
面貌	-16759
默默	-16760
85%	-16761
III	-16762
les	-16763
ory	-16764
out	-16765
ram	-16766
”),	-16767
▁与之	-16768
▁减少	-16769
▁加强	-16770
▁发展	-16771
▁国内	-16772
▁早在	-16773
▁明年	-16774
▁此类	-16775
▁网络	-16776
▁苏联	-16777
▁身为	-16778
一个在	-16779
一定要	-16780
不情愿	-16781
与德国	-16782
与社会	-16783
与过去	-16784
世纪前	-16785
之后才	-16786
乐观的	-16787
也表明	-16788
也逐渐	-16789
他们还	-16790
以牺牲	-16791
低效率	-16792
其原因	-16793
其政府	-16794
减少到	-16795
制度下	-16796
制约了	-16797
前提是	-16798
加速了	-16799
升高的	-16800
却似乎	-16801
历史和	-16802
咄咄逼	-16803
和提高	-16804
和能力	-16805
和荷兰	-16806
哈塔米	-16807
国际上	-16808
基础是	-16809
奥尔良	-16810
女性在	-16811
婴儿潮	-16812
安德鲁	-16813
完全的	-16814
尤先科	-16815
局势的	-16816
年代和	-16817
并实现	-16818
并成为	-16819
彰显出	-16820
得出了	-16821
必须被	-16822
怎么样	-16823
愤怒的	-16824
我们又	-16825
所提供	-16826
所显示	-16827
执政者	-16828
拖累了	-16829
挑战和	-16830
是政治	-16831
有信心	-16832
有损于	-16833
有足够	-16834
来作为	-16835
核威胁	-16836
欢迎的	-16837
活动中	-16838
清晰的	-16839
的下跌	-16840
的利润	-16841
的动作	-16842
的早期	-16843
的概率	-16844
的死亡	-16845
的渴望	-16846
的终结	-16847
的自我	-16848
的行业	-16849
直截了	-16850
看一看	-16851
第四个	-16852
签订的	-16853
综合症	-16854
自己和	-16855
自己是	-16856
艾森豪	-16857
补贴和	-16858
认真地	-16859
设备和	-16860
负责人	-16861
还要高	-16862
进出口	-16863
远没有	-16864
退出了	-16865
都希望	-16866
都支持	-16867
都未能	-16868
集中营	-16869
霸权的	-16870
非营利	-16871
1949	-16872
70%。	-16873
9/11	-16874
Alex	-16875
cher	-16876
ific	-16877
usti	-16878
▁-2.	-16879
▁伊朗的	-16880
▁但是这	-16881
▁印度的	-16882
▁对中国	-16883
▁更好的	-16884
▁阿巴斯	-16885
两国政府	-16886
乌克兰人	-16887
他们没有	-16888
令人不快	-16889
以及欧盟	-16890
以此作为	-16891
价值观的	-16892
伊朗总统	-16893
全球合作	-16894
全球气温	-16895
全面禁止	-16896
关键性的	-16897
决策者和	-16898
决策过程	-16899
几十年前	-16900
出了问题	-16901
创业企业	-16902
协调一致	-16903
南奥塞梯	-16904
历史上最	-16905
压倒性的	-16906
可以减少	-16907
可以用于	-16908
圣彼得堡	-16909
增长引擎	-16910
大幅贬值	-16911
奇怪的是	-16912
如何影响	-16913
姆斯特丹	-16914
将他们的	-16915
尤为重要	-16916
年以来的	-16917
并不仅仅	-16918
延续下去	-16919
开始实施	-16920
弗朗索瓦	-16921
必须找到	-16922
意义深远	-16923
意义重大	-16924
挑战在于	-16925
政府通过	-16926
政治支持	-16927
政治问题	-16928
斯亚贝巴	-16929
日益严重	-16930
是可能的	-16931
正常运转	-16932
民主党的	-16933
民主转型	-16934
民营企业	-16935
消费增长	-16936
现代社会	-16937
的例子中	-16938
的条件下	-16939
的观点是	-16940
的领导层	-16941
相当长的	-16942
确切地说	-16943
积极影响	-16944
能源需求	-16945
菲尔普斯	-16946
解放广场	-16947
计划中的	-16948
许多人都	-16949
财富效应	-16950
贫富差距	-16951
赤字削减	-16952
这些数字	-16953
通信技术	-16954
遥不可及	-16955
重新审视	-16956
重要影响	-16957
银行业务	-16958
陷入混乱	-16959
需要通过	-16960
非常相似	-16961
黎巴嫩和	-16962
Larry	-16963
—2013	-16964
▁不管怎样	-16965
▁圣地亚哥	-16966
▁如果政府	-16967
▁直到最近	-16968
▁结果导致	-16969
与巴勒斯坦	-16970
任何形式的	-16971
全球供应链	-16972
北约成员国	-16973
同样的问题	-16974
和安全政策	-16975
岁以下儿童	-16976
市场经济的	-16977
总理温家宝	-16978
我们不应该	-16979
拥有巨大的	-16980
数以百万计	-16981
欧元区外围	-16982
特别是美国	-16983
环保主义者	-16984
的人均收入	-16985
联合国宪章	-16986
艰巨的挑战	-16987
解释为什么	-16988
运转良好的	-16989
这两个国家	-16990
这就意味着	-16991
金融和经济	-16992
10,000	-16993
50,000	-16994
▁Group	-16995
▁这就意味着	-16996
中国和俄罗斯	-16997
低收入国家的	-16998
劳动力参与率	-16999
法国和意大利	-17000
金融稳定基金	-17001
olution	-17002
美国总统巴拉克	-17003
▁Friedman	-17004
联合国秘书长潘基文	-17005
▁Investment	-17006
):	-17007
Ad	-17008
DS	-17009
hm	-17010
ru	-17011
▁–	-17012
▁莫	-17013
▁贝	-17014
、“	-17015
一击	-17016
一刀	-17017
一团	-17018
一堂	-17019
三名	-17020
上月	-17021
世代	-17022
习俗	-17023
五角	-17024
人与	-17025
人皆	-17026
他被	-17027
传媒	-17028
伦比	-17029
供水	-17030
侵袭	-17031
八个	-17032
六年	-17033
冬天	-17034
冰山	-17035
刑讯	-17036
划算	-17037
前列	-17038
剧增	-17039
十六	-17040
卡路	-17041
即时	-17042
厘清	-17043
又被	-17044
反射	-17045
受控	-17046
合伙	-17047
向上	-17048
向着	-17049
告诫	-17050
和以	-17051
和被	-17052
商讨	-17053
地为	-17054
声名	-17055
大米	-17056
天皇	-17057
妖魔	-17058
学界	-17059
定制	-17060
定论	-17061
寄生	-17062
小怪	-17063
尔摩	-17064
尘埃	-17065
尼拉	-17066
岛国	-17067
巨变	-17068
开会	-17069
开办	-17070
忘了	-17071
惧怕	-17072
憧憬	-17073
成因	-17074
或被	-17075
房贷	-17076
所处	-17077
执照	-17078
抛开	-17079
捕鱼	-17080
撼动	-17081
放到	-17082
救市	-17083
散播	-17084
斯尼	-17085
新疆	-17086
日在	-17087
时尚	-17088
时才	-17089
最先	-17090
本意	-17091
某项	-17092
桑迪	-17093
正轨	-17094
母国	-17095
比这	-17096
津贴	-17097
滥调	-17098
版图	-17099
玩笑	-17100
病原	-17101
的风	-17102
眼球	-17103
示范	-17104
穆兄	-17105
穿着	-17106
第七	-17107
签名	-17108
维斯	-17109
老师	-17110
肥沃	-17111
肩负	-17112
蒙羞	-17113
西奥	-17114
誓言	-17115
议事	-17116
诸国	-17117
诺夫	-17118
课以	-17119
调低	-17120
赫勒	-17121
走廊	-17122
路德	-17123
身亡	-17124
近在	-17125
遴选	-17126
重量	-17127
防空	-17128
降幅	-17129
隐蔽	-17130
颗粒	-17131
鲁兹	-17132
麦当	-17133
麻风	-17134
齐兹	-17135
2/3	-17136
IBM	-17137
Sus	-17138
duc	-17139
lah	-17140
▁Kh	-17141
▁乔治	-17142
▁什么	-17143
▁农业	-17144
▁印尼	-17145
▁妇女	-17146
▁官方	-17147
▁相对	-17148
▁紧缩	-17149
▁缺乏	-17150
▁雅典	-17151
不完美	-17152
不能在	-17153
不至于	-17154
了政治	-17155
事件后	-17156
交易员	-17157
人口中	-17158
价值和	-17159
会变得	-17160
但至少	-17161
但这个	-17162
使用者	-17163
保证了	-17164
信任的	-17165
公开的	-17166
共有的	-17167
军事上	-17168
劳动法	-17169
医学院	-17170
发挥着	-17171
可能有	-17172
可预防	-17173
和右翼	-17174
因此也	-17175
团体的	-17176
培训和	-17177
外部性	-17178
大地震	-17179
大学和	-17180
好处的	-17181
好得多	-17182
如果要	-17183
完善的	-17184
实质上	-17185
对德国	-17186
对社会	-17187
对美元	-17188
对自身	-17189
对金融	-17190
将利率	-17191
将变得	-17192
工作时	-17193
希望和	-17194
希望能	-17195
年增长	-17196
年年中	-17197
并利用	-17198
并承诺	-17199
并提供	-17200
并支持	-17201
强国的	-17202
当选为	-17203
志愿者	-17204
总书记	-17205
总是会	-17206
成立于	-17207
提出过	-17208
提振了	-17209
政治局	-17210
敏感性	-17211
时间表	-17212
最主要	-17213
有意识	-17214
有时会	-17215
来防止	-17216
核材料	-17217
武力的	-17218
死胡同	-17219
每一项	-17220
法律与	-17221
注定会	-17222
消费量	-17223
满足于	-17224
激烈的	-17225
烂摊子	-17226
爆发时	-17227
由一个	-17228
百分之	-17229
的不良	-17230
的反腐	-17231
的审判	-17232
的强大	-17233
的担心	-17234
的治疗	-17235
的现状	-17236
的答案	-17237
的药物	-17238
的裁决	-17239
的过去	-17240
的阴影	-17241
目前已	-17242
第三种	-17243
繁荣期	-17244
结合了	-17245
继承人	-17246
美国前	-17247
而印度	-17248
能保证	-17249
能够从	-17250
能成功	-17251
自杀式	-17252
衡量的	-17253
衰退中	-17254
被看作	-17255
誓旦旦	-17256
计划将	-17257
让那些	-17258
许可证	-17259
设计师	-17260
证明其	-17261
该行业	-17262
该项目	-17263
责任和	-17264
还是有	-17265
这也许	-17266
那么就	-17267
邻为壑	-17268
零排放	-17269
领土上	-17270
2019	-17271
25%,	-17272
9·11	-17273
▁1%。	-17274
▁6%。	-17275
▁Rev	-17276
▁但印度	-17277
▁但现实	-17278
▁在没有	-17279
一定程度	-17280
上市公司	-17281
不可能在	-17282
严重影响	-17283
中美关系	-17284
主要问题	-17285
也可能会	-17286
人权宣言	-17287
人民币的	-17288
他们来说	-17289
伊朗政权	-17290
优先考虑	-17291
但却没有	-17292
但它们的	-17293
保持不变	-17294
候选人都	-17295
兑现承诺	-17296
入主白宫	-17297
决策者们	-17298
利比亚的	-17299
卢卡申科	-17300
去监管化	-17301
发达世界	-17302
可以选择	-17303
可能产生	-17304
可能最终	-17305
和平解决	-17306
国内政策	-17307
国际足联	-17308
坚决反对	-17309
外国公司	-17310
多元主义	-17311
大幅减少	-17312
大惊小怪	-17313
奥巴马在	-17314
宪法条约	-17315
就会发现	-17316
希望通过	-17317
往常一样	-17318
必须承认	-17319
快速变化	-17320
情报部门	-17321
感到惊讶	-17322
成为欧洲	-17323
我们看到	-17324
我们这些	-17325
或者其他	-17326
战争期间	-17327
才能获得	-17328
托克维尔	-17329
持续时间	-17330
改变现状	-17331
是一回事	-17332
是否可以	-17333
最强大的	-17334
有所作为	-17335
根本问题	-17336
欧安组织	-17337
正确方向	-17338
民族身份	-17339
汇率政策	-17340
深远影响	-17341
渐行渐远	-17342
激进主义	-17343
特朗普和	-17344
现在应该	-17345
矛头指向	-17346
立法机关	-17347
经济实力	-17348
维持现状	-17349
能够帮助	-17350
至少部分	-17351
融资成本	-17352
衡量标准	-17353
要求政府	-17354
要求美国	-17355
视为一个	-17356
解放出来	-17357
证据显示	-17358
象征意义	-17359
货币供给	-17360
这一模式	-17361
这些企业	-17362
这些投资	-17363
进行改革	-17364
金融援助	-17365
长期存在	-17366
长期来看	-17367
陷入麻烦	-17368
领土完整	-17369
领导力的	-17370
领导者的	-17371
,2004	-17372
World	-17373
▁Sand	-17374
▁事实证明	-17375
▁在欧元区	-17376
不受欢迎的	-17377
卫生工作者	-17378
发生了改变	-17379
存在巨大的	-17380
对经济增长	-17381
寻求庇护者	-17382
市场参与者	-17383
并不是因为	-17384
形成了一个	-17385
文化大革命	-17386
有可能成为	-17387
留在欧元区	-17388
的民主制度	-17389
盖茨基金会	-17390
管理委员会	-17391
经济的发展	-17392
联邦调查局	-17393
自上而下的	-17394
许多国家的	-17395
还为时过早	-17396
这个问题上	-17397
问题的根源	-17398
Marine	-17399
▁Found	-17400
▁但与此同时	-17401
▁巴勒斯坦人	-17402
乌兹别克斯坦	-17403
亚的斯亚贝巴	-17404
和其他地区的	-17405
固定资产投资	-17406
本月早些时候	-17407
的发展中国家	-17408
经济学家认为	-17409
长期以来一直	-17410
印度和巴基斯坦	-17411
货币和财政政策	-17412
4,	-17413
55	-17414
77	-17415
Am	-17416
En	-17417
RE	-17418
▁帕	-17419
▁弗	-17420
一本	-17421
一类	-17422
下面	-17423
不均	-17424
专员	-17425
丰裕	-17426
丹佛	-17427
之列	-17428
乌斯	-17429
乙醇	-17430
交出	-17431
交往	-17432
产妇	-17433
人将	-17434
人意	-17435
伪装	-17436
借入	-17437
冲销	-17438
决赛	-17439
冷酷	-17440
几大	-17441
前后	-17442
加权	-17443
卡斯	-17444
反响	-17445
发作	-17446
取向	-17447
受助	-17448
听从	-17449
和海	-17450
国情	-17451
复原	-17452
多位	-17453
天花	-17454
好坏	-17455
妄想	-17456
宁可	-17457
富于	-17458
将令	-17459
尾声	-17460
山区	-17461
岛上	-17462
常谈	-17463
得了	-17464
得很	-17465
德华	-17466
悄然	-17467
或不	-17468
投给	-17469
抹黑	-17470
捆绑	-17471
援手	-17472
斗士	-17473
暴徒	-17474
月和	-17475
有个	-17476
水电	-17477
没法	-17478
洛斯	-17479
渡过	-17480
漠视	-17481
濒危	-17482
猩猩	-17483
玷污	-17484
甩卖	-17485
病态	-17486
的手	-17487
皇室	-17488
皮肤	-17489
盟军	-17490
禁飞	-17491
私利	-17492
称赞	-17493
稍微	-17494
窃听	-17495
粮农	-17496
经纪	-17497
美欧	-17498
老虎	-17499
肤浅	-17500
解密	-17501
论述	-17502
话说	-17503
诱人	-17504
费尔	-17505
超市	-17506
身着	-17507
过快	-17508
过量	-17509
通行	-17510
遍及	-17511
遥遥	-17512
重拾	-17513
阳性	-17514
阿什	-17515
难逃	-17516
震撼	-17517
颁发	-17518
领头	-17519
颜色	-17520
饲料	-17521
马琳	-17522
高得	-17523
鸽派	-17524
麻疹	-17525
17.	-17526
22%	-17527
AAA	-17528
Ber	-17529
CDU	-17530
igh	-17531
ink	-17532
oth	-17533
rad	-17534
tee	-17535
▁el	-17536
▁加州	-17537
▁最为	-17538
▁看看	-17539
▁缅甸	-17540
▁试想	-17541
下个月	-17542
不景气	-17543
两国在	-17544
个月后	-17545
为何要	-17546
为那些	-17547
丽莎白	-17548
也日益	-17549
也是最	-17550
也没能	-17551
人员的	-17552
代表性	-17553
代议制	-17554
以增加	-17555
任命为	-17556
但并未	-17557
依赖的	-17558
债券和	-17559
像现在	-17560
公司将	-17561
军队在	-17562
出口和	-17563
击败了	-17564
别人的	-17565
到那时	-17566
劳伦斯	-17567
包含着	-17568
占领了	-17569
反应是	-17570
只是个	-17571
只限于	-17572
可以与	-17573
吉尼亚	-17574
同事们	-17575
和巴西	-17576
和智利	-17577
和私人	-17578
和种族	-17579
国与国	-17580
在一边	-17581
地球的	-17582
地表明	-17583
学术界	-17584
岁以上	-17585
崩溃的	-17586
年夏天	-17587
开发商	-17588
开始在	-17589
当下的	-17590
当权者	-17591
很强的	-17592
心血管	-17593
战斗机	-17594
扭曲了	-17595
承认的	-17596
技术性	-17597
投入品	-17598
推向了	-17599
放射性	-17600
数不清	-17601
斯特恩	-17602
新经济	-17603
新鲜事	-17604
无休止	-17605
无法从	-17606
昔日的	-17607
更强大	-17608
更适合	-17609
机构中	-17610
来取代	-17611
正在以	-17612
清楚的	-17613
清算所	-17614
生常谈	-17615
的大脑	-17616
的扩张	-17617
的改善	-17618
的欧元	-17619
的生物	-17620
的社区	-17621
的私人	-17622
的细节	-17623
相媲美	-17624
相比较	-17625
移交给	-17626
穷国的	-17627
等因素	-17628
等组织	-17629
美国是	-17630
而现在	-17631
自由党	-17632
被美国	-17633
赖喇嘛	-17634
迎来了	-17635
这才是	-17636
这条路	-17637
阵营的	-17638
阿勒颇	-17639
限度的	-17640
非正规	-17641
领土的	-17642
form	-17643
neth	-17644
▁com	-17645
▁同样的	-17646
▁在我们	-17647
▁在欧盟	-17648
▁如果他	-17649
▁政府的	-17650
▁穆尔西	-17651
▁该报告	-17652
下降到了	-17653
不断下降	-17654
不是什么	-17655
世界人口	-17656
中的角色	-17657
为了避免	-17658
举步维艰	-17659
也很重要	-17660
也采取了	-17661
二十年来	-17662
五角大楼	-17663
产生影响	-17664
仍然十分	-17665
以色列对	-17666
伊丽莎白	-17667
保护自己	-17668
信誓旦旦	-17669
修正主义	-17670
做出改变	-17671
入盟谈判	-17672
公平竞争	-17673
共同繁荣	-17674
其他因素	-17675
几乎毫无	-17676
利息支付	-17677
劳动成本	-17678
双管齐下	-17679
反映的是	-17680
变成现实	-17681
可能还会	-17682
吉尔吉斯	-17683
同样也是	-17684
和平共处	-17685
国内储蓄	-17686
国际法庭	-17687
塞内加尔	-17688
大学教授	-17689
大打折扣	-17690
大行其道	-17691
太阳能和	-17692
失业问题	-17693
密切合作	-17694
工作年龄	-17695
已经表明	-17696
已经过去	-17697
巴解组织	-17698
弗朗西斯	-17699
必须改变	-17700
所必需的	-17701
所支持的	-17702
所进行的	-17703
投票支持	-17704
援助资金	-17705
方面做得	-17706
无法满足	-17707
无论是在	-17708
日本首相	-17709
旷日持久	-17710
更加关注	-17711
欧元贬值	-17712
欧洲必须	-17713
欧盟必须	-17714
正在寻求	-17715
民主政治	-17716
民主社会	-17717
犯罪行为	-17718
相形见绌	-17719
相比之下	-17720
短时间内	-17721
确实存在	-17722
筹集资金	-17723
精诚合作	-17724
维持下去	-17725
表现出的	-17726
被证明是	-17727
解决这一	-17728
贝尔斯登	-17729
财政收入	-17730
资产管理	-17731
超过美国	-17732
这些改革	-17733
这些都是	-17734
这样的人	-17735
进行投资	-17736
进行评估	-17737
都是一个	-17738
重要问题	-17739
重蹈覆辙	-17740
针对性的	-17741
陈词滥调	-17742
马哈茂德	-17743
黎巴嫩的	-17744
,2005	-17745
—2014	-17746
▁Rein	-17747
▁为了应对	-17748
▁他们希望	-17749
不遗余力地	-17750
与巴基斯坦	-17751
严重的经济	-17752
主要原因是	-17753
习近平主席	-17754
以色列政府	-17755
其中也包括	-17756
单一市场的	-17757
取得了一些	-17758
叙利亚问题	-17759
和金融稳定	-17760
在一夜之间	-17761
大学毕业生	-17762
对气候变化	-17763
恐怖分子的	-17764
所有国家的	-17765
最贫困国家	-17766
民族国家的	-17767
的关键要素	-17768
结合在一起	-17769
结构性变化	-17770
艾森豪威尔	-17771
赤字和债务	-17772
Donald	-17773
▁Front	-17774
人们普遍认为	-17775
泛美开发银行	-17776
美国和欧洲的	-17777
▁从这个角度看	-17778
▁现在的问题是	-17779
形成了鲜明对比	-17780
俄罗斯天然气工业	-17781
欧洲央行行长德拉吉	-17782
▁Initiative	-17783
68	-17784
89	-17785
Er	-17786
――	-17787
”?	-17788
▁̈	-17789
▁低	-17790
▁埃	-17791
▁德	-17792
▁罗	-17793
▁能	-17794
一辆	-17795
万事	-17796
不曾	-17797
丑陋	-17798
主角	-17799
之死	-17800
亚尔	-17801
交谈	-17802
人格	-17803
亿多	-17804
仇视	-17805
他又	-17806
伯尼	-17807
使人	-17808
兀鹫	-17809
公式	-17810
公职	-17811
兴未	-17812
其为	-17813
其时	-17814
内卢	-17815
军火	-17816
分红	-17817
列岛	-17818
则将	-17819
判定	-17820
利尔	-17821
到访	-17822
卡恩	-17823
即刻	-17824
发声	-17825
发誓	-17826
发送	-17827
后退	-17828
塔伊	-17829
外表	-17830
天空	-17831
太久	-17832
奈尔	-17833
姗姗	-17834
学的	-17835
宫颈	-17836
尖阁	-17837
屋主	-17838
崇高	-17839
巴克	-17840
库什	-17841
弹药	-17842
当政	-17843
心中	-17844
恶魔	-17845
想必	-17846
感的	-17847
懂得	-17848
拉姆	-17849
拍摄	-17850
排在	-17851
推到	-17852
操控	-17853
改写	-17854
改观	-17855
敲响	-17856
文官	-17857
最强	-17858
末期	-17859
来对	-17860
来得	-17861
林肯	-17862
某位	-17863
梅尔	-17864
棉花	-17865
欢欣	-17866
欣慰	-17867
求斯	-17868
污点	-17869
法拉	-17870
洛夫	-17871
流产	-17872
涅托	-17873
漫画	-17874
版权	-17875
牲畜	-17876
特工	-17877
玛丽	-17878
现成	-17879
理顺	-17880
益的	-17881
相处	-17882
看好	-17883
秘诀	-17884
移交	-17885
童婚	-17886
等候	-17887
纽带	-17888
线路	-17889
终点	-17890
给定	-17891
绝无	-17892
羞耻	-17893
而知	-17894
脑后	-17895
至上	-17896
营业	-17897
蒙蔽	-17898
计入	-17899
试点	-17900
诱使	-17901
课堂	-17902
谣言	-17903
较之	-17904
过后	-17905
过滤	-17906
还为	-17907
还债	-17908
这番	-17909
连同	-17910
迪瓦	-17911
通吃	-17912
逼迫	-17913
酷刑	-17914
陈旧	-17915
隐患	-17916
震慑	-17917
靠谱	-17918
面上	-17919
面纱	-17920
黑海	-17921
28%	-17922
9%,	-17923
95%	-17924
ere	-17925
isc	-17926
nie	-17927
ong	-17928
ors	-17929
uch	-17930
▁一场	-17931
▁不同	-17932
▁即将	-17933
▁外部	-17934
▁导致	-17935
▁已经	-17936
▁当我	-17937
▁所谓	-17938
一边倒	-17939
下降和	-17940
不相容	-17941
与伦比	-17942
为所有	-17943
亚洲人	-17944
产品和	-17945
从经济	-17946
代名词	-17947
以及其	-17948
以提高	-17949
克服了	-17950
兴未艾	-17951
其核心	-17952
几年里	-17953
几百万	-17954
则必须	-17955
动力的	-17956
却并不	-17957
参与的	-17958
合作社	-17959
同情心	-17960
否决票	-17961
和使用	-17962
和繁荣	-17963
哪怕是	-17964
土地上	-17965
在公共	-17966
城市和	-17967
增加其	-17968
大多是	-17969
大自然	-17970
宗教的	-17971
对市场	-17972
就很难	-17973
尽管他	-17974
展开了	-17975
工具和	-17976
工程的	-17977
市场对	-17978
并同时	-17979
并接受	-17980
幸存者	-17981
当选的	-17982
总收入	-17983
想知道	-17984
所在国	-17985
才能让	-17986
批判性	-17987
承担着	-17988
投票中	-17989
投资率	-17990
损失的	-17991
推迟了	-17992
描绘成	-17993
明显地	-17994
是不能	-17995
有两种	-17996
有缺陷	-17997
本身就	-17998
条件是	-17999
来控制	-18000
来支撑	-18001
极左翼	-18002
核问题	-18003
比中国	-18004
求助于	-18005
汇率的	-18006
海洋法	-18007
漫长而	-18008
激发了	-18009
状态的	-18010
电动车	-18011
的可靠	-18012
的大约	-18013
的新书	-18014
的观念	-18015
的记忆	-18016
的迅速	-18017
相匹配	-18018
相适应	-18019
神经元	-18020
福利的	-18021
等方式	-18022
算得上	-18023
给欧洲	-18024
而随着	-18025
联邦制	-18026
自以为	-18027
至少要	-18028
行动中	-18029
行动和	-18030
表示了	-18031
让英国	-18032
设立了	-18033
象征性	-18034
贫民窟	-18035
跨党派	-18036
轻松地	-18037
过渡到	-18038
通过在	-18039
邪恶的	-18040
都属于	-18041
集中到	-18042
青年人	-18043
顿巴斯	-18044
hart	-18045
▁9%,	-18046
▁Hol	-18047
▁他们说	-18048
▁但最近	-18049
▁但欧盟	-18050
▁在当今	-18051
▁查韦斯	-18052
▁马克龙	-18053
一直认为	-18054
上述问题	-18055
下定决心	-18056
与伊朗的	-18057
之间进行	-18058
也是一样	-18059
仍有可能	-18060
他们无法	-18061
债务违约	-18062
关键领域	-18063
再也无法	-18064
几个月内	-18065
刑警组织	-18066
利用这一	-18067
制造业和	-18068
削减赤字	-18069
前工业化	-18070
区分开来	-18071
十分之一	-18072
印度总理	-18073
双重标准	-18074
取得胜利	-18075
叙利亚人	-18076
可以增加	-18077
和加勒比	-18078
和哈马斯	-18079
国家政策	-18080
圣战分子	-18081
埃及总统	-18082
基尼系数	-18083
基本问题	-18084
增长潜力	-18085
如果中国	-18086
它们必须	-18087
容易得多	-18088
市场改革	-18089
希腊危机	-18090
并不完全	-18091
应该包括	-18092
建立起来	-18093
强制性的	-18094
德国央行	-18095
性别差距	-18096
总有一天	-18097
悲哀的是	-18098
意料之外	-18099
成本效益	-18100
提供贷款	-18101
政权更迭	-18102
政治僵局	-18103
新闻报道	-18104
方兴未艾	-18105
无法想象	-18106
普遍存在	-18107
最伟大的	-18108
最近宣布	-18109
极低利率	-18110
正在逐渐	-18111
每一美元	-18112
毛里求斯	-18113
民主党人	-18114
永久性的	-18115
的事实是	-18116
的消费者	-18117
相互关联	-18118
科特迪瓦	-18119
等问题上	-18120
系统性的	-18121
经济前景	-18122
经济模式	-18123
统治地位	-18124
能够保持	-18125
能源资源	-18126
花旗集团	-18127
西伯利亚	-18128
视为一种	-18129
许多其他	-18130
许多地方	-18131
财政大臣	-18132
达成妥协	-18133
过剩产能	-18134
还不足以	-18135
这一任务	-18136
这一方向	-18137
进口关税	-18138
远远大于	-18139
重新平衡	-18140
金砖四国	-18141
银行危机	-18142
阿里巴巴	-18143
零和博弈	-18144
预防措施	-18145
Charl	-18146
ugman	-18147
▁尽管中国	-18148
▁法国总统	-18149
▁美国国会	-18150
不得不面对	-18151
严重的后果	-18152
中欧和东欧	-18153
也同样如此	-18154
二氧化碳的	-18155
从现在开始	-18156
伊斯兰教法	-18157
国内和国际	-18158
在全球经济	-18159
巨大的经济	-18160
已经认识到	-18161
很有可能会	-18162
撒切尔夫人	-18163
日益增加的	-18164
最大的国家	-18165
的意识形态	-18166
真正的问题	-18167
石油出口国	-18168
美国的利益	-18169
造成的影响	-18170
马萨诸塞州	-18171
apital	-18172
▁Green	-18173
变得更加困难	-18174
将不可避免地	-18175
斯蒂格尔法案	-18176
适应气候变化	-18177
国民生产总值的	-18178
英格兰银行行长	-18179
许多发展中国家	-18180
▁Krugman	-18181
#160;&#160;	-18182
▁Foundation	-18183
42	-18184
FP	-18185
OA	-18186
ón	-18187
€‚	-18188
▁利	-18189
一等	-18190
三方	-18191
三月	-18192
上说	-18193
不言	-18194
不讳	-18195
不高	-18196
与众	-18197
与前	-18198
之父	-18199
争执	-18200
事例	-18201
事的	-18202
互利	-18203
以更	-18204
优雅	-18205
伤口	-18206
伸出	-18207
但当	-18208
修宪	-18209
先后	-18210
兰德	-18211
典礼	-18212
内斯	-18213
军阀	-18214
几近	-18215
出自	-18216
分成	-18217
切特	-18218
利得	-18219
前来	-18220
助力	-18221
劳尔	-18222
勾勒	-18223
医改	-18224
发掘	-18225
发端	-18226
味道	-18227
哈德	-18228
响亮	-18229
唯恐	-18230
回头	-18231
在有	-18232
地狱	-18233
地铁	-18234
塔克	-18235
增兵	-18236
夏威	-18237
失当	-18238
夺去	-18239
奖赏	-18240
奥林	-18241
安保	-18242
岁月	-18243
巡逻	-18244
已达	-18245
帕克	-18246
带入	-18247
并给	-18248
广阔	-18249
康复	-18250
开脱	-18251
式微	-18252
得分	-18253
心存	-18254
怀着	-18255
总比	-18256
恰逢	-18257
想像	-18258
扎克	-18259
打了	-18260
投诉	-18261
投身	-18262
抱负	-18263
抵扣	-18264
拉贾	-18265
拜登	-18266
捷径	-18267
排队	-18268
放下	-18269
敞口	-18270
敬姬	-18271
方程	-18272
既成	-18273
晚上	-18274
智商	-18275
更佳	-18276
本营	-18277
机动	-18278
柴油	-18279
横行	-18280
横跨	-18281
每日	-18282
水扁	-18283
洛普	-18284
派出	-18285
海牙	-18286
海默	-18287
淡水	-18288
深的	-18289
满满	-18290
热病	-18291
熊市	-18292
熊彼	-18293
生根	-18294
由我	-18295
疏离	-18296
疗效	-18297
病症	-18298
百科	-18299
的被	-18300
硬件	-18301
碳排	-18302
离职	-18303
竞相	-18304
米哈	-18305
纳森	-18306
线的	-18307
绥靖	-18308
翻译	-18309
者都	-18310
而起	-18311
英尺	-18312
见效	-18313
让位	-18314
议长	-18315
象牙	-18316
贴上	-18317
过上	-18318
还得	-18319
适宜	-18320
适龄	-18321
那一	-18322
都很	-18323
配给	-18324
重任	-18325
重整	-18326
金色	-18327
链条	-18328
锻炼	-18329
阐明	-18330
魔法	-18331
黎明	-18332
黑帮	-18333
齐观	-18334
OMC	-18335
Pac	-18336
ies	-18337
itt	-18338
ler	-18339
▁保持	-18340
▁实施	-18341
▁很难	-18342
▁此举	-18343
▁过度	-18344
▁预计	-18345
万灵丹	-18346
三年前	-18347
不希望	-18348
不支持	-18349
不是在	-18350
与一个	-18351
与全球	-18352
与那些	-18353
与邻国	-18354
也有着	-18355
了一点	-18356
事实的	-18357
他们能	-18358
他必须	-18359
以下的	-18360
以此来	-18361
会如此	-18362
会降低	-18363
但仍有	-18364
但同时	-18365
其政策	-18366
前瞻性	-18367
加大了	-18368
势在必	-18369
医生和	-18370
协议中	-18371
另一项	-18372
可以向	-18373
同意在	-18374
同样是	-18375
后果的	-18376
向欧洲	-18377
和科学	-18378
因特网	-18379
增加和	-18380
夏威夷	-18381
学生们	-18382
学生的	-18383
学者和	-18384
宝贵的	-18385
宫颈癌	-18386
对某些	-18387
对移民	-18388
将引发	-18389
将逐渐	-18390
尽管其	-18391
州政府	-18392
并可能	-18393
并帮助	-18394
并获得	-18395
废除了	-18396
开发的	-18397
引以为	-18398
当局的	-18399
心自问	-18400
情形下	-18401
或政治	-18402
所包含	-18403
所面对	-18404
抓住了	-18405
挑战者	-18406
政府也	-18407
政策中	-18408
数以千	-18409
文尼亚	-18410
新一届	-18411
方面是	-18412
是否在	-18413
更别提	-18414
更广义	-18415
曾经在	-18416
最终被	-18417
有资格	-18418
来提高	-18419
正是在	-18420
比例从	-18421
比如在	-18422
水平和	-18423
治疗的	-18424
泰国的	-18425
活跃的	-18426
流向了	-18427
浪费了	-18428
涵盖了	-18429
混乱的	-18430
热内卢	-18431
熟悉的	-18432
特殊的	-18433
现金流	-18434
班加西	-18435
的最为	-18436
的治理	-18437
的缺乏	-18438
的考验	-18439
的议会	-18440
穆兄会	-18441
第一轮	-18442
系统中	-18443
经常被	-18444
而变得	-18445
能提高	-18446
艾利斯	-18447
被授予	-18448
贷款给	-18449
转换为	-18450
边界的	-18451
还要大	-18452
进行着	-18453
遏制了	-18454
金敬姬	-18455
陈水扁	-18456
非传统	-18457
首先要	-18458
鼓吹者	-18459
▁par	-18460
▁他们会	-18461
▁但德国	-18462
▁但无论	-18463
▁反对派	-18464
▁在理想	-18465
▁它们是	-18466
▁更广泛	-18467
▁甚至连	-18468
不仅在于	-18469
不如说是	-18470
不容忽视	-18471
不平等的	-18472
不断膨胀	-18473
中间道路	-18474
为目标的	-18475
举行选举	-18476
亚洲地区	-18477
人们开始	-18478
人类发展	-18479
从而确保	-18480
他们是否	-18481
以巴冲突	-18482
以色列在	-18483
任何地方	-18484
保护措施	-18485
借款人的	-18486
全球失衡	-18487
其他人的	-18488
几个月后	-18489
利率上升	-18490
劳动力和	-18491
取得进步	-18492
可能会被	-18493
可能因为	-18494
周边国家	-18495
和菲律宾	-18496
团结工会	-18497
国际能源	-18498
在大多数	-18499
多年以来	-18500
多数国家	-18501
大大降低	-18502
女权主义	-18503
如何实现	-18504
家庭成员	-18505
对欧盟的	-18506
尽管美国	-18507
已经成了	-18508
已经达到	-18509
并且没有	-18510
得到改善	-18511
必须包括	-18512
快的速度	-18513
感到失望	-18514
慈善组织	-18515
所必须的	-18516
担心的是	-18517
拥有大量	-18518
挺身而出	-18519
政府政策	-18520
是否存在	-18521
是建立在	-18522
最近指出	-18523
有所助益	-18524
来自中国	-18525
极端组织	-18526
某种方式	-18527
欧盟成员	-18528
正在失去	-18529
正在考虑	-18530
正在试图	-18531
正常化的	-18532
此外还有	-18533
民主原则	-18534
现在必须	-18535
甚至包括	-18536
生物医学	-18537
疫苗接种	-18538
的不稳定	-18539
的受访者	-18540
相对较低	-18541
研究结果	-18542
社团主义	-18543
稳定机制	-18544
等量齐观	-18545
经济体中	-18546
绿色经济	-18547
苏联时代	-18548
苹果公司	-18549
解决机制	-18550
解放组织	-18551
边缘化的	-18552
达成一个	-18553
这一计划	-18554
这一转变	-18555
这一风险	-18556
这项工作	-18557
进口商品	-18558
迫使他们	-18559
那么他们	-18560
重大进步	-18561
金融风险	-18562
银行家们	-18563
铺平道路	-18564
阿萨德的	-18565
非常清楚	-18566
,2000	-18567
,2006	-18568
ition	-18569
rowth	-18570
▁中国经济	-18571
▁否则的话	-18572
▁因此我们	-18573
▁尽管存在	-18574
▁尽管美国	-18575
俄罗斯经济	-18576
其中一部分	-18577
农村地区的	-18578
发布的一份	-18579
可能意味着	-18580
可贸易部门	-18581
和气候变化	-18582
多年来一直	-18583
宏观经济学	-18584
巴沙尔政权	-18585
微不足道的	-18586
德克萨斯州	-18587
房地产投资	-18588
整个地区的	-18589
斯洛文尼亚	-18590
正在进行的	-18591
的主要障碍	-18592
的唯一办法	-18593
直接或间接	-18594
站不住脚的	-18595
系统重要性	-18596
经济一体化	-18597
诺斯艾利斯	-18598
这样的政策	-18599
这样的观点	-18600
进一步降低	-18601
金融危机中	-18602
20,000	-18603
30,000	-18604
ustice	-18605
vement	-18606
▁World	-18607
▁原因很简单	-18608
▁在此过程中	-18609
不仅仅是一个	-18610
创造就业岗位	-18611
国家资本主义	-18612
基础设施支出	-18613
所带来的好处	-18614
灾难性的后果	-18615
美国外交政策	-18616
贸易保护主义	-18617
▁值得注意的是	-18618
▁根据这一观点	-18619
▁从某种程度上说	-18620
▁National	-18621
5—	-18622
64	-18623
BI	-18624
EP	-18625
IF	-18626
▁或	-18627
一举	-18628
一顾	-18629
下达	-18630
东德	-18631
两点	-18632
之策	-18633
乐意	-18634
九月	-18635
互信	-18636
以待	-18637
但她	-18638
佩林	-18639
依照	-18640
假期	-18641
偏爱	-18642
像我	-18643
全都	-18644
六大	-18645
内外	-18646
内幕	-18647
再无	-18648
减产	-18649
凯蒂	-18650
出局	-18651
分工	-18652
分开	-18653
利弊	-18654
动武	-18655
包袱	-18656
匹克	-18657
十个	-18658
千禧	-18659
卜拉	-18660
可耻	-18661
同类	-18662
后盾	-18663
周末	-18664
命名	-18665
和其	-18666
和可	-18667
和梅	-18668
土崩	-18669
土库	-18670
坐拥	-18671
大都	-18672
太子	-18673
好友	-18674
好过	-18675
威斯	-18676
威望	-18677
威权	-18678
存亡	-18679
守护	-18680
安定	-18681
家中	-18682
容量	-18683
宿命	-18684
对照	-18685
导演	-18686
将钱	-18687
小镇	-18688
尼加	-18689
工薪	-18690
年期	-18691
幸免	-18692
废弃	-18693
延期	-18694
当事	-18695
得越	-18696
德哥	-18697
急性	-18698
急转	-18699
恩斯	-18700
手上	-18701
接踵	-18702
放开	-18703
教室	-18704
敞开	-18705
数月	-18706
文职	-18707
施展	-18708
无止	-18709
最能	-18710
样板	-18711
检讨	-18712
残余	-18713
毒性	-18714
洪森	-18715
深厚	-18716
满怀	-18717
版的	-18718
牵头	-18719
特例	-18720
猛增	-18721
王子	-18722
瓦拉	-18723
甚者	-18724
用电	-18725
病的	-18726
秉承	-18727
租金	-18728
移居	-18729
等着	-18730
米勒	-18731
紧缺	-18732
纳摩	-18733
细微	-18734
而至	-18735
脚跟	-18736
致裂	-18737
蕴含	-18738
裁判	-18739
要靠	-18740
评分	-18741
诠释	-18742
诱发	-18743
谢尔	-18744
豪华	-18745
赖斯	-18746
超乎	-18747
踌躇	-18748
载体	-18749
输掉	-18750
辨别	-18751
造福	-18752
都由	-18753
鄙视	-18754
采集	-18755
里尼	-18756
钉钉	-18757
镜头	-18758
院校	-18759
雕像	-18760
饿死	-18761
香烟	-18762
高端	-18763
黑市	-18764
AIG	-18765
AfD	-18766
EFS	-18767
GNP	-18768
ICC	-18769
SPD	-18770
You	-18771
ann	-18772
ats	-18773
gel	-18774
iss	-18775
tif	-18776
”,“	-18777
▁Bo	-18778
▁两位	-18779
▁只是	-18780
▁后者	-18781
▁和平	-18782
▁它是	-18783
▁就拿	-18784
▁左翼	-18785
▁环境	-18786
▁结束	-18787
▁而后	-18788
▁腐败	-18789
▁自然	-18790
▁荷兰	-18791
▁足球	-18792
▁风险	-18793
下一轮	-18794
不一致	-18795
不再有	-18796
不多的	-18797
不止于	-18798
与普京	-18799
与法国	-18800
与这些	-18801
专家和	-18802
丹尼尔	-18803
也拥有	-18804
了一种	-18805
五年内	-18806
亿英镑	-18807
仍需要	-18808
以刺激	-18809
保护区	-18810
偏好的	-18811
做生意	-18812
公民们	-18813
共同化	-18814
分别为	-18815
分裂和	-18816
前者的	-18817
力量和	-18818
加深了	-18819
动荡和	-18820
十年内	-18821
参与国	-18822
后来的	-18823
向他们	-18824
和人口	-18825
和分析	-18826
和破坏	-18827
和那些	-18828
和需求	-18829
国外的	-18830
土库曼	-18831
大大地	-18832
失败后	-18833
子公司	-18834
完全不	-18835
完整性	-18836
完美的	-18837
寄生虫	-18838
小时的	-18839
就更加	-18840
尽管这	-18841
局限在	-18842
已经向	-18843
已经把	-18844
巴菲特	-18845
希望将	-18846
年左右	-18847
并引发	-18848
并推动	-18849
应当在	-18850
弄清楚	-18851
当年的	-18852
很高兴	-18853
微小的	-18854
怀疑论	-18855
总统在	-18856
想当然	-18857
战后的	-18858
战略上	-18859
所经历	-18860
承受了	-18861
把这一	-18862
拯救了	-18863
损失和	-18864
接触到	-18865
援助和	-18866
方面所	-18867
无国界	-18868
时不时	-18869
是所有	-18870
更深入	-18871
有很大	-18872
来完成	-18873
来阻止	-18874
核心国	-18875
梅纳德	-18876
正在与	-18877
每年要	-18878
沙拉菲	-18879
然后是	-18880
爱德华	-18881
犹太教	-18882
现在也	-18883
现成的	-18884
由中国	-18885
男性和	-18886
的会议	-18887
的关于	-18888
的年均	-18889
的日益	-18890
的汽车	-18891
的邻国	-18892
的食品	-18893
眼前的	-18894
短期的	-18895
社会化	-18896
社区的	-18897
索罗斯	-18898
经历着	-18899
缔造者	-18900
而产生	-18901
而他的	-18902
而获得	-18903
而被迫	-18904
脱离了	-18905
萨赫勒	-18906
行长的	-18907
衰退的	-18908
袭击的	-18909
认定为	-18910
讨论中	-18911
该基金	-18912
购买了	-18913
转移给	-18914
达佩斯	-18915
这或许	-18916
进化论	-18917
选出的	-18918
通胀和	-18919
防火墙	-18920
需要与	-18921
需要从	-18922
领域中	-18923
频繁地	-18924
高回报	-18925
高负债	-18926
1940	-18927
1956	-18928
7000	-18929
olog	-18930
▁-3.	-18931
▁Mar	-18932
▁New	-18933
▁que	-18934
▁他指出	-18935
▁传统上	-18936
▁但只有	-18937
▁但政府	-18938
▁加拿大	-18939
▁历史上	-18940
▁唯一的	-18941
▁在今年	-18942
▁对欧洲	-18943
▁我们对	-18944
▁这将是	-18945
▁这或许	-18946
▁那就是	-18947
一夜之间	-18948
一无所知	-18949
不仅需要	-18950
不会因为	-18951
中央集权	-18952
二战期间	-18953
人力资源	-18954
什么才是	-18955
什叶派和	-18956
从伊拉克	-18957
从而增加	-18958
他们想要	-18959
以及中国	-18960
以邻为壑	-18961
会进一步	-18962
值得关注	-18963
免疫系统	-18964
全球基金	-18965
共同之处	-18966
关塔纳摩	-18967
其他一些	-18968
冷战期间	-18969
出于政治	-18970
出手干预	-18971
北大西洋	-18972
区别对待	-18973
卡尔德龙	-18974
卫生保健	-18975
危险之中	-18976
发生冲突	-18977
可以产生	-18978
合情合理	-18979
和大规模	-18980
和太阳能	-18981
和投资者	-18982
因为后者	-18983
国家经济	-18984
国际发展	-18985
国际援助	-18986
城市居民	-18987
墨西哥湾	-18988
多样性和	-18989
奥巴马和	-18990
安全威胁	-18991
将会产生	-18992
将会导致	-18993
就职演说	-18994
并不只是	-18995
怎样才能	-18996
急剧上升	-18997
恐怖份子	-18998
我们仍然	-18999
我的祖国	-19000
所作出的	-19001
扪心自问	-19002
拯救欧元	-19003
拯救生命	-19004
政治稳定	-19005
政界人士	-19006
无可否认	-19007
是俄罗斯	-19008
是明确的	-19009
显然不是	-19010
显著下降	-19011
最近几年	-19012
有很大的	-19013
有所提高	-19014
柔性力量	-19015
欧洲货币	-19016
浮出水面	-19017
特殊关系	-19018
独裁者的	-19019
现任总统	-19020
的基础是	-19021
的大屠杀	-19022
的批评者	-19023
的时间内	-19024
研究机构	-19025
私募股权	-19026
空气质量	-19027
统治者的	-19028
绿色革命	-19029
美国人民	-19030
至今仍在	-19031
认为这些	-19032
财政调整	-19033
资金来源	-19034
身份政治	-19035
还有可能	-19036
这一做法	-19037
这些变化	-19038
这些条件	-19039
这些趋势	-19040
采取更加	-19041
问题需要	-19042
难以想象	-19043
8,000	-19044
Andre	-19045
Peter	-19046
earch	-19047
ordon	-19048
▁1991	-19049
▁众所周知	-19050
▁几乎所有	-19051
▁时至今日	-19052
▁穆沙拉夫	-19053
▁经合组织	-19054
也没有什么	-19055
令人震惊的	-19056
佛罗里达州	-19057
决策者应该	-19058
出口竞争力	-19059
反映了一个	-19060
国家之间的	-19061
在此过程中	-19062
塔吉克斯坦	-19063
实体经济的	-19064
开发银行的	-19065
是一个错误	-19066
最大经济体	-19067
有吸引力的	-19068
本世纪中叶	-19069
核试验条约	-19070
的工作岗位	-19071
的金融体系	-19072
种族和宗教	-19073
联合国难民	-19074
▁Democ	-19075
▁从历史上看	-19076
令人难以置信	-19077
州和地方政府	-19078
持不同政见者	-19079
经济增长放缓	-19080
雷曼兄弟倒闭	-19081
黎巴嫩真主党	-19082
▁&#160;	-19083
▁今年早些时候	-19084
▁在某种程度上	-19085
也就不足为奇了	-19086
世界货币基金组织	-19087
+1	-19088
,"	-19089
56	-19090
57	-19091
67	-19092
85	-19093
99	-19094
SS	-19095
ma	-19096
▁y	-19097
一把	-19098
不稳	-19099
不谈	-19100
买房	-19101
亟待	-19102
他命	-19103
众筹	-19104
但要	-19105
侵占	-19106
全额	-19107
八月	-19108
公元	-19109
公海	-19110
六月	-19111
写作	-19112
冷却	-19113
凯末	-19114
则有	-19115
创出	-19116
勒索	-19117
参半	-19118
双轨	-19119
反其	-19120
台风	-19121
右倾	-19122
各异	-19123
各级	-19124
听说	-19125
周永	-19126
哀叹	-19127
唤醒	-19128
图谋	-19129
地址	-19130
基层	-19131
增添	-19132
天下	-19133
失落	-19134
头彻	-19135
它就	-19136
家常	-19137
家里	-19138
就其	-19139
平行	-19140
年纪	-19141
庆贺	-19142
庇隆	-19143
废止	-19144
归于	-19145
很强	-19146
思索	-19147
惯性	-19148
憎恶	-19149
成败	-19150
戴着	-19151
扎比	-19152
拉大	-19153
接待	-19154
接手	-19155
效用	-19156
断层	-19157
断绝	-19158
斯曼	-19159
斯雷	-19160
斯麦	-19161
新月	-19162
旗鼓	-19163
普查	-19164
最差	-19165
有近	-19166
来迟	-19167
案中	-19168
植入	-19169
水的	-19170
洞察	-19171
深层	-19172
火灾	-19173
点上	-19174
热潮	-19175
牧民	-19176
牵制	-19177
猛虎	-19178
疲于	-19179
的亲	-19180
的净	-19181
的和	-19182
的旧	-19183
碰巧	-19184
神学	-19185
神权	-19186
粉饰	-19187
繁琐	-19188
翻了	-19189
自大	-19190
自贸	-19191
芯片	-19192
英文	-19193
落在	-19194
葬礼	-19195
表露	-19196
警官	-19197
诚意	-19198
说成	-19199
账单	-19200
质问	-19201
赎金	-19202
起因	-19203
超凡	-19204
超导	-19205
辖区	-19206
这使	-19207
进度	-19208
退步	-19209
途中	-19210
遣返	-19211
都曾	-19212
铁腕	-19213
露面	-19214
11.	-19215
HPV	-19216
ama	-19217
emy	-19218
ics	-19219
iew	-19220
ins	-19221
odd	-19222
rig	-19223
ude	-19224
ush	-19225
▁se	-19226
▁不少	-19227
▁在与	-19228
▁持续	-19229
▁消费	-19230
▁监管	-19231
▁选择	-19232
▁面临	-19233
一直到	-19234
一直对	-19235
不充分	-19236
不只是	-19237
不过了	-19238
与合作	-19239
两年后	-19240
个月的	-19241
五规划	-19242
产油国	-19243
他没有	-19244
众议员	-19245
使中国	-19246
保留了	-19247
做一些	-19248
公民权	-19249
公里的	-19250
其如此	-19251
其目标	-19252
冲击的	-19253
减少其	-19254
出版的	-19255
出资者	-19256
分化的	-19257
十亿人	-19258
原有的	-19259
受困于	-19260
可能要	-19261
吸收了	-19262
周永康	-19263
和平等	-19264
和强化	-19265
团结和	-19266
固有的	-19267
国家或	-19268
国峰会	-19269
地解决	-19270
头彻尾	-19271
好比是	-19272
官员在	-19273
将开始	-19274
将迎来	-19275
尘埃落	-19276
就包括	-19277
就成了	-19278
就知道	-19279
就难以	-19280
并保持	-19281
并建立	-19282
并避免	-19283
应该让	-19284
建制派	-19285
影响是	-19286
彻斯特	-19287
得更好	-19288
得过且	-19289
思想和	-19290
总是在	-19291
恰当地	-19292
成长的	-19293
所欲为	-19294
打击了	-19295
投票给	-19296
拿不出	-19297
提出要	-19298
政府还	-19299
是一名	-19300
是一条	-19301
更健康	-19302
更包容	-19303
曾经的	-19304
最喜欢	-19305
有力地	-19306
朝一日	-19307
来实施	-19308
欧洲对	-19309
正式的	-19310
比例的	-19311
沃克尔	-19312
没有了	-19313
满足了	-19314
火箭弹	-19315
特里娜	-19316
癌细胞	-19317
的一员	-19318
的不利	-19319
的企图	-19320
的体系	-19321
的军队	-19322
的前沿	-19323
的动机	-19324
的大陆	-19325
的年代	-19326
的形势	-19327
的总和	-19328
的成果	-19329
的普及	-19330
的有力	-19331
的组合	-19332
的联合	-19333
的范畴	-19334
的赤字	-19335
目前在	-19336
相一致	-19337
纽伦堡	-19338
纽约州	-19339
而改变	-19340
聪明的	-19341
肯尼斯	-19342
能通过	-19343
记录的	-19344
设计出	-19345
调查中	-19346
赛克斯	-19347
赞成票	-19348
趋势的	-19349
逆转录	-19350
通过其	-19351
都不愿	-19352
阶段的	-19353
降低其	-19354
难民和	-19355
零售业	-19356
需要用	-19357
非盈利	-19358
预测到	-19359
黄热病	-19360
黑手党	-19361
1931	-19362
1977	-19363
▁Man	-19364
▁May	-19365
▁des	-19366
▁pol	-19367
▁乍一看	-19368
▁但一个	-19369
▁但这次	-19370
[...]
