<pad>	0
<unk>	0
<s>	0
</s>	0
国家	-0
19	-1
我们	-2
发展	-3
政府	-4
问题	-5
199	-6
经济	-7
00	-8
一个	-9
国际	-10
中国	-11
工作	-12
委员	-13
联合	-14
委员会	-15
组织	-16
会议	-17
社会	-18
这些	-19
联合国	-20
他们	-21
进行	-22
提供	-23
方面	-24
美国	-25
▁在	-26
其他	-27
没有	-28
人民	-29
有关	-30
可以	-31
可能	-32
机构	-33
代表	-34
以及	-35
报告	-36
合作	-37
需要	-38
世界	-39
行动	-40
安全	-41
这一	-42
▁第	-43
情况	-44
规定	-45
通过	-46
方案	-47
必须	-48
特别	-49
管理	-50
包括	-51
——	-52
▁但	-53
执行	-54
关于	-55
活动	-56
公司	-57
和平	-58
所有	-59
计划	-60
人员	-61
重要	-62
▁”	-63
▁这	-64
政策	-65
▁1	-66
已经	-67
认为	-68
地区	-69
技术	-70
▁(	-71
决议	-72
政治	-73
项目	-74
决定	-75
200	-76
主义	-77
支持	-78
▁我	-79
部门	-80
秘书	-81
全球	-82
▁我们	-83
市场	-84
投资	-85
的人	-86
采取	-87
的一	-88
影响	-89
因为	-90
美元	-91
提出	-92
如果	-93
大会	-94
或者	-95
20	-96
继续	-97
企业	-98
区域	-99
▁“	-100
要求	-101
增长	-102
欧洲	-103
银行	-104
研究	-105
表示	-106
环境	-107
努力	-108
10	-109
资源	-110
措施	-111
服务	-112
这个	-113
因此	-114
行政	-115
法律	-116
任何	-117
解决	-118
根据	-119
建议	-120
事会	-121
应当	-122
使用	-123
它们	-124
保护	-125
部分	-126
建立	-127
主要	-128
自己	-129
加强	-130
一些	-131
增加	-132
这种	-133
理事会	-134
许多	-135
开始	-136
成员	-137
目前	-138
之间	-139
妇女	-140
目标	-141
援助	-142
大的	-143
各国	-144
系统	-145
基金	-146
作为	-147
促进	-148
教育	-149
12	-150
秘书长	-151
1994	-152
关系	-153
▁2	-154
an	-155
生产	-156
作出	-157
实现	-158
希望	-159
领域	-160
金融	-161
贸易	-162
的是	-163
▁他	-164
什么	-165
现在	-166
应该	-167
正在	-168
人权	-169
得到	-170
同时	-171
不是	-172
成为	-173
er	-174
能够	-175
有效	-176
能力	-177
)。	-178
主席	-179
新的	-180
1993	-181
作用	-182
人的	-183
权利	-184
共和	-185
注意	-186
基础	-187
国家的	-188
由于	-189
民主	-190
责任	-191
制度	-192
这样	-193
获得	-194
时间	-195
的问题	-196
共同	-197
非洲	-198
发生	-199
3.	-200
其中	-201
协调	-202
领导	-203
生活	-204
取得	-205
一步	-206
先生	-207
参与	-208
持续	-209
考虑	-210
代表团	-211
行为	-212
发展中	-213
举行	-214
期间	-215
--	-216
提高	-217
人口	-218
4.	-219
儿童	-220
的工作	-221
地方	-222
11	-223
就是	-224
共和国	-225
年的	-226
斯坦	-227
部队	-228
造成	-229
公约	-230
开发	-231
资料	-232
不能	-233
号决议	-234
武器	-235
on	-236
严重	-237
▁中国	-238
自由	-239
进一步	-240
讨论	-241
军事	-242
实施	-243
中的	-244
财政	-245
办法	-246
确保	-247
改革	-248
1.	-249
维持	-250
15	-251
方式	-252
尽管	-253
积极	-254
特别是	-255
必要	-256
基本	-257
▁但是	-258
中心	-259
不同	-260
任务	-261
发言	-262
接受	-263
国的	-264
条件	-265
民族	-266
利用	-267
6.	-268
原则	-269
文件	-270
的国家	-271
而且	-272
人们	-273
5.	-274
处理	-275
事务	-276
知道	-277
第一	-278
▁”“	-279
按照	-280
草案	-281
受到	-282
参加	-283
▁此	-284
过去	-285
..	-286
调查	-287
建设	-288
方面的	-289
30	-290
定的	-291
7.	-292
▁因此	-293
危机	-294
了一	-295
罗斯	-296
减少	-297
为了	-298
价格	-299
ar	-300
资金	-301
以来	-302
指出	-303
总统	-304
第二	-305
最近	-306
对于	-307
in	-308
费用	-309
结果	-310
和其他	-311
实际	-312
各种	-313
收入	-314
尼亚	-315
谈判	-316
审议	-317
印度	-318
范围	-319
事实	-320
%。	-321
国际社会	-322
那些	-323
冲突	-324
无法	-325
标准	-326
充分	-327
日本	-328
机会	-329
并且	-330
审查	-331
8.	-332
2.	-333
个人	-334
选举	-335
机关	-336
存在	-337
的情况	-338
文化	-339
时候	-340
进程	-341
上的	-342
50	-343
1995	-344
出口	-345
成功	-346
具有	-347
产生	-348
▁如果	-349
战略	-350
意见	-351
变化	-352
预算	-353
难民	-354
性的	-355
俄罗斯	-356
不会	-357
是否	-358
导致	-359
但是	-360
他的	-361
国内	-362
),	-363
来的	-364
问题的	-365
全面	-366
方法	-367
利亚	-368
产品	-369
英国	-370
及其	-371
帮助	-372
更多	-373
设立	-374
一种	-375
控制	-376
水平	-377
观察	-378
协议	-379
亿美元	-380
出现	-381
利益	-382
一项	-383
▁此外	-384
非常	-385
安全理事会	-386
数据	-387
制定	-388
长期	-389
▁不	-390
业务	-391
全国	-392
1996	-393
协定	-394
申请	-395
负责	-396
发展中国家	-397
程序	-398
单位	-399
拉克	-400
两个	-401
法院	-402
家庭	-403
:“	-404
最后	-405
强调	-406
科学	-407
▁3	-408
欧盟	-409
一直	-410
▁这些	-411
000	-412
货币	-413
以便	-414
用于	-415
en	-416
的经济	-417
设施	-418
到了	-419
批准	-420
稳定	-421
具体	-422
以色	-423
以色列	-424
的报告	-425
之间的	-426
不断	-427
如何	-428
承诺	-429
直接	-430
信息	-431
▁当	-432
%,	-433
适当	-434
之一	-435
能源	-436
各项	-437
198	-438
仍然	-439
虽然	-440
al	-441
选择	-442
只有	-443
注意到	-444
历史	-445
or	-446
外国	-447
改善	-448
”。	-449
规模	-450
公共	-451
伊拉克	-452
9.	-453
他们的	-454
议程	-455
如此	-456
完全	-457
地位	-458
保持	-459
限制	-460
是在	-461
会员	-462
外交	-463
卫生	-464
国务	-465
多数	-466
协商	-467
交易	-468
确定	-469
面临	-470
原因	-471
▁你	-472
条约	-473
自己的	-474
债务	-475
安排	-476
领土	-477
▁4	-478
需求	-479
表明	-480
反对	-481
不得	-482
威胁	-483
监督	-484
重新	-485
道主义	-486
;(	-487
规定的	-488
14	-489
因素	-490
个月	-491
机制	-492
鼓励	-493
经费	-494
更加	-495
第三	-496
我的	-497
世纪	-498
二十	-499
▁该	-500
重要的	-501
独立	-502
届会议	-503
种族	-504
结构	-505
安理	-506
之后	-507
改变	-508
过程	-509
协助	-510
结束	-511
集团	-512
自治	-513
16	-514
规划	-515
超过	-516
发现	-517
同样	-518
可持续	-519
支助	-520
新闻	-521
的规定	-522
未来	-523
那么	-524
安理会	-525
非政府	-526
亚洲	-527
,“	-528
目的	-529
也是	-530
国务院	-531
保障	-532
风险	-533
公民	-534
扩大	-535
主管	-536
同意	-537
城市	-538
劳动	-539
内的	-540
挑战	-541
大学	-542
尤其	-543
犯罪	-544
资产	-545
健康	-546
进展	-547
培训	-548
达成	-549
这是	-550
今天	-551
拥有	-552
我们的	-553
1992	-554
推动	-555
并不	-556
来说	-557
18	-558
来自	-559
价值	-560
分析	-561
发展的	-562
完成	-563
认识	-564
欢迎	-565
消费	-566
25	-567
事件	-568
保证	-569
一次	-570
人类	-571
一样	-572
工作人员	-573
的国际	-574
之前	-575
秘书处	-576
某些	-577
令人	-578
今年	-579
状况	-580
然而	-581
伊朗	-582
发挥	-583
经营	-584
的一个	-585
工业	-586
好的	-587
平等	-588
德国	-589
甚至	-590
程度	-591
广泛	-592
说明	-593
es	-594
十年	-595
▁他们	-596
重大	-597
13	-598
资本	-599
0.	-600
的最	-601
非政府组织	-602
竞争	-603
开展	-604
联盟	-605
发达	-606
下降	-607
给予	-608
自然	-609
恢复	-610
战争	-611
▁而	-612
达到	-613
香港	-614
运动	-615
这项	-616
力的	-617
小组	-618
,”	-619
人道主义	-620
日第	-621
官员	-622
at	-623
一致	-624
提交	-625
领导人	-626
巴勒	-627
形式	-628
组成	-629
巴勒斯坦	-630
法国	-631
不可	-632
关键	-633
专家	-634
上述	-635
维持和平	-636
商业	-637
这方面	-638
创造	-639
以上	-640
当局	-641
相关	-642
决议草案	-643
联邦	-644
双方	-645
贷款	-646
从而	-647
成本	-648
it	-649
就业	-650
符合	-651
显示	-652
义务	-653
者的	-654
整个	-655
工程	-656
会员国	-657
以下	-658
当地	-659
四十	-660
ic	-661
优先	-662
还有	-663
土地	-664
正式	-665
▁5	-666
知识	-667
似乎	-668
违反	-669
次会议	-670
计划署	-671
是一个	-672
困难	-673
大量	-674
监测	-675
阿拉	-676
经验	-677
调整	-678
带来	-679
▁她	-680
联系	-681
保险	-682
咨询	-683
在其	-684
明确	-685
的影响	-686
危险	-687
▁它	-688
和社会	-689
很多	-690
例如	-691
阶段	-692
关注	-693
贡献	-694
实行	-695
不仅	-696
17	-697
准备	-698
有的	-699
事实上	-700
下列	-701
提出的	-702
登记	-703
石油	-704
有关的	-705
依法	-706
支付	-707
办事	-708
少数	-709
了解	-710
成立	-711
证明	-712
随着	-713
体系	-714
相信	-715
中华	-716
承认	-717
真正	-718
履行	-719
涉及	-720
司法	-721
▁然而	-722
都是	-723
组织的	-724
农业	-725
十分	-726
还是	-727
▁对	-728
破坏	-729
进入	-730
感到	-731
估计	-732
的重要	-733
恐怖	-734
商品	-735
迅速	-736
你的	-737
学校	-738
宣布	-739
人民共和国	-740
一般	-741
传统	-742
经常	-743
/4	-744
局势	-745
反映	-746
欧元	-747
各方	-748
气候	-749
阿拉伯	-750
高级	-751
▁有	-752
办事处	-753
训练	-754
禁止	-755
▁美国	-756
紧急	-757
依照	-758
el	-759
▁第三	-760
看到	-761
意味	-762
的时候	-763
的发展	-764
的大	-765
▁尽管	-766
星期	-767
”,	-768
避免	-769
北京	-770
中央	-771
年来	-772
一切	-773
精神	-774
规则	-775
条例	-776
几乎	-777
部长	-778
地区的	-779
委员会的	-780
越来	-781
最终	-782
越来越	-783
力量	-784
):	-785
五十	-786
成员国	-787
21	-788
暴力	-789
人民政府	-790
我国	-791
的主要	-792
预防	-793
尊重	-794
起来	-795
权力	-796
其它	-797
立法	-798
将在	-799
意味着	-800
孩子	-801
的努力	-802
统计	-803
证券	-804
核武器	-805
所需	-806
计算	-807
了一个	-808
内容	-809
本法	-810
的新	-811
24	-812
设备	-813
供应	-814
统一	-815
开发计划署	-816
医疗	-817
中华人民共和国	-818
质量	-819
消除	-820
普遍	-821
as	-822
26	-823
▁6	-824
去年	-825
考虑到	-826
评估	-827
西藏	-828
宗教	-829
贫困	-830
管制	-831
学生	-832
维护	-833
日益	-834
死亡	-835
粮食	-836
事项	-837
那样	-838
防止	-839
投资者	-840
相互	-841
刑事	-842
的政治	-843
重申	-844
活动的	-845
反应	-846
两年	-847
合同	-848
非法	-849
加入	-850
进行的	-851
相当	-852
评价	-853
中国的	-854
伙伴	-855
理由	-856
助于	-857
合法	-858
机构的	-859
遵守	-860
制造	-861
损失	-862
首先	-863
专门	-864
平均	-865
英语	-866
将会	-867
▁由于	-868
专业	-869
这样的	-870
表现	-871
以前	-872
派团	-873
网络	-874
裁军	-875
缔约	-876
愿意	-877
承担	-878
解释	-879
▁2.	-880
制订	-881
进口	-882
会议的	-883
伊斯	-884
呼吁	-885
比亚	-886
武装	-887
决策	-888
▁第十	-889
特派团	-890
一起	-891
临时	-892
的信	-893
的情况下	-894
各国政府	-895
▁为	-896
▁这一	-897
is	-898
合理	-899
每年	-900
内部	-901
只是	-902
从事	-903
告诉	-904
和平与	-905
财务	-906
运输	-907
利率	-908
出的	-909
一级	-910
手段	-911
降低	-912
允许	-913
空间	-914
分配	-915
23	-916
伊斯兰	-917
可能会	-918
对话	-919
类似	-920
主权	-921
意义	-922
根本	-923
数量	-924
▁事实上	-925
综合	-926
的基础	-927
ro	-928
人士	-929
财产	-930
波斯	-931
大多数	-932
专员	-933
197	-934
通知	-935
压力	-936
有助于	-937
▁200	-938
现代	-939
法庭	-940
纲领	-941
签署	-942
才能	-943
即使	-944
检查	-945
而言	-946
大会第	-947
设计	-948
宪法	-949
有利	-950
许可	-951
40	-952
工作组	-953
集中	-954
提供了	-955
提供的	-956
框架	-957
宣言	-958
指导	-959
下的	-960
工作的	-961
联合国系统	-962
也不	-963
拒绝	-964
社区	-965
开放	-966
化的	-967
▁与	-968
满足	-969
举行的	-970
▁从	-971
比较	-972
100	-973
ch	-974
该国	-975
上海	-976
而不是	-977
各级	-978
复杂	-979
构成	-980
一条	-981
关切	-982
出版	-983
除了	-984
至少	-985
波斯尼亚	-986
》,	-987
事业	-988
时期	-989
预期	-990
也许	-991
理解	-992
上升	-993
污染	-994
的话	-995
再次	-996
27	-997
美洲	-998
▁7	-999
私人	-1000
请求	-1001
的政策	-1002
西方	-1003
▁1.	-1004
坚持	-1005
il	-1006
建筑	-1007
发表	-1008
中东	-1009
和国际	-1010
年代	-1011
收到	-1012
歧视	-1013
....	-1014
重点	-1015
销售	-1016
食品	-1017
必要的	-1018
认识到	-1019
比如	-1020
居民	-1021
学家	-1022
在于	-1023
60	-1024
观点	-1025
进行了	-1026
更多的	-1027
公众	-1028
密切	-1029
最高	-1030
做出	-1031
体制	-1032
平衡	-1033
的方式	-1034
警察	-1035
缺乏	-1036
所以	-1037
的权利	-1038
▁第二十	-1039
行业	-1040
重视	-1041
和发展	-1042
支出	-1043
材料	-1044
现实	-1045
保健	-1046
生命	-1047
召开	-1048
行动的	-1049
▁一	-1050
移民	-1051
加以	-1052
采用	-1053
多边	-1054
首脑	-1055
通常	-1056
1991	-1057
监管	-1058
农村	-1059
宪章	-1060
卢旺	-1061
卢旺达	-1062
针对	-1063
趋势	-1064
有限	-1065
央行	-1066
▁3.	-1067
数字	-1068
情况下	-1069
另一	-1070
和经济	-1071
拉夫	-1072
尤其是	-1073
的所有	-1074
范围内	-1075
31	-1076
法规	-1077
22	-1078
成果	-1079
系列	-1080
政府的	-1081
公平	-1082
现有	-1083
▁不过	-1084
大部分	-1085
大约	-1086
ion	-1087
om	-1088
职业	-1089
有可能	-1090
公开	-1091
代表大会	-1092
▁虽然	-1093
停止	-1094
记录	-1095
am	-1096
的活动	-1097
奥运	-1098
变得	-1099
投票	-1100
的能力	-1101
和技术	-1102
后果	-1103
发达国家	-1104
效率	-1105
有所	-1106
属于	-1107
ed	-1108
就会	-1109
如今	-1110
寻求	-1111
万美元	-1112
扩散	-1113
境内	-1114
应对	-1115
阿富	-1116
提议	-1117
模式	-1118
案件	-1119
阿富汗	-1120
后的	-1121
声明	-1122
权的	-1123
基金会	-1124
28	-1125
DP	-1126
希腊	-1127
的事	-1128
ol	-1129
形成	-1130
购买	-1131
喜欢	-1132
1990	-1133
引起	-1134
比例	-1135
明显	-1136
工具	-1137
交流	-1138
▁目前	-1139
损害	-1140
的目标	-1141
若干	-1142
并在	-1143
捐助	-1144
预计	-1145
主管部门	-1146
48	-1147
朝鲜	-1148
补充	-1149
失业	-1150
当事	-1151
立场	-1152
显然	-1153
▁委员会	-1154
军队	-1155
的行动	-1156
附件	-1157
▁在这方面	-1158
改进	-1159
特殊	-1160
国民	-1161
▁这种	-1162
态度	-1163
分别	-1164
进步	-1165
海洋	-1166
观察员	-1167
日至	-1168
本身	-1169
最大的	-1170
不足	-1171
当前	-1172
美国的	-1173
你们	-1174
方案的	-1175
时代	-1176
团体	-1177
朋友	-1178
做法	-1179
适用	-1180
予以	-1181
五条	-1182
日起	-1183
更为	-1184
学习	-1185
全世界	-1186
意识	-1187
感谢	-1188
访问	-1189
)(	-1190
)、	-1191
流动	-1192
编制	-1193
经济增长	-1194
人民代表大会	-1195
它的	-1196
巴基	-1197
预测	-1198
中国政府	-1199
▁4.	-1200
年前	-1201
四条	-1202
年轻	-1203
九条	-1204
行的	-1205
可持续发展	-1206
有效的	-1207
巴基斯坦	-1208
全部	-1209
▁为了	-1210
人民的	-1211
列入	-1212
▁本	-1213
条款	-1214
台湾	-1215
自治区	-1216
六条	-1217
试图	-1218
担心	-1219
一定	-1220
▁根据	-1221
领域的	-1222
贫穷	-1223
几个	-1224
旨在	-1225
南非	-1226
委会	-1227
公司的	-1228
担任	-1229
人民法院	-1230
核心	-1231
不到	-1232
西亚	-1233
生物	-1234
他说	-1235
纽约	-1236
容易	-1237
三个	-1238
的社会	-1239
年度	-1240
土耳	-1241
气候变化	-1242
处于	-1243
侵犯	-1244
出了	-1245
重建	-1246
土耳其	-1247
然后	-1248
举办	-1249
汽车	-1250
斯拉夫	-1251
恐怖主义	-1252
缔约国	-1253
筹备	-1254
交通	-1255
et	-1256
步骤	-1257
之外	-1258
回答	-1259
29	-1260
来源	-1261
有人	-1262
转让	-1263
打击	-1264
南斯拉夫	-1265
大规模	-1266
概念	-1267
日内	-1268
福利	-1269
正确	-1270
组织和	-1271
而是	-1272
In	-1273
职责	-1274
有权	-1275
小时	-1276
▁第二	-1277
实质	-1278
多的	-1279
唯一	-1280
办公	-1281
七条	-1282
东西	-1283
在这	-1284
▁8	-1285
媒体	-1286
处罚	-1287
总部	-1288
GDP	-1289
的决定	-1290
立即	-1291
ur	-1292
所作	-1293
▁据	-1294
双边	-1295
另外	-1296
不要	-1297
繁荣	-1298
宣传	-1299
相反	-1300
人和	-1301
▁"	-1302
马里	-1303
它们的	-1304
有些	-1305
拟订	-1306
道路	-1307
两国	-1308
海地	-1309
不再	-1310
严格	-1311
正常	-1312
造成的	-1313
吸引	-1314
并没有	-1315
实际上	-1316
将继续	-1317
证据	-1318
电视	-1319
这一点	-1320
人数	-1321
以外	-1322
审计	-1323
经济体	-1324
所得	-1325
西班	-1326
西班牙	-1327
公正	-1328
药物	-1329
指数	-1330
的作用	-1331
秩序	-1332
受害	-1333
足够	-1334
70	-1335
期限	-1336
现象	-1337
制裁	-1338
过渡	-1339
▁主席	-1340
的建议	-1341
为止	-1342
会议上	-1343
ac	-1344
部署	-1345
森林	-1346
高度	-1347
一份	-1348
90	-1349
克兰	-1350
视为	-1351
她的	-1352
正如	-1353
中所	-1354
少数民族	-1355
议会	-1356
无论	-1357
股票	-1358
月份	-1359
以英语	-1360
▁最后	-1361
▁20	-1362
集体	-1363
不同的	-1364
怎么	-1365
鉴于	-1366
那里	-1367
科技	-1368
▁5.	-1369
总理	-1370
巴马	-1371
不过	-1372
对其	-1373
le	-1374
提到	-1375
八条	-1376
女性	-1377
埃及	-1378
以英语发言	-1379
观察团	-1380
一名	-1381
面对	-1382
满意	-1383
另一个	-1384
自身	-1385
相对	-1386
80	-1387
经过	-1388
清楚	-1389
开支	-1390
▁现在	-1391
500	-1392
▁第三十	-1393
叙利亚	-1394
以后	-1395
致力	-1396
地点	-1397
一位	-1398
诉讼	-1399
不可能	-1400
注册	-1401
2008	-1402
障碍	-1403
大利	-1404
三条	-1405
▁19	-1406
奥巴马	-1407
适当的	-1408
市场的	-1409
找到	-1410
公布	-1411
离开	-1412
严重的	-1413
工资	-1414
方向	-1415
第四	-1416
巨大的	-1417
航空	-1418
往往	-1419
苏丹	-1420
巨大	-1421
题为	-1422
各个	-1423
错误	-1424
意大利	-1425
债券	-1426
行使	-1427
为什么	-1428
对外	-1429
的一些	-1430
澳大	-1431
经历	-1432
采购	-1433
▁关于	-1434
▁6.	-1435
澳大利亚	-1436
当时	-1437
性和	-1438
性质	-1439
大幅	-1440
维亚	-1441
投入	-1442
保留	-1443
介绍	-1444
尚未	-1445
47	-1446
并非	-1447
乌克兰	-1448
救济	-1449
的法律	-1450
通胀	-1451
2000	-1452
特朗	-1453
▁自	-1454
的其他	-1455
分子	-1456
的一部分	-1457
定期	-1458
药品	-1459
下跌	-1460
的措施	-1461
核查	-1462
难以	-1463
员额	-1464
基于	-1465
基础设施	-1466
回顾	-1467
▁这个	-1468
依赖	-1469
的时间	-1470
准则	-1471
的任务	-1472
的不	-1473
短期	-1474
课程	-1475
传播	-1476
欧元区	-1477
的原则	-1478
群体	-1479
排放	-1480
▁这是	-1481
创新	-1482
项目的	-1483
一年	-1484
全体	-1485
第十	-1486
残疾	-1487
只能	-1488
在中国	-1489
辩论	-1490
1997	-1491
官方	-1492
45	-1493
议定	-1494
在本	-1495
民众	-1496
▁联合国	-1497
伦敦	-1498
享有	-1499
结论	-1500
的各项	-1501
);	-1502
很大	-1503
▁第一	-1504
过程中	-1505
二条	-1506
及时	-1507
信任	-1508
un	-1509
▁其	-1510
日在	-1511
上涨	-1512
__	-1513
主任	-1514
的资料	-1515
兴趣	-1516
所谓	-1517
顾问	-1518
韩国	-1519
国家和	-1520
us	-1521
》(	-1522
报道	-1523
多样	-1524
占领	-1525
确认	-1526
特朗普	-1527
行动纲领	-1528
每个	-1529
今后	-1530
政府间	-1531
万人	-1532
及社会	-1533
检察	-1534
毫无	-1535
黎巴	-1536
此同时	-1537
旅游	-1538
黎巴嫩	-1539
儿童基金会	-1540
灾害	-1541
取得的	-1542
奥运会	-1543
确实	-1544
她们	-1545
授权	-1546
出席	-1547
私营	-1548
生育	-1549
赔偿	-1550
的支持	-1551
索马里	-1552
专利	-1553
协会	-1554
巴西	-1555
只要	-1556
的项目	-1557
资格	-1558
收益	-1559
的第	-1560
机构和	-1561
论坛	-1562
产业	-1563
,000	-1564
革命	-1565
发展中国家的	-1566
自愿	-1567
客户	-1568
人在	-1569
对此	-1570
Ch	-1571
和平进程	-1572
▁7.	-1573
应用	-1574
速度	-1575
财富	-1576
都有	-1577
倡议	-1578
人民币	-1579
提案	-1580
办公室	-1581
律师	-1582
的结果	-1583
值得	-1584
这类	-1585
发布	-1586
国际法	-1587
持久	-1588
将是	-1589
地的	-1590
法官	-1591
疾病	-1592
年以来	-1593
推进	-1594
曾经	-1595
结合	-1596
的要求	-1597
学院	-1598
本组织	-1599
极端	-1600
▁9	-1601
加拿	-1602
语言	-1603
----	-1604
次会议上	-1605
或许	-1606
警告	-1607
35	-1608
削减	-1609
那个	-1610
电子	-1611
简单	-1612
使得	-1613
的一项	-1614
海关	-1615
失败	-1616
带来的	-1617
:(	-1618
高的	-1619
敦促	-1620
觉得	-1621
克罗	-1622
转移	-1623
这个问题	-1624
维持和平行动	-1625
消费者	-1626
9/	-1627
决心	-1628
经济的	-1629
表决	-1630
哥维	-1631
人力	-1632
黑塞	-1633
》。	-1634
政府和	-1635
高兴	-1636
透明	-1637
仲裁	-1638
地亚	-1639
哥维那	-1640
动物	-1641
报告员	-1642
恶化	-1643
所在	-1644
安全的	-1645
负担	-1646
黑塞哥维那	-1647
化学	-1648
收购	-1649
本国	-1650
取消	-1651
如下	-1652
融资	-1653
▁《	-1654
▁欧洲	-1655
遭受	-1656
详细	-1657
电话	-1658
通过了	-1659
用的	-1660
墨西	-1661
th	-1662
看法	-1663
思想	-1664
审判	-1665
▁8.	-1666
和政治	-1667
快速	-1668
新兴	-1669
提出了	-1670
的安全	-1671
议定书	-1672
墨西哥	-1673
议程项目	-1674
将其	-1675
肯定	-1676
紧张	-1677
货物	-1678
数额	-1679
St	-1680
布什	-1681
资助	-1682
前景	-1683
每天	-1684
的执行	-1685
▁第四十	-1686
用户	-1687
团结	-1688
ad	-1689
加拿大	-1690
依然	-1691
失去	-1692
ent	-1693
赤字	-1694
致力于	-1695
大家	-1696
▁同时	-1697
▁当然	-1698
ing	-1699
通过的	-1700
信贷	-1701
发生的	-1702
阿尔	-1703
延长	-1704
税收	-1705
大陆	-1706
和管理	-1707
软件	-1708
任命	-1709
攻击	-1710
住房	-1711
干预	-1712
性别	-1713
of	-1714
百分	-1715
电脑	-1716
汇率	-1717
and	-1718
失所	-1719
区的	-1720
ation	-1721
通讯	-1722
古巴	-1723
哥拉	-1724
可能性	-1725
南部	-1726
选民	-1727
目的是	-1728
安哥拉	-1729
首席	-1730
增强	-1731
方针	-1732
合作的	-1733
普通	-1734
有效地	-1735
两年期	-1736
re	-1737
并不是	-1738
的任何	-1739
也没有	-1740
更大的	-1741
编写	-1742
斗争	-1743
最大	-1744
的研究	-1745
和解	-1746
完整	-1747
可以在	-1748
取得了	-1749
这样做	-1750
强烈	-1751
克罗地亚	-1752
仅仅	-1753
”(	-1754
劳工	-1755
里亚	-1756
收集	-1757
适应	-1758
优势	-1759
流离	-1760
将于	-1761
相比	-1762
也会	-1763
也有	-1764
袭击	-1765
主题	-1766
平民	-1767
地雷	-1768
▁随着	-1769
交换	-1770
利润	-1771
罪行	-1772
不知道	-1773
候选	-1774
有利于	-1775
纳入	-1776
的基本	-1777
经济及社会	-1778
阻止	-1779
相同	-1780
的技术	-1781
减轻	-1782
办理	-1783
代理	-1784
修改	-1785
工人	-1786
文书	-1787
2007	-1788
飞机	-1789
生态	-1790
储备	-1791
刺激	-1792
流离失所	-1793
经济学家	-1794
原子	-1795
更好	-1796
资源的	-1797
外汇	-1798
放弃	-1799
成就	-1800
部门的	-1801
母亲	-1802
是因为	-1803
▁我国	-1804
ers	-1805
人都	-1806
违法	-1807
程度上	-1808
外部	-1809
国有	-1810
汤姆	-1811
评论	-1812
邀请	-1813
合作组织	-1814
未能	-1815
职工	-1816
边界	-1817
。”	-1818
的行为	-1819
首脑会议	-1820
在国际	-1821
在过去	-1822
会谈	-1823
之中	-1824
岛屿	-1825
主持	-1826
专员办事处	-1827
33	-1828
管辖	-1829
怀疑	-1830
采取行动	-1831
土著	-1832
父亲	-1833
认真	-1834
第一次	-1835
其中包括	-1836
放在	-1837
永远	-1838
职务	-1839
运作	-1840
▁许多	-1841
的合作	-1842
打算	-1843
使其	-1844
重要的是	-1845
好处	-1846
有一	-1847
中期	-1848
物质	-1849
陷入	-1850
与发展	-1851
的机会	-1852
落实	-1853
个国家	-1854
目前的	-1855
完善	-1856
多少	-1857
的地方	-1858
世界银行	-1859
▁9.	-1860
关心	-1861
股东	-1862
在该	-1863
塞尔	-1864
青年	-1865
罚款	-1866
试验	-1867
的原因	-1868
左右	-1869
某种	-1870
出售	-1871
▁一个	-1872
这么	-1873
展开	-1874
务委员会	-1875
理论	-1876
逐步	-1877
批评	-1878
穆斯	-1879
转变	-1880
适用于	-1881
劳动力	-1882
▁对于	-1883
身份	-1884
指标	-1885
增加了	-1886
美联	-1887
灾难	-1888
实体	-1889
阻碍	-1890
特别是在	-1891
所有的	-1892
地注意到	-1893
记者	-1894
的重要性	-1895
三年	-1896
os	-1897
地球	-1898
五年	-1899
咨询委员会	-1900
低于	-1901
特别委员会	-1902
穆斯林	-1903
接触	-1904
服务的	-1905
状态	-1906
各自	-1907
总额	-1908
需要的	-1909
统治	-1910
痛苦	-1911
巩固	-1912
几年	-1913
燃料	-1914
修正	-1915
总体	-1916
特别报告员	-1917
5%	-1918
额外	-1919
面前	-1920
例子	-1921
世界上	-1922
经济和社会	-1923
即将	-1924
权益	-1925
出来	-1926
企业的	-1927
卫星	-1928
道德	-1929
产权	-1930
领袖	-1931
技能	-1932
核准	-1933
拘留	-1934
美联储	-1935
2005	-1936
常常	-1937
彻底	-1938
爆发	-1939
治疗	-1940
海外	-1941
有必要	-1942
不利	-1943
许可证	-1944
政策的	-1945
国会	-1946
潜在	-1947
的各种	-1948
六十	-1949
不应	-1950
正是	-1951
稳定的	-1952
员工	-1953
衰退	-1954
的一切	-1955
广告	-1956
及其他	-1957
的有关	-1958
医生	-1959
在内的	-1960
争取	-1961
解决办法	-1962
主张	-1963
显著	-1964
有一个	-1965
▁—	-1966
在此	-1967
辖市	-1968
问题上	-1969
不受	-1970
▁与此同时	-1971
后续	-1972
遭到	-1973
之日起	-1974
职能	-1975
是对	-1976
国防	-1977
拉丁	-1978
大大	-1979
相应	-1980
直到	-1981
原子能	-1982
其他国家	-1983
兄弟	-1984
捐款	-1985
人员的	-1986
经济及社会理事会	-1987
环境保护	-1988
农民	-1989
期望	-1990
毒品	-1991
直辖市	-1992
▁第一百	-1993
引发	-1994
▁作为	-1995
公路	-1996
im	-1997
至关	-1998
很难	-1999
联合国的	-2000
......	-2001
是不	-2002
会计	-2003
▁中	-2004
信心	-2005
看来	-2006
2006	-2007
▁他说	-2008
的全球	-2009
策略	-2010
都在	-2011
澳门	-2012
1994/	-2013
也在	-2014
最低	-2015
46	-2016
除非	-2017
担忧	-2018
太平	-2019
日内瓦	-2020
案文	-2021
逐渐	-2022
196	-2023
▁没有	-2024
季度	-2025
想要	-2026
房地	-2027
行政部门	-2028
▁它们	-2029
一体	-2030
当然	-2031
应在	-2032
感觉	-2033
▁10.	-2034
▁新	-2035
▁例如	-2036
上海合作组织	-2037
还要	-2038
加坡	-2039
研究所	-2040
▁就	-2041
殖民	-2042
建立一个	-2043
36	-2044
修订	-2045
妇女的	-2046
请秘书长	-2047
一场	-2048
年底	-2049
途径	-2050
金融危机	-2051
教授	-2052
代价	-2053
▁首先	-2054
▁要	-2055
角色	-2056
日的	-2057
危害	-2058
分之一	-2059
伤害	-2060
所有国家	-2061
ir	-2062
意愿	-2063
政党	-2064
受益	-2065
切实	-2066
派遣	-2067
▁这样	-2068
并未	-2069
指控	-2070
ut	-2071
起诉	-2072
生效	-2073
的人口	-2074
的方法	-2075
太平洋	-2076
事情	-2077
特别行政	-2078
形势	-2079
经理	-2080
大型	-2081
IM	-2082
争端	-2083
的基础上	-2084
金融机构	-2085
》、	-2086
的需要	-2087
▁A	-2088
取决	-2089
id	-2090
一家	-2091
教育和	-2092
社会发展	-2093
怎样	-2094
商标	-2095
总是	-2096
他在	-2097
巴黎	-2098
取决于	-2099
真正的	-2100
发行	-2101
政权	-2102
为此	-2103
经济发展	-2104
股市	-2105
食物	-2106
广泛的	-2107
表达	-2108
赞赏	-2109
赢得	-2110
所需的	-2111
者和	-2112
很快	-2113
消息	-2114
返回	-2115
物品	-2116
下来	-2117
居住	-2118
第五	-2119
效果	-2120
赞成	-2121
数目	-2122
灵活	-2123
遗憾	-2124
下去	-2125
补贴	-2126
▁今天	-2127
组成部分	-2128
医院	-2129
生存	-2130
产生的	-2131
▁国家	-2132
政策和	-2133
民主党	-2134
也可以	-2135
转型	-2136
非正式	-2137
的代表	-2138
▁那	-2139
储蓄	-2140
订正	-2141
拉丁美洲	-2142
谴责	-2143
的那样	-2144
各地	-2145
有关部门	-2146
答复	-2147
是个	-2148
迄今	-2149
▁同样	-2150
明白	-2151
公务	-2152
300	-2153
解放	-2154
加勒	-2155
核可	-2156
▁我们认为	-2157
的增长	-2158
罗马	-2159
膨胀	-2160
当事人	-2161
的方案	-2162
执法	-2163
所述	-2164
董事	-2165
这次	-2166
加拉	-2167
治理	-2168
实质性	-2169
现金	-2170
伙伴关系	-2171
天然	-2172
加快	-2173
岁的	-2174
良好	-2175
而不	-2176
和平与安全	-2177
采取了	-2178
51	-2179
促使	-2180
跨国	-2181
▁10	-2182
管理部门	-2183
极为	-2184
看见	-2185
第四十	-2186
战斗	-2187
未来的	-2188
得到了	-2189
▁政府	-2190
难民专员办事处	-2191
争议	-2192
用来	-2193
背景	-2194
▁一些	-2195
标志	-2196
具备	-2197
首次	-2198
共产	-2199
滥用	-2200
也将	-2201
初步	-2202
艺术	-2203
应付	-2204
共同体	-2205
还没有	-2206
都会	-2207
的承诺	-2208
长的	-2209
▁11.	-2210
随后	-2211
▁比如	-2212
接近	-2213
复苏	-2214
加勒比	-2215
面临的	-2216
概算	-2217
社会主义	-2218
的数据	-2219
年龄	-2220
体育	-2221
这些国家	-2222
最不	-2223
形式的	-2224
全国人民代表大会	-2225
外地	-2226
里的	-2227
克斯坦	-2228
强制	-2229
ter	-2230
受害者	-2231
委托	-2232
之下	-2233
县级	-2234
寻找	-2235
在这方面	-2236
37	-2237
以确保	-2238
事故	-2239
货币基金	-2240
大使	-2241
依据	-2242
民事	-2243
成了	-2244
▁这项	-2245
在一起	-2246
联保	-2247
华盛	-2248
上市	-2249
华盛顿	-2250
公安	-2251
群众	-2252
阿根	-2253
地震	-2254
规范	-2255
阿根廷	-2256
侵略	-2257
采取的	-2258
加剧	-2259
不扩散	-2260
地理	-2261
脆弱	-2262
特别行政区	-2263
全球化	-2264
不得不	-2265
通货	-2266
幸福	-2267
责令	-2268
差距	-2269
的确	-2270
的责任	-2271
产量	-2272
▁今年	-2273
作出了	-2274
整体	-2275
分裂	-2276
破产	-2277
和执行	-2278
并将	-2279
追究	-2280
出现了	-2281
协商一致	-2282
更大	-2283
亿美元的	-2284
债权	-2285
日期	-2286
未经	-2287
电力	-2288
任期	-2289
知识产权	-2290
必须在	-2291
持有	-2292
有时	-2293
该地区	-2294
全球经济	-2295
分发	-2296
ay	-2297
布隆	-2298
一系列	-2299
man	-2300
信托	-2301
候选人	-2302
49	-2303
的意见	-2304
联网	-2305
俄罗斯联邦	-2306
▁如今	-2307
》、《	-2308
/48	-2309
享受	-2310
退休	-2311
常务委员会	-2312
计划的	-2313
上周	-2314
赞扬	-2315
这场	-2316
的人权	-2317
功能	-2318
利比	-2319
有着	-2320
得以	-2321
审议了	-2322
该区域	-2323
▁近	-2324
一直在	-2325
共识	-2326
可是	-2327
非洲国家	-2328
ia	-2329
使用的	-2330
▁相反	-2331
这两	-2332
利比里亚	-2333
▁中国政府	-2334
塞族	-2335
ash	-2336
情况的	-2337
定义	-2338
位于	-2339
当选	-2340
一下	-2341
国外	-2342
股份	-2343
职权	-2344
宏观	-2345
ig	-2346
马拉	-2347
▁最近	-2348
的世界	-2349
第二十	-2350
信用	-2351
国际合作	-2352
格鲁	-2353
证实	-2354
48/	-2355
以期	-2356
秘密	-2357
是由	-2358
父母	-2359
后来	-2360
否则	-2361
加速	-2362
过度	-2363
国和	-2364
IMF	-2365
▁12.	-2366
的同时	-2367
/1994/	-2368
▁请	-2369
设法	-2370
克服	-2371
帐户	-2372
沙特	-2373
亿元	-2374
布隆迪	-2375
想法	-2376
系统的	-2377
发出	-2378
同一	-2379
和第	-2380
不久	-2381
于是	-2382
语发言	-2383
我要	-2384
38	-2385
教师	-2386
间的	-2387
取代	-2388
潜力	-2389
在美国	-2390
情报	-2391
职位	-2392
了一项	-2393
有了	-2394
车辆	-2395
抵押	-2396
深入	-2397
意识到	-2398
刑事责任	-2399
原子能机构	-2400
而非	-2401
联保部队	-2402
一点	-2403
磋商	-2404
,《	-2405
合并	-2406
▁到	-2407
检验	-2408
犯罪的	-2409
腐败	-2410
为基础	-2411
报告中	-2412
依靠	-2413
指定	-2414
万元	-2415
建立了	-2416
追求	-2417
待遇	-2418
新加坡	-2419
导弹	-2420
▁第五十	-2421
士兵	-2422
爱尔	-2423
ul	-2424
可靠	-2425
扩张	-2426
便利	-2427
计算机	-2428
发生了	-2429
的费用	-2430
滋病	-2431
赞同	-2432
和保护	-2433
在联合国	-2434
爱尔兰	-2435
方案和	-2436
加上	-2437
st	-2438
所有这些	-2439
至于	-2440
的关键	-2441
荷兰	-2442
动荡	-2443
oo	-2444
▁13.	-2445
理想	-2446
签订	-2447
报告的	-2448
截至	-2449
指挥	-2450
充满	-2451
实验	-2452
提升	-2453
角度	-2454
纪念	-2455
的环境	-2456
特定	-2457
附近	-2458
高于	-2459
波兰	-2460
50/	-2461
议员	-2462
她说	-2463
▁国际	-2464
iv	-2465
ank	-2466
行动计划	-2467
旅行	-2468
来看	-2469
称为	-2470
营养	-2471
采取措施	-2472
担保	-2473
特点	-2474
推广	-2475
共和党	-2476
友好	-2477
号决定	-2478
女士	-2479
良好的	-2480
现有的	-2481
小型	-2482
艾滋病	-2483
油价	-2484
的政府	-2485
津贴	-2486
通货膨胀	-2487
产品的	-2488
44	-2489
的前	-2490
联合国宪章	-2491
了对	-2492
现代化	-2493
书面	-2494
广播	-2495
文明	-2496
隔离	-2497
的管理	-2498
替代	-2499
的资源	-2500
▁14.	-2501
局面	-2502
用途	-2503
2004	-2504
▁正如	-2505
儿子	-2506
维也	-2507
支援	-2508
自动	-2509
在一个	-2510
吉亚	-2511
推行	-2512
共有	-2513
1989	-2514
的计划	-2515
监狱	-2516
维也纳	-2517
尼日	-2518
格鲁吉亚	-2519
放缓	-2520
ard	-2521
董事会	-2522
▁B	-2523
的办法	-2524
就像	-2525
习惯	-2526
惩罚	-2527
ah	-2528
变革	-2529
77	-2530
真实	-2531
em	-2532
▁通过	-2533
我国代表团	-2534
分歧	-2535
时刻	-2536
和国家	-2537
苏联	-2538
埔寨	-2539
逮捕	-2540
柬埔寨	-2541
的工作人员	-2542
存款	-2543
尽可能	-2544
600	-2545
女人	-2546
远远	-2547
发展和	-2548
的生活	-2549
男女	-2550
缅甸	-2551
委员会在	-2552
军备	-2553
人道主义援助	-2554
机场	-2555
情绪	-2556
普京	-2557
讨论会	-2558
已有	-2559
我说	-2560
胜利	-2561
我们必须	-2562
很少	-2563
的高	-2564
的和平	-2565
场所	-2566
工会	-2567
分钟	-2568
▁因为	-2569
▁还	-2570
连续	-2571
声音	-2572
在国家	-2573
回到	-2574
即便	-2575
下午	-2576
绝对	-2577
关税	-2578
前往	-2579
网站	-2580
▁其中	-2581
人力资源	-2582
装备	-2583
与合作	-2584
前南斯拉夫	-2585
几个月	-2586
参加了	-2587
不管	-2588
所载	-2589
男子	-2590
该公司	-2591
身体	-2592
中国人民	-2593
亚太	-2594
差异	-2595
/49/	-2596
化和	-2597
我想	-2598
的美国	-2599
诸如	-2600
载于	-2601
月在	-2602
峰会	-2603
每一个	-2604
发动	-2605
在这个	-2606
面临着	-2607
周期	-2608
妨碍	-2609
七十	-2610
承包	-2611
▁人们	-2612
增进	-2613
偿还	-2614
地说	-2615
每一	-2616
崩溃	-2617
▁汤姆	-2618
的需求	-2619
ev	-2620
时的	-2621
百万	-2622
约束	-2623
34	-2624
常驻	-2625
2001	-2626
紧缩	-2627
执行局	-2628
中有	-2629
▁15.	-2630
特别代表	-2631
就能	-2632
的地区	-2633
坚决	-2634
前的	-2635
还在	-2636
.)	-2637
提请	-2638
经济和	-2639
边境	-2640
联络	-2641
飞行	-2642
增长率	-2643
▁16.	-2644
已在	-2645
(1993	-2646
让我们	-2647
主动	-2648
纳税	-2649
up	-2650
理事	-2651
作出的	-2652
的可能性	-2653
1998	-2654
遇到	-2655
迫切	-2656
安全和	-2657
的事情	-2658
▁S	-2659
忽视	-2660
的财政	-2661
期待	-2662
效益	-2663
以上的	-2664
他们在	-2665
停火	-2666
补偿	-2667
的名	-2668
丰富	-2669
掌握	-2670
追究刑事责任	-2671
三十	-2672
法案	-2673
负债	-2674
ag	-2675
因而	-2676
尼西亚	-2677
作业	-2678
实力	-2679
筹措	-2680
自我	-2681
高等	-2682
监督管理	-2683
使我们	-2684
举行了	-2685
这两个	-2686
欧洲联盟	-2687
操作	-2688
▁如	-2689
一道	-2690
制度的	-2691
天然气	-2692
的决议草案	-2693
北部	-2694
传染	-2695
▁过去	-2696
比赛	-2697
视察	-2698
的条件	-2699
被迫	-2700
出版物	-2701
公里	-2702
薪金	-2703
更好的	-2704
用品	-2705
音乐	-2706
▁鉴于	-2707
的关系	-2708
透明度	-2709
仍在	-2710
证书	-2711
▁而且	-2712
所谓的	-2713
心理	-2714
次级	-2715
铁路	-2716
32	-2717
与其	-2718
各会员国	-2719
容忍	-2720
对手	-2721
愿望	-2722
让我	-2723
反映了	-2724
ob	-2725
冷战	-2726
情形	-2727
县级以上	-2728
小岛屿	-2729
.1	-2730
以及在	-2731
这些问题	-2732
ot	-2733
发言人	-2734
▁最	-2735
得多	-2736
探讨	-2737
公务员	-2738
照顾	-2739
残疾人	-2740
的风险	-2741
-1995	-2742
社会的	-2743
企图	-2744
判决	-2745
塞尔维亚	-2746
基地	-2747
想象	-2748
将来	-2749
有益	-2750
施行	-2751
继承	-2752
2010	-2753
量的	-2754
大力	-2755
子女	-2756
对抗	-2757
移徙	-2758
ill	-2759
信仰	-2760
零零	-2761
利比亚	-2762
39	-2763
坚定	-2764
越南	-2765
的具体	-2766
造成了	-2767
图书	-2768
推迟	-2769
防治	-2770
削弱	-2771
斯特	-2772
说法	-2773
民用	-2774
关系的	-2775
增长的	-2776
/48/	-2777
行政主管部门	-2778
款项	-2779
不平等	-2780
废物	-2781
总值	-2782
47/	-2783
400	-2784
对待	-2785
气象	-2786
的价格	-2787
相当于	-2788
所列	-2789
迹象	-2790
▁17.	-2791
颁布	-2792
美国和	-2793
武装冲突	-2794
人均	-2795
教训	-2796
老年	-2797
▁只有	-2798
机构间	-2799
作了	-2800
贝尔	-2801
世界的	-2802
常规	-2803
瑞士	-2804
Co	-2805
命令	-2806
也就是	-2807
种族主义	-2808
ie	-2809
以往	-2810
实践	-2811
他人	-2812
剥夺	-2813
邻国	-2814
▁除了	-2815
工商	-2816
总数	-2817
分析师	-2818
太阳	-2819
从未	-2820
技术和	-2821
第三十	-2822
真的	-2823
疑问	-2824
限于	-2825
▁日本	-2826
为其	-2827
国别	-2828
▁为此	-2829
单独	-2830
多个	-2831
讲习	-2832
55	-2833
▁——	-2834
对该	-2835
正义	-2836
空气	-2837
带来了	-2838
问题是	-2839
分享	-2840
发起	-2841
▁即使	-2842
货币基金组织	-2843
▁另外	-2844
迫使	-2845
可能是	-2846
▁我们希望	-2847
面的	-2848
主义者	-2849
对这些	-2850
成功地	-2851
爆炸	-2852
营业	-2853
▁大会	-2854
房地产	-2855
见的	-2856
冲击	-2857
年期间	-2858
影响的	-2859
银行的	-2860
赋予	-2861
主要是	-2862
一旦	-2863
竞选	-2864
会在	-2865
多种	-2866
印度尼西亚	-2867
每月	-2868
我们在	-2869
ab	-2870
ich	-2871
第五十	-2872
联合国在	-2873
个别	-2874
故事	-2875
av	-2876
或是	-2877
通信	-2878
工程处	-2879
接受的	-2880
▁M	-2881
的一种	-2882
重复	-2883
法定	-2884
▁)	-2885
的投资	-2886
没有任何	-2887
积极参与	-2888
2003	-2889
和有关	-2890
高级专员	-2891
年轻人	-2892
上帝	-2893
发会议	-2894
更好地	-2895
自然灾害	-2896
一体化	-2897
ec	-2898
消灭	-2899
协调员	-2900
回报	-2901
此类	-2902
遏制	-2903
所作的	-2904
毕业	-2905
动力	-2906
解除	-2907
尼日利亚	-2908
我在	-2909
对象	-2910
缔结	-2911
获得了	-2912
我们认为	-2913
体现	-2914
变成	-2915
尼斯	-2916
行为的	-2917
或者其他	-2918
天气	-2919
昨日	-2920
类似的	-2921
外资	-2922
但在	-2923
后者	-2924
所说	-2925
议题	-2926
二零零	-2927
渠道	-2928
▁1994	-2929
仍然是	-2930
人权事务	-2931
和联合国	-2932
测试	-2933
里斯	-2934
同样的	-2935
王国	-2936
泰国	-2937
因为它	-2938
敏感	-2939
的人道主义	-2940
斯科	-2941
电影	-2942
动员	-2943
互联网	-2944
彼此	-2945
衡量	-2946
技术合作	-2947
是指	-2948
还将	-2949
和不	-2950
成年	-2951
设想	-2952
出生	-2953
妻子	-2954
ap	-2955
是一种	-2956
货币政策	-2957
先进	-2958
强化	-2959
终止	-2960
欧洲央行	-2961
讲习班	-2962
▁以	-2963
▁19.	-2964
瑞典	-2965
听到	-2966
约翰	-2967
1980	-2968
秘书长关于	-2969
不论	-2970
等待	-2971
编列	-2972
本报告	-2973
尽快	-2974
的共同	-2975
56	-2976
ov	-2977
人口基金	-2978
优惠	-2979
小的	-2980
尔德	-2981
▁18.	-2982
Al	-2983
和美国	-2984
威特	-2985
船舶	-2986
设立的	-2987
声称	-2988
生产率	-2989
准确	-2990
确定的	-2991
所做	-2992
释放	-2993
管理和	-2994
永久	-2995
另一方面	-2996
是一	-2997
影响到	-2998
拨款	-2999
设置	-3000
都不	-3001
应当在	-3002
科学家	-3003
以及其他	-3004
煤炭	-3005
的态度	-3006
互相	-3007
四个	-3008
就可以	-3009
的军事	-3010
科威特	-3011
Ad	-3012
缺少	-3013
重大的	-3014
年中	-3015
早期	-3016
运用	-3017
被认为	-3018
和在	-3019
房屋	-3020
各区域	-3021
和平的	-3022
执政	-3023
葡萄	-3024
月的	-3025
北约	-3026
包含	-3027
明年	-3028
祝贺	-3029
和个人	-3030
一天	-3031
和对	-3032
描述	-3033
乐观	-3034
国际组织	-3035
一方	-3036
的小	-3037
ow	-3038
成功的	-3039
保守	-3040
深刻	-3041
走向	-3042
是什么	-3043
丧失	-3044
以为	-3045
由国务院	-3046
41	-3047
将对	-3048
我不	-3049
教学	-3050
基因	-3051
干涉	-3052
和中国	-3053
不够	-3054
示威	-3055
在内	-3056
紧迫	-3057
工厂	-3058
建造	-3059
抗议	-3060
私营部门	-3061
欧安	-3062
▁国际社会	-3063
撤销	-3064
世界经济	-3065
免费	-3066
合格	-3067
最初	-3068
首席执行	-3069
查明	-3070
眼睛	-3071
▁其他	-3072
协定的	-3073
成绩	-3074
卫生组织	-3075
位置	-3076
社会和	-3077
出于	-3078
培养	-3079
种族歧视	-3080
不良	-3081
女孩	-3082
当今	-3083
与其他	-3084
本地	-3085
没收	-3086
有关规定	-3087
力和	-3088
事务部	-3089
和服务	-3090
存在的	-3091
主义的	-3092
不但	-3093
结婚	-3094
anc	-3095
美国人	-3096
75	-3097
能否	-3098
零售	-3099
小组委员会	-3100
Sh	-3101
周年	-3102
分摊	-3103
西兰	-3104
最近的	-3105
这一问题	-3106
这里	-3107
敌对	-3108
哥伦	-3109
救助	-3110
oc	-3111
助理	-3112
日和	-3113
1994-1995	-3114
就此	-3115
欧洲的	-3116
--------	-3117
▁20.	-3118
提及	-3119
摆脱	-3120
是最	-3121
基础上	-3122
失业率	-3123
以下的	-3124
的资金	-3125
是为了	-3126
指示	-3127
▁1993	-3128
▁安理会	-3129
提供援助	-3130
例外	-3131
些时候	-3132
制作	-3133
关闭	-3134
始终	-3135
至今	-3136
调动	-3137
art	-3138
地方各级	-3139
ak	-3140
意思	-3141
其实	-3142
哪些	-3143
制止	-3144
付款	-3145
条第	-3146
的做法	-3147
西部	-3148
经济学	-3149
核查团	-3150
许多国家	-3151
鼓舞	-3152
矛盾	-3153
起草	-3154
可行	-3155
国集团	-3156
规划署	-3157
刚刚	-3158
单一	-3159
境内的	-3160
观念	-3161
地图	-3162
著作	-3163
▁结果	-3164
分区域	-3165
会上	-3166
法人	-3167
配合	-3168
妇女地位	-3169
适合	-3170
▁英国	-3171
和区域	-3172
md	-3173
上诉	-3174
一部分	-3175
▁我国代表团	-3176
报纸	-3177
议院	-3178
面积	-3179
行政法规	-3180
名的	-3181
▁更	-3182
移动	-3183
路斯	-3184
丈夫	-3185
份额	-3186
载有	-3187
计划生育	-3188
联邦共和国	-3189
▁各	-3190
情节	-3191
人权的	-3192
行政和	-3193
加沙	-3194
塞浦	-3195
阶级	-3196
监察	-3197
语文	-3198
1000	-3199
问题世界	-3200
;&	-3201
▁C	-3202
婚姻	-3203
已成为	-3204
哥伦比亚	-3205
塞浦路斯	-3206
学术	-3207
强大的	-3208
的联合国	-3209
文职	-3210
构成犯罪的	-3211
但却	-3212
能在	-3213
mdash	-3214
顺利	-3215
原因是	-3216
做好	-3217
宗旨	-3218
▁12	-3219
▁双方	-3220
健全	-3221
响应	-3222
固定	-3223
快乐	-3224
维修	-3225
裁决	-3226
多年来	-3227
的危险	-3228
禁毒	-3229
外国人	-3230
特征	-3231
提出报告	-3232
极其	-3233
格兰	-3234
男人	-3235
自然资源	-3236
设立一个	-3237
站在	-3238
刑法	-3239
的各	-3240
名单	-3241
它在	-3242
明天	-3243
68	-3244
品牌	-3245
共产党	-3246
是的	-3247
纪录	-3248
菲律	-3249
ity	-3250
答案	-3251
筹资	-3252
规章	-3253
妇女和	-3254
菲律宾	-3255
产生了	-3256
南亚	-3257
口头	-3258
就必须	-3259
幸的是	-3260
上文	-3261
倾向	-3262
盟约	-3263
我们对	-3264
和平协定	-3265
副主席	-3266
可能的	-3267
政府在	-3268
▁第六十	-3269
2%	-3270
挪威	-3271
足以	-3272
阿布	-3273
别的	-3274
人员和	-3275
合众	-3276
有什么	-3277
看看	-3278
第二次	-3279
足够的	-3280
▁P	-3281
发电	-3282
提醒	-3283
牺牲	-3284
犹太	-3285
很大的	-3286
大选	-3287
糟糕	-3288
给秘书长	-3289
协作	-3290
是有	-3291
安全理事会第	-3292
在第	-3293
渔业	-3294
冲突的	-3295
ri	-3296
▁将	-3297
不符合	-3298
死亡率	-3299
目标的	-3300
刑事司法	-3301
高达	-3302
升级	-3303
尝试	-3304
▁在此	-3305
的东西	-3306
进出口	-3307
退出	-3308
的中国	-3309
夫人	-3310
德里	-3311
研讨	-3312
和建议	-3313
讲话	-3314
加大	-3315
困境	-3316
突然	-3317
技术的	-3318
目标是	-3319
金融市场	-3320
丹麦	-3321
产出	-3322
大国	-3323
中方	-3324
给我	-3325
表现出	-3326
作品	-3327
机器	-3328
不仅仅	-3329
43	-3330
此外	-3331
流入	-3332
病毒	-3333
▁去年	-3334
决策者	-3335
已经在	-3336
发了	-3337
本条例	-3338
引渡	-3339
比克	-3340
儿童的	-3341
屠杀	-3342
的公司	-3343
的历史	-3344
优先事项	-3345
征收	-3346
税务	-3347
游戏	-3348
纲要	-3349
▁21.	-3350
和谐	-3351
并为	-3352
雇员	-3353
萨尔	-3354
一贯	-3355
回应	-3356
▁世界	-3357
宝贵	-3358
植物	-3359
现行	-3360
至关重要	-3361
势力	-3362
年至	-3363
对中国	-3364
号决议第	-3365
所涉	-3366
股价	-3367
节省	-3368
马来	-3369
去了	-3370
人口的	-3371
正确的	-3372
确立	-3373
自行	-3374
争论	-3375
从来	-3376
发放	-3377
物资	-3378
覆盖	-3379
负有	-3380
毕竟	-3381
57	-3382
西非	-3383
▁-	-3384
激励	-3385
终于	-3386
两名	-3387
主导	-3388
其在	-3389
少年	-3390
指责	-3391
援助团	-3392
(1993)	-3393
崛起	-3394
了一些	-3395
要求的	-3396
达成协议	-3397
拍卖	-3398
清单	-3399
缓慢	-3400
um	-3401
自主	-3402
感兴趣	-3403
领土完整	-3404
克尔	-3405
军官	-3406
缴纳	-3407
重组	-3408
并对	-3409
比率	-3410
会的	-3411
▁按照	-3412
2009	-3413
1996/	-3414
暂时	-3415
来了	-3416
毁灭	-3417
由此	-3418
美利	-3419
言论	-3420
▁22.	-3421
电信	-3422
目前正在	-3423
举措	-3424
手续	-3425
莫桑	-3426
莫桑比克	-3427
▁23.	-3428
▁秘书长	-3429
毫不	-3430
给了	-3431
的义务	-3432
越来越多	-3433
岗位	-3434
(1994	-3435
十字	-3436
城镇	-3437
摩根	-3438
英镑	-3439
合法权益	-3440
紧密	-3441
美利坚	-3442
是中国	-3443
另有	-3444
武力	-3445
10%	-3446
发展援助	-3447
住区	-3448
/26	-3449
生活在	-3450
的一般	-3451
II	-3452
和安全	-3453
地带	-3454
拟议	-3455
和促进	-3456
同期	-3457
正当	-3458
贬值	-3459
的经验	-3460
oh	-3461
我就	-3462
30.	-3463
公安机关	-3464
大会第四十	-3465
命运	-3466
年在	-3467
外交部	-3468
环境的	-3469
塔吉	-3470
报导	-3471
转向	-3472
新闻部	-3473
无疑	-3474
认可	-3475
最不发达国家	-3476
年内	-3477
排除	-3478
许多人	-3479
被视为	-3480
账户	-3481
的理由	-3482
变更	-3483
后勤	-3484
拉圭	-3485
有机会	-3486
作为一个	-3487
人才	-3488
色的	-3489
的机构	-3490
财政部	-3491
专题	-3492
做到	-3493
项下	-3494
思考	-3495
海事	-3496
▁印度	-3497
承受	-3498
1988	-3499
分之	-3500
地利	-3501
席位	-3502
▁回顾	-3503
那种	-3504
▁实际上	-3505
▁除	-3506
种族隔离	-3507
第一个	-3508
1993/	-3509
美利坚合众	-3510
1,	-3511
最为	-3512
工业化	-3513
几十年	-3514
和加强	-3515
奥地利	-3516
很可能	-3517
上了	-3518
经贸	-3519
届会议上	-3520
东盟	-3521
徒刑	-3522
促请	-3523
在执行	-3524
或其他	-3525
的利益	-3526
男孩	-3527
短缺	-3528
▁任何	-3529
流动性	-3530
▁应	-3531
养恤	-3532
参考	-3533
阵线	-3534
被告	-3535
58	-3536
最好	-3537
估计数	-3538
马来西亚	-3539
启动	-3540
节目	-3541
一段	-3542
五个	-3543
各类	-3544
提案国	-3545
并向	-3546
违反本法	-3547
消失	-3548
而在	-3549
基金的	-3550
东欧	-3551
人为	-3552
恐惧	-3553
还会	-3554
份报告	-3555
管理的	-3556
Th	-3557
拉斯	-3558
罪犯	-3559
历史上	-3560
所得税	-3561
突出	-3562
生产总值	-3563
坐在	-3564
合伙	-3565
距离	-3566
的自由	-3567
联合国各	-3568
年初	-3569
遵循	-3570
不应该	-3571
检察院	-3572
众多	-3573
成长	-3574
作出决定	-3575
所造成的	-3576
女儿	-3577
波动	-3578
org	-3579
教科	-3580
存在着	-3581
的威胁	-3582
较低	-3583
____	-3584
区别	-3585
约旦	-3586
细则	-3587
▁必须	-3588
ell	-3589
roup	-3590
干事	-3591
必然	-3592
水资源	-3593
的目的	-3594
▁24.	-3595
强劲	-3596
混乱	-3597
框架内	-3598
的会议	-3599
在这一	-3600
59	-3601
不安	-3602
▁欧盟	-3603
在全球	-3604
的价值	-3605
解决方案	-3606
灭绝	-3607
出现的	-3608
多样化	-3609
依法追究刑事责任	-3610
全民	-3611
▁“(	-3612
分散	-3613
最新	-3614
氧化	-3615
下一	-3616
有力的	-3617
的生产	-3618
循环	-3619
最佳	-3620
委员会主席	-3621
不了	-3622
两种	-3623
暂停	-3624
代表的	-3625
和支持	-3626
句话	-3627
谋求	-3628
减少了	-3629
为期	-3630
可以通过	-3631
de	-3632
贩运	-3633
长官	-3634
同事	-3635
突尼斯	-3636
管理局	-3637
法治	-3638
组合	-3639
积极的	-3640
感染	-3641
效应	-3642
运营	-3643
直接投资	-3644
不在	-3645
房子	-3646
附属	-3647
合理的	-3648
党派	-3649
日常	-3650
▁所以	-3651
的人员	-3652
竞争力	-3653
独特	-3654
身上	-3655
号文件	-3656
决定将	-3657
的人数	-3658
作法	-3659
富有	-3660
新西兰	-3661
技术援助	-3662
为何	-3663
限期	-3664
面向	-3665
这将	-3666
的市场	-3667
委内	-3668
民间	-3669
瑞拉	-3670
1999	-3671
委内瑞拉	-3672
之处	-3673
雇主	-3674
Cor	-3675
我认为	-3676
Un	-3677
接着	-3678
清洁	-3679
法律和	-3680
共同努力	-3681
拖延	-3682
说道	-3683
160	-3684
矿产	-3685
缺陷	-3686
的民主	-3687
经委会	-3688
两次	-3689
克林	-3690
学会	-3691
男性	-3692
制造业	-3693
委员会成员	-3694
非统	-3695
部分第	-3696
施加	-3697
▁有关	-3698
不需要	-3699
措施的	-3700
条件的	-3701
百分之	-3702
最重要的	-3703
烟草	-3704
这种情况	-3705
审批	-3706
昨天	-3707
重要作用	-3708
中间	-3709
薪酬	-3710
记得	-3711
An	-3712
800	-3713
的观点	-3714
东道	-3715
别人	-3716
手机	-3717
向大会	-3718
在这些	-3719
无线	-3720
着重	-3721
都能	-3722
贸发会议	-3723
▁无论	-3724
储存	-3725
安盟	-3726
首要	-3727
马克	-3728
制定的	-3729
权利的	-3730
下滑	-3731
之内	-3732
则是	-3733
发射	-3734
毫无疑问	-3735
处分	-3736
多次	-3737
安置	-3738
层面	-3739
捐赠	-3740
无核武器	-3741
中心的	-3742
孟加拉	-3743
土地使用	-3744
Le	-3745
疫苗	-3746
有能力	-3747
听取	-3748
打开	-3749
改正	-3750
纠正	-3751
常设	-3752
ang	-3753
图书馆	-3754
的标准	-3755
ou	-3756
国籍	-3757
凯恩	-3758
四年	-3759
的信息	-3760
元首	-3761
群岛	-3762
调解	-3763
雷曼	-3764
和其它	-3765
世纪议程	-3766
假设	-3767
受理	-3768
复兴	-3769
提起	-3770
的水平	-3771
这样一个	-3772
一半	-3773
贸易和	-3774
谨慎	-3775
南斯拉夫联邦共和国	-3776
效力	-3777
更高	-3778
私有	-3779
组成的	-3780
停滞	-3781
尊严	-3782
▁11	-3783
伊尔	-3784
类型	-3785
节约	-3786
宏观经济	-3787
▁R	-3788
国际社会的	-3789
判断	-3790
必需	-3791
ach	-3792
以及对	-3793
犯罪和	-3794
俄国	-3795
的企业	-3796
都必须	-3797
科学和技术	-3798
巴布	-3799
提名	-3800
透过	-3801
的战略	-3802
等方面	-3803
葡萄牙	-3804
部队的	-3805
买卖	-3806
再生	-3807
区内	-3808
商务	-3809
中美洲	-3810
集中在	-3811
人民检察院	-3812
升值	-3813
负责人	-3814
以法	-3815
多元	-3816
斯洛	-3817
重要性	-3818
国际和平与安全	-3819
加利	-3820
留在	-3821
和政府	-3822
的审议	-3823
达成的	-3824
新兴市场	-3825
婴儿	-3826
▁我想	-3827
形态	-3828
忘记	-3829
投标	-3830
质疑	-3831
son	-3832
预防性	-3833
专门机构	-3834
干达	-3835
引导	-3836
杂志	-3837
▁有人	-3838
在我们	-3839
次级方案	-3840
把它	-3841
运行	-3842
这方面的	-3843
香港特别行政区	-3844
医学	-3845
▁他的	-3846
的内容	-3847
境外	-3848
细胞	-3849
自决	-3850
这位	-3851
▁F	-3852
激烈	-3853
for	-3854
供应商	-3855
仔细	-3856
机遇	-3857
环保	-3858
我们将	-3859
达到了	-3860
海上	-3861
艰难	-3862
42	-3863
以此	-3864
过于	-3865
150	-3866
作出贡献	-3867
气氛	-3868
的实际	-3869
讨论了	-3870
▁25.	-3871
八十	-3872
空中	-3873
乌干达	-3874
债权人	-3875
宗商品	-3876
外交政策	-3877
执行情况	-3878
联合王国	-3879
ational	-3880
市民	-3881
浪费	-3882
也不会	-3883
没有人	-3884
建立信任	-3885
66	-3886
▁所有	-3887
仍有	-3888
伯爵	-3889
其对	-3890
获取	-3891
遣队	-3892
com	-3893
制品	-3894
缓解	-3895
遣返	-3896
到达	-3897
死刑	-3898
土著人民	-3899
埃尔	-3900
多年	-3901
强大	-3902
成效	-3903
▁第四	-3904
加工	-3905
是根据	-3906
根源	-3907
复议	-3908
建筑物	-3909
2002	-3910
美国总统	-3911
发生在	-3912
名义	-3913
扫雷	-3914
粮农	-3915
专家组	-3916
密切合作	-3917
平台	-3918
那儿	-3919
▁26.	-3920
富裕	-3921
收费	-3922
月底	-3923
消耗	-3924
雇用	-3925
受到了	-3926
▁G	-3927
新技术	-3928
EC	-3929
轨道	-3930
当中	-3931
与联合国	-3932
独立的	-3933
给秘书长的信	-3934
IC	-3935
年和	-3936
过来	-3937
的文件	-3938
都没有	-3939
在这里	-3940
AR	-3941
澄清	-3942
生活的	-3943
▁大	-3944
方面所	-3945
家园	-3946
区域的	-3947
那就是	-3948
渴望	-3949
第一百	-3950
否认	-3951
保存	-3952
说话	-3953
主要的	-3954
上去	-3955
撤出	-3956
起了	-3957
危险的	-3958
被占领	-3959
奖励	-3960
超越	-3961
志愿	-3962
文章	-3963
和环境	-3964
▁三	-3965
复杂的	-3966
人权委员会	-3967
aw	-3968
不愿	-3969
定居	-3970
900	-3971
▁我的	-3972
外商	-3973
妥协	-3974
外交部长	-3975
意志	-3976
随时	-3977
非洲的	-3978
世界各国	-3979
度的	-3980
谢谢	-3981
首相	-3982
申请人	-3983
的最大	-3984
发达国家的	-3985
庇护	-3986
很好	-3987
备案	-3988
看起来	-3989
还需要	-3990
处的	-3991
失望	-3992
遭遇	-3993
地位的	-3994
这意味着	-3995
层次	-3996
酷刑	-3997
▁会议	-3998
反映出	-3999
▁[	-4000
权威	-4001
行政机关	-4002
65	-4003
态发展	-4004
了一系列	-4005
理事会第	-4006
美利坚合众国	-4007
互利	-4008
物价	-4009
AC	-4010
名称	-4011
媒介	-4012
此种	-4013
很大程度上	-4014
生殖	-4015
客观	-4016
日子	-4017
个人的	-4018
极大	-4019
检察官	-4020
两位	-4021
采矿	-4022
▁有些	-4023
▁毕竟	-4024
的调查	-4025
之间的关系	-4026
上面	-4027
联索	-4028
所能	-4029
某一	-4030
阿塞	-4031
▁但在	-4032
和协调	-4033
期徒刑	-4034
▁27.	-4035
▁以色列	-4036
国家安全	-4037
不少	-4038
房间	-4039
来到	-4040
履行其	-4041
研讨会	-4042
所未	-4043
自从	-4044
建设性	-4045
20%	-4046
和法律	-4047
不太	-4048
入境	-4049
病人	-4050
的人们	-4051
特设	-4052
如果你	-4053
的有效	-4054
临时议程	-4055
西洋	-4056
Mar	-4057
日期间	-4058
明确的	-4059
公告	-4060
回家	-4061
将为	-4062
六个月	-4063
合适	-4064
签署了	-4065
尤其是在	-4066
人类住区	-4067
泡沫	-4068
传染病	-4069
三分之一	-4070
处以	-4071
章程	-4072
企业和	-4073
加利亚	-4074
哪里	-4075
尽量	-4076
哈马	-4077
独裁	-4078
危机的	-4079
国际会议	-4080
早些时候	-4081
维和	-4082
▁在过去	-4083
一些国家	-4084
所带来的	-4085
他对	-4086
紧急情况	-4087
($	-4088
▁总	-4089
过的	-4090
莫斯科	-4091
宣称	-4092
年间	-4093
▁还有	-4094
包括在	-4095
结构性	-4096
利息	-4097
哈拉	-4098
基督	-4099
民粹	-4100
阶层	-4101
行政长官	-4102
实地	-4103
导致了	-4104
的领导	-4105
保加利亚	-4106
所规定的	-4107
/51	-4108
1)	-4109
使命	-4110
全力	-4111
扮演	-4112
授予	-4113
种种	-4114
Bank	-4115
并使	-4116
税率	-4117
能够在	-4118
悲剧	-4119
晚上	-4120
杀伤	-4121
让他们	-4122
运动员	-4123
人事	-4124
钢铁	-4125
的精神	-4126
吁请	-4127
拟定	-4128
说服	-4129
ina	-4130
深化	-4131
虐待	-4132
中国和	-4133
的必要	-4134
深信	-4135
主席团	-4136
华尔	-4137
和非	-4138
补助	-4139
那时	-4140
巴尼亚	-4141
已经开始	-4142
大众	-4143
就在	-4144
红十字	-4145
都要	-4146
回合	-4147
流行	-4148
保险公司	-4149
目前为止	-4150
流离失所者	-4151
审理	-4152
形象	-4153
智利	-4154
段中	-4155
年开始	-4156
后续行动	-4157
一套	-4158
对付	-4159
成熟	-4160
的总	-4161
裁定	-4162
交易所	-4163
民主的	-4164
▁发	-4165
事先	-4166
的范围	-4167
广大	-4168
无需	-4169
Add	-4170
很有	-4171
爱的	-4172
这笔	-4173
est	-4174
54	-4175
少的	-4176
走了	-4177
路线	-4178
的变化	-4179
作物	-4180
耶路	-4181
在经济	-4182
op	-4183
──	-4184
匈牙	-4185
标准的	-4186
第二个	-4187
方面发挥	-4188
招标	-4189
匈牙利	-4190
国政府	-4191
已开始	-4192
撒冷	-4193
演讲	-4194
教科文	-4195
采访	-4196
同时也	-4197
的讨论	-4198
阿尔及	-4199
耶路撒冷	-4200
捍卫	-4201
人们对	-4202
华尔街	-4203
▁29.	-4204
有关各方	-4205
拜疆	-4206
证件	-4207
人权和	-4208
的关于	-4209
会员国的	-4210
劳工组织	-4211
脱离	-4212
在未来	-4213
责任的	-4214
▁俄罗斯	-4215
阿塞拜疆	-4216
权利和	-4217
而易	-4218
old	-4219
继续进行	-4220
决定的	-4221
是一项	-4222
该项	-4223
加强对	-4224
十年的	-4225
在世界	-4226
美元的	-4227
▁我们还	-4228
探索	-4229
▁中方	-4230
银行业	-4231
1%	-4232
NA	-4233
拯救	-4234
和政策	-4235
相关的	-4236
抑制	-4237
受伤	-4238
将使	-4239
已被	-4240
开列	-4241
想到	-4242
爱情	-4243
麻醉	-4244
取得进展	-4245
遗产	-4246
二氧化	-4247
将成为	-4248
按照国家	-4249
的执行情况	-4250
上午	-4251
以使	-4252
名字	-4253
学位	-4254
《21	-4255
▁28.	-4256
▁又	-4257
高级别	-4258
任理事	-4259
劳动者	-4260
必要时	-4261
和各	-4262
报表	-4263
700	-4264
充分的	-4265
▁考虑到	-4266
周围	-4267
多么	-4268
明智	-4269
有害	-4270
留下	-4271
保护和	-4272
要么	-4273
▁全球	-4274
制定了	-4275
大西洋	-4276
的立场	-4277
交给	-4278
变动	-4279
吸收	-4280
埃塞	-4281
近年来	-4282
有限公司	-4283
几天	-4284
征聘	-4285
绿色	-4286
ey	-4287
等等	-4288
边缘	-4289
在同	-4290
欧安会	-4291
的挑战	-4292
申诉	-4293
回来	-4294
文字	-4295
方便	-4296
埃塞俄	-4297
的区域	-4298
的谈判	-4299
强迫	-4300
对联合国	-4301
埃塞俄比亚	-4302
庆祝	-4303
政客	-4304
穷人	-4305
就业机会	-4306
何种	-4307
好像	-4308
检疫	-4309
装置	-4310
赞助	-4311
长时间	-4312
沙特阿拉伯	-4313
3%	-4314
团队	-4315
非统组织	-4316
不用	-4317
之际	-4318
▁那么	-4319
克林顿	-4320
实现了	-4321
▁这就是	-4322
九届会议	-4323
摩洛	-4324
本人	-4325
消极	-4326
生的	-4327
工作队	-4328
ww	-4329
内战	-4330
的成员	-4331
着手	-4332
不确定	-4333
监测和	-4334
来文	-4335
所有人	-4336
暴力行为	-4337
会有	-4338
科学技术	-4339
与会	-4340
法令	-4341
的欧洲	-4342
亚美	-4343
现场	-4344
首都	-4345
设立了	-4346
取得的进展	-4347
52	-4348
沉重	-4349
孩子们	-4350
等问题	-4351
包装	-4352
▁13	-4353
应急	-4354
联卢	-4355
▁法国	-4356
商业银行	-4357
编列经费	-4358
小姐	-4359
服务业	-4360
差别	-4361
方的	-4362
日程	-4363
摩洛哥	-4364
经历了	-4365
除其他	-4366
▁第七十	-4367
清算	-4368
现状	-4369
记忆	-4370
选出	-4371
附加	-4372
5%。	-4373
肯尼亚	-4374
▁可	-4375
将由	-4376
的使用	-4377
妥善	-4378
申报	-4379
精英	-4380
阿尔及利亚	-4381
▁」	-4382
内地	-4383
约为	-4384
补救	-4385
告诉我	-4386
改革的	-4387
亚美尼亚	-4388
在一	-4389
大宗商品	-4390
均衡	-4391
摧毁	-4392
气体	-4393
立刻	-4394
▁14	-4395
乌拉圭	-4396
在政治	-4397
1992-	-4398
衣服	-4399
基本上	-4400
我知道	-4401
十二	-4402
普及	-4403
权和	-4404
过境	-4405
1987	-4406
▁W	-4407
打破	-4408
会见	-4409
主办	-4410
博士	-4411
自治地方	-4412
▁不幸的是	-4413
超过了	-4414
委员会和	-4415
细节	-4416
扩展	-4417
多样性	-4418
粮农组织	-4419
会晤	-4420
宽松	-4421
了一份	-4422
药物管制	-4423
的最新	-4424
运送	-4425
ub	-4426
印象	-4427
苹果	-4428
说过	-4429
2015	-4430
自由贸易	-4431
是以	-4432
经合	-4433
作者	-4434
注意力	-4435
联卢援助团	-4436
阿尔巴尼亚	-4437
首席执行官	-4438
党的	-4439
花费	-4440
设在	-4441
万亿美元	-4442
以下的罚款	-4443
分为	-4444
占据	-4445
模型	-4446
相似	-4447
之一的	-4448
大会第五十	-4449
付出	-4450
示范	-4451
了这一	-4452
的产品	-4453
进行合作	-4454
巴勒斯坦人民	-4455
反对派	-4456
特遣队	-4457
所提供的	-4458
民用航空	-4459
在他	-4460
的概念	-4461
巴勒斯坦人	-4462
港口	-4463
谅解	-4464
百分点	-4465
抵制	-4466
简称	-4467
养恤金	-4468
执行的	-4469
开发银行	-4470
qu	-4471
要素	-4472
提供资金	-4473
住宅	-4474
可怕	-4475
第二期	-4476
抓住	-4477
达赖	-4478
所需要的	-4479
民族主义	-4480
大气	-4481
文物	-4482
可再生	-4483
▁30.	-4484
帝国	-4485
种类	-4486
竞赛	-4487
英文	-4488
让人	-4489
建议的	-4490
的改革	-4491
方案预算	-4492
九十	-4493
帝汶	-4494
干旱	-4495
激进	-4496
盟友	-4497
纠纷	-4498
融入	-4499
维持和平行动的	-4500
小岛屿发展中国家	-4501
ry	-4502
东亚	-4503
看着	-4504
协调和	-4505
英国的	-4506
该报告	-4507
和平解决	-4508
▁T	-4509
之时	-4510
出去	-4511
执照	-4512
突破	-4513
要在	-4514
供给	-4515
也不能	-4516
养老	-4517
印发	-4518
落后	-4519
ess	-4520
的事实	-4521
2)	-4522
3)	-4523
前款	-4524
的唯一	-4525
的核心	-4526
惯例	-4527
梦想	-4528
的收入	-4529
▁31.	-4530
考试	-4531
警方	-4532
/1996/	-4533
件事	-4534
沟通	-4535
经济合作	-4536
势头	-4537
辩护	-4538
依照本法	-4539
和加勒比	-4540
东京	-4541
携带	-4542
▁D	-4543
克里	-4544
旅费	-4545
的对	-4546
股权	-4547
捐助者	-4548
更高的	-4549
自由和	-4550
越来越多的	-4551
88	-4552
此前	-4553
的海	-4554
的妇女	-4555
能力建设	-4556
分类	-4557
集中于	-4558
抵押贷款	-4559
这一目标	-4560
进一步加强	-4561
开采	-4562
纪律	-4563
间接	-4564
前所未	-4565
索赔	-4566
萨尔瓦	-4567
▁我们必须	-4568
ep	-4569
od	-4570
公爵	-4571
将军	-4572
改造	-4573
扎伊尔	-4574
提高了	-4575
的一次	-4576
▁注意到	-4577
成为一个	-4578
迄今为止	-4579
双重	-4580
开幕	-4581
有力	-4582
修正案	-4583
增加到	-4584
tern	-4585
孤立	-4586
旅客	-4587
地下	-4588
开罗	-4589
过了	-4590
BA	-4591
千年	-4592
本着	-4593
区域和	-4594
业绩	-4595
做了	-4596
开会	-4597
愤怒	-4598
10.	-4599
▁32.	-4600
▁如果你	-4601
我们需要	-4602
半岛	-4603
意外	-4604
活力	-4605
的中	-4606
▁研究	-4607
之所以	-4608
的程序	-4609
十五	-4610
难民和	-4611
成员国的	-4612
我们希望	-4613
证券公司	-4614
99	-4615
净额	-4616
杀害	-4617
某个	-4618
塔吉克斯坦	-4619
害怕	-4620
下降了	-4621
和教育	-4622
和文化	-4623
收入的	-4624
IS	-4625
一十	-4626
两项	-4627
萨拉	-4628
还不	-4629
防御	-4630
一个人	-4631
,"	-4632
ist	-4633
与中国	-4634
5000	-4635
ment	-4636
可持续发展的	-4637
国际贸易	-4638
提高妇女地位	-4639
密集	-4640
▁至于	-4641
更多地	-4642
伊斯兰教	-4643
the	-4644
53	-4645
动机	-4646
处境	-4647
救灾	-4648
比利	-4649
航天	-4650
违法所得	-4651
定于	-4652
违约	-4653
两岸	-4654
出境	-4655
价值观	-4656
生活水平	-4657
禁运	-4658
ert	-4659
ik	-4660
走私	-4661
▁但这	-4662
▁德国	-4663
▁33.	-4664
借款	-4665
近期	-4666
▁34.	-4667
直辖市人民政府	-4668
投资的	-4669
有期徒刑	-4670
最多	-4671
本级	-4672
震惊	-4673
一直是	-4674
清楚地	-4675
创建	-4676
塔尔	-4677
就要	-4678
捷克	-4679
除外	-4680
外国直接投资	-4681
但它	-4682
二氧化碳	-4683
苦难	-4684
制造商	-4685
雷曼兄弟	-4686
奇怪	-4687
企业家	-4688
利益的	-4689
1985	-4690
儿童权利	-4691
急剧	-4692
▁上述	-4693
以促进	-4694
的后果	-4695
应由	-4696
展览	-4697
金额	-4698
了一种	-4699
传统的	-4700
指定的	-4701
管理人员	-4702
教科文组织	-4703
手中	-4704
问道	-4705
67	-4706
▁每	-4707
手册	-4708
事务处	-4709
麻烦	-4710
名额	-4711
向前	-4712
署长	-4713
有关国家	-4714
至关重要的	-4715
不多	-4716
的未来	-4717
/51/	-4718
长期以来	-4719
中等	-4720
其余	-4721
布雷	-4722
档案	-4723
米尔	-4724
都将	-4725
的组织	-4726
筹备委员会	-4727
小学	-4728
加拉瓜	-4729
地马拉	-4730
高兴地	-4731
尼加拉瓜	-4732
遗憾的是	-4733
主流	-4734
学者	-4735
拉美	-4736
究竟	-4737
87	-4738
免疫	-4739
奥林	-4740
约有	-4741
贯彻	-4742
是我们	-4743
危地马拉	-4744
的反	-4745
盈余	-4746
▁上	-4747
▁1996	-4748
军事观察员	-4749
人对	-4750
国王	-4751
该决议	-4752
规约	-4753
影响力	-4754
给予行政	-4755
基层	-4756
研究和	-4757
经营者	-4758
单位和个人	-4759
也能	-4760
内亚	-4761
今年的	-4762
会议和	-4763
的最佳	-4764
会同	-4765
无人	-4766
驻地	-4767
参与者	-4768
性武器	-4769
放射	-4770
积累	-4771
对妇女	-4772
活动中	-4773
以法语发言	-4774
入侵	-4775
抵达	-4776
研发	-4777
询问	-4778
诸多	-4779
几内亚	-4780
意义的	-4781
充足	-4782
温和	-4783
种植	-4784
Inc	-4785
▁发自	-4786
出发	-4787
年后	-4788
自由的	-4789
(1994)	-4790
与美国	-4791
化学品	-4792
经费的	-4793
粮食计划署	-4794
民族自治地方	-4795
促成	-4796
审查和	-4797
信号	-4798
救援	-4799
中国在	-4800
也必须	-4801
政府对	-4802
的速度	-4803
半年	-4804
地面	-4805
安装	-4806
ff	-4807
发明	-4808
幅度	-4809
▁各国	-4810
他们对	-4811
很容易	-4812
无线电	-4813
明显的	-4814
64	-4815
回归	-4816
沿海	-4817
▁35.	-4818
裁军谈判	-4819
地方人民政府	-4820
领取	-4821
▁15	-4822
▁马	-4823
改为	-4824
管辖权	-4825
事务厅	-4826
的长期	-4827
人物	-4828
刚才	-4829
巨额	-4830
此次	-4831
温室	-4832
低收入	-4833
的地位	-4834
改组	-4835
数据库	-4836
一个国家	-4837
联索行动	-4838
第五委员会	-4839
▁由	-4840
两大	-4841
了在	-4842
吉尔	-4843
认定	-4844
全面的	-4845
2012	-4846
咨询服务	-4847
意识形态	-4848
秘书长的	-4849
热情	-4850
奥林匹	-4851
东帝汶	-4852
获得的	-4853
▁36.	-4854
所面临的	-4855
▁1995	-4856
金属	-4857
层空间	-4858
克斯	-4859
分布	-4860
业务的	-4861
没有什么	-4862
和使用	-4863
自由化	-4864
代表团认为	-4865
构建	-4866
理念	-4867
老人	-4868
可行的	-4869
所提出的	-4870
但他	-4871
推翻	-4872
能力的	-4873
所称	-4874
人口与发展	-4875
核裁军	-4876
我们可以	-4877
只会	-4878
起到	-4879
黄金	-4880
了一次	-4881
显而易	-4882
的最后	-4883
不可避免	-4884
行政协调	-4885
权限	-4886
配置	-4887
只有在	-4888
也门	-4889
家里	-4890
爱国	-4891
生境	-4892
优秀	-4893
这家	-4894
一开始	-4895
采取的行动	-4896
全国人民代表大会常务委员会	-4897
▁您	-4898
官僚	-4899
更有	-4900
下一个	-4901
1986	-4902
绝大多数	-4903
责任人员	-4904
可再生能源	-4905
国内生产总值	-4906
地中	-4907
展示	-4908
支撑	-4909
活跃	-4910
因为他们	-4911
奥林匹克	-4912
对外贸易	-4913
严峻	-4914
伤亡	-4915
干部	-4916
民警	-4917
高盛	-4918
合法性	-4919
批准的	-4920
损失的	-4921
垄断	-4922
5%,	-4923
的保护	-4924
侵犯人权	-4925
伟大	-4926
限度	-4927
青少年	-4928
信托基金	-4929
不起	-4930
咖啡	-4931
素质	-4932
萧条	-4933
否决	-4934
玛丽	-4935
结盟	-4936
ley	-4937
实验室	-4938
必不可	-4939
列为	-4940
印尼	-4941
谈到	-4942
Mac	-4943
▁我要	-4944
成员的	-4945
好了	-4946
特区	-4947
销毁	-4948
Fr	-4949
寿命	-4950
分配给	-4951
▁近年来	-4952
会费	-4953
它是	-4954
节能	-4955
阅读	-4956
▁也许	-4957
八届会议	-4958
外层空间	-4959
一代	-4960
也要	-4961
照片	-4962
援助的	-4963
还可以	-4964
预防犯罪和	-4965
伊斯兰共和国	-4966
ht	-4967
严厉	-4968
尔森	-4969
有一些	-4970
▁二	-4971
地方政府	-4972
金融体系	-4973
变暖	-4974
天的	-4975
给你	-4976
长远	-4977
工作人员的	-4978
定价	-4979
▁H	-4980
扶贫	-4981
美丽	-4982
酌情	-4983
得不到	-4984
的反应	-4985
个体	-4986
基准	-4987
平方	-4988
报酬	-4989
▁那些	-4990
问题和	-4991
化学武器	-4992
外商投资	-4993
市场经济	-4994
民族和解	-4995
满意地注意到	-4996
69	-4997
了其	-4998
用水	-4999
而这	-5000
不满	-5001
参照	-5002
应该是	-5003
我现在	-5004
常驻联合国	-5005
IV	-5006
借贷	-5007
宣告	-5008
总裁	-5009
正规	-5010
连接	-5011
初级	-5012
编辑	-5013
支持和	-5014
萨尔瓦多	-5015
Group	-5016
▁答	-5017
增幅	-5018
枪支	-5019
的成功	-5020
8%	-5021
出资	-5022
尔斯	-5023
全球性	-5024
董事长	-5025
将有助于	-5026
中国人民银行	-5027
第六	-5028
结构调整	-5029
IP	-5030
og	-5031
同等	-5032
芬兰	-5033
作出反应	-5034
尽早	-5035
意图	-5036
120	-5037
的许多	-5038
心的	-5039
投诉	-5040
推出	-5041
的第一	-5042
▁我认为	-5043
了关于	-5044
中央银行	-5045
副秘书长	-5046
初期	-5047
撤离	-5048
裁减	-5049
三个月	-5050
发了言	-5051
经社会	-5052
国际公约	-5053
族裔	-5054
爱沙	-5055
▁截至	-5056
在北京	-5057
妇女在	-5058
的领域	-5059
爱沙尼亚	-5060
数百	-5061
▁其次	-5062
协商一致意见	-5063
两者	-5064
在不	-5065
还必须	-5066
外空	-5067
得出	-5068
截止	-5069
海岸	-5070
可以向	-5071
的部分	-5072
行政管理	-5073
▁尽管如此	-5074
秘书长的报告	-5075
▁只要	-5076
最好的	-5077
这些人	-5078
忧虑	-5079
防扩散	-5080
▁37.	-5081
表示欢迎	-5082
东部	-5083
了他	-5084
无关	-5085
水道	-5086
捐助国	-5087
该国的	-5088
美国经济	-5089
安倍	-5090
雇佣	-5091
▁香港	-5092
澳门特别行政区	-5093
国际货币基金组织	-5094
4%	-5095
中欧	-5096
提振	-5097
记住	-5098
1978	-5099
▁1992	-5100
它将	-5101
考验	-5102
获益	-5103
驱逐	-5104
价值的	-5105
撒哈拉	-5106
紧张局势	-5107
1995/	-5108
下面	-5109
共享	-5110
放松	-5111
比重	-5112
通用	-5113
也可能	-5114
和方案	-5115
的比例	-5116
▁38.	-5117
ce	-5118
忽略	-5119
花旗	-5120
它们在	-5121
第四次	-5122
社会和经济	-5123
时机	-5124
资讯	-5125
▁报告	-5126
阿布哈	-5127
取得成功	-5128
有关决议	-5129
主教	-5130
公认	-5131
印刷	-5132
金钱	-5133
为实现	-5134
创造了	-5135
中美	-5136
任职	-5137
签证	-5138
近东	-5139
▁纽约	-5140
区域内	-5141
经常预算	-5142
中亚	-5143
我对	-5144
的那	-5145
马上	-5146
伟大的	-5147
今日	-5148
操纵	-5149
大量的	-5150
环境规划署	-5151
订立	-5152
豁免	-5153
野生	-5154
已经成为	-5155
12.	-5156
今天的	-5157
有许多	-5158
是否可以	-5159
个案	-5160
代替	-5161
引入	-5162
癌症	-5163
顾客	-5164
分之二	-5165
错误的	-5166
2011	-5167
美国政府	-5168
为主	-5169
大批	-5170
巡逻	-5171
流感	-5172
中发挥	-5173
这一切	-5174
这种情况下	-5175
▁""	-5176
受影响	-5177
分支	-5178
Fed	-5179
国家在	-5180
接受了	-5181
稳定和	-5182
专门知识	-5183
sp	-5184
我会	-5185
对我们	-5186
承包商	-5187
借口	-5188
合约	-5189
队伍	-5190
收到了	-5191
Am	-5192
BC	-5193
上年	-5194
传递	-5195
级别	-5196
一支	-5197
前进	-5198
筹集	-5199
ine	-5200
的进展	-5201
变得更加	-5202
之上	-5203
本周	-5204
在欧洲	-5205
日起施行	-5206
▁阿	-5207
十年代	-5208
再度	-5209
收支	-5210
较为	-5211
联合会	-5212
(1991	-5213
▁巴	-5214
▁经	-5215
下了	-5216
严肃	-5217
人身	-5218
布尔	-5219
座标	-5220
类别	-5221
ear	-5222
审计委员会	-5223
▁安全理事会	-5224
了吗	-5225
但这	-5226
数十	-5227
无辜	-5228
融合	-5229
阐述	-5230
的家庭	-5231
▁39.	-5232
象征	-5233
50.	-5234
价格的	-5235
失去了	-5236
是通过	-5237
组织在	-5238
eb	-5239
ud	-5240
中期计划	-5241
首脑会议的	-5242
廉价	-5243
的受	-5244
议事	-5245
矿产资源	-5246
分离	-5247
备忘	-5248
是从	-5249
治安	-5250
家人	-5251
蔓延	-5252
任何人	-5253
的局势	-5254
武装部队	-5255
也就	-5256
恰当	-5257
11.	-5258
授权的	-5259
所需经费	-5260
契约	-5261
50%	-5262
个百分点	-5263
该决议草案	-5264
修复	-5265
务实	-5266
小心	-5267
的核	-5268
降至	-5269
▁非洲	-5270
备忘录	-5271
的增加	-5272
哈萨	-5273
安德	-5274
智慧	-5275
德国的	-5276
人道	-5277
要比	-5278
还能	-5279
摩根士	-5280
需要在	-5281
主管机关	-5282
注重	-5283
增长了	-5284
背景下	-5285
Corp	-5286
孟加拉国	-5287
ib	-5288
电讯	-5289
科研	-5290
哈马斯	-5291
摩根士丹	-5292
organ	-5293
给予行政处分	-5294
文本	-5295
显得	-5296
大幅度	-5297
部队派遣	-5298
不想	-5299
任意	-5300
原油	-5301
困扰	-5302
月至	-5303
镇压	-5304
地中海	-5305
真诚	-5306
证人	-5307
在那里	-5308
救济工程处	-5309
Ar	-5310
出租	-5311
▁第五	-5312
本项目	-5313
的银行	-5314
As	-5315
将近	-5316
深远	-5317
清洗	-5318
行长	-5319
公务员制度	-5320
采取的措施	-5321
Intern	-5322
沙漠	-5323
直升	-5324
得到的	-5325
极大的	-5326
该项目	-5327
中央政府	-5328
家族	-5329
有多	-5330
派出	-5331
使他们	-5332
三分之二	-5333
全体会议	-5334
公斤	-5335
前任	-5336
流通	-5337
在许多	-5338
世界贸易	-5339
权力机构	-5340
温室气体	-5341
监禁	-5342
斯达	-5343
各国的	-5344
的压力	-5345
新疆	-5346
杠杆	-5347
了中国	-5348
比利时	-5349
的进程	-5350
过渡时期	-5351
TO	-5352
完美	-5353
实在	-5354
才是	-5355
技巧	-5356
昂贵	-5357
服的	-5358
实施的	-5359
的教育	-5360
投资银行	-5361
摩根士丹利	-5362
作战	-5363
包容	-5364
哈根	-5365
著作权	-5366
南部非洲	-5367
不扩散条约	-5368
拉丁美洲和加勒比	-5369
▁问	-5370
他是	-5371
发给	-5372
架构	-5373
死了	-5374
西岸	-5375
▁显然	-5376
和程序	-5377
直接责任人员	-5378
幸运	-5379
德拉	-5380
慷慨	-5381
也无法	-5382
投资于	-5383
名为	-5384
抵消	-5385
法的	-5386
6%	-5387
特色	-5388
召开的	-5389
控制的	-5390
标志着	-5391
代表给秘书长的信	-5392
▁现	-5393
交付	-5394
俱乐	-5395
哥本	-5396
地缘	-5397
更新	-5398
道理	-5399
7%	-5400
一再	-5401
但我	-5402
以便在	-5403
哥本哈根	-5404
投机	-5405
者们	-5406
超出	-5407
未成年	-5408
的经费	-5409
▁40.	-5410
专业人员	-5411
AI	-5412
学科	-5413
人们的	-5414
还包括	-5415
法律规定	-5416
罗马尼亚	-5417
失踪	-5418
评级	-5419
预备	-5420
俱乐部	-5421
并应	-5422
敌人	-5423
难道	-5424
可能导致	-5425
侵害	-5426
朝着	-5427
艰巨	-5428
逻辑	-5429
一般性	-5430
上文第	-5431
具体的	-5432
执行主任	-5433
Morgan	-5434
63	-5435
不必	-5436
缩小	-5437
生产和	-5438
的一份	-5439
各代表团	-5440
一词	-5441
公园	-5442
我是	-5443
整合	-5444
柏林	-5445
费率	-5446
ind	-5447
产阶级	-5448
大学的	-5449
项目标	-5450
竞争对手	-5451
迫切需要	-5452
之路	-5453
以南	-5454
见到	-5455
对美国	-5456
引起的	-5457
阿布哈兹	-5458
这份	-5459
出现在	-5460
生产的	-5461
违背	-5462
发言者	-5463
分割	-5464
外债	-5465
支配	-5466
的水	-5467
英里	-5468
1979	-5469
提供服务	-5470
China	-5471
ant	-5472
旅游业	-5473
负责的	-5474
白俄罗斯	-5475
并于	-5476
式的	-5477
既然	-5478
疲软	-5479
特别注意	-5480
种族灭绝	-5481
人道主义事务部	-5482
患者	-5483
摊款	-5484
第七	-5485
▁18	-5486
提出建议	-5487
ivers	-5488
上级	-5489
审核	-5490
布鲁	-5491
擅自	-5492
国际法庭	-5493
可在	-5494
序言	-5495
接到	-5496
机械	-5497
转化	-5498
▁然后	-5499
右翼	-5500
多尔	-5501
带着	-5502
而被	-5503
一国	-5504
大战	-5505
汇报	-5506
致使	-5507
第三个	-5508
军方	-5509
对我	-5510
精力	-5511
还应	-5512
阁下	-5513
限额	-5514
有下列	-5515
的看法	-5516
除其他外	-5517
力度	-5518
和财政	-5519
每个人	-5520
处置	-5521
妈妈	-5522
案例	-5523
维尔	-5524
西欧	-5525
erg	-5526
的经济增长	-5527
是为	-5528
发组织	-5529
ew	-5530
几次	-5531
区分	-5532
通报	-5533
Com	-5534
▁16	-5535
环境和	-5536
的选举	-5537
2,	-5538
yn	-5539
修建	-5540
看上去	-5541
减灾	-5542
周边	-5543
贩卖	-5544
酒店	-5545
铭记	-5546
随之	-5547
40%	-5548
的儿童	-5549
任理事国	-5550
测量	-5551
不愿意	-5552
也是如此	-5553
技术转让	-5554
的一个重要	-5555
联合国系统各	-5556
ct	-5557
▁同	-5558
合资	-5559
对冲	-5560
将从	-5561
飙升	-5562
提到的	-5563
伊朗伊斯兰共和国	-5564
外长	-5565
应以	-5566
成立了	-5567
有组织	-5568
的贸易	-5569
发展目标	-5570
早日	-5571
盈利	-5572
祖国	-5573
完成了	-5574
all	-5575
ong	-5576
东南亚	-5577
协议的	-5578
毕业生	-5579
的文化	-5580
定了	-5581
对方	-5582
封锁	-5583
康复	-5584
▁自从	-5585
亿欧元	-5586
79	-5587
会对	-5588
填补	-5589
明的	-5590
主权和	-5591
”、	-5592
▁卡	-5593
人人	-5594
内政	-5595
分担	-5596
心里	-5597
是很	-5598
是要	-5599
毛额	-5600
煽动	-5601
熟悉	-5602
在任何	-5603
这是一个	-5604
奥斯	-5605
直至	-5606
也需要	-5607
水平的	-5608
的决议	-5609
▁但如果	-5610
你可以	-5611
跨国公司	-5612
抵抗	-5613
正在进行	-5614
民粹主义	-5615
▁E	-5616
施工	-5617
老师	-5618
黑山	-5619
法院的	-5620
▁42.	-5621
政府官员	-5622
资产负债	-5623
▁所有这些	-5624
思维	-5625
拉脱	-5626
矿物	-5627
代理人	-5628
显示出	-5629
的事件	-5630
中国经济	-5631
范围内的	-5632
哈萨克斯坦	-5633
减免	-5634
地址	-5635
天文	-5636
ohn	-5637
拉脱维亚	-5638
▁2008	-5639
ra	-5640
它对	-5641
的人士	-5642
的问题是	-5643
官方发展援助	-5644
SA	-5645
外来	-5646
房价	-5647
收取	-5648
解散	-5649
饥饿	-5650
签署的	-5651
焦点	-5652
▁的确	-5653
活动和	-5654
领导的	-5655
▁在这一	-5656
会儿	-5657
北欧	-5658
可信	-5659
地域	-5660
废除	-5661
250	-5662
克莱	-5663
成的	-5664
提倡	-5665
商学院	-5666
增加的	-5667
工作中	-5668
看到了	-5669
各位	-5670
有用	-5671
游行	-5672
科索	-5673
透露	-5674
这就是	-5675
南极	-5676
支持的	-5677
获得通过	-5678
劳动力市场	-5679
预防犯罪和刑事司法	-5680
领先	-5681
46/	-5682
建立在	-5683
很多人	-5684
机构在	-5685
的学生	-5686
都可以	-5687
卫生行政部门	-5688
才会	-5689
次序	-5690
每日	-5691
看作	-5692
one	-5693
的因素	-5694
与此同时	-5695
到底	-5696
法制	-5697
▁当时	-5698
但我们	-5699
▁我希望	-5700
行动纲要	-5701
危及	-5702
▁另一个	-5703
前所未有的	-5704
经济和社会发展	-5705
住在	-5706
多人	-5707
访者	-5708
▁伦敦	-5709
1967	-5710
1984	-5711
人权问题	-5712
故意	-5713
无效	-5714
曾在	-5715
此项	-5716
不足以	-5717
的全面	-5718
(1992	-5719
不懈	-5720
开办	-5721
达尔	-5722
是由于	-5723
的形式	-5724
禁毒署	-5725
▁第二百	-5726
建设性的	-5727
▁这意味着	-5728
水和	-5729
逆转	-5730
私人部门	-5731
科学研究	-5732
从中	-5733
大多	-5734
披露	-5735
▁他还	-5736
1992-1993	-5737
eg	-5738
▁换	-5739
人群	-5740
开设	-5741
数以	-5742
结算	-5743
30%	-5744
为促进	-5745
北京奥运会	-5746
并与	-5747
恰恰	-5748
及有关	-5749
民主和	-5750
结束了	-5751
部长级	-5752
社会保障	-5753
等方面的	-5754
友谊	-5755
著名	-5756
邮件	-5757
的实施	-5758
科索沃	-5759
▁另一方面	-5760
了这些	-5761
单方面	-5762
在某些	-5763
的援助	-5764
2013	-5765
主席先生	-5766
▁。	-5767
剩余	-5768
局长	-5769
花园	-5770
不超过	-5771
在所有	-5772
灵活性	-5773
▁	-5774
本来	-5775
其他人	-5776
的个人	-5777
的过程	-5778
▁41.	-5779
▁43.	-5780
人体	-5781
巴尔	-5782
我谨	-5783
注入	-5784
不稳定	-5785
的性质	-5786
新型	-5787
吸引力	-5788
▁46.	-5789
咨询意见	-5790
不予	-5791
▁你们	-5792
改变了	-5793
▁我们的	-5794
各国人民	-5795
进一步的	-5796
▁两	-5797
爸爸	-5798
职员	-5799
驱动	-5800
服务和	-5801
污染物	-5802
的大部分	-5803
伐克	-5804
弥补	-5805
时报	-5806
决定在	-5807
和欧洲	-5808
的最高	-5809
的程度	-5810
世界各地	-5811
斯洛伐克	-5812
▁,	-5813
ies	-5814
是如此	-5815
社会经济	-5816
这些措施	-5817
一边	-5818
超级	-5819
资源和	-5820
,1993	-5821
养护	-5822
核能	-5823
灵魂	-5824
纷纷	-5825
▁44.	-5826
一届会议	-5827
常规武器	-5828
交往	-5829
多名	-5830
看出	-5831
给他	-5832
▁类似	-5833
小企业	-5834
的冲突	-5835
一般事务	-5836
行政当局	-5837
阿拉伯国家	-5838
清理	-5839
表面	-5840
饮食	-5841
▁他们的	-5842
保密	-5843
六个	-5844
商定	-5845
围绕	-5846
并以	-5847
强硬	-5848
扭转	-5849
热窝	-5850
累计	-5851
老龄	-5852
各地的	-5853
应该在	-5854
放射性	-5855
的限制	-5856
并通过	-5857
殖民地	-5858
CN	-5859
不对	-5860
先后	-5861
减税	-5862
动作	-5863
标题	-5864
und	-5865
介绍了	-5866
是美国	-5867
核试验	-5868
▁45.	-5869
筹备工作	-5870
创业	-5871
期货	-5872
村庄	-5873
游客	-5874
▁可是	-5875
经费用	-5876
统一的	-5877
联合国系统内	-5878
获悉	-5879
蒙古	-5880
辐射	-5881
建立的	-5882
当前的	-5883
进程的	-5884
本组织的	-5885
伯特	-5886
农场	-5887
冻结	-5888
诊断	-5889
时代的	-5890
时间内	-5891
标准和	-5892
津巴布	-5893
工作方案	-5894
的有关规定	-5895
前提	-5896
更快	-5897
足球	-5898
运转	-5899
选票	-5900
不喜欢	-5901
做出了	-5902
就这样	-5903
民主主义	-5904
津巴布韦	-5905
作家	-5906
信念	-5907
排名	-5908
和军事	-5909
所说的	-5910
提供给	-5911
老年人	-5912
转移到	-5913
的一系列	-5914
先决	-5915
秘鲁	-5916
自卫	-5917
范畴	-5918
ial	-5919
强调了	-5920
的力量	-5921
生产经营	-5922
,1994	-5923
行事	-5924
AN	-5925
XX	-5926
几周	-5927
搜索	-5928
疟疾	-5929
▁一旦	-5930
和他的	-5931
我希望	-5932
付诸	-5933
原来	-5934
干扰	-5935
月初	-5936
相应的	-5937
Univers	-5938
减缓	-5939
年为	-5940
应当向	-5941
▁中国的	-5942
因为它们	-5943
到来	-5944
南方	-5945
每周	-5946
率为	-5947
谈论	-5948
不平衡	-5949
支持者	-5950
决定草案	-5951
可以根据	-5952
被认为是	-5953
引进	-5954
确信	-5955
▁我在	-5956
也不是	-5957
宣言和	-5958
的严重	-5959
3000	-5960
地缘政治	-5961
○○	-5962
他将	-5963
家长	-5964
接收	-5965
政变	-5966
对国际	-5967
特别会议	-5968
事宜	-5969
已于	-5970
翻译	-5971
言之	-5972
之一是	-5973
和平和	-5974
审查了	-5975
我们要	-5976
的选择	-5977
附件一	-5978
涵盖	-5979
ian	-5980
▁47.	-5981
资产负债表	-5982
一只	-5983
人是	-5984
考察	-5985
舞台	-5986
里约	-5987
▁于是	-5988
只不过	-5989
在非洲	-5990
很重要	-5991
政治家	-5992
权力的	-5993
立法会	-5994
过去的	-5995
目的在于	-5996
**	-5997
专用	-5998
同情	-5999
海军	-6000
ern	-6001
安全与	-6002
对这一	-6003
相结合	-6004
利班	-6005
总结	-6006
演变	-6007
等级	-6008
以外的	-6009
说明了	-6010
勘探	-6011
吸烟	-6012
颁发	-6013
继续在	-6014
以下有期徒刑	-6015
98	-6016
强奸	-6017
抱怨	-6018
早上	-6019
东道国	-6020
程度的	-6021
缔约方	-6022
不仅仅是	-6023
----------------	-6024
CD	-6025
PP	-6026
平静	-6027
发出的	-6028
市场上	-6029
的说法	-6030
John	-6031
萨拉热窝	-6032
军人	-6033
本书	-6034
海湾	-6035
单位的	-6036
太阳能	-6037
目标和	-6038
纳米	-6039
高管	-6040
▁可以	-6041
了许多	-6042
#160	-6043
国债	-6044
摘要	-6045
林业	-6046
泊尔	-6047
▁不管	-6048
第一条	-6049
向联合国	-6050
io	-6051
切尔	-6052
卡拉	-6053
和有	-6054
大概	-6055
暴露	-6056
星期一	-6057
部门和	-6058
公共卫生	-6059
所产生的	-6060
一倍	-6061
你会	-6062
战后	-6063
预料	-6064
也应该	-6065
我们就	-6066
暴力的	-6067
的全部	-6068
举行会议	-6069
先决条件	-6070
加紧	-6071
左翼	-6072
手术	-6073
是我	-6074
的非	-6075
置于	-6076
指挥官	-6077
星期五	-6078
1982	-6079
周一	-6080
壁垒	-6081
年到	-6082
无数	-6083
阻挠	-6084
▁布什	-6085
回答说	-6086
地区和	-6087
我们所	-6088
诺贝尔	-6089
四分之一	-6090
后代	-6091
急需	-6092
发表的	-6093
时间表	-6094
的成本	-6095
的权力	-6096
▁48.	-6097
该委员会	-6098
ip	-6099
僵局	-6100
反恐	-6101
族塞	-6102
白宫	-6103
管道	-6104
谈话	-6105
的数量	-6106
iz	-6107
介入	-6108
加尔	-6109
看待	-6110
知情	-6111
负面	-6112
▁被	-6113
六方	-6114
下降到	-6115
的出口	-6116
的重大	-6117
▁K	-6118
化石	-6119
尼泊尔	-6120
结束时	-6121
列出	-6122
▁--	-6123
我没有	-6124
和平与稳定	-6125
邮政	-6126
规定了	-6127
领域中	-6128
国际人权	-6129
安全理事会主席	-6130
一人	-6131
之为	-6132
倾销	-6133
致命	-6134
不仅是	-6135
就没有	-6136
来解决	-6137
解放军	-6138
▁奥巴马	-6139
国家一级	-6140
不变	-6141
休息	-6142
和更	-6143
无害	-6144
样的	-6145
风暴	-6146
80%	-6147
健康的	-6148
出来的	-6149
谈判的	-6150
▁在这个	-6151
得很	-6152
散发	-6153
睡眠	-6154
联利	-6155
城市的	-6156
新议程	-6157
的例子	-6158
近东救济工程处	-6159
人大	-6160
出台	-6161
多万	-6162
布莱	-6163
扶持	-6164
的一半	-6165
世界人权	-6166
伊拉克的	-6167
委员会建议	-6168
(1991)	-6169
▁已	-6170
仍是	-6171
并由	-6172
行径	-6173
▁她说	-6174
告诉你	-6175
的最低	-6176
行政管理部门	-6177
借此	-6178
姓名	-6179
集会	-6180
”——	-6181
▁重申	-6182
斯先生	-6183
资金的	-6184
在线	-6185
违反了	-6186
业务活动	-6187
我国政府	-6188
联合国和	-6189
在很大程度上	-6190
克劳	-6191
礼物	-6192
ton	-6193
和实施	-6194
电视台	-6195
默克尔	-6196
民主国家	-6197
人道主义法	-6198
主人	-6199
使它	-6200
假如	-6201
加强了	-6202
教育的	-6203
该组织	-6204
▁在美国	-6205
公报	-6206
坦桑	-6207
外界	-6208
网上	-6209
能为	-6210
量化	-6211
报告说	-6212
联利观察团	-6213
这个问题的	-6214
人权事务中心	-6215
听见	-6216
娱乐	-6217
拿出	-6218
漂亮	-6219
真相	-6220
▁不要	-6221
不存在	-6222
原则和	-6223
等领域	-6224
1970	-6225
资本主义	-6226
中学	-6227
制约	-6228
可怜	-6229
比额	-6230
而已	-6231
高速	-6232
全系统	-6233
关于在	-6234
合作和	-6235
庞大的	-6236
以西班牙	-6237
却是	-6238
早已	-6239
特使	-6240
大会的	-6241
主管人员	-6242
充分利用	-6243
营业执照	-6244
▁2004	-6245
区域和国际	-6246
塞尔维亚和	-6247
低估	-6248
煤矿	-6249
国家对	-6250
有义务	-6251
有任何	-6252
能力和	-6253
坦桑尼亚	-6254
委员会的工作	-6255
加纳	-6256
圣诞	-6257
成立的	-6258
扩大的	-6259
领土的	-6260
恐怖分子	-6261
78	-6262
步伐	-6263
谷歌	-6264
高层	-6265
人类的	-6266
塔利班	-6267
生产力	-6268
的趋势	-6269
2014	-6270
地理座标	-6271
土地使用权	-6272
▁L	-6273
中文	-6274
对他	-6275
萨卡	-6276
让他	-6277
谋杀	-6278
鱼类	-6279
海洋法	-6280
的服务	-6281
该方案	-6282
采取一切	-6283
加州	-6284
和我	-6285
有责任	-6286
指导方针	-6287
什叶	-6288
本质	-6289
说的	-6290
陈述	-6291
人认为	-6292
发挥了	-6293
主动行动	-6294
的范围内	-6295
开了	-6296
每次	-6297
经社	-6298
职等	-6299
更容易	-6300
无核武器区	-6301
裁军谈判会议	-6302
Ph	-6303
七年	-6304
视频	-6305
一方面	-6306
和平利用	-6307
没有得到	-6308
if	-6309
指南	-6310
院校	-6311
仅仅是	-6312
并确保	-6313
选举中	-6314
行政和预算	-6315
ER	-6316
家属	-6317
此一	-6318
的两	-6319
矿山	-6320
倾向于	-6321
负责任	-6322
向人民法院	-6323
仪式	-6324
做的	-6325
参议院	-6326
的预算	-6327
预防和	-6328
提供关于	-6329
▁前	-6330
住所	-6331
地质	-6332
城乡	-6333
热烈	-6334
论文	-6335
相同的	-6336
同联合国	-6337
应当按照	-6338
提供有关	-6339
这些国家的	-6340
北美	-6341
处在	-6342
微软	-6343
暗示	-6344
可能在	-6345
对他们	-6346
工作者	-6347
收到的	-6348
过去了	-6349
▁第三条	-6350
表示关切	-6351
商店	-6352
将被	-6353
经纪	-6354
舆论	-6355
英格兰	-6356
▁回顾其	-6357
秘书长在	-6358
入学	-6359
加深	-6360
夫妇	-6361
失衡	-6362
热带	-6363
识别	-6364
根据第	-6365
的联系	-6366
他就	-6367
信誉	-6368
延续	-6369
沃尔	-6370
▁亚洲	-6371
各自的	-6372
/50/	-6373
经费用于	-6374
(1995	-6375
使用核武器	-6376
所作的努力	-6377
:"	-6378
夏天	-6379
监控	-6380
的制度	-6381
号决议中	-6382
这些活动	-6383
占有	-6384
海底	-6385
预警	-6386
▁17	-6387
▁伊朗	-6388
银行家	-6389
▁2005	-6390
执行部分第	-6391
96	-6392
无可	-6393
进度	-6394
Bro	-6395
ack	-6396
和日本	-6397
困难的	-6398
形成了	-6399
▁特别是	-6400
发达经济体	-6401
波斯尼亚塞族	-6402
▁这次	-6403
▁除非	-6404
和工作	-6405
因为他	-6406
县级以上地方人民政府	-6407
逊尼	-6408
ust	-6409
其任务	-6410
就需要	-6411
国际法院	-6412
sh	-6413
▁再	-6414
和新	-6415
Res	-6416
同其他	-6417
将需要	-6418
星期二	-6419
的手段	-6420
冒险	-6421
嫌疑	-6422
教堂	-6423
特权	-6424
的有	-6425
艰苦	-6426
和金融	-6427
▁第五条	-6428
提供一个	-6429
创立	-6430
日渐	-6431
格式	-6432
鉴定	-6433
二十一	-6434
家公司	-6435
▁51.	-6436
▁国务院	-6437
▁中国代表团	-6438
也应	-6439
的传统	-6440
的案件	-6441
的金融	-6442
作出努力	-6443
难民事务	-6444
提供必要的	-6445
IN	-6446
吉斯	-6447
年起	-6448
当作	-6449
离婚	-6450
工程师	-6451
仇恨	-6452
优质	-6453
删除	-6454
指引	-6455
理性	-6456
电台	-6457
些什么	-6458
并要求	-6459
新兴经济体	-6460
University	-6461
中止	-6462
判处	-6463
民兵	-6464
长达	-6465
都需要	-6466
号决议所	-6467
不大	-6468
千万	-6469
同胞	-6470
胡锦	-6471
4%。	-6472
和行政	-6473
引起了	-6474
胡锦涛	-6475
▁49.	-6476
种族主义和	-6477
以西班牙语发言	-6478
▁中华人民共和国	-6479
在我	-6480
无力	-6481
有点	-6482
物种	-6483
等于	-6484
con	-6485
其工作	-6486
和原则	-6487
哥斯达	-6488
巴拉克	-6489
自身的	-6490
进行谈判	-6491
International	-6492
厄瓜	-6493
租赁	-6494
▁应该	-6495
作用的	-6496
公民的	-6497
很高兴	-6498
厄瓜多尔	-6499
区和	-6500
的土地	-6501
倡导	-6502
慈善	-6503
排雷	-6504
3%。	-6505
▁需要	-6506
一致的	-6507
农产品	-6508
各方面	-6509
哥斯达黎	-6510
和平与安全的	-6511
余额	-6512
保罗	-6513
关联	-6514
在与	-6515
场合	-6516
布特	-6517
省级	-6518
防空	-6519
高昂	-6520
▁西藏	-6521
什叶派	-6522
外汇储备	-6523
不错	-6524
女童	-6525
姑娘	-6526
提前	-6527
这对	-6528
都市	-6529
2%。	-6530
会导致	-6531
商定的	-6532
令人鼓舞	-6533
剥削	-6534
四川	-6535
控股	-6536
更具	-6537
的和	-6538
纺织	-6539
并不能	-6540
文化和	-6541
星期三	-6542
生活中	-6543
资料和	-6544
转型期	-6545
▁认识到	-6546
环境与发展	-6547
万名	-6548
转递	-6549
70%	-6550
分别为	-6551
对全球	-6552
投资和	-6553
计划和	-6554
之间的合作	-6555
斯基	-6556
股本	-6557
进而	-6558
报告第	-6559
的状况	-6560
事态发展	-6561
非正式协商	-6562
尽力	-6563
没能	-6564
现任	-6565
当事方	-6566
条规定	-6567
▁第九条	-6568
共产主义	-6569
本届会议	-6570
促进和保护	-6571
太多	-6572
日前	-6573
望着	-6574
租金	-6575
众议院	-6576
所在地	-6577
相对于	-6578
为此目的	-6579
信息系统	-6580
调查显示	-6581
进行协商	-6582
哥斯达黎加	-6583
地上	-6584
强加	-6585
部的	-6586
较大的	-6587
委员会第	-6588
外地办事处	-6589
社会发展问题世界	-6590
动用	-6591
十一	-6592
南南	-6593
无所	-6594
认捐	-6595
和地区	-6596
民主化	-6597
资料的	-6598
发展纲领	-6599
▁2007	-6600
不见	-6601
中外	-6602
伪造	-6603
英尺	-6604
时间里	-6605
的信心	-6606
的债务	-6607
纳税人	-6608
给我们	-6609
苏格兰	-6610
规划和	-6611
降低了	-6612
▁伊拉克	-6613
宗教信仰	-6614
高度重视	-6615
勇气	-6616
定为	-6617
市长	-6618
新增	-6619
林斯	-6620
比尔	-6621
Bar	-6622
库尔德	-6623
▁类似地	-6624
文职人员	-6625
ST	-6626
将以	-6627
很高	-6628
汽油	-6629
获胜	-6630
ate	-6631
条件下	-6632
中产阶级	-6633
赔偿责任	-6634
”;	-6635
▁已经	-6636
允许我	-6637
所述期间	-6638
条的规定	-6639
圆满	-6640
找出	-6641
用以	-6642
院长	-6643
改革和	-6644
▁简	-6645
便宜	-6646
半数	-6647
巨头	-6648
并无	-6649
扭曲	-6650
死于	-6651
火车	-6652
船只	-6653
aul	-6654
以色列和	-6655
的国际合作	-6656
专注	-6657
仍未	-6658
回收	-6659
总共	-6660
就不会	-6661
▁第六条	-6662
维持和平部队	-6663
9%	-6664
不幸	-6665
到的	-6666
原先	-6667
恐慌	-6668
收回	-6669
事件的	-6670
印度的	-6671
是非常	-6672
有很多	-6673
有限的	-6674
欧盟的	-6675
兰卡	-6676
ric	-6677
损害的	-6678
次区域	-6679
称之为	-6680
▁N	-6681
成千	-6682
清除	-6683
都应	-6684
为执行	-6685
▁理事会	-6686
强有力的	-6687
积极作用	-6688
深切	-6689
▁而在	-6690
实施了	-6691
塞尔维亚和黑山	-6692
乔治	-6693
你在	-6694
哪儿	-6695
处决	-6696
异议	-6697
征求	-6698
人单位	-6699
情况和	-6700
▁50.	-6701
二十世纪	-6702
任何时候	-6703
这一进程	-6704
所面临	-6705
本法自	-6706
我们应该	-6707
改革开放	-6708
不上	-6709
期满	-6710
2%,	-6711
3%,	-6712
比以往	-6713
这也是	-6714
国有企业	-6715
76	-6716
az	-6717
oy	-6718
习近	-6719
大脑	-6720
征税	-6721
斯里	-6722
签字	-6723
表演	-6724
不断地	-6725
和非政府组织	-6726
不容	-6727
世贸	-6728
奋斗	-6729
推荐	-6730
早晨	-6731
清晰	-6732
炸弹	-6733
联检	-6734
习近平	-6735
事务的	-6736
但他们	-6737
培训和	-6738
希望在	-6739
应有的	-6740
的交易	-6741
的贡献	-6742
▁主席先生	-6743
RE	-6744
亏损	-6745
多国	-6746
残酷	-6747
配额	-6748
出席了	-6749
提交给	-6750
的人力	-6751
预算外	-6752
▁特朗普	-6753
上市公司	-6754
继续努力	-6755
议事规则	-6756
朝鲜民主主义	-6757
就有	-6758
预报	-6759
工作和	-6760
期间的	-6761
法国的	-6762
联检组	-6763
计划在	-6764
保护主义	-6765
工作小组	-6766
违法行为	-6767
▁我们相信	-6768
都被	-6769
人死亡	-6770
句话说	-6771
其他地区	-6772
投资者的	-6773
提起诉讼	-6774
在国家一级	-6775
的项目列入	-6776
朝鲜民主主义人民共和国	-6777
彼得	-6778
参议员	-6779
居住在	-6780
文件的	-6781
逊尼派	-6782
几乎所有	-6783
预防性外交	-6784
是否可以认为	-6785
多哈	-6786
联体	-6787
增长和	-6788
不得超过	-6789
▁2006	-6790
总量	-6791
物理	-6792
以加强	-6793
批准了	-6794
国家机关	-6795
提请注意	-6796
En	-6797
周知	-6798
指望	-6799
目睹	-6800
策划	-6801
精确	-6802
辅助	-6803
频繁	-6804
▁)(	-6805
家庭的	-6806
1500	-6807
研究报告	-6808
社会福利	-6809
联合国开发计划署	-6810
不如	-6811
何时	-6812
典型	-6813
大楼	-6814
火箭	-6815
却没有	-6816
期限内	-6817
申请书	-6818
结束后	-6819
▁在中国	-6820
一个新的	-6821
子的	-6822
终结	-6823
区域性	-6824
月以来	-6825
生产商	-6826
由国家	-6827
▁他表示	-6828
为基础的	-6829
各成员国	-6830
必不可少的	-6831
产能	-6832
保安	-6833
反而	-6834
惊讶	-6835
从而使	-6836
难民营	-6837
▁52.	-6838
医药	-6839
将有	-6840
荣誉	-6841
基督教	-6842
向委员会	-6843
国别方案	-6844
工作地点	-6845
古老	-6846
增至	-6847
缔造	-6848
7%,	-6849
与会者	-6850
无条件	-6851
95	-6852
囚犯	-6853
日元	-6854
混合	-6855
萨德	-6856
转换	-6857
▁25	-6858
▁第六	-6859
▁经济	-6860
开展了	-6861
所有权	-6862
▁哈	-6863
内陆	-6864
您的	-6865
现已	-6866
背后	-6867
90%	-6868
erv	-6869
▁他在	-6870
去年的	-6871
将这些	-6872
简单的	-6873
▁大多数	-6874
▁让我们	-6875
公共部门	-6876
co	-6877
人说	-6878
博物	-6879
这儿	-6880
iss	-6881
任务的	-6882
凯恩斯	-6883
被拘留	-6884
单位或者	-6885
所取得的	-6886
该地区的	-6887
违反本法规定	-6888
升至	-6889
检测	-6890
49/	-6891
合伙人	-6892
程序的	-6893
优先次序	-6894
使用武力	-6895
如果没有	-6896
(1996	-6897
从业	-6898
学金	-6899
封信	-6900
把他	-6901
防护	-6902
特定的	-6903
管理国	-6904
一向	-6905
当代	-6906
走到	-6907
与国际	-6908
对国家	-6909
的城市	-6910
经合组织	-6911
非洲发展	-6912
情节严重的	-6913
委员会注意到	-6914
不出	-6915
众所	-6916
免受	-6917
年里	-6918
条文	-6919
▁一位	-6920
唯一的	-6921
我可以	-6922
数千	-6923
文学	-6924
辞职	-6925
举办了	-6926
效率和	-6927
的条款	-6928
私有化	-6929
▁为什么	-6930
报国务院	-6931
生态系统	-6932
▁欧洲联盟	-6933
94	-6934
举例	-6935
库存	-6936
自杀	-6937
说是	-6938
较高	-6939
中国人	-6940
原材料	-6941
建立起	-6942
更广泛	-6943
直升机	-6944
从来没有	-6945
促进发展	-6946
吉尔吉斯	-6947
纳米比亚	-6948
▁四	-6949
总的	-6950
马尔	-6951
几年来	-6952
时间的	-6953
是不可	-6954
第三次	-6955
▁54.	-6956
▁第八十	-6957
农村地区	-6958
区域自治	-6959
注册商标	-6960
并处	-6961
月中	-6962
空缺	-6963
街头	-6964
在国内	-6965
▁第二条	-6966
不利影响	-6967
所进行的	-6968
财政部长	-6969
中最	-6970
为例	-6971
和水	-6972
民国	-6973
6%。	-6974
出口的	-6975
和合作	-6976
被称为	-6977
发展战略	-6978
▁第十四条	-6979
到目前为止	-6980
eh	-6981
制的	-6982
统筹	-6983
缓和	-6984
解体	-6985
▁当前	-6986
和组织	-6987
很好的	-6988
总统的	-6989
布特罗斯	-6990
偿付	-6991
检讨	-6992
▁加强	-6993
博物馆	-6994
并且在	-6995
加沙地带	-6996
自愿捐款	-6997
三次	-6998
东斯	-6999
中非	-7000
假定	-7001
或在	-7002
点是	-7003
精简	-7004
ain	-7005
共同的	-7006
最新的	-7007
最近在	-7008
▁53.	-7009
化石燃料	-7010
73	-7011
北方	-7012
周二	-7013
对在	-7014
将与	-7015
州的	-7016
率的	-7017
玻利	-7018
驾驶	-7019
1%。	-7020
国际经济	-7021
管理办法	-7022
麻醉药品	-7023
.5	-7024
塞拉	-7025
市值	-7026
enn	-7027
独联体	-7028
美国在	-7029
什么时候	-7030
全球变暖	-7031
必要措施	-7032
关于联合国	-7033
上限	-7034
下调	-7035
前途	-7036
怎么样	-7037
亚洲国家	-7038
公共行政	-7039
其他国家的	-7040
决定将题为	-7041
公投	-7042
原则上	-7043
因为这	-7044
本决议	-7045
设备和	-7046
该国政府	-7047
委员会的报告	-7048
主管人员和其他	-7049
三大	-7050
仅有	-7051
保卫	-7052
周末	-7053
教会	-7054
段所	-7055
▁应当	-7056
表明了	-7057
所采取的	-7058
向其	-7059
愉快	-7060
无视	-7061
流向	-7062
工人的	-7063
的道路	-7064
赢得了	-7065
进程中	-7066
六方会谈	-7067
到期	-7068
增值	-7069
来讲	-7070
自豪	-7071
和多边	-7072
扩大到	-7073
支出的	-7074
充分执行	-7075
-1997	-7076
高效	-7077
▁即便	-7078
也包括	-7079
咨委会	-7080
赞比亚	-7081
eric	-7082
▁55.	-7083
统计数字	-7084
重要的作用	-7085
证券监督管理	-7086
ON	-7087
挑选	-7088
目光	-7089
日开始	-7090
令人满意	-7091
敌对行动	-7092
某种程度上	-7093
的马	-7094
骚扰	-7095
ean	-7096
主席的	-7097
似乎是	-7098
是否会	-7099
的业务	-7100
费用的	-7101
众所周知	-7102
实际情况	-7103
CE	-7104
中断	-7105
互信	-7106
使人	-7107
并就	-7108
的人类	-7109
的现象	-7110
发挥作用	-7111
方案概算	-7112
问题上的	-7113
▁澳大利亚	-7114
▁第十三条	-7115
中立	-7116
坚信	-7117
普查	-7118
他们所	-7119
的战争	-7120
的人民代表大会	-7121
▁说	-7122
先前	-7123
我也	-7124
物体	-7125
界定	-7126
行业的	-7127
都知道	-7128
当事各方	-7129
日举行的	-7130
▁让	-7131
多项	-7132
将要	-7133
走上	-7134
一个月	-7135
不包括	-7136
和资源	-7137
助长	-7138
援引	-7139
美林	-7140
促进了	-7141
发现了	-7142
另一种	-7143
罪行的	-7144
军事人员	-7145
领导人的	-7146
4)	-7147
下文	-7148
威尔	-7149
恶劣	-7150
战胜	-7151
有意	-7152
社交	-7153
进了	-7154
公约的	-7155
发布的	-7156
找到了	-7157
证明了	-7158
领土上	-7159
十分重要	-7160
监督检查	-7161
野生动物	-7162
组织和非政府组织	-7163
AM	-7164
早就	-7165
查询	-7166
浏览	-7167
联萨	-7168
认证	-7169
避孕	-7170
上个月	-7171
▁该公司	-7172
这个项目	-7173
排斥	-7174
率和	-7175
附则	-7176
今后的	-7177
保护区	-7178
反过来	-7179
的协调	-7180
的资产	-7181
设施的	-7182
提供了一个	-7183
2(	-7184
后面	-7185
品种	-7186
垃圾	-7187
忍受	-7188
涨幅	-7189
14.	-7190
HIV	-7191
提议的	-7192
本办法	-7193
世界大战	-7194
▁第十五条	-7195
IT	-7196
小国	-7197
怀孕	-7198
将导致	-7199
族塞人	-7200
任何国家	-7201
调查结果	-7202
高级官员	-7203
AL	-7204
ai	-7205
司令	-7206
告知	-7207
高出	-7208
的公民	-7209
的任务期限	-7210
▁第二十六条	-7211
按照国家有关规定	-7212
详情	-7213
遗传	-7214
遵照	-7215
采纳	-7216
制度和	-7217
我们也	-7218
的那些	-7219
结构和	-7220
一百	-7221
叛乱	-7222
同盟	-7223
揽子	-7224
老板	-7225
阐明	-7226
雄心	-7227
ung	-7228
▁经过	-7229
下来的	-7230
多年的	-7231
威胁到	-7232
妇女问题世界	-7233
地方各级人民政府	-7234
人工	-7235
公顷	-7236
逾期	-7237
▁56.	-7238
军备竞赛	-7239
杀伤地雷	-7240
捷克共和国	-7241
▁好	-7242
你说	-7243
构架	-7244
每桶	-7245
用地	-7246
进攻	-7247
配备	-7248
成千上	-7249
的想法	-7250
国际关系	-7251
高等教育	-7252
85	-7253
勃勃	-7254
报复	-7255
这条	-7256
进来	-7257
)——	-7258
Car	-7259
可行性	-7260
支付的	-7261
的声音	-7262
我不知道	-7263
极端主义	-7264
用人单位	-7265
▁2003	-7266
仅为	-7267
依存	-7268
聚集	-7269
Sch	-7270
ort	-7271
天主教	-7272
的国内	-7273
联合国机构	-7274
建立信任措施	-7275
供资	-7276
关岛	-7277
大不	-7278
家的	-7279
导向	-7280
文盲	-7281
智能	-7282
质素	-7283
重的	-7284
15%	-7285
差不多	-7286
▁在这些	-7287
▁第四条	-7288
在对	-7289
观众	-7290
15.	-7291
▁公司	-7292
创纪录	-7293
欧洲人	-7294
的协议	-7295
的平均	-7296
斯里兰卡	-7297
行政和预算问题	-7298
主管人员和其他直接责任人员	-7299
▁’	-7300
加哥	-7301
召集	-7302
指派	-7303
矿业	-7304
绑架	-7305
虚假	-7306
计量	-7307
ish	-7308
可以从	-7309
期待着	-7310
的前提	-7311
芝加哥	-7312
玻利维亚	-7313
种族清洗	-7314
▁为此目的	-7315
▁如果我们	-7316
实物	-7317
尊敬	-7318
心脏	-7319
参与了	-7320
国家间	-7321
的一位	-7322
不断增加	-7323
县级以上人民政府	-7324
au	-7325
国情	-7326
振兴	-7327
村民	-7328
格达	-7329
版本	-7330
着眼	-7331
简要	-7332
各机构	-7333
的存在	-7334
美好的	-7335
▁第七条	-7336
公民权利	-7337
有关的问题	-7338
部队派遣国	-7339
▁开发计划署	-7340
弱点	-7341
感情	-7342
所属	-7343
纳德	-7344
联格	-7345
自信	-7346
身边	-7347
阵营	-7348
星期四	-7349
有两个	-7350
的机制	-7351
顿森林	-7352
其他地方	-7353
对冲基金	-7354
表示赞赏	-7355
事物	-7356
侵权	-7357
兑现	-7358
过分	-7359
代表说	-7360
历史性	-7361
是如何	-7362
比额表	-7363
ance	-7364
价格上涨	-7365
安全问题	-7366
压迫	-7367
月和	-7368
而又	-7369
▁它还	-7370
亚洲和	-7371
儿童和	-7372
可持续的	-7373
妇女参与	-7374
布鲁塞尔	-7375
联格观察团	-7376
原料	-7377
弃权	-7378
引人	-7379
强的	-7380
查验	-7381
树立	-7382
校长	-7383
流失	-7384
联安	-7385
让你	-7386
4%,	-7387
中所载	-7388
引发了	-7389
1981	-7390
伊斯兰国	-7391
联萨观察团	-7392
▁和	-7393
书记	-7394
以供	-7395
奉行	-7396
格拉	-7397
河流	-7398
跨越	-7399
并鼓励	-7400
积极地	-7401
的过程中	-7402
石油公司	-7403
见理事会第	-7404
的经济和社会	-7405
ne	-7406
较大	-7407
述了	-7408
▁问题	-7409
一些人	-7410
也同样	-7411
登记的	-7412
领土内	-7413
▁58.	-7414
▁没有人	-7415
不确定性	-7416
上有	-7417
产值	-7418
停战	-7419
减速	-7420
参观	-7421
核算	-7422
此后	-7423
睡觉	-7424
▁具体	-7425
和设备	-7426
武器的	-7427
▁我们在	-7428
常任理事国	-7429
三名	-7430
含有	-7431
布拉	-7432
抛弃	-7433
监护	-7434
组建	-7435
8%。	-7436
两个月	-7437
当地的	-7438
的行政	-7439
需求的	-7440
这一事实	-7441
各派	-7442
每人	-7443
简化	-7444
被捕	-7445
WTO	-7446
卢萨卡	-7447
进一步发展	-7448
▁正	-7449
撤回	-7450
爱你	-7451
预先	-7452
本国的	-7453
工发组织	-7454
政府间组织	-7455
方面的作用	-7456
▁把	-7457
以致	-7458
支柱	-7459
是谁	-7460
认同	-7461
这点	-7462
▁第八条	-7463
可能需要	-7464
我们已经	-7465
更有效地	-7466
委员会的建议	-7467
卖淫	-7468
复制	-7469
将向	-7470
布朗	-7471
民航	-7472
消防	-7473
难题	-7474
日为止	-7475
以色列的	-7476
由联合国	-7477
采取适当	-7478
乃至	-7479
写道	-7480
意料	-7481
成分	-7482
皇家	-7483
公平的	-7484
天文台	-7485
战争的	-7486
▁第十条	-7487
和西班牙	-7488
这个国家	-7489
▁第十二条	-7490
3,	-7491
▁诚	-7492
举动	-7493
公益	-7494
太空	-7495
延迟	-7496
服装	-7497
要想	-7498
25%	-7499
状况的	-7500
这些目标	-7501
▁第十九条	-7502
联安核查团	-7503
宣言和行动纲领	-7504
Sp	-7505
传媒	-7506
吊销	-7507
研制	-7508
联海	-7509
殖民化	-7510
大规模的	-7511
少数群体	-7512
二十一世纪	-7513
原始	-7514
反复	-7515
建成	-7516
最有	-7517
罗毕	-7518
ath	-7519
集团的	-7520
2020	-7521
周年纪念	-7522
研究中心	-7523
外国投资者	-7524
所有会员国	-7525
7/	-7526
业的	-7527
二战	-7528
其顿	-7529
增速	-7530
福祉	-7531
设有	-7532
总数的	-7533
批准后	-7534
破坏了	-7535
ital	-7536
成本效益	-7537
和其他有关	-7538
▁第二十三条	-7539
非政府组织和	-7540
原本	-7541
喇嘛	-7542
天内	-7543
废料	-7544
130	-7545
▁北京	-7546
营养不良	-7547
布雷顿森林	-7548
会使	-7549
格局	-7550
生意	-7551
缺点	-7552
观测	-7553
路上	-7554
1%,	-7555
110	-7556
60%	-7557
AIG	-7558
”、“	-7559
不结盟	-7560
在全国	-7561
日本的	-7562
确定了	-7563
Mich	-7564
行政协调会	-7565
(1992)	-7566
万吨	-7567
品质	-7568
回返	-7569
子里	-7570
更是	-7571
约定	-7572
调节	-7573
输入	-7574
过剩	-7575
饱受	-7576
▁of	-7577
他表示	-7578
麦凯恩	-7579
▁我知道	-7580
直接负责的	-7581
62	-7582
Br	-7583
沉默	-7584
这段	-7585
通往	-7586
长久	-7587
下一次	-7588
和人民	-7589
有理由	-7590
登记册	-7591
的孩子	-7592
章附则	-7593
基本原则	-7594
▁第二十五条	-7595
准许	-7596
动态	-7597
在新	-7598
审慎	-7599
的年	-7600
ice	-7601
▁来自	-7602
公正和	-7603
将通过	-7604
开始了	-7605
打电话	-7606
的特别	-7607
的质量	-7608
1949	-7609
强调必须	-7610
加强联合国	-7611
经费的筹措	-7612
▁咨询委员会	-7613
一九	-7614
如同	-7615
带有	-7616
本土	-7617
果断	-7618
榜样	-7619
生素	-7620
目录	-7621
跌幅	-7622
可能对	-7623
和精神	-7624
在大会	-7625
在整个	-7626
应包括	-7627
石油和	-7628
第二大	-7629
全体会议上	-7630
办学	-7631
哪个	-7632
就其	-7633
暴跌	-7634
的最终	-7635
20%。	-7636
裁军审议	-7637
造成严重	-7638
各级人民政府	-7639
93	-7640
Gl	-7641
偏见	-7642
全权	-7643
土壤	-7644
接待	-7645
有毒	-7646
为一个	-7647
交易的	-7648
数百万	-7649
的某些	-7650
以下简称	-7651
头发	-7652
悲观	-7653
播放	-7654
更换	-7655
移交	-7656
▁台湾	-7657
上一级	-7658
会期间	-7659
应继续	-7660
拥有的	-7661
的信任	-7662
限成员	-7663
航空公司	-7664
资本市场	-7665
问题进行	-7666
The	-7667
他认为	-7668
提交的	-7669
能源和	-7670
划分	-7671
合营	-7672
团长	-7673
实用	-7674
护理	-7675
深圳	-7676
Mer	-7677
依赖于	-7678
各部门	-7679
的迹象	-7680
范围的	-7681
Stan	-7682
▁57.	-7683
的报告中	-7684
责令改正	-7685
黑塞哥维那共和国	-7686
注视	-7687
让步	-7688
下跌了	-7689
严格的	-7690
养老金	-7691
并支持	-7692
排放量	-7693
是联合国	-7694
的另一个	-7695
深度	-7696
Con	-7697
做什么	-7698
的目的是	-7699
亿人	-7700
低迷	-7701
你就	-7702
供水	-7703
和他	-7704
回国	-7705
的好	-7706
它们对	-7707
MA	-7708
但其	-7709
托管	-7710
种子	-7711
脱欧	-7712
藏族	-7713
而受到	-7714
问题时	-7715
社会团体	-7716
交流与合作	-7717
应对气候变化	-7718
af	-7719
大于	-7720
购置	-7721
逃离	-7722
13.	-7723
MBA	-7724
卡塔尔	-7725
的请求	-7726
最高法院	-7727
的问题上	-7728
74	-7729
做得	-7730
该部	-7731
ein	-7732
并促进	-7733
时间和	-7734
目前在	-7735
著名的	-7736
对妇女的	-7737
男女平等	-7738
进行审查	-7739
贸易和发展	-7740
迁移	-7741
低成本	-7742
条例和	-7743
选举的	-7744
司法机关	-7745
地图地理座标	-7746
▁在这种情况下	-7747
▁若	-7748
二年	-7749
动乱	-7750
看了	-7751
蒙特	-7752
诚意	-7753
较少	-7754
输出	-7755
...	-7756
个小时	-7757
提高到	-7758
▁61.	-7759
▁我们对	-7760
92	-7761
不顾	-7762
备选	-7763
家宝	-7764
沮丧	-7765
神经	-7766
餐厅	-7767
www	-7768
▁这就	-7769
加入了	-7770
禽流感	-7771
第一章	-7772
而且还	-7773
领导下	-7774
进行调查	-7775
重点放在	-7776
争夺	-7777
哲学	-7778
崇高	-7779
损坏	-7780
载列	-7781
Man	-7782
代表在	-7783
你知道	-7784
该计划	-7785
Paul	-7786
区域合作	-7787
英语学习	-7788
▁1990	-7789
对议程项目	-7790
Ab	-7791
Ma	-7792
多大	-7793
拨出	-7794
时所	-7795
见第	-7796
将包括	-7797
开始的	-7798
短期内	-7799
事业单位	-7800
表示感谢	-7801
Kh	-7802
▁人	-7803
一轮	-7804
东北	-7805
副本	-7806
听证	-7807
尤为	-7808
应为	-7809
接管	-7810
美好	-7811
较小	-7812
end	-7813
发表了	-7814
的两个	-7815
上海合作组织成员国	-7816
▁也	-7817
我还	-7818
通道	-7819
遥感	-7820
政治和	-7821
的不同	-7822
的认识	-7823
举行一次	-7824
的大规模	-7825
量化宽松	-7826
正在进行的	-7827
赞赏地注意到	-7828
冰岛	-7829
掉了	-7830
用了	-7831
界线	-7832
不服的	-7833
是可以	-7834
资产的	-7835
全球化的	-7836
协调一致	-7837
我们现在	-7838
的领导人	-7839
内阁	-7840
回忆	-7841
固体	-7842
姆斯	-7843
守则	-7844
引擎	-7845
我将	-7846
汇编	-7847
航行	-7848
遣散	-7849
发基金	-7850
持有的	-7851
月份的	-7852
银行和	-7853
Gold	-7854
一切形式	-7855
万美元的	-7856
军事行动	-7857
缔约国的	-7858
联合国大学	-7859
▁第一百一十	-7860
反弹	-7861
巴斯	-7862
接纳	-7863
实际的	-7864
有益的	-7865
长期的	-7866
明确规定	-7867
环境影响	-7868
卡尔	-7869
地和	-7870
展望	-7871
警卫	-7872
迎接	-7873
里程	-7874
队的	-7875
中国与	-7876
伊朗核	-7877
中的作用	-7878
合作伙伴	-7879
向秘书长	-7880
安全生产	-7881
解决冲突	-7882
采取步骤	-7883
非洲统一	-7884
特性	-7885
稳步	-7886
联塞	-7887
▁后来	-7888
事务所	-7889
在今年	-7890
都应该	-7891
更广泛的	-7892
条款草案	-7893
达成一致	-7894
最不发达国家的	-7895
出色	-7896
可供	-7897
懂得	-7898
核电	-7899
真主	-7900
知名	-7901
联大	-7902
重返	-7903
7%。	-7904
Dav	-7905
ord	-7906
的结论	-7907
▁换句话说	-7908
乌拉圭回合	-7909
选举委员会	-7910
一事	-7911
前面	-7912
动摇	-7913
尼克	-7914
届满	-7915
悲惨	-7916
没人	-7917
法语	-7918
门口	-7919
180	-7920
▁谢谢	-7921
以避免	-7922
和地方	-7923
所指出	-7924
的发言	-7925
的担忧	-7926
结果是	-7927
通过其	-7928
实现这一目标	-7929
Cl	-7930
一件	-7931
升高	-7932
各族	-7933
奖金	-7934
想起	-7935
跨界	-7936
16.	-7937
Cit	-7938
ett	-7939
对所有	-7940
温家宝	-7941
特别的	-7942
破坏性	-7943
之间的联系	-7944
限成员名额	-7945
▁五	-7946
塞内	-7947
早在	-7948
能量	-7949
Rob	-7950
领域内	-7951
任何其他	-7952
财政资源	-7953
儿童权利公约	-7954
ld	-7955
修理	-7956
分庭	-7957
受过	-7958
或其	-7959
维奇	-7960
主持下	-7961
必须是	-7962
来处理	-7963
商品价格	-7964
欧洲国家	-7965
▁毫无疑问	-7966
就这样决定	-7967
万元以下的罚款	-7968
但也	-7969
它所	-7970
的手	-7971
构成了	-7972
任择	-7973
另行	-7974
含义	-7975
新建	-7976
网页	-7977
ook	-7978
our	-7979
▁很多	-7980
导致的	-7981
环境中	-7982
上年同期	-7983
充分尊重	-7984
培训方案	-7985
这项工作	-7986
毁灭性武器	-7987
中国英语学习	-7988
分开	-7989
应予	-7990
庞大	-7991
洪水	-7992
深感	-7993
铁矿	-7994
风格	-7995
▁新的	-7996
▁诚然	-7997
为自己	-7998
甚至在	-7999
该机构	-8000
告诉我们	-8001
经国务院	-8002
中国英语学习网	-8003
大会第四十九届会议	-8004
好吗	-8005
日报	-8006
火炬	-8007
线路	-8008
远离	-8009
受欢迎	-8010
暴力和	-8011
有关于	-8012
1974	-8013
国际刑事	-8014
这次会议	-8015
大韩	-8016
洗钱	-8017
ood	-8018
文化的	-8019
项目下	-8020
▁60.	-8021
提供经费	-8022
新闻中心	-8023
记录表决	-8024
采购实体	-8025
非常重要	-8026
使之	-8027
便是	-8028
免除	-8029
压制	-8030
时限	-8031
票据	-8032
里面	-8033
举办的	-8034
会计师	-8035
托克劳	-8036
政府将	-8037
有兴趣	-8038
繁荣的	-8039
1960	-8040
个国家的	-8041
俄罗斯的	-8042
美洲国家	-8043
▁2001	-8044
▁第十一条	-8045
生物多样性	-8046
乡村	-8047
共计	-8048
拿马	-8049
服从	-8050
设定	-8051
为我们	-8052
再一次	-8053
塔尼亚	-8054
学校的	-8055
开始时	-8056
合作关系	-8057
联邦政府	-8058
Tr	-8059
▁·	-8060
▁很	-8061
▁谁	-8062
你要	-8063
倒闭	-8064
创始	-8065
放宽	-8066
标签	-8067
桥梁	-8068
波罗	-8069
演习	-8070
这就	-8071
会议员	-8072
向他们	-8073
文化权利	-8074
消除贫困	-8075
乘客	-8076
克拉	-8077
去看	-8078
姆林	-8079
沿着	-8080
以满足	-8081
在最近	-8082
程序和	-8083
预备役	-8084
▁我们也	-8085
分支机构	-8086
西藏自治区	-8087
人所	-8088
或不	-8089
核实	-8090
简报	-8091
ass	-8092
▁令人	-8093
▁面对	-8094
已经被	-8095
我们会	-8096
的难民	-8097
陷入了	-8098
▁63.	-8099
环境问题	-8100
关切地注意到	-8101
证券监督管理机构	-8102
Mc	-8103
▁向	-8104
源于	-8105
耐心	-8106
债务的	-8107
公众对	-8108
来自于	-8109
根本上	-8110
的一名	-8111
的角色	-8112
而这些	-8113
重点是	-8114
马德里	-8115
严格遵守	-8116
消灭贫穷	-8117
▁最后案文	-8118
核武器条约	-8119
▁是	-8120
并请	-8121
部落	-8122
极大地	-8123
访问了	-8124
几乎没有	-8125
两天	-8126
应是	-8127
很小	-8128
▁全国	-8129
加剧了	-8130
局势的	-8131
报告和	-8132
的外交	-8133
讨论的	-8134
并不意味着	-8135
/1993/	-8136
61	-8137
一张	-8138
保管	-8139
慢慢	-8140
亲爱的	-8141
充满了	-8142
变化的	-8143
塞内加尔	-8144
管理机构	-8145
统计数据	-8146
的事态发展	-8147
▁第二十七条	-8148
-1	-8149
hk	-8150
一周	-8151
法郎	-8152
涉嫌	-8153
犯下	-8154
诚实	-8155
马丁	-8156
奖学金	-8157
行政处罚	-8158
达赖喇嘛	-8159
设立了一个	-8160
乌兹	-8161
互动	-8162
年将	-8163
愿与	-8164
拖欠	-8165
木材	-8166
绝望	-8167
都已	-8168
分析和	-8169
百分比	-8170
▁59.	-8171
▁64.	-8172
为联合国	-8173
▁这是一个	-8174
政治和经济	-8175
估算	-8176
女子	-8177
掩盖	-8178
有何	-8179
民意	-8180
领事	-8181
Pro	-8182
可以用	-8183
尔先生	-8184
巴尔干	-8185
甚至是	-8186
都无法	-8187
附件二	-8188
预算赤字	-8189
▁第二十条	-8190
主权和领土完整	-8191
上次	-8192
动议	-8193
压倒	-8194
承付	-8195
研训	-8196
血液	-8197
Pet	-8198
和重建	-8199
官员说	-8200
或者其	-8201
目前正	-8202
强调指出	-8203
法律文书	-8204
财务报表	-8205
现代化建设	-8206
uc	-8207
▁比	-8208
开辟	-8209
换取	-8210
累积	-8211
轻易	-8212
通缩	-8213
ens	-8214
特里亚	-8215
的公共	-8216
预算的	-8217
几十年来	-8218
北爱尔兰	-8219
基本自由	-8220
在中国境内	-8221
的基础设施	-8222
工艺	-8223
深深	-8224
销量	-8225
ick	-8226
专注于	-8227
和控制	-8228
实现其	-8229
▁我相信	-8230
独立国家	-8231
结构改革	-8232
书籍	-8233
吸取	-8234
就将	-8235
游泳	-8236
者在	-8237
过多	-8238
8%,	-8239
应当自	-8240
有一天	-8241
本项下	-8242
转化为	-8243
所有各方	-8244
生态环境	-8245
▁第十六条	-8246
出具	-8247
多安	-8248
应将	-8249
护照	-8250
由其	-8251
巴格达	-8252
收入和	-8253
政府已	-8254
的商业	-8255
的女性	-8256
药物滥用	-8257
驻地协调员	-8258
下放	-8259
丧生	-8260
也可	-8261
ock	-8262
一定会	-8263
总经理	-8264
▁在我们	-8265
外资企业	-8266
▁第十八条	-8267
Pr	-8268
下述	-8269
公然	-8270
构想	-8271
议案	-8272
错了	-8273
个世纪	-8274
性问题	-8275
▁65.	-8276
必须得到	-8277
CP	-8278
交所	-8279
内在	-8280
暂行	-8281
活着	-8282
绝非	-8283
诞生	-8284
ann	-8285
以前的	-8286
是否有	-8287
的人的	-8288
医疗保健	-8289
相比之下	-8290
决议草案的	-8291
提出的建议	-8292
▁用	-8293
先例	-8294
回去	-8295
成人	-8296
革新	-8297
uro	-8298
上半年	-8299
以防止	-8300
培训班	-8301
开发和	-8302
控制和	-8303
出口管制	-8304
多边贸易	-8305
显而易见	-8306
▁第十七条	-8307
和技术援助	-8308
耶和	-8309
草拟	-8310
重量	-8311
了一场	-8312
保持在	-8313
公布的	-8314
发展与	-8315
并提供	-8316
并根据	-8317
的规模	-8318
中国国家	-8319
六年	-8320
其后	-8321
剑桥	-8322
增多	-8323
延期	-8324
接种	-8325
时说	-8326
春天	-8327
暴行	-8328
温度	-8329
那是	-8330
颜色	-8331
(1)	-8332
17.	-8333
一年的	-8334
乌兹别	-8335
人员在	-8336
以至于	-8337
健康和	-8338
里斯蒂	-8339
6000	-8340
临床	-8341
体重	-8342
使他	-8343
对比	-8344
杰出	-8345
沿岸	-8346
受教育	-8347
处三年	-8348
实现的	-8349
全面禁止	-8350
继续下去	-8351
,1995	-8352
▁拉	-8353
更低	-8354
款额	-8355
舞弊	-8356
营销	-8357
适宜	-8358
代表性	-8359
申请的	-8360
经济上	-8361
阿萨德	-8362
2500	-8363
建设项目	-8364
的大多数	-8365
Stanley	-8366
/2	-8367
▁所	-8368
勇敢	-8369
口号	-8370
已从	-8371
巴巴	-8372
拓展	-8373
树木	-8374
会议室	-8375
但没有	-8376
持久的	-8377
本公约	-8378
犹太人	-8379
较高的	-8380
我们不能	-8381
一批	-8382
华社	-8383
夏季	-8384
时速	-8385
次数	-8386
主义和	-8387
前苏联	-8388
的这一	-8389
研究的	-8390
而且也	-8391
▁秘书处	-8392
登记机关	-8393
证据表明	-8394
,1996	-8395
▁第二十一条	-8396
克利	-8397
用电	-8398
Cap	-8399
什米尔	-8400
几年中	-8401
另一项	-8402
已经有	-8403
建立和	-8404
的困难	-8405
借此机会	-8406
条约机构	-8407
法律保护	-8408
国家和国际	-8409
.3	-8410
为在	-8411
减排	-8412
几百	-8413
几项	-8414
周三	-8415
开创	-8416
指令	-8417
有序	-8418
还说	-8419
享有的	-8420
变成了	-8421
影响了	-8422
有时候	-8423
起来的	-8424
解决争端	-8425
作出的努力	-8426
联合国秘书长	-8427
种族主义和种族歧视	-8428
ee	-8429
》;	-8430
戏剧	-8431
赫尔	-8432
追溯	-8433
计算的	-8434
▁第九十	-8435
快速增长	-8436
税务机关	-8437
首席执行长	-8438
三方	-8439
主体	-8440
易受	-8441
源自	-8442
用作	-8443
的可	-8444
▁上周	-8445
因为在	-8446
就业和	-8447
总干事	-8448
的人民	-8449
的武器	-8450
eral	-8451
加强合作	-8452
金融时报	-8453
经社理事会	-8454
千年发展目标	-8455
姿态	-8456
▁欢迎	-8457
商务部	-8458
如果不	-8459
的斗争	-8460
▁华盛顿	-8461
有所增加	-8462
ge	-8463
任用	-8464
向他	-8465
挑衅	-8466
挽救	-8467
使人们	-8468
努力的	-8469
▁62.	-8470
解决问题	-8471
和政治权利	-8472
委员会认为	-8473
多斯	-8474
缩减	-8475
耳他	-8476
▁预计	-8477
各民族	-8478
本地区	-8479
现在的	-8480
的独立	-8481
orld	-8482
(1996)	-8483
72	-8484
产妇	-8485
住了	-8486
牙买	-8487
纳粹	-8488
讽刺	-8489
那就	-8490
防卫	-8491
的一致	-8492
需要和	-8493
他们认为	-8494
克里姆林	-8495
所有人都	-8496
持久和平	-8497
相互依存	-8498
货币联盟	-8499
ement	-8500
兴奋	-8501
复员	-8502
定罪	-8503
性地	-8504
探测	-8505
花了	-8506
贩毒	-8507
黑人	-8508
▁韩国	-8509
生命的	-8510
南南合作	-8511
提供支助	-8512
花旗集团	-8513
非洲大陆	-8514
食品安全	-8515
任择议定书	-8516
BM	-8517
Bl	-8518
两周	-8519
厄立	-8520
得知	-8521
想想	-8522
生涯	-8523
禁令	-8524
防范	-8525
▁我不	-8526
▁特别	-8527
▁这笔	-8528
中国对	-8529
办法是	-8530
在促进	-8531
对那些	-8532
的民族	-8533
纺织品	-8534
充分发挥	-8535
充分合作	-8536
创造条件	-8537
有效措施	-8538
生产企业	-8539
的决定草案	-8540
第四次妇女问题世界	-8541
七个	-8542
呼吸	-8543
培育	-8544
大臣	-8545
影片	-8546
整顿	-8547
杀死	-8548
详尽	-8549
oci	-8550
▁企业	-8551
你们的	-8552
和企业	-8553
对环境	-8554
政权的	-8555
本规定	-8556
的协定	-8557
通胀率	-8558
的受害者	-8559
自治领土	-8560
DA	-8561
东方	-8562
司长	-8563
模糊	-8564
水域	-8565
灾区	-8566
瘫痪	-8567
航班	-8568
以实现	-8569
和贸易	-8570
在纽约	-8571
安德烈	-8572
并希望	-8573
的巨大	-8574
埃尔多安	-8575
证券交易	-8576
费用概算	-8577
均应	-8578
抵触	-8579
合作社	-8580
在一些	-8581
对有关	-8582
明确地	-8583
生产者	-8584
转变为	-8585
achs	-8586
金融服务	-8587
厄立特里亚	-8588
双边和多边	-8589
上学	-8590
主宰	-8591
优化	-8592
占了	-8593
商界	-8594
大体	-8595
拉里	-8596
有过	-8597
题目	-8598
不用说	-8599
使它们	-8600
并加强	-8601
的角度	-8602
第三方	-8603
因为这些	-8604
朝鲜半岛	-8605
消费者的	-8606
三项	-8607
世俗	-8608
人被	-8609
年时	-8610
萨达	-8611
领空	-8612
9%。	-8613
估计为	-8614
本行政	-8615
亚太经社会	-8616
依法给予行政处分	-8617
▁J	-8618
不及	-8619
废止	-8620
招聘	-8621
收获	-8622
灌溉	-8623
睦邻	-8624
迈向	-8625
高中	-8626
声明中	-8627
巴拿马	-8628
的中心	-8629
社会中	-8630
职工会	-8631
2016	-8632
的目标是	-8633
达成一项	-8634
附属机构	-8635
加斯	-8636
当年	-8637
截然	-8638
斯蒂	-8639
真是	-8640
神圣	-8641
轰炸	-8642
▁一般	-8643
▁强调	-8644
反映在	-8645
可靠的	-8646
合理化	-8647
和一个	-8648
和分析	-8649
成员们	-8650
我相信	-8651
日关于	-8652
政府部门	-8653
经济复苏	-8654
行动方案	-8655
局限	-8656
并已	-8657
戈尔	-8658
购物	-8659
最高的	-8660
有没有	-8661
牙买加	-8662
的前景	-8663
恐怖袭击	-8664
的必要性	-8665
▁我国政府	-8666
大规模毁灭性武器	-8667
专制	-8668
就不	-8669
本港	-8670
节余	-8671
部件	-8672
▁当事	-8673
▁我还	-8674
也许是	-8675
信息和	-8676
孩子的	-8677
的信贷	-8678
▁土耳其	-8679
▁各国政府	-8680
中国共产党	-8681
世界贸易组织	-8682
中央人民政府	-8683
71	-8684
兑换	-8685
往来	-8686
拉萨	-8687
荒漠	-8688
20.	-8689
十年来	-8690
在他们	-8691
定居点	-8692
平等的	-8693
我国的	-8694
更有效	-8695
可持续性	-8696
号决议和	-8697
Americ	-8698
大胆	-8699
斡旋	-8700
表格	-8701
运载	-8702
连同	-8703
▁最终	-8704
和长期	-8705
开发的	-8706
没什么	-8707
秩序的	-8708
运动的	-8709
▁67.	-8710
经常项目	-8711
和其他国家	-8712
这一问题的	-8713
一笔	-8714
减弱	-8715
变为	-8716
Fin	-8717
ive	-8718
▁希腊	-8719
以提高	-8720
任务是	-8721
我感谢	-8722
普遍性	-8723
该问题	-8724
1983	-8725
2030	-8726
▁第二十四条	-8727
亚的	-8728
弱势	-8729
所占	-8730
报价	-8731
样品	-8732
核定	-8733
附带	-8734
和公共	-8735
已不再	-8736
条约的	-8737
欧洲和	-8738
的名字	-8739
1975	-8740
一体化的	-8741
克什米尔	-8742
的权利和	-8743
1:	-8744
82	-8745
专项	-8746
他又	-8747
在你	-8748
并把	-8749
录像	-8750
得益	-8751
涌入	-8752
竭尽	-8753
纯粹	-8754
.10	-8755
以协助	-8756
十年中	-8757
的特殊	-8758
适当地	-8759
成千上万	-8760
联塞部队	-8761
资产管理	-8762
委员会在其	-8763
Ex	-8764
丑闻	-8765
从前	-8766
异常	-8767
波多	-8768
监视	-8769
破裂	-8770
轻松	-8771
都很	-8772
ark	-8773
▁希望	-8774
▁禁止	-8775
做出的	-8776
在亚洲	-8777
想知道	-8778
是没有	-8779
知识和	-8780
4000	-8781
社会保险	-8782
乌兹别克斯坦	-8783
公主	-8784
利昂	-8785
寻常	-8786
方说	-8787
桌子	-8788
燃烧	-8789
窗户	-8790
进去	-8791
他们将	-8792
应根据	-8793
的根本	-8794
遭到了	-8795
Inst	-8796
解除武装	-8797
高新技术	-8798
工业化国家	-8799
发件	-8800
各省	-8801
市政	-8802
提取	-8803
结核	-8804
聘请	-8805
不允许	-8806
但它们	-8807
在没有	-8808
强制性	-8809
来进行	-8810
正处于	-8811
让人们	-8812
设备的	-8813
非洲和	-8814
预期的	-8815
南太平洋	-8816
志愿人员	-8817
成立以来	-8818
民主党派	-8819
第二季度	-8820
报告所述期间	-8821
股份有限公司	-8822
号码	-8823
听说	-8824
在外	-8825
封闭	-8826
归咎	-8827
论点	-8828
金牌	-8829
意义上	-8830
涉及到	-8831
的一大	-8832
1973	-8833
中的一个	-8834
不限成员名额	-8835
86	-8836
体验	-8837
各界	-8838
大小	-8839
开启	-8840
担负	-8841
搜集	-8842
有个	-8843
未决	-8844
正好	-8845
游说	-8846
类的	-8847
跨境	-8848
And	-8849
扩大了	-8850
月开始	-8851
正确地	-8852
的名义	-8853
经验和	-8854
选择了	-8855
一段时间	-8856
国民经济	-8857
核武器国家	-8858
▁第二十九条	-8859
89	-8860
▁小	-8861
也对	-8862
可见	-8863
噪声	-8864
多米	-8865
幼儿	-8866
第八	-8867
退化	-8868
首长	-8869
140	-8870
ael	-8871
为他们	-8872
和投资	-8873
机关和	-8874
第一款	-8875
系统和	-8876
警告说	-8877
委员会对	-8878
未经表决	-8879
注册资本	-8880
相当大的	-8881
积极参加	-8882
表示支持	-8883
领域的合作	-8884
吃惊	-8885
飓风	-8886
部长们	-8887
▁68.	-8888
应当根据	-8889
永远不会	-8890
)1993	-8891
亲自	-8892
存储	-8893
广场	-8894
手里	-8895
旗下	-8896
格尔	-8897
第九	-8898
而对	-8899
并采取	-8900
机制的	-8901
波多黎	-8902
共同利益	-8903
得到解决	-8904
数据显示	-8905
研究人员	-8906
Sachs	-8907
发展中国家和	-8908
外围	-8909
家具	-8910
答应	-8911
聪明	-8912
要点	-8913
财物	-8914
罗伯特	-8915
进入了	-8916
各个方面	-8917
各项建议	-8918
幸运的是	-8919
▁无论如何	-8920
非洲统一组织	-8921
社会发展问题世界首脑会议	-8922
但仍	-8923
制药	-8924
多党	-8925
或缺	-8926
拆除	-8927
禁试	-8928
终身	-8929
雅典	-8930
总额的	-8931
数量的	-8932
的障碍	-8933
解释说	-8934
达成了	-8935
铁矿石	-8936
Comm	-8937
世贸组织	-8938
的第一个	-8939
▁巴基斯坦	-8940
OS	-8941
不像	-8942
不去	-8943
也被	-8944
力求	-8945
商人	-8946
在各	-8947
据说	-8948
架次	-8949
空军	-8950
联黎	-8951
金银	-8952
一定要	-8953
不同意	-8954
体现了	-8955
各种各	-8956
必须以	-8957
邻国的	-8958
责令停止	-8959
贫困人口	-8960
,1992	-8961
能让	-8962
锻炼	-8963
靠近	-8964
顺差	-8965
内罗毕	-8966
收益率	-8967
文件和	-8968
方法的	-8969
给他们	-8970
区域一级	-8971
和以色列	-8972
布什总统	-8973
监管机构	-8974
第二阶段	-8975
伊斯兰会议	-8976
ug	-8977
⁄4	-8978
中共	-8979
她在	-8980
安慰	-8981
广东	-8982
忘了	-8983
把我	-8984
欺骗	-8985
海峡	-8986
稳固	-8987
索尼	-8988
ani	-8989
▁举例	-8990
协助下	-8991
对经济	-8992
领导层	-8993
医疗保险	-8994
政治意愿	-8995
生活方式	-8996
1996-1997	-8997
91	-8998
to	-8999
万个	-9000
归还	-9001
拘役	-9002
特里	-9003
远的	-9004
选手	-9005
即使是	-9006
向中国	-9007
的人均	-9008
至少在	-9009
非军事	-9010
ence	-9011
不断提高	-9012
妇女和儿童	-9013
国际人道主义法	-9014
南北	-9015
市的	-9016
文献	-9017
职守	-9018
颠覆	-9019
ace	-9020
▁随后	-9021
反倾销	-9022
活力的	-9023
研训所	-9024
如果我们	-9025
所有有关	-9026
电子邮件	-9027
结合起来	-9028
秘书长报告	-9029
上网	-9030
▁22	-9031
▁你的	-9032
发行的	-9033
合适的	-9034
是不是	-9035
正常化	-9036
的新闻	-9037
肯定会	-9038
itut	-9039
专家小组	-9040
非法贩运	-9041
▁2000	-9042
联海特派团	-9043
▁儿童基金会	-9044
▁受	-9045
为时	-9046
全文	-9047
大为	-9048
来临	-9049
确切	-9050
街道	-9051
▁这将	-9052
合同的	-9053
归咎于	-9054
有用的	-9055
的关注	-9056
的现实	-9057
联合体	-9058
波多黎各	-9059
现有资源	-9060
通过一项	-9061
南克	-9062
抵御	-9063
按揭	-9064
校园	-9065
警队	-9066
▁在这	-9067
以及为	-9068
公正的	-9069
大会在	-9070
密集型	-9071
段所述	-9072
由政府	-9073
难民的	-9074
需要有	-9075
▁66.	-9076
▁第二十二条	-9077
没收违法所得	-9078
大会第四十八届会议	-9079
.2	-9080
亲属	-9081
季节	-9082
弗里	-9083
情景	-9084
送到	-9085
和宗教	-9086
▁多年来	-9087
外国投资	-9088
▁世界银行	-9089
一般事务人员	-9090
国际原子能机构	-9091
不住	-9092
从其	-9093
他所	-9094
供电	-9095
呈现	-9096
不利于	-9097
个月内	-9098
创新的	-9099
各国在	-9100
安全区	-9101
日本和	-9102
是全球	-9103
的控制	-9104
运输和	-9105
在伊拉克	-9106
建立和平	-9107
更不用说	-9108
高等学校	-9109
-2	-9110
买家	-9111
份子	-9112
协同	-9113
将该	-9114
试点	-9115
课题	-9116
ows	-9117
法律的	-9118
▁第三章	-9119
不可分割	-9120
任务期限	-9121
常驻代表	-9122
▁1991	-9123
民族区域自治	-9124
AT	-9125
上调	-9126
写信	-9127
大有	-9128
扰乱	-9129
最快	-9130
独自	-9131
病例	-9132
省份	-9133
训研	-9134
走出	-9135
道义	-9136
另一方	-9137
国家都	-9138
我们还	-9139
竞争性	-9140
阻碍了	-9141
不是一个	-9142
发展问题	-9143
召开一次	-9144
的一般性	-9145
管理制度	-9146
/1995/	-9147
Goldman	-9148
两家	-9149
也为	-9150
以求	-9151
总局	-9152
护士	-9153
推高	-9154
检获	-9155
简短	-9156
终了	-9157
ner	-9158
▁埃及	-9159
▁这位	-9160
两年前	-9161
中得到	-9162
国内的	-9163
法国和	-9164
现在是	-9165
的一年	-9166
国家经济	-9167
有关法律	-9168
跨国犯罪	-9169
领域中的	-9170
Re	-9171
只占	-9172
富人	-9173
据称	-9174
收于	-9175
白人	-9176
谘询	-9177
以任何	-9178
印度和	-9179
大萧条	-9180
应当对	-9181
数据的	-9182
7000	-9183
医疗卫生	-9184
提出关于	-9185
维和行动	-9186
这种做法	-9187
▁第三十条	-9188
全球金融危机	-9189
不分	-9190
会和	-9191
入了	-9192
坚实	-9193
收缩	-9194
期的	-9195
极度	-9196
爵士	-9197
蔬菜	-9198
西斯	-9199
金正	-9200
以及与	-9201
方法是	-9202
生育率	-9203
的能源	-9204
美丽的	-9205
10%。	-9206
1200	-9207
将进一步	-9208
粮食安全	-9209
84	-9210
仇外	-9211
抢劫	-9212
据报	-9213
本月	-9214
琼斯	-9215
请愿	-9216
重重	-9217
预见	-9218
9%,	-9219
岁以下	-9220
不可能的	-9221
中央军事	-9222
交换意见	-9223
没有一个	-9224
常驻联合国代表给秘书长的信	-9225
”)	-9226
▁下	-9227
借助	-9228
控告	-9229
新生	-9230
普尔	-9231
环节	-9232
申明	-9233
监会	-9234
邻近	-9235
使用者	-9236
措施来	-9237
的主权	-9238
附近的	-9239
▁第四章	-9240
世界上最	-9241
保健服务	-9242
共同发展	-9243
国际金融	-9244
资料系统	-9245
GoldmanSachs	-9246
行政和预算问题咨询委员会	-9247
业主	-9248
两倍	-9249
会面	-9250
等国	-9251
一定的	-9252
即使在	-9253
及其它	-9254
按照第	-9255
要求在	-9256
固体废物	-9257
成立一个	-9258
日益增加	-9259
方面取得了	-9260
消除对妇女	-9261
CC	-9262
人格	-9263
但不	-9264
少于	-9265
延伸	-9266
有趣	-9267
amp	-9268
可以对	-9269
和改善	-9270
国内外	-9271
环境下	-9272
生产性	-9273
的事项	-9274
▁第二章	-9275
某些国家	-9276
的影响力	-9277
秘书处的	-9278
紧急援助	-9279
▁第一百零	-9280
克里姆林宫	-9281
在这方面的	-9282
Bankof	-9283
MorganStanley	-9284
▁I	-9285
中日	-9286
凝聚	-9287
奢侈	-9288
沙尔	-9289
硕士	-9290
色情	-9291
荣幸	-9292
重塑	-9293
▁直到	-9294
年轻的	-9295
恶化的	-9296
所产生	-9297
的好处	-9298
的真正	-9299
的证据	-9300
自动化	-9301
里程碑	-9302
▁美联储	-9303
依照法律	-9304
和平纲领	-9305
支助帐户	-9306
显而易见的	-9307
一度	-9308
互助	-9309
司机	-9310
和高	-9311
应有	-9312
恐怕	-9313
指称	-9314
有望	-9315
潮流	-9316
订单	-9317
因素是	-9318
在这儿	-9319
的结束	-9320
发展方案	-9321
生殖健康	-9322
私营企业	-9323
西方国家	-9324
这些努力	-9325
的议程项目	-9326
和发展中国家	-9327
外商投资企业	-9328
uk	-9329
不相	-9330
奴隶	-9331
影子	-9332
我和	-9333
眼下	-9334
送交	-9335
饮料	-9336
对这种	-9337
的科学	-9338
都不会	-9339
▁但这一	-9340
也就是说	-9341
塞拉利昂	-9342
其顿共和国	-9343
不扩散核武器条约	-9344
1(	-9345
八年	-9346
分工	-9347
列颠	-9348
就越	-9349
水的	-9350
犹豫	-9351
而定	-9352
钻石	-9353
▁主要	-9354
信用卡	-9355
及相关	-9356
各有关	-9357
坚定的	-9358
多元化	-9359
有需要	-9360
产品质量	-9361
人民防空	-9362
的受访者	-9363
提出的报告	-9364
高级专员办事处	-9365
,(	-9366
专卖	-9367
你能	-9368
并经	-9369
感激	-9370
抚养	-9371
约占	-9372
衍生	-9373
迪瓦	-9374
避难	-9375
包括对	-9376
和能源	-9377
基本法	-9378
大使馆	-9379
平方米	-9380
来实现	-9381
而且在	-9382
这么做	-9383
▁乌克兰	-9384
世界和平	-9385
国家主权	-9386
研究表明	-9387
经济活动	-9388
表示关注	-9389
通过的决议	-9390
监督管理部门	-9391
一日	-9392
不好	-9393
头脑	-9394
投行	-9395
无核	-9396
窗口	-9397
缓冲	-9398
营地	-9399
黑暗	-9400
▁调查	-9401
体系的	-9402
其中的	-9403
应当是	-9404
是关于	-9405
观察组	-9406
ight	-9407
区域内的	-9408
可以提供	-9409
最严重的	-9410
经济政策	-9411
人权事务高级专员	-9412
83	-9413
两人	-9414
事态	-9415
会被	-9416
员的	-9417
我所	-9418
条的	-9419
一样的	-9420
历史的	-9421
国务卿	-9422
对我说	-9423
文尼亚	-9424
方法和	-9425
vest	-9426
依照刑法	-9427
债务负担	-9428
必须遵守	-9429
现在已经	-9430
斯洛文尼亚	-9431
▁第三十四条	-9432
▁第二十八条	-9433
无需编列经费	-9434
温室气体排放	-9435
Institut	-9436
不知	-9437
人与	-9438
但有	-9439
声誉	-9440
捕鱼	-9441
收养	-9442
此事	-9443
联莫	-9444
迫害	-9445
ond	-9446
▁发展	-9447
危机中	-9448
吸引了	-9449
在法律	-9450
奥委会	-9451
安排的	-9452
提到了	-9453
的暴力	-9454
自治县	-9455
会议期间	-9456
空气污染	-9457
”“	-9458
十八	-9459
占用	-9460
去世	-9461
向你	-9462
大致	-9463
尸体	-9464
很长	-9465
旅馆	-9466
18.	-9467
地进行	-9468
大家都	-9469
案件的	-9470
国家元首	-9471
年度报告	-9472
一些代表团	-9473
亨利	-9474
关押	-9475
军用	-9476
号和	-9477
圣战	-9478
延误	-9479
百姓	-9480
短暂	-9481
纳斯	-9482
难度	-9483
itt	-9484
作为其	-9485
存在于	-9486
平等和	-9487
并提出	-9488
中外合作	-9489
全民投票	-9490
发展基金	-9491
委员会还	-9492
所有其他	-9493
职权范围	-9494
▁我们欢迎	-9495
勘查	-9496
居留	-9497
此举	-9498
真理	-9499
野心	-9500
高企	-9501
ith	-9502
专利权	-9503
他们是	-9504
传统上	-9505
受益者	-9506
的参与	-9507
管理层	-9508
ings	-9509
区域组织	-9510
宗旨和原则	-9511
宪法和法律	-9512
世界卫生组织	-9513
克罗地亚共和国	-9514
估值	-9515
哈佛	-9516
圆桌	-9517
姐妹	-9518
幻想	-9519
引用	-9520
弹药	-9521
界限	-9522
萨斯	-9523
误解	-9524
这也	-9525
鼓吹	-9526
▁确实	-9527
和研究	-9528
并强调	-9529
法庭的	-9530
的商品	-9531
核不扩散	-9532
1,000	-9533
▁我们需要	-9534
非洲国家的	-9535
提供人道主义援助	-9536
公营	-9537
利美	-9538
奠定	-9539
毛里	-9540
科特	-9541
解雇	-9542
贪污	-9543
他们就	-9544
削弱了	-9545
十年前	-9546
反应堆	-9547
布莱尔	-9548
的信号	-9549
的可能	-9550
联委会	-9551
▁69.	-9552
不可剥夺	-9553
的数据显示	-9554
▁六	-9555
▁因	-9556
侵蚀	-9557
并入	-9558
很低	-9559
瓦尔	-9560
生日	-9561
缩短	-9562
船长	-9563
萨科	-9564
▁如此	-9565
冲突和	-9566
坚定地	-9567
着眼于	-9568
经费筹措	-9569
工作人员薪金	-9570
一如	-9571
你所	-9572
军火	-9573
器官	-9574
港元	-9575
说了	-9576
过时	-9577
6%,	-9578
子公司	-9579
日举行	-9580
的局面	-9581
1976	-9582
主权财富	-9583
发展合作	-9584
特别重视	-9585
委员会决定	-9586
阿拉伯利比亚	-9587
境况	-9588
局部	-9589
控诉	-9590
狂热	-9591
理应	-9592
19.	-9593
ris	-9594
支持下	-9595
标准化	-9596
的稳定	-9597
的股份	-9598
下列国家	-9599
亚太地区	-9600
#160;&	-9601
一块	-9602
也已	-9603
产物	-9604
侦察	-9605
卡车	-9606
塔赫	-9607
新鲜	-9608
是与	-9609
是其	-9610
浓缩	-9611
逃避	-9612
饥荒	-9613
170	-9614
▁不久	-9615
▁妇女	-9616
了解到	-9617
以支持	-9618
会继续	-9619
几年前	-9620
包括了	-9621
在其他	-9622
并处罚	-9623
有多少	-9624
都不能	-9625
关键作用	-9626
口头订正	-9627
平均水平	-9628
给予警告	-9629
和平与发展	-9630
向发展中国家	-9631
第二期联索行动	-9632
:「	-9633
充当	-9634
受援	-9635
地产	-9636
扣除	-9637
期内	-9638
格莱	-9639
注定	-9640
观看	-9641
计的	-9642
走进	-9643
退欧	-9644
配偶	-9645
驳回	-9646
合法的	-9647
的时期	-9648
Rich	-9649
▁加拿大	-9650
中东地区	-9651
执行部队	-9652
日的报告	-9653
社会服务	-9654
总务委员会	-9655
采取行动的	-9656
ex	-9657
一律	-9658
上月	-9659
人文	-9660
剧烈	-9661
却不	-9662
和无	-9663
形容	-9664
总署	-9665
收容	-9666
查阅	-9667
玩具	-9668
营造	-9669
顽固	-9670
争议的	-9671
大约有	-9672
将作为	-9673
或者不	-9674
的方向	-9675
的积极	-9676
第三国	-9677
部分的	-9678
▁该报告	-9679
一份报告	-9680
相互尊重	-9681
▁O	-9682
和多	-9683
咨商	-9684
德斯	-9685
概述	-9686
漫长	-9687
称赞	-9688
继任	-9689
耕地	-9690
过早	-9691
ech	-9692
及其对	-9693
地利用	-9694
复杂性	-9695
房利美	-9696
流行病	-9697
的罪行	-9698
这件事	-9699
通常是	-9700
销售额	-9701
国家利益	-9702
技术人员	-9703
向人民法院起诉	-9704
是否可以认为大会	-9705
地方各级人民代表大会	-9706
主意	-9707
佩克	-9708
克制	-9709
大通	-9710
学历	-9711
撰写	-9712
法则	-9713
满了	-9714
租用	-9715
空运	-9716
说来	-9717
ans	-9718
上涨了	-9719
准备金	-9720
和全球	-9721
所必需	-9722
的时代	-9723
谈判中	-9724
人口增长	-9725
做好准备	-9726
完全支持	-9727
教育机构	-9728
David	-9729
conom	-9730
准入	-9731
太大	-9732
气温	-9733
理大	-9734
离职	-9735
立陶	-9736
陆军	-9737
Har	-9738
上升到	-9739
但由于	-9740
力量的	-9741
各主要	-9742
将得到	-9743
执行其	-9744
是否能	-9745
沙漠化	-9746
的单位	-9747
的自治	-9748
对外经济	-9749
应当依法	-9750
这一比例	-9751
助理秘书长	-9752
Robert	-9753
德黑	-9754
忠诚	-9755
教徒	-9756
清偿	-9757
照会	-9758
的分	-9759
转折	-9760
▁这类	-9761
以便使	-9762
立陶宛	-9763
系统地	-9764
限制了	-9765
▁71.	-9766
信息技术	-9767
美国国会	-9768
载于文件	-9769
贸易和投资	-9770
三种	-9771
各大	-9772
地在	-9773
我很	-9774
更改	-9775
格里	-9776
牵涉	-9777
玻璃	-9778
福特	-9779
阿鲁	-9780
ics	-9781
▁巴西	-9782
国家中	-9783
女性的	-9784
无论是	-9785
本区域	-9786
的安排	-9787
较小的	-9788
Wind	-9789
仍然存在	-9790
各项目标	-9791
执行任务	-9792
职业培训	-9793
)1994	-9794
SD	-9795
别无	-9796
名册	-9797
审讯	-9798
就职	-9799
常会	-9800
水土	-9801
碎片	-9802
▁是的	-9803
▁这里	-9804
和印度	-9805
和监测	-9806
在他的	-9807
局局长	-9808
德黑兰	-9809
所需要	-9810
核材料	-9811
此之外	-9812
真主党	-9813
耶和华	-9814
选择的	-9815
必须采取	-9816
爱国阵线	-9817
私人股本	-9818
这样一种	-9819
▁1998	-9820
撒哈拉以南	-9821
大会第五十届会议	-9822
SE	-9823
一座	-9824
下挫	-9825
不妨	-9826
力更	-9827
庄严	-9828
欺诈	-9829
罪的	-9830
Ass	-9831
per	-9832
▁在我	-9833
可以为	-9834
听取了	-9835
推动了	-9836
看到的	-9837
解决了	-9838
高质量	-9839
实现和平	-9840
这些建议	-9841
World	-9842
民用航空器	-9843
证券交易所	-9844
买入	-9845
他还	-9846
几十	-9847
干净	-9848
挫折	-9849
连贯	-9850
Leh	-9851
为解决	-9852
又一次	-9853
在发展	-9854
方案中	-9855
现实的	-9856
设计的	-9857
▁72.	-9858
大韩民国	-9859
联黎部队	-9860
安理会成员	-9861
仍将	-9862
他也	-9863
各部	-9864
数学	-9865
方可	-9866
日止	-9867
贿赂	-9868
在香港	-9869
的定义	-9870
监测组	-9871
而言之	-9872
去年同期	-9873
ok	-9874
一辆	-9875
不成	-9876
并购	-9877
时光	-9878
联柬	-9879
ast	-9880
ure	-9881
▁文件	-9882
加强其	-9883
同时又	-9884
和责任	-9885
常委会	-9886
所造成	-9887
生活津贴	-9888
管理条例	-9889
这项决议草案	-9890
BS	-9891
▁多	-9892
▁按	-9893
奇迹	-9894
法和	-9895
流域	-9896
穆沙	-9897
答道	-9898
贝利	-9899
为维护	-9900
友好的	-9901
基本的	-9902
外交官	-9903
就无法	-9904
并将其	-9905
的效果	-9906
麻醉品	-9907
▁70.	-9908
总统选举	-9909
专门机构和	-9910
工商行政管理	-9911
Capital	-9912
三倍	-9913
刊登	-9914
创伤	-9915
利害	-9916
堕胎	-9917
恶性	-9918
把握	-9919
指明	-9920
棘手	-9921
物项	-9922
电池	-9923
重叠	-9924
顾及	-9925
预言	-9926
▁下午	-9927
▁基于	-9928
史以来	-9929
和提高	-9930
喀布尔	-9931
在英国	-9932
小规模	-9933
就已经	-9934
显示了	-9935
根据其	-9936
皮埃尔	-9937
第二天	-9938
财产的	-9939
▁但我们	-9940
▁意大利	-9941
任何一个	-9942
充分支持	-9943
很有可能	-9944
竞争力的	-9945
欧洲经委会	-9946
侧重	-9947
复原	-9948
姐姐	-9949
威慑	-9950
撤军	-9951
根除	-9952
浪潮	-9953
焦虑	-9954
的心	-9955
公司和	-9956
国际上	-9957
并表示	-9958
怎么办	-9959
总统和	-9960
持续的	-9961
第三期	-9962
至少有	-9963
XV	-9964
似的	-9965
太太	-9966
平面	-9967
攀升	-9968
收紧	-9969
死去	-9970
起点	-9971
跟踪	-9972
CEO	-9973
enc	-9974
▁接着	-9975
以解决	-9976
和农业	-9977
目的地	-9978
而来的	-9979
证实了	-9980
各方面的	-9981
委员会将	-9982
穆沙拉夫	-9983
管理工作	-9984
本级人民代表大会	-9985
▁经济及社会理事会	-9986
De	-9987
会给	-9988
全盘	-9989
几位	-9990
有机	-9991
树林	-9992
迈出	-9993
Ben	-9994
Col	-9995
原来的	-9996
强烈的	-9997
最重要	-9998
的外国	-9999
的规则	-10000
▁大部分	-10001
二届会议	-10002
过渡当局	-10003
国家和人民	-10004
li	-10005
ly	-10006
一部	-10007
出差	-10008
周四	-10009
国界	-10010
好事	-10011
整理	-10012
派驻	-10013
ore	-10014
▁代理	-10015
▁这场	-10016
以保证	-10017
伴随着	-10018
就开始	-10019
年来的	-10020
成为了	-10021
我已经	-10022
民众国	-10023
的分析	-10024
的持续	-10025
的新的	-10026
起作用	-10027
起到了	-10028
▁第五章	-10029
优先考虑	-10030
摩根大通	-10031
贫困地区	-10032
一定程度上	-10033
Lehman	-10034
Richard	-10035
UN	-10036
保全	-10037
戴维	-10038
招募	-10039
机动	-10040
版权	-10041
等到	-10042
过高	-10043
通行	-10044
野蛮	-10045
顺序	-10046
▁对此	-10047
不管是	-10048
全国的	-10049
或者在	-10050
提交了	-10051
显然是	-10052
有一种	-10053
运营商	-10054
强制执行	-10055
无害环境	-10056
第一季度	-10057
被占领的	-10058
的经济发展	-10059
经济委员会	-10060
部长级会议	-10061
公民权利和政治权利	-10062
4,	-10063
SR	-10064
不清	-10065
公寓	-10066
剂量	-10067
学员	-10068
描绘	-10069
整整	-10070
海域	-10071
深受	-10072
狭隘	-10073
王子	-10074
金砖	-10075
大屠杀	-10076
有些人	-10077
的代价	-10078
10%,	-10079
从根本上	-10080
代表发言	-10081
国家政府	-10082
本法规定的	-10083
经济发展的	-10084
少数民族地区	-10085
一届	-10086
今晚	-10087
伦理	-10088
受灾	-10089
回避	-10090
扩充	-10091
英雄	-10092
萎缩	-10093
谈谈	-10094
防务	-10095
防疫	-10096
▁或许	-10097
中获得	-10098
会见了	-10099
各组织	-10100
开发区	-10101
很简单	-10102
的时刻	-10103
设计和	-10104
ecur	-10105
中小企业	-10106
以及关于	-10107
各项决议	-10108
国际机构	-10109
有限责任	-10110
穆巴拉克	-10111
thers	-10112
国际社会对	-10113
可持续发展委员会	-10114
)“	-10115
为数	-10116
发病	-10117
吃饭	-10118
定位	-10119
尔多	-10120
战场	-10121
折磨	-10122
款的	-10123
益处	-10124
资深	-10125
辛格	-10126
阳光	-10127
III	-10128
必要性	-10129
朋友们	-10130
期间内	-10131
的希望	-10132
第六十	-10133
而没有	-10134
证交所	-10135
obal	-10136
很可能会	-10137
政策制定	-10138
波罗的海	-10139
生活条件	-10140
经济改革	-10141
▁到目前为止	-10142
LL	-10143
为首	-10144
对立	-10145
尼古	-10146
德尔	-10147
或有	-10148
扣押	-10149
注销	-10150
着的	-10151
那天	-10152
个工作	-10153
中所占	-10154
把这些	-10155
第一步	-10156
财政和	-10157
使联合国	-10158
其中一些	-10159
发展规划	-10160
的国家的	-10161
Invest	-10162
巴勒斯坦难民	-10163
Sc	-10164
▁别	-10165
交谈	-10166
列举	-10167
更广	-10168
未必	-10169
这在	-10170
可能有	-10171
回顾其	-10172
土地的	-10173
尽一切	-10174
应当将	-10175
无限期	-10176
正常的	-10177
的损失	-10178
的数字	-10179
▁73.	-10180
▁但这些	-10181
▁这两个	-10182
保护环境	-10183
发展计划	-10184
检验检疫	-10185
▁委员会还	-10186
在波斯尼亚	-10187
有关主管部门	-10188
Windows	-10189
发送	-10190
增编	-10191
开车	-10192
所提	-10193
欣赏	-10194
残忍	-10195
沦为	-10196
流血	-10197
草原	-10198
隐藏	-10199
中国将	-10200
合格的	-10201
的部门	-10202
第七章	-10203
观察到	-10204
该基金	-10205
迅速地	-10206
过程的	-10207
▁简言之	-10208
充分参与	-10209
世界各地的	-10210
联合共和国	-10211
Michael	-10212
免税	-10213
加重	-10214
差额	-10215
承办	-10216
揭示	-10217
毁坏	-10218
污水	-10219
生气	-10220
缴付	-10221
▁事实	-10222
也许会	-10223
了他的	-10224
同一个	-10225
对这个	-10226
感觉到	-10227
有利的	-10228
祝贺你	-10229
▁74.	-10230
▁我们将	-10231
优先领域	-10232
财务状况	-10233
的基本原则	-10234
ancial	-10235
比以往任何时候	-10236
97	-10237
一架	-10238
塑料	-10239
行李	-10240
衷心	-10241
被占	-10242
▁今后	-10243
在今后	-10244
新政府	-10245
的大型	-10246
经常性	-10247
保留意见	-10248
其中一个	-10249
多哈回合	-10250
吉尔吉斯斯坦	-10251
▁斯	-10252
一小	-10253
之地	-10254
复审	-10255
性能	-10256
智力	-10257
电气	-10258
电网	-10259
不履行	-10260
他们会	-10261
到来的	-10262
前总统	-10263
变得更	-10264
她们的	-10265
马耳他	-10266
从业人员	-10267
代表团对	-10268
令人不安	-10269
有效执行	-10270
相互关系	-10271
经济社会	-10272
继续存在	-10273
里斯蒂德	-10274
一无	-10275
兴建	-10276
凸显	-10277
即在	-10278
口译	-10279
富尔	-10280
整套	-10281
曼谷	-10282
有待	-10283
知的	-10284
行列	-10285
警惕	-10286
警报	-10287
追随	-10288
ron	-10289
▁两个	-10290
▁建立	-10291
促进和	-10292
公司在	-10293
和决定	-10294
是十分	-10295
机器人	-10296
欧佩克	-10297
就不可能	-10298
▁幸运的是	-10299
人民解放军	-10300
政府间机构	-10301
▁第三十五条	-10302
联合国难民事务	-10303
划定	-10304
南海	-10305
可用	-10306
委任	-10307
愿景	-10308
承运	-10309
教皇	-10310
耶夫	-10311
▁其实	-10312
丰富的	-10313
全国性	-10314
在去年	-10315
家庭和	-10316
将达到	-10317
年中国	-10318
年前的	-10319
指导下	-10320
的立法	-10321
离开了	-10322
价格指数	-10323
传播媒介	-10324
因为我们	-10325
的经济体	-10326
继续支持	-10327
日内瓦公约	-10328
的主要原因	-10329
的规定处罚	-10330
▁第三十六条	-10331
安全理事会的	-10332
▁全	-10333
刑罚	-10334
古代	-10335
小平	-10336
每股	-10337
身分	-10338
350	-10339
ect	-10340
iPh	-10341
企业在	-10342
和参与	-10343
增加对	-10344
大学生	-10345
日以前	-10346
的预测	-10347
编写的	-10348
部队和	-10349
双边关系	-10350
受害者的	-10351
未成年人	-10352
根本没有	-10353
规定的其他	-10354
最高人民法院	-10355
坦桑尼亚联合共和国	-10356
Cr	-10357
▁伯	-10358
上是	-10359
偷运	-10360
克族	-10361
吸毒	-10362
改良	-10363
旁边	-10364
特拉	-10365
疫情	-10366
能使	-10367
见证	-10368
货运	-10369
陷于	-10370
▁包括	-10371
在目前	-10372
死亡的	-10373
都认为	-10374
颁布了	-10375
密切联系	-10376
石油价格	-10377
需要采取	-10378
协调委员会	-10379
违反本条例	-10380
项目事务处	-10381
▁发展中国家	-10382
号决议的规定	-10383
维也纳宣言和行动纲领	-10384
,5	-10385
▁罗	-10386
不明	-10387
以其	-10388
冠军	-10389
击败	-10390
奥尔	-10391
强势	-10392
有其	-10393
诱惑	-10394
▁法律	-10395
伊朗的	-10396
出口国	-10397
的贷款	-10398
确保在	-10399
背后的	-10400
解释了	-10401
项目和	-10402
国际盟约	-10403
安理会的	-10404
或承包商	-10405
请允许我	-10406
▁第三十九条	-10407
东斯过渡当局	-10408
下台	-10409
同学	-10410
强国	-10411
房产	-10412
深为	-10413
红色	-10414
行预	-10415
说他	-10416
▁不仅	-10417
供应链	-10418
及文化	-10419
类型的	-10420
遇到了	-10421
按照规定	-10422
段的规定	-10423
申请复议	-10424
知情人士	-10425
情形之一的	-10426
越来越多地	-10427
OM	-10428
▁p	-10429
布罗	-10430
挂钩	-10431
挖掘	-10432
正面	-10433
油气	-10434
造林	-10435
道歉	-10436
ous	-10437
以帮助	-10438
完全是	-10439
对他的	-10440
对话和	-10441
是不能	-10442
的工具	-10443
的申请	-10444
训研所	-10445
调查的	-10446
在全世界	-10447
并非如此	-10448
财政赤字	-10449
▁我不知道	-10450
政府和人民	-10451
Ge	-10452
Gr	-10453
」,	-10454
一群	-10455
不当	-10456
京都	-10457
你不	-10458
劳务	-10459
十九	-10460
可观	-10461
同级	-10462
始于	-10463
子孙	-10464
家中	-10465
抱有	-10466
欣见	-10467
贝宁	-10468
连任	-10469
霸权	-10470
▁此后	-10471
作斗争	-10472
区域间	-10473
对世界	-10474
将不会	-10475
拒绝了	-10476
的危机	-10477
自治州	-10478
进口的	-10479
邓小平	-10480
不可或缺	-10481
人均收入	-10482
我现在请	-10483
综合管理	-10484
财政政策	-10485
中国和印度	-10486
PR	-10487
之急	-10488
免于	-10489
敌意	-10490
样子	-10491
派别	-10492
穿着	-10493
远见	-10494
追踪	-10495
雷斯	-10496
再加上	-10497
德意志	-10498
必须有	-10499
我觉得	-10500
监管者	-10501
经验的	-10502
▁本组织	-10503
中国领导人	-10504
非自治领土	-10505
Brothers	-10506
National	-10507
▁无	-10508
书的	-10509
住宿	-10510
保养	-10511
又有	-10512
和为	-10513
将把	-10514
敬意	-10515
用语	-10516
穷国	-10517
IPO	-10518
以确定	-10519
决议中	-10520
和行动	-10521
提高其	-10522
表达了	-10523
公共服务	-10524
具有重要	-10525
各级政府	-10526
在该地区	-10527
训练方案	-10528
主权财富基金	-10529
▁最后案文见理事会第	-10530
上班	-10531
须经	-10532
▁有时	-10533
南极洲	-10534
和监督	-10535
的健康	-10536
警告称	-10537
该公约	-10538
▁第二个	-10539
保护部队	-10540
公共利益	-10541
应当遵守	-10542
犯罪行为	-10543
ities	-10544
变得越来越	-10545
欧盟成员国	-10546
iPhone	-10547
提供技术援助	-10548
人口与发展会议	-10549
aj	-10550
下令	-10551
宇宙	-10552
对策	-10553
斯登	-10554
渐进	-10555
身为	-10556
酋长	-10557
阴影	-10558
先进的	-10559
德国和	-10560
拟议的	-10561
文件中	-10562
类似于	-10563
严重关切	-10564
政治解决	-10565
核武器的	-10566
这个世界	-10567
采取任何	-10568
企业所得税	-10569
各区域委员会	-10570
供应商或承包商	-10571
维持和平行动部	-10572
价的	-10573
大笔	-10574
实务	-10575
岁时	-10576
并可	-10577
民政	-10578
淘汰	-10579
漏洞	-10580
激增	-10581
燃油	-10582
答辩	-10583
缺口	-10584
要做	-10585
▁一项	-10586
并认为	-10587
当选为	-10588
永久性	-10589
1950	-10590
交通运输	-10591
大不列颠	-10592
重大进展	-10593
日后	-10594
杀人	-10595
读者	-10596
轻微	-10597
递交	-10598
高点	-10599
▁24	-10600
一揽子	-10601
关于第	-10602
卫生部	-10603
后果的	-10604
局限于	-10605
日之前	-10606
显著的	-10607
本世纪	-10608
雇佣军	-10609
▁75.	-10610
▁工作组	-10611
感到满意	-10612
民主制度	-10613
金融公司	-10614
经济和政治	-10615
经济增长和	-10616
▁第三十八条	-10617
减少自然灾害	-10618
▁像	-10619
参看	-10620
声援	-10621
已将	-10622
巴士	-10623
斟酌	-10624
牢固	-10625
都对	-10626
▁正是	-10627
主席说	-10628
使用了	-10629
好消息	-10630
战争和	-10631
潜在的	-10632
的主题	-10633
第一届	-10634
继续为	-10635
继续向	-10636
Euro	-10637
▁“1.	-10638
▁本报告	-10639
各族人民	-10640
定期报告	-10641
特派团的	-10642
的方式来	-10643
金融系统	-10644
加勒比共同体	-10645
联合国秘书处	-10646
Ed	-10647
三天	-10648
之以	-10649
届时	-10650
所持	-10651
收盘	-10652
根深	-10653
添加	-10654
澳洲	-10655
3⁄4	-10656
ary	-10657
▁教育	-10658
低利率	-10659
名成员	-10660
和目标	-10661
居民的	-10662
从一开始	-10663
民间社会	-10664
进展情况	-10665
一般性辩论	-10666
欧盟委员会	-10667
▁第三十一条	-10668
九年	-10669
也没	-10670
书中	-10671
以免	-10672
兰克	-10673
兼顾	-10674
北非	-10675
拉加	-10676
法例	-10677
的无	-10678
肥胖	-10679
误导	-10680
问责	-10681
人权利	-10682
充分地	-10683
关键的	-10684
可以被	-10685
和方法	-10686
的方针	-10687
说什么	-10688
▁77.	-10689
之间进行	-10690
在阿富汗	-10691
应该得到	-10692
这些机构	-10693
余地	-10694
和大	-10695
我有	-10696
收藏	-10697
的外	-10698
突发	-10699
认知	-10700
费的	-10701
高涨	-10702
190	-10703
Rev	-10704
了美国	-10705
保持着	-10706
可以说	-10707
希望的	-10708
的指控	-10709
咨询公司	-10710
大会通过	-10711
失业保险	-10712
有关机构	-10713
亿元人民币	-10714
欧洲共同体	-10715
届会	-10716
度过	-10717
注资	-10718
温暖	-10719
牧师	-10720
获利	-10721
▁甚至	-10722
发出了	-10723
召开了	-10724
应通过	-10725
管理者	-10726
训练和	-10727
设施和	-10728
重申其	-10729
▁二零零	-10730
全权证书	-10731
农业生产	-10732
提供资料	-10733
提出意见	-10734
联系起来	-10735
igroup	-10736
Institute	-10737
作好	-10738
侦查	-10739
却在	-10740
宣扬	-10741
点钟	-10742
聚会	-10743
赠款	-10744
骄傲	-10745
不安全	-10746
加强与	-10747
只是在	-10748
可怕的	-10749
和家庭	-10750
巴布亚	-10751
性法规	-10752
疾病的	-10753
鲍尔森	-10754
只不过是	-10755
烟草专卖	-10756
相互作用	-10757
表示满意	-10758
有下列行为	-10759
nb	-10760
习俗	-10761
减至	-10762
则在	-10763
开端	-10764
恐吓	-10765
拘禁	-10766
暗杀	-10767
殴打	-10768
眼前	-10769
童工	-10770
DNA	-10771
▁另一	-10772
▁要想	-10773
他希望	-10774
会议在	-10775
就不能	-10776
引人注	-10777
政治上	-10778
月期间	-10779
自力更	-10780
方案支助	-10781
绝大部分	-10782
单位或者个人	-10783
打击恐怖主义	-10784
一千	-10785
中部	-10786
久的	-10787
交战	-10788
他会	-10789
创意	-10790
应向	-10791
我能	-10792
本条	-10793
看似	-10794
美军	-10795
▁每个	-10796
▁社会	-10797
不公平	-10798
保守派	-10799
各成员	-10800
抗生素	-10801
的职责	-10802
艺术家	-10803
英国人	-10804
这两种	-10805
阿鲁沙	-10806
不太可能	-10807
为什么不	-10808
刑事诉讼	-10809
地方当局	-10810
援助方案	-10811
的前提下	-10812
佛罗	-10813
加迪	-10814
基石	-10815
微妙	-10816
罪名	-10817
▁并且	-10818
其中有	-10819
原则的	-10820
在处理	-10821
奠定了	-10822
年年底	-10823
第七十	-10824
行动和	-10825
体制改革	-10826
有所下降	-10827
经营活动	-10828
进行讨论	-10829
公司登记机关	-10830
我的特别代表	-10831
▁b	-10832
一生	-10833
吉布	-10834
夫妻	-10835
情感	-10836
与和平	-10837
农业和	-10838
利益和	-10839
应采取	-10840
建设和	-10841
我必须	-10842
是按照	-10843
的待遇	-10844
50%。	-10845
evel	-10846
▁新加坡	-10847
的领导下	-10848
科特迪瓦	-10849
警察部队	-10850
贸易伙伴	-10851
earch	-10852
总统候选人	-10853
进一步恶化	-10854
FD	-10855
与之	-10856
传达	-10857
公用	-10858
和最	-10859
大纲	-10860
妹妹	-10861
富国	-10862
拘捕	-10863
牌照	-10864
牛奶	-10865
眼光	-10866
衰落	-10867
邻居	-10868
餐馆	-10869
默德	-10870
Bus	-10871
发言中	-10872
款规定	-10873
贸易法	-10874
迈克尔	-10875
那里的	-10876
工业发展	-10877
必须通过	-10878
方面取得	-10879
符合国家	-10880
联系在一起	-10881
(1995)	-10882
▁%	-10883
回事	-10884
回落	-10885
地向	-10886
新年	-10887
考核	-10888
跌至	-10889
转而	-10890
预定	-10891
ros	-10892
个月的	-10893
中获益	-10894
可以将	-10895
和尊重	-10896
巴沙尔	-10897
并协助	-10898
建议在	-10899
房地美	-10900
政府与	-10901
核可了	-10902
的日子	-10903
这不是	-10904
▁在许多	-10905
全球环境	-10906
其它国家	-10907
提供技术	-10908
贝尔斯登	-10909
▁1997	-10910
这些问题的	-10911
▁第四十一条	-10912
▁d	-10913
不移	-10914
与此	-10915
从不	-10916
低下	-10917
依旧	-10918
到处	-10919
受损	-10920
帕劳	-10921
防洪	-10922
edd	-10923
但这些	-10924
告诉他	-10925
的倡议	-10926
自己在	-10927
金融业	-10928
阶段的	-10929
布什政府	-10930
重新安置	-10931
雄心勃勃	-10932
,2008	-10933
国际药物管制	-10934
Citigroup	-10935
▁年	-10936
▁非	-10937
可谓	-10938
我愿	-10939
旗帜	-10940
蒂固	-10941
▁她们	-10942
年代末	-10943
总协定	-10944
第一节	-10945
被剥夺	-10946
马拉维	-10947
1977	-10948
Mark	-10949
七届会议	-10950
义务教育	-10951
根深蒂固	-10952
特别是对	-10953
财政援助	-10954
的经济学家	-10955
首脑会议上	-10956
两年期方案概算	-10957
伊斯兰会议组织	-10958
"。	-10959
人选	-10960
但对	-10961
出手	-10962
卷入	-10963
天空	-10964
尼加	-10965
布里	-10966
平稳	-10967
摇头	-10968
斐济	-10969
明星	-10970
瓦纳	-10971
税款	-10972
经受	-10973
薪资	-10974
证词	-10975
长大	-10976
ier	-10977
▁参加	-10978
▁西方	-10979
储备金	-10980
决定性	-10981
宗教和	-10982
恢复了	-10983
指出了	-10984
的数目	-10985
脆弱的	-10986
预见的	-10987
饮用水	-10988
▁“2.	-10989
持续发展	-10990
积极支持	-10991
经营企业	-10992
集中注意	-10993
专利行政部门	-10994
次会议上审议了	-10995
不堪	-10996
反抗	-10997
已是	-10998
带到	-10999
执业	-11000
报送	-11001
捕捞	-11002
验证	-11003
ase	-11004
ork	-11005
不那么	-11006
在中东	-11007
开展的	-11008
当时的	-11009
第二百	-11010
世界人口	-11011
私人资本	-11012
继续审议	-11013
联合国同	-11014
较上年同期	-11015
阿里斯蒂德	-11016
维持国际和平与安全	-11017
环境保护行政主管部门	-11018
TA	-11019
▁麦	-11020
军控	-11021
动的	-11022
哪怕	-11023
在了	-11024
头上	-11025
好吧	-11026
已为	-11027
得起	-11028
无须	-11029
简直	-11030
Lyn	-11031
ins	-11032
▁或者	-11033
以便为	-11034
星期六	-11035
的提议	-11036
等国家	-11037
罕默德	-11038
萨达姆	-11039
选出的	-11040
1945	-11041
▁76.	-11042
▁在一个	-11043
必要条件	-11044
这份报告	-11045
所有国家的	-11046
解决的问题	-11047
向安全理事会	-11048
整个国际社会	-11049
难民和流离失所者	-11050
ez	-11051
名叫	-11052
外的	-11053
搜查	-11054
的门	-11055
上世纪	-11056
几乎是	-11057
和传播	-11058
和有效	-11059
把它们	-11060
迹象表明	-11061
大会第五十一届会议	-11062
.4	-11063
▁a	-11064
惊奇	-11065
样本	-11066
相辅	-11067
签发	-11068
经由	-11069
而有	-11070
选定	-11071
陆地	-11072
但如果	-11073
和民主	-11074
核准的	-11075
痛苦的	-11076
▁and	-11077
全世界的	-11078
其目的是	-11079
具体情况	-11080
只是一个	-11081
只有一个	-11082
塔尼亚胡	-11083
新几内亚	-11084
这个数字	-11085
第三期联安核查团	-11086
CH	-11087
IA	-11088
不前	-11089
仓库	-11090
使我	-11091
划拨	-11092
国境	-11093
多达	-11094
海牙	-11095
穿过	-11096
至第	-11097
费和	-11098
务之急	-11099
和机构	-11100
月中旬	-11101
示范法	-11102
西藏的	-11103
风险的	-11104
▁这也是	-11105
当今世界	-11106
所有人的	-11107
提供更多	-11108
犯罪活动	-11109
▁如果没有	-11110
政策和方案	-11111
LehmanBrothers	-11112
El	-11113
一片	-11114
卖方	-11115
多久	-11116
已向	-11117
希尔	-11118
显现	-11119
更能	-11120
见面	-11121
重振	-11122
阴谋	-11123
ber	-11124
交换了	-11125
参加的	-11126
回到了	-11127
灾难性	-11128
48/2	-11129
全国人大	-11130
创造一个	-11131
国际援助	-11132
在政治上	-11133
政治权利	-11134
无论如何	-11135
的国际法	-11136
知识分子	-11137
约束力的	-11138
经济危机	-11139
领导作用	-11140
内塔尼亚胡	-11141
行预咨委会	-11142
________	-11143
政府间组织和非政府组织	-11144
互惠	-11145
伯格	-11146
塑造	-11147
头的	-11148
孤儿	-11149
时效	-11150
派系	-11151
深表	-11152
演出	-11153
理工	-11154
追加	-11155
ool	-11156
▁St	-11157
事项的	-11158
和保障	-11159
工作时	-11160
很快就	-11161
把他们	-11162
行使其	-11163
责任和	-11164
▁78.	-11165
▁我们要	-11166
医疗服务	-11167
履行职责	-11168
应当及时	-11169
必须进行	-11170
继续保持	-11171
这些原则	-11172
谅解备忘录	-11173
▁第三十二条	-11174
一本	-11175
以内	-11176
叙述	-11177
国营	-11178
当天	-11179
效能	-11180
旱灾	-11181
汲取	-11182
贫富	-11183
走廊	-11184
不一定	-11185
了大量	-11186
保健和	-11187
唐纳德	-11188
必须由	-11189
成年人	-11190
所有制	-11191
摩加迪	-11192
的表现	-11193
相适应	-11194
统计局	-11195
认为是	-11196
晚些时候	-11197
法律援助	-11198
海事法院	-11199
红十字会	-11200
委员会关于	-11201
的一个主要	-11202
国际恐怖主义	-11203
,7	-11204
匮乏	-11205
和你	-11206
国旗	-11207
就该	-11208
检控	-11209
紧要	-11210
聘用	-11211
▁不论	-11212
不久前	-11213
准备好	-11214
城市化	-11215
塔吉克	-11216
并最终	-11217
性质的	-11218
或威胁	-11219
0000	-11220
中国大陆	-11221
序言部分	-11222
是正确的	-11223
重大影响	-11224
及北爱尔兰	-11225
提出的问题	-11226
杀伤性武器	-11227
巴布亚新几内亚	-11228
伯利	-11229
单纯	-11230
口岸	-11231
同类	-11232
大声	-11233
拖累	-11234
洪都	-11235
鲜明	-11236
▁政治	-11237
▁某些	-11238
两国的	-11239
分散会	-11240
副主任	-11241
在社会	-11242
希拉里	-11243
本身的	-11244
的数额	-11245
目的的	-11246
8000	-11247
令人震惊	-11248
公民投票	-11249
指导原则	-11250
正在努力	-11251
滥用职权	-11252
重新考虑	-11253
呼吁国际社会	-11254
美洲国家组织	-11255
Financial	-11256
,9	-11257
上一	-11258
合办	-11259
啤酒	-11260
够的	-11261
所为	-11262
支票	-11263
症状	-11264
之后的	-11265
在当地	-11266
并建议	-11267
所涉及	-11268
来说是	-11269
武器和	-11270
的决心	-11271
费用为	-11272
▁79.	-11273
万元以上	-11274
令人担忧	-11275
坚决反对	-11276
就是一个	-11277
治安管理	-11278
的原因是	-11279
禁试条约	-11280
管理系统	-11281
货币市场	-11282
主席团成员	-11283
最重要的是	-11284
西亚经社会	-11285
帮助发展中国家	-11286
JP	-11287
ii	-11288
▁「	-11289
优点	-11290
你是	-11291
借鉴	-11292
必将	-11293
查德	-11294
订约	-11295
近来	-11296
不应当	-11297
不清楚	-11298
我们都	-11299
的预期	-11300
美国对	-11301
什么地方	-11302
协商会议	-11303
执行职务	-11304
拒绝接受	-11305
救助计划	-11306
代表团支持	-11307
安德烈公爵	-11308
联合国大会	-11309
不让	-11310
为该	-11311
低点	-11312
展现	-11313
工党	-11314
心灵	-11315
特勒	-11316
祝愿	-11317
见过	-11318
调和	-11319
辅导	-11320
les	-11321
▁否则	-11322
外经贸	-11323
很高的	-11324
所做的	-11325
的说明	-11326
直接向	-11327
相辅相	-11328
可能造成	-11329
国家机构	-11330
巴巴多斯	-11331
提供帮助	-11332
政府机构	-11333
实质性会议	-11334
非洲经委会	-11335
的一个组成部分	-11336
休假	-11337
容许	-11338
教练	-11339
法外	-11340
薄弱	-11341
记载	-11342
全面和	-11343
可怜的	-11344
地位和	-11345
新闻界	-11346
民族乡	-11347
犯下的	-11348
第二章	-11349
调查和	-11350
严格执行	-11351
可以利用	-11352
在安理会	-11353
就业岗位	-11354
所要求的	-11355
摩加迪沙	-11356
民事行为	-11357
这一趋势	-11358
进行研究	-11359
发挥的作用	-11360
提出的关于	-11361
教育和培训	-11362
ations	-11363
乘坐	-11364
人质	-11365
分成	-11366
可乐	-11367
并有	-11368
格林	-11369
欧美	-11370
规律	-11371
,20	-11372
协调会	-11373
商品的	-11374
将来的	-11375
年代初	-11376
年代的	-11377
稳定性	-11378
▁他认为	-11379
▁在欧洲	-11380
一份关于	-11381
作为一种	-11382
受到影响	-11383
实质性的	-11384
污染防治	-11385
洪都拉斯	-11386
▁在此方面	-11387
代表欧洲联盟	-11388
中俄	-11389
取缔	-11390
四周	-11391
好转	-11392
按时	-11393
航运	-11394
获准	-11395
要有	-11396
1.5	-11397
▁中央	-11398
关系到	-11399
决不能	-11400
切尔诺	-11401
协商会	-11402
反对党	-11403
各国应	-11404
和商业	-11405
承诺的	-11406
老龄化	-11407
茨瓦纳	-11408
1971	-11409
rill	-11410
国际文书	-11411
实施细则	-11412
工商行政管理部门	-11413
MP	-11414
不动	-11415
仿佛	-11416
公私	-11417
常务	-11418
归根	-11419
日趋	-11420
热爱	-11421
与安全	-11422
会产生	-11423
在审议	-11424
研究员	-11425
高收入	-11426
坚定不移	-11427
言论自由	-11428
达尔富尔	-11429
裁军审议委员会	-11430
",	-11431
万亿	-11432
亚非	-11433
当你	-11434
扼杀	-11435
招待	-11436
撰文	-11437
话题	-11438
谈会	-11439
钥匙	-11440
Gre	-11441
和英国	-11442
将根据	-11443
把自己	-11444
是完全	-11445
福尼亚	-11446
结构的	-11447
该条约	-11448
25%。	-11449
▁第六章	-11450
不平等性	-11451
城市规划	-11452
得到加强	-11453
死亡人数	-11454
残疾人的	-11455
第三季度	-11456
▁相比之下	-11457
代表发了言	-11458
仲裁委员会	-11459
大不列颠及北爱尔兰	-11460
1/	-11461
AP	-11462
客气	-11463
对本	-11464
射击	-11465
挣扎	-11466
清醒	-11467
访华	-11468
韦斯	-11469
▁医生	-11470
▁外国	-11471
不同于	-11472
也开始	-11473
会带来	-11474
在印度	-11475
处理的	-11476
我不能	-11477
表示了	-11478
分析人士	-11479
寻求庇护	-11480
月举行的	-11481
法律责任	-11482
该缔约国	-11483
▁经济学家	-11484
卢旺达政府	-11485
▁第三十三条	-11486
任何单位和个人	-11487
少女	-11488
戈兰	-11489
水电	-11490
清真	-11491
现况	-11492
省的	-11493
自给	-11494
阿里	-11495
和培训	-11496
城市和	-11497
放弃了	-11498
直接或	-11499
综合性	-11500
作为一项	-11501
友好关系	-11502
建立新的	-11503
标准普尔	-11504
研究结果	-11505
积极开展	-11506
通过谈判	-11507
预防措施	-11508
不可避免地	-11509
之道	-11510
仍旧	-11511
元素	-11512
党员	-11513
分区	-11514
印制	-11515
在为	-11516
增添	-11517
大卫	-11518
宽容	-11519
蓬勃	-11520
虚拟	-11521
规格	-11522
陷阱	-11523
▁巴黎	-11524
▁普京	-11525
▁银行	-11526
代表着	-11527
动植物	-11528
地方的	-11529
对自己	-11530
将增加	-11531
物品的	-11532
理论上	-11533
维持在	-11534
补充说	-11535
贸易的	-11536
道琼斯	-11537
land	-11538
决定是否	-11539
南部地区	-11540
发生变化	-11541
投资组合	-11542
的政策和	-11543
自力更生	-11544
作出的决定	-11545
做到这一点	-11546
方面的工作	-11547
监测和评价	-11548
达成的协议	-11549
原子能机构的	-11550
给安全理事会主席	-11551
不时	-11552
南欧	-11553
否定	-11554
总则	-11555
批发	-11556
斯克	-11557
疗法	-11558
病的	-11559
起着	-11560
New	-11561
oog	-11562
学生的	-11563
市场和	-11564
时期的	-11565
消费品	-11566
的一步	-11567
受到威胁	-11568
切尔诺贝利	-11569
加利福尼亚	-11570
的重要作用	-11571
次全体会议上	-11572
事关	-11573
共处	-11574
切断	-11575
则为	-11576
创作	-11577
所指	-11578
时常	-11579
来为	-11580
线的	-11581
诊所	-11582
ama	-11583
人可以	-11584
其经济	-11585
最后的	-11586
生境二	-11587
的不利	-11588
统治者	-11589
都不是	-11590
48/4	-11591
▁the	-11592
五分之一	-11593
十五日内	-11594
国家鼓励	-11595
有史以来	-11596
联邦储备	-11597
负面影响	-11598
联合国各机构	-11599
国际和平与安全的	-11600
▁安	-11601
一组	-11602
也很	-11603
出让	-11604
又是	-11605
强行	-11606
毛泽	-11607
索取	-11608
耶稣	-11609
选项	-11610
▁大家	-11611
从中国	-11612
信息的	-11613
副总理	-11614
单位和	-11615
普遍的	-11616
最严重	-11617
毛泽东	-11618
的朋友	-11619
的财产	-11620
约束力	-11621
通知书	-11622
▁墨西哥	-11623
一个问题	-11624
管理机关	-11625
联莫行动	-11626
资金来源	-11627
各国代表团	-11628
很大一部分	-11629
组织和个人	-11630
▁第四十四条	-11631
国民生产总值	-11632
有限责任公司	-11633
联合国安理会	-11634
阿拉伯叙利亚	-11635
▁普	-11636
例行	-11637
加倍	-11638
场址	-11639
屏幕	-11640
惩治	-11641
携手	-11642
机和	-11643
流亡	-11644
玉米	-11645
签名	-11646
Ind	-11647
▁那个	-11648
世纪的	-11649
大家庭	-11650
实行的	-11651
就有关	-11652
总额为	-11653
的运动	-11654
被用来	-11655
Hold	-11656
和俄罗斯	-11657
当务之急	-11658
提供便利	-11659
新闻媒介	-11660
经济衰退	-11661
而进行的	-11662
▁代理主席	-11663
关心的问题	-11664
第一条为了	-11665
次会议审议了	-11666
3(	-11667
5)	-11668
共体	-11669
冬天	-11670
女工	-11671
应与	-11672
渔船	-11673
着他	-11674
穆尔	-11675
被人	-11676
要对	-11677
调控	-11678
财力	-11679
不发达	-11680
推迟到	-11681
漫长的	-11682
的利率	-11683
自行车	-11684
/47/	-11685
多米尼加	-11686
妇发基金	-11687
建立一种	-11688
承担责任	-11689
有所不同	-11690
现代化的	-11691
非殖民化	-11692
▁决议草案	-11693
人力资源管理	-11694
,8	-11695
▁西	-11696
五倍	-11697
人心	-11698
储量	-11699
博客	-11700
在校	-11701
外贸	-11702
州长	-11703
年均	-11704
欧亚	-11705
此时	-11706
疯狂	-11707
营运	-11708
调集	-11709
谎言	-11710
边际	-11711
还没	-11712
一会儿	-11713
一级的	-11714
为加强	-11715
保护的	-11716
关系中	-11717
和维持	-11718
在进行	-11719
感受到	-11720
所承担	-11721
格莱德	-11722
的故事	-11723
表示的	-11724
超出了	-11725
零售商	-11726
政府债券	-11727
是不够的	-11728
的第一步	-11729
苏丹政府	-11730
的工作方案	-11731
▁第一百二十	-11732
▁十	-11733
临近	-11734
信中	-11735
催生	-11736
参数	-11737
对你	-11738
折扣	-11739
梅伦	-11740
老挝	-11741
转交	-11742
,10	-11743
ors	-11744
全人类	-11745
和资料	-11746
并对其	-11747
开幕式	-11748
严重违反	-11749
内部监督	-11750
国家秘密	-11751
在卢旺达	-11752
尤其如此	-11753
财政部门	-11754
这一观点	-11755
项目事务厅	-11756
▁第四十五条	-11757
大规模杀伤性武器	-11758
,3	-11759
▁c	-11760
▁反	-11761
▁省	-11762
停业	-11763
分销	-11764
号召	-11765
无限	-11766
波士	-11767
特尔	-11768
细菌	-11769
英寸	-11770
载入	-11771
▁但他	-11772
▁多数	-11773
上升了	-11774
关注的	-11775
别人的	-11776
可以让	-11777
和妇女	-11778
峰会上	-11779
工程的	-11780
执行了	-11781
找不到	-11782
最多的	-11783
父亲的	-11784
联合王	-11785
规则的	-11786
资金和	-11787
赞成票	-11788
远低于	-11789
▁他们还	-11790
▁这样做	-11791
保障措施	-11792
商标注册	-11793
国家规定	-11794
在日内瓦	-11795
多个国家	-11796
的条件下	-11797
紧急救济	-11798
伴随	-11799
侵占	-11800
兴起	-11801
前者	-11802
外勤	-11803
小孩	-11804
摄影	-11805
相继	-11806
铺平	-11807
▁她的	-11808
以后的	-11809
体现在	-11810
国家或	-11811
必须对	-11812
有效和	-11813
各缔约国	-11814
各项活动	-11815
国防部长	-11816
我们能够	-11817
所在地的	-11818
更有效的	-11819
粮食援助	-11820
Secur	-11821
受法律保护	-11822
三月	-11823
传送	-11824
刊物	-11825
力图	-11826
同比	-11827
善意	-11828
已由	-11829
带领	-11830
当我	-11831
战士	-11832
斯亚	-11833
普斯	-11834
涉外	-11835
给她	-11836
迁徙	-11837
迈进	-11838
专家们	-11839
书记官	-11840
合作与	-11841
向我们	-11842
和人权	-11843
是无法	-11844
曼德拉	-11845
来源于	-11846
核问题	-11847
的联合	-11848
看不见	-11849
这两项	-11850
额外的	-11851
主权债务	-11852
框架公约	-11853
法律制度	-11854
贝尔格莱德	-11855
行政法规的规定	-11856
交道	-11857
几点	-11858
国土	-11859
增列	-11860
尖锐	-11861
就象	-11862
巴赫	-11863
广阔	-11864
征得	-11865
愚蠢	-11866
掌权	-11867
照料	-11868
纳尔	-11869
臭氧	-11870
贝巴	-11871
人或者	-11872
公里的	-11873
和世界	-11874
在该国	-11875
小时的	-11876
就可能	-11877
开放的	-11878
政府为	-11879
日的第	-11880
的生命	-11881
的解释	-11882
网络的	-11883
调查团	-11884
领导者	-11885
▁80.	-11886
▁81.	-11887
▁你可以	-11888
不断上升	-11889
博茨瓦纳	-11890
用于支付	-11891
的时候了	-11892
索赔要求	-11893
发生的事件	-11894
特别是关于	-11895
pp	-11896
▁*	-11897
去做	-11898
向我	-11899
开拓	-11900
推销	-11901
撤退	-11902
税法	-11903
立足	-11904
职类	-11905
雷尔	-11906
eth	-11907
人应当	-11908
分发给	-11909
发现的	-11910
只需要	-11911
年以前	-11912
的货币	-11913
1972	-11914
Char	-11915
▁IMF	-11916
▁阿富汗	-11917
任务地区	-11918
公司章程	-11919
北部地区	-11920
帮助他们	-11921
竭尽全力	-11922
经济建设	-11923
这个目标	-11924
闭会期间	-11925
▁2002	-11926
▁欧洲央行	-11927
物项和技术	-11928
通货膨胀率	-11929
-0	-11930
81	-11931
ES	-11932
书院	-11933
医务	-11934
市镇	-11935
建国	-11936
更深	-11937
束缚	-11938
步兵	-11939
的多	-11940
编纂	-11941
草稿	-11942
警官	-11943
部份	-11944
面包	-11945
ail	-11946
▁上海	-11947
▁与此	-11948
也正在	-11949
众多的	-11950
压力的	-11951
取消了	-11952
和东欧	-11953
有意义	-11954
污染的	-11955
波士顿	-11956
绝不是	-11957
能得到	-11958
议定的	-11959
▁他指出	-11960
了一会儿	-11961
北欧国家	-11962
在委员会	-11963
斯亚贝巴	-11964
的支持者	-11965
立即停止	-11966
统计资料	-11967
▁我们现在	-11968
提供更多的	-11969
被占领领土	-11970
人道主义救济	-11971
国集团和中国	-11972
石油和天然气	-11973
▁七	-11974
▁爱	-11975
业界	-11976
他问	-11977
八个	-11978
出任	-11979
出示	-11980
剩下	-11981
很久	-11982
机密	-11983
连锁	-11984
eng	-11985
int	-11986
亚洲及	-11987
吉布提	-11988
和挑战	-11989
在其第	-11990
基金和	-11991
并敦促	-11992
派代表	-11993
的成果	-11994
公司债券	-11995
感到关切	-11996
执行这些	-11997
是否能够	-11998
私人投资	-11999
穆罕默德	-12000
西部地区	-12001
10000	-12002
和平进程的	-12003
巴勒斯坦领土	-12004
上看	-12005
事后	-12006
卜杜	-12007
参谋	-12008
挪用	-12009
电缆	-12010
盖茨	-12011
什么事	-12012
剩下的	-12013
马克思	-12014
Cent	-12015
为什么要	-12016
企业法人	-12017
原因在于	-12018
恰恰相反	-12019
负责任的	-12020
▁第三十七条	-12021
卢萨卡议定书	-12022
联合国环境与发展	-12023
8(	-12024
td	-12025
。“	-12026
业已	-12027
两级	-12028
中占	-12029
作证	-12030
大门	-12031
好好	-12032
教材	-12033
施压	-12034
糖尿	-12035
缴款	-12036
这座	-12037
进化	-12038
隐瞒	-12039
▁30	-12040
▁广告	-12041
不属于	-12042
了新的	-12043
代表和	-12044
内部的	-12045
将面临	-12046
方面都	-12047
理解的	-12048
的专业	-12049
nbsp	-12050
▁我还要	-12051
一项关于	-12052
值得注意	-12053
委员会应	-12054
经济问题	-12055
许多国家的	-12056
加强国际合作	-12057
分立	-12058
原籍	-12059
德克	-12060
情事	-12061
火灾	-12062
独资	-12063
而论	-12064
西里	-12065
诉诸	-12066
还可	-12067
造福	-12068
ald	-12069
▁通常	-12070
中心和	-12071
了我们	-12072
应当由	-12073
方面有	-12074
是对的	-12075
议程上	-12076
质量和	-12077
▁美国的	-12078
中国企业	-12079
伊拉克和	-12080
候选人的	-12081
公爵小姐	-12082
可以采取	-12083
是必要的	-12084
民事诉讼	-12085
责令限期	-12086
按照国务院	-12087
的政治意愿	-12088
evelop	-12089
人权和基本自由	-12090
在中华人民共和国	-12091
机构和非政府组织	-12092
三角	-12093
农田	-12094
双手	-12095
器材	-12096
宪政	-12097
度假	-12098
打造	-12099
波利	-12100
盟国	-12101
花钱	-12102
起初	-12103
金山	-12104
另一些	-12105
恰当的	-12106
星期天	-12107
法国人	-12108
的辩论	-12109
那些在	-12110
随后的	-12111
影响力的	-12112
整个世界	-12113
研究机构	-12114
oogle	-12115
作出的承诺	-12116
第四十九届会议	-12117
工商行政管理机关	-12118
下岗	-12119
同行	-12120
更少	-12121
杰夫	-12122
油田	-12123
莫迪	-12124
Ltd	-12125
TPP	-12126
ler	-12127
▁23	-12128
一个新	-12129
他们也	-12130
和扩大	-12131
就是要	-12132
形成的	-12133
挑战是	-12134
根据的	-12135
约定的	-12136
联盟的	-12137
购买力	-12138
处以罚款	-12139
或者拘役	-12140
提出申请	-12141
电视节目	-12142
亚的斯亚贝巴	-12143
在同次会议上	-12144
Merrill	-12145
▁难民专员办事处	-12146
以下有期徒刑或者拘役	-12147
第四次妇女问题世界会议	-12148
借调	-12149
停留	-12150
凭借	-12151
喀麦	-12152
容纳	-12153
是他	-12154
段落	-12155
石头	-12156
边防	-12157
,19	-12158
687	-12159
付出的	-12160
克里斯	-12161
军队的	-12162
发件人	-12163
喀麦隆	-12164
必须与	-12165
战争中	-12166
核可的	-12167
确定性	-12168
碳排放	-12169
▁(2)	-12170
向安理会	-12171
开列经费	-12172
提供支持	-12173
重大问题	-12174
军事观察组	-12175
组织和机构	-12176
tp	-12177
一句	-12178
人生	-12179
伤残	-12180
和与	-12181
录音	-12182
房舍	-12183
熟练	-12184
等的	-12185
美分	-12186
请你	-12187
起义	-12188
迎来	-12189
隐私	-12190
亿英镑	-12191
大地震	-12192
惊人的	-12193
才能够	-12194
控制权	-12195
是世界	-12196
荒漠化	-12197
变得更为	-12198
尊重人权	-12199
认为这是	-12200
迅速增长	-12201
返回家园	-12202
Lynch	-12203
阿拉伯世界	-12204
为本	-12205
克鲁	-12206
六月	-12207
呼声	-12208
品的	-12209
夺取	-12210
崩盘	-12211
平安	-12212
犯有	-12213
略有	-12214
皮肤	-12215
管局	-12216
240	-12217
eph	-12218
▁金融	-12219
他人的	-12220
会造成	-12221
和利用	-12222
应得到	-12223
往往是	-12224
特殊的	-12225
警察和	-12226
退休金	-12227
▁82.	-12228
专利申请	-12229
产生影响	-12230
信贷危机	-12231
合伙企业	-12232
国际安全	-12233
地域分配	-12234
和其他组织	-12235
▁第四十三条	-12236
法人或者其他	-12237
三国	-12238
亚那	-12239
合乎	-12240
同步	-12241
所示	-12242
猜测	-12243
罗姆	-12244
让它	-12245
软弱	-12246
逆差	-12247
邪恶	-12248
骚乱	-12249
▁实现	-12250
以其他	-12251
北朝鲜	-12252
发生过	-12253
司法部	-12254
学校和	-12255
是人类	-12256
比以前	-12257
的帮助	-12258
看作是	-12259
第四章	-12260
▁84.	-12261
人权教育	-12262
付诸表决	-12263
以色列人	-12264
健康发展	-12265
全球贸易	-12266
几个星期	-12267
历史性的	-12268
小型企业	-12269
犯罪分子	-12270
转移支付	-12271
ebook	-12272
会同国务院	-12273
常设委员会	-12274
的临时议程	-12275
行政和管理	-12276
▁最重要的是	-12277
阿拉伯利比亚民众国	-12278
不开	-12279
买进	-12280
包围	-12281
半球	-12282
感受	-12283
所附	-12284
相符	-12285
自备	-12286
被判	-12287
评审	-12288
词汇	-12289
该司	-12290
运费	-12291
▁就在	-12292
令人信	-12293
会发生	-12294
已得到	-12295
并因此	-12296
成本的	-12297
方面也	-12298
的愿望	-12299
私舞弊	-12300
那样的	-12301
预算和	-12302
任务规定	-12303
健康状况	-12304
对他们的	-12305
最低工资	-12306
经济组织	-12307
这些项目	-12308
重要贡献	-12309
▁中国人民	-12310
即将到来的	-12311
的审议工作	-12312
的组成部分	-12313
附加议定书	-12314
的发展中国家	-12315
Investment	-12316
▁仅	-12317
万桶	-12318
互联	-12319
侮辱	-12320
偶然	-12321
其次	-12322
冷静	-12323
几千	-12324
孕妇	-12325
将能	-12326
朝向	-12327
法典	-12328
演员	-12329
结局	-12330
说得	-12331
转到	-12332
随意	-12333
che	-12334
之前的	-12335
什么样	-12336
代表了	-12337
技术性	-12338
有效性	-12339
补助金	-12340
评价和	-12341
过渡到	-12342
重申了	-12343
20%,	-12344
不断扩大	-12345
西非监测组	-12346
中央军事委员会	-12347
结束对议程项目	-12348
,6	-12349
九月	-12350
倾听	-12351
几种	-12352
同性	-12353
在向	-12354
悬而	-12355
椅子	-12356
社团	-12357
蒙受	-12358
铲除	-12359
雅虎	-12360
▁我会	-12361
不容忍	-12362
个人和	-12363
中东和	-12364
利用其	-12365
案件中	-12366
每年的	-12367
物质的	-12368
看不到	-12369
非常规	-12370
berg	-12371
▁for	-12372
一致通过	-12373
优惠政策	-12374
和土耳其	-12375
基地组织	-12376
政治制度	-12377
武装力量	-12378
的支持下	-12379
资产价格	-12380
#160;	-12381
世界人权宣言	-12382
前南斯拉夫的马	-12383
非洲发展新议程	-12384
国务院专利行政部门	-12385
)《	-12386
-3	-12387
上来	-12388
内载	-12389
危急	-12390
和阿	-12391
嘉莉	-12392
多于	-12393
将它	-12394
工伤	-12395
带头	-12396
年末	-12397
忆及	-12398
75%	-12399
▁执行	-12400
▁既然	-12401
不再是	-12402
中指出	-12403
其主要	-12404
尔多瓦	-12405
已经从	-12406
年世界	-12407
引发的	-12408
得益于	-12409
数目的	-12410
深刻的	-12411
还不到	-12412
采用的	-12413
三届会议	-12414
人口普查	-12415
获得成功	-12416
,2007	-12417
各专门机构	-12418
工作人员和	-12419
acebook	-12420
一同	-12421
外包	-12422
拿着	-12423
无意	-12424
有两	-12425
流量	-12426
生长	-12427
被控	-12428
一九九	-12429
与社会	-12430
也因此	-12431
和提供	-12432
圭亚那	-12433
完成的	-12434
并呼吁	-12435
新一轮	-12436
有资格	-12437
条件和	-12438
检查组	-12439
联系的	-12440
见附件	-12441
部队在	-12442
30%。	-12443
▁“3.	-12444
▁当事人	-12445
人民群众	-12446
共和国的	-12447
增长速度	-12448
更有可能	-12449
武器装备	-12450
阿拉伯人	-12451
不可避免的	-12452
的人力资源	-12453
前南斯拉夫的马其顿共和国	-12454
▁V	-12455
▁李	-12456
创下	-12457
巴解	-12458
海啸	-12459
点的	-12460
附录	-12461
首位	-12462
425	-12463
▁预期	-12464
先生的	-12465
和活动	-12466
对任何	-12467
并使其	-12468
推动力	-12469
有力地	-12470
的根源	-12471
绝不能	-12472
责任制	-12473
▁你知道	-12474
悬而未决	-12475
感到高兴	-12476
提供担保	-12477
特殊情况	-12478
表示愿意	-12479
这项建议	-12480
重要问题	-12481
另有规定的	-12482
▁第四十六条	-12483
MerrillLynch	-12484
上空	-12485
伴侣	-12486
分化	-12487
受托	-12488
可归	-12489
坐着	-12490
巨人	-12491
我来	-12492
抬头	-12493
摩托	-12494
星球	-12495
最具	-12496
送达	-12497
air	-12498
▁历史	-12499
▁市场	-12500
万英镑	-12501
上一次	-12502
不信任	-12503
占据了	-12504
受益于	-12505
和生产	-12506
和训练	-12507
在哪里	-12508
地球上	-12509
如果要	-12510
它们是	-12511
官员们	-12512
忽视了	-12513
总产值	-12514
的人群	-12515
糖尿病	-12516
▁叙利亚	-12517
▁这样的	-12518
也是一个	-12519
另外一个	-12520
并处罚款	-12521
我们欢迎	-12522
我们相信	-12523
灾难性的	-12524
生物武器	-12525
表示希望	-12526
起的作用	-12527
越来越大	-12528
达成共识	-12529
▁我们应该	-12530
问题国际会议	-12531
给安全理事会主席的信	-12532
一所	-12533
一面	-12534
专属	-12535
他不	-12536
偏离	-12537
刚果	-12538
前瞻	-12539
含糊	-12540
因其	-12541
广为	-12542
废弃	-12543
弗雷	-12544
盗版	-12545
罢工	-12546
裂变	-12547
读书	-12548
预示	-12549
颇为	-12550
一切都	-12551
几年的	-12552
和援助	-12553
应考虑	-12554
潜力的	-12555
而不能	-12556
逾期不	-12557
民事责任	-12558
第一委员会	-12559
金融机构的	-12560
工作人员薪金税	-12561
仅占	-12562
公决	-12563
共存	-12564
写的	-12565
和可	-12566
器具	-12567
天使	-12568
性格	-12569
最早	-12570
资质	-12571
长者	-12572
事件中	-12573
和共同	-12574
大会上	-12575
必须为	-12576
所必须	-12577
是基于	-12578
有计划	-12579
特委会	-12580
的股票	-12581
着重于	-12582
英国和	-12583
这使得	-12584
发言人说	-12585
可以成为	-12586
性别平等	-12587
日大会第	-12588
殖民主义	-12589
航空运输	-12590
▁我们已经	-12591
海地特派团	-12592
管理委员会	-12593
美国和欧洲	-12594
大宗商品价格	-12595
巴勒斯坦解放	-12596
EA	-12597
ef	-12598
乐意	-12599
内心	-12600
卓越	-12601
去吧	-12602
实习	-12603
对应	-12604
抨击	-12605
现存	-12606
生计	-12607
该行	-12608
转为	-12609
配套	-12610
	-12611
Tim	-12612
▁由此	-12613
与欧洲	-12614
他没有	-12615
以一种	-12616
参加者	-12617
可以由	-12618
国家庭	-12619
就是在	-12620
报导说	-12621
政治的	-12622
旧金山	-12623
确保其	-12624
被要求	-12625
认真地	-12626
让它们	-12627
设区的	-12628
适用的	-12629
不必要的	-12630
中期审查	-12631
他们自己	-12632
国会议员	-12633
土族塞人	-12634
进行战斗	-12635
▁这种情况	-12636
促进发展的	-12637
高兴地看到	-12638
br	-12639
iy	-12640
不行	-12641
中小	-12642
使团	-12643
假期	-12644
冬季	-12645
只在	-12646
坦克	-12647
堪称	-12648
掠夺	-12649
良心	-12650
表情	-12651
里达	-12652
额度	-12653
食用	-12654
不会有	-12655
和评价	-12656
并继续	-12657
角度看	-12658
还不够	-12659
高科技	-12660
▁87.	-12661
准备工作	-12662
半个世纪	-12663
对外开放	-12664
指出的是	-12665
最后一次	-12666
法律法规	-12667
的进一步	-12668
风险管理	-12669
合作组织的	-12670
结构性改革	-12671
不符	-12672
人或	-12673
地对	-12674
富豪	-12675
常见	-12676
并同	-12677
开来	-12678
打印	-12679
既定	-12680
激动	-12681
激发	-12682
理智	-12683
硬件	-12684
练习	-12685
跳舞	-12686
饮水	-12687
魅力	-12688
▁但它	-12689
▁坚持	-12690
减少对	-12691
反对者	-12692
得多的	-12693
更密切	-12694
理查德	-12695
的相关	-12696
示威者	-12697
科学院	-12698
不幸的是	-12699
几个国家	-12700
利害关系	-12701
基金经理	-12702
工作时间	-12703
我们正在	-12704
普通照会	-12705
欧安组织	-12706
特别强调	-12707
生活质量	-12708
这场危机	-12709
成立了一个	-12710
第二次世界大战	-12711
:/	-12712
了我	-12713
全新	-12714
兵力	-12715
初次	-12716
年会	-12717
座位	-12718
时尚	-12719
角落	-12720
远比	-12721
违规	-12722
ony	-12723
中没有	-12724
决定了	-12725
制订了	-12726
参与的	-12727
哲学家	-12728
如何在	-12729
的理论	-12730
研究了	-12731
签订了	-12732
解决的	-12733
计划中	-12734
都是在	-12735
2050	-12736
http	-12737
rist	-12738
保障制度	-12739
全力支持	-12740
具体措施	-12741
军事力量	-12742
司法制度	-12743
法定代表	-12744
自由市场	-12745
部长会议	-12746
48/16	-12747
自然保护区	-12748
解决问题的	-12749
发挥重要作用	-12750
联柬权力机构	-12751
之日起十五日内	-12752
的重要组成部分	-12753
,4	-12754
▁Y	-12755
不止	-12756
之用	-12757
他想	-12758
周日	-12759
场地	-12760
归功	-12761
征服	-12762
排污	-12763
汇丰	-12764
珍贵	-12765
肉类	-12766
记入	-12767
遥远	-12768
://	-12769
Jos	-12770
上周五	-12771
仅限于	-12772
国防部	-12773
圣诞节	-12774
应用于	-12775
所采取	-12776
职业病	-12777
重建和	-12778
非法的	-12779
9000	-12780
▁阿根廷	-12781
前款规定	-12782
▁他们认为	-12783
他们自己的	-12784
国际组织的	-12785
经济增长率	-12786
通过了一项	-12787
Associ	-12788
治安管理处罚	-12789
......”	-12790
两年期方案预算	-12791
LC	-12792
TC	-12793
VD	-12794
售价	-12795
太过	-12796
带动	-12797
效仿	-12798
斯塔	-12799
晋三	-12800
期刊	-12801
歪曲	-12802
留给	-12803
节日	-12804
贾德	-12805
ade	-12806
amm	-12807
在日本	-12808
对人类	-12809
年之前	-12810
当局的	-12811
或者是	-12812
房间里	-12813
有信心	-12814
民族的	-12815
的胜利	-12816
调整数	-12817
采用了	-12818
▁83.	-12819
▁这一点	-12820
基本人权	-12821
极为重要	-12822
缔结一项	-12823
自由主义	-12824
领域的活动	-12825
evelopment	-12826
▁贝	-12827
公职	-12828
出人	-12829
劫持	-12830
厌恶	-12831
因于	-12832
战术	-12833
拥护	-12834
无权	-12835
每届	-12836
短短	-12837
类股	-12838
萨摩	-12839
赌博	-12840
赚取	-12841
这时	-12842
降到	-12843
▁5%	-12844
▁此次	-12845
▁第七	-12846
▁这对	-12847
和市场	-12848
它认为	-12849
对其他	-12850
归功于	-12851
忽职守	-12852
日终了	-12853
机关的	-12854
海平面	-12855
独特的	-12856
第二款	-12857
40%。	-12858
47/2	-12859
▁85.	-12860
中国公民	-12861
也不知道	-12862
会议事务	-12863
先生阁下	-12864
另有规定	-12865
号决议的	-12866
安倍晋三	-12867
必须继续	-12868
摩尔多瓦	-12869
是世界上	-12870
安全与稳定	-12871
进行的工作	-12872
agement	-12873
,‘	-12874
含量	-12875
屋顶	-12876
已达	-12877
幸存	-12878
措辞	-12879
次于	-12880
球队	-12881
耗费	-12882
脸上	-12883
贺卡	-12884
道而	-12885
霍乱	-12886
/25	-12887
24.	-12888
▁我谨	-12889
▁民主	-12890
可用于	-12891
和儿童	-12892
打开了	-12893
无法在	-12894
是实现	-12895
的人都	-12896
而努力	-12897
脆弱性	-12898
规模和	-12899
还是在	-12900
仲裁裁决	-12901
其他机构	-12902
协调中心	-12903
并注意到	-12904
糟糕的是	-12905
iness	-12906
伊拉克政府	-12907
▁特别报告员	-12908
▁平	-12909
全额	-12910
又在	-12911
叫做	-12912
将不	-12913
将给	-12914
慎重	-12915
核武	-12916
水源	-12917
联席	-12918
舒适	-12919
转达	-12920
顶级	-12921
2.5	-12922
▁就像	-12923
▁未来	-12924
不断的	-12925
和大会	-12926
和建立	-12927
和破坏	-12928
大银行	-12929
太多的	-12930
对社会	-12931
已经为	-12932
想象的	-12933
明显地	-12934
的专家	-12935
的错误	-12936
这是个	-12937
全球性的	-12938
可能成为	-12939
合理利用	-12940
本法所称	-12941
消极影响	-12942
科学家们	-12943
这些行动	-12944
进行对话	-12945
和国际社会	-12946
▁第四十九条	-12947
常驻联合国代表团	-12948
#160;&#160;&	-12949
传输	-12950
充实	-12951
员和	-12952
外面	-12953
大林	-12954
得的	-12955
措词	-12956
概括	-12957
歇尔	-12958
看成	-12959
罪恶	-12960
警务	-12961
车队	-12962
以保护	-12963
创造性	-12964
受益人	-12965
口可乐	-12966
基加利	-12967
效力的	-12968
查尔斯	-12969
正在为	-12970
注视着	-12971
生物学	-12972
的名称	-12973
的新兴	-12974
非正规	-12975
不稳定的	-12976
与俄罗斯	-12977
人的生命	-12978
土地利用	-12979
▁第五十条	-12980
▁第四十条	-12981
的国际条约	-12982
宏观经济政策	-12983
发达国家和发展中国家	-12984
US	-12985
个省	-12986
为准	-12987
偿债	-12988
四名	-12989
失误	-12990
封建	-12991
总监	-12992
战时	-12993
月球	-12994
蓝图	-12995
选区	-12996
▁这份	-12997
不人道	-12998
了一套	-12999
以来的	-13000
出口商	-13001
副总统	-13002
向政府	-13003
回报率	-13004
因为我	-13005
小男孩	-13006
并执行	-13007
查韦斯	-13008
的提高	-13009
的空间	-13010
规则和	-13011
预测的	-13012
Bern	-13013
一致认为	-13014
创纪录的	-13015
在中国的	-13016
应当依照	-13017
明确表示	-13018
议会选举	-13019
进行表决	-13020
,1990	-13021
国家和地区	-13022
方面的问题	-13023
非常重要的	-13024
各非政府组织	-13025
许多发展中国家	-13026
上台	-13027
何处	-13028
厚的	-13029
国与	-13030
如实	-13031
微笑	-13032
德曼	-13033
散步	-13034
泄露	-13035
流程	-13036
爱好	-13037
西撒	-13038
风俗	-13039
▁人类	-13040
▁各方	-13041
不干涉	-13042
两年的	-13043
为中心	-13044
发生后	-13045
打交道	-13046
的审查	-13047
的宣传	-13048
的意愿	-13049
的适当	-13050
而且是	-13051
▁当我们	-13052
▁比方说	-13053
个成员国	-13054
关键问题	-13055
制定本法	-13056
和平谈判	-13057
建筑工程	-13058
政府首脑	-13059
构成威胁	-13060
正在考虑	-13061
积极推动	-13062
进行工作	-13063
(1978	-13064
▁我们支持	-13065
MO	-13066
偏好	-13067
北极	-13068
匹配	-13069
单身	-13070
原有	-13071
在那	-13072
奉献	-13073
客人	-13074
家禽	-13075
对它	-13076
应从	-13077
弹性	-13078
我请	-13079
本次	-13080
本章	-13081
等字	-13082
费尔	-13083
退还	-13084
驻扎	-13085
为确保	-13086
人事费	-13087
以人为	-13088
宣布了	-13089
应立即	-13090
注册的	-13091
的合法	-13092
知道的	-13093
系统性	-13094
▁他们说	-13095
▁许多人	-13096
佛罗里达	-13097
帝国主义	-13098
必须确保	-13099
玩忽职守	-13100
解决方法	-13101
银行系统	-13102
科学及文化	-13103
第一次会议	-13104
-5	-13105
SJ	-13106
▁l	-13107
买方	-13108
养殖	-13109
内外	-13110
改动	-13111
极少	-13112
标明	-13113
的书	-13114
的头	-13115
精心	-13116
罗夫	-13117
ire	-13118
不具备	-13119
会出现	-13120
依然是	-13121
先生和	-13122
失败的	-13123
实力的	-13124
尼日尔	-13125
市政府	-13126
微不足	-13127
战略和	-13128
的作法	-13129
的攻击	-13130
的竞争	-13131
第三人	-13132
结论是	-13133
范围和	-13134
▁86.	-13135
▁欧元区	-13136
中国特色	-13137
开发利用	-13138
总体规划	-13139
最大限度	-13140
没有必要	-13141
表示遗憾	-13142
▁迄今为止	-13143
▁问题在于	-13144
建立了一个	-13145
Econom	-13146
▁科	-13147
五千	-13148
合成	-13149
尼尔	-13150
理所	-13151
皇帝	-13152
编号	-13153
营利	-13154
▁两国	-13155
▁该国	-13156
他已经	-13157
会议所	-13158
保持了	-13159
先生说	-13160
军事和	-13161
双方都	-13162
国家级	-13163
并得到	-13164
建议将	-13165
收购了	-13166
的一家	-13167
第二节	-13168
观察家	-13169
转折点	-13170
较低的	-13171
别无选择	-13172
希族塞人	-13173
文化遗产	-13174
有组织的	-13175
现在开始	-13176
的缔约国	-13177
需要进行	-13178
20000	-13179
联合委员会	-13180
中东和平进程	-13181
一路	-13182
不敢	-13183
协力	-13184
又说	-13185
威廉	-13186
胳膊	-13187
萎靡	-13188
见解	-13189
试试	-13190
越过	-13191
260	-13192
▁出于	-13193
不过是	-13194
了起来	-13195
出售给	-13196
国内法	-13197
在同一	-13198
奥斯陆	-13199
学生们	-13200
就应该	-13201
批评者	-13202
本合同	-13203
的消息	-13204
的销售	-13205
监督和	-13206
经营的	-13207
调查中	-13208
▁88.	-13209
主持会议	-13210
以阿拉伯	-13211
决定在其	-13212
发表意见	-13213
经济状况	-13214
联合国驻	-13215
负责管理	-13216
反对种族隔离	-13217
▁曾	-13218
互补	-13219
其所	-13220
家伙	-13221
容量	-13222
征用	-13223
情愿	-13224
拒不	-13225
无偿	-13226
水利	-13227
泰勒	-13228
牲畜	-13229
移植	-13230
街上	-13231
里根	-13232
高峰	-13233
ile	-13234
——“	-13235
▁人权	-13236
▁大约	-13237
不能再	-13238
与欧盟	-13239
公共和	-13240
其他的	-13241
出版的	-13242
各领域	-13243
在不同	-13244
在接受	-13245
对欧洲	-13246
措施和	-13247
来促进	-13248
的改变	-13249
统计司	-13250
萨摩亚	-13251
需求和	-13252
五十周年	-13253
利益集团	-13254
单位应当	-13255
和伊拉克	-13256
坚决支持	-13257
工作岗位	-13258
强烈谴责	-13259
微不足道	-13260
民主选举	-13261
管理公司	-13262
非法移民	-13263
方面的合作	-13264
有关的活动	-13265
药物管制署	-13266
请秘书长在	-13267
UR	-13268
下属	-13269
不惜	-13270
便于	-13271
只需	-13272
导航	-13273
必定	-13274
报请	-13275
拿到	-13276
政协	-13277
要是	-13278
125	-13279
▁一天	-13280
减少到	-13281
否决权	-13282
接下来	-13283
的依赖	-13284
落后于	-13285
费用和	-13286
这表明	-13287
儿童问题	-13288
审查批准	-13289
数据处理	-13290
进度报告	-13291
▁这些国家	-13292
Global	-13293
是至关重要的	-13294
最高人民检察院	-13295
不加	-13296
体的	-13297
全年	-13298
减低	-13299
卖出	-13300
和中	-13301
拥挤	-13302
揭露	-13303
日历	-13304
法文	-13305
瓦解	-13306
绩效	-13307
边的	-13308
酒吧	-13309
附有	-13310
IBM	-13311
▁人口	-13312
▁我是	-13313
▁难道	-13314
人们在	-13315
会议程	-13316
内容的	-13317
向所有	-13318
因素的	-13319
将提供	-13320
最贫穷	-13321
有不同	-13322
法西斯	-13323
清真寺	-13324
让美国	-13325
两年期内	-13326
严重威胁	-13327
他们可以	-13328
军事设施	-13329
国家执行	-13330
外交关系	-13331
环境卫生	-13332
空间技术	-13333
这些组织	-13334
个人所得税	-13335
之间的差距	-13336
事业的发展	-13337
▁第四十二条	-13338
ED	-13339
EN	-13340
HS	-13341
La	-13342
ue	-13343
与否	-13344
基点	-13345
它还	-13346
室内	-13347
是将	-13348
杂项	-13349
演说	-13350
的几	-13351
蛋白	-13352
进驻	-13353
金斯	-13354
面孔	-13355
频道	-13356
-20	-13357
▁我很	-13358
上面第	-13359
全新的	-13360
和处理	-13361
和我们	-13362
在这种	-13363
外国的	-13364
大自然	-13365
对它们	-13366
建议书	-13367
有三个	-13368
的领土	-13369
直布罗	-13370
第九条	-13371
精神病	-13372
组织了	-13373
追溯到	-13374
ange	-13375
作出承诺	-13376
市场份额	-13377
才能实现	-13378
执法人员	-13379
行政诉讼	-13380
贸易顺差	-13381
▁这些措施	-13382
作出了贡献	-13383
ission	-13384
▁第四十七条	-13385
亚洲及太平洋	-13386
▁谨	-13387
不佳	-13388
代人	-13389
名列	-13390
妇幼	-13391
床上	-13392
归属	-13393
投了	-13394
报刊	-13395
时应	-13396
水准	-13397
海运	-13398
罪案	-13399
色彩	-13400
裁员	-13401
触及	-13402
麦克	-13403
iel	-13404
为美国	-13405
公平和	-13406
地使用	-13407
实行了	-13408
家庭年	-13409
富有的	-13410
比其他	-13411
能获得	-13412
可能影响	-13413
并不一定	-13414
持续下去	-13415
直布罗陀	-13416
财政年度	-13417
这些方案	-13418
国际社会在	-13419
权利和义务	-13420
第二届会议	-13421
联合国人员	-13422
今年早些时候	-13423
民事行为能力	-13424
Securities	-13425
(“	-13426
为使	-13427
充斥	-13428
化解	-13429
原教	-13430
善良	-13431
因特	-13432
字母	-13433
抑郁	-13434
拜访	-13435
月间	-13436
注射	-13437
派的	-13438
特许	-13439
空前	-13440
紧紧	-13441
而其	-13442
论证	-13443
走去	-13444
里奥	-13445
▁南非	-13446
他指出	-13447
以改善	-13448
任总统	-13449
入学率	-13450
副部长	-13451
和民族	-13452
或加入	-13453
指的是	-13454
材料的	-13455
艺术品	-13456
Thom	-13457
▁西班牙	-13458
严重影响	-13459
危害人类	-13460
国际条约	-13461
国际标准	-13462
在此期间	-13463
将取决于	-13464
提供协助	-13465
资本流动	-13466
京都议定书	-13467
关注的问题	-13468
国家和区域	-13469
由公安机关	-13470
金融市场的	-13471
自由贸易协定	-13472
的规定追究刑事责任	-13473
下载	-13474
倒退	-13475
大麻	-13476
徒劳	-13477
悉尼	-13478
是被	-13479
本届	-13480
杀戮	-13481
水果	-13482
瑞银	-13483
的老	-13484
约会	-13485
麻黄	-13486
are	-13487
一个小	-13488
为重点	-13489
你必须	-13490
内贾德	-13491
印度洋	-13492
和信息	-13493
回来了	-13494
检察长	-13495
的英国	-13496
还应该	-13497
限制在	-13498
发表声明	-13499
和平目的	-13500
有更多的	-13501
缔造和平	-13502
政策协调和	-13503
海洋法公约	-13504
二氧化碳排放	-13505
在发展中国家	-13506
Or	-13507
PS	-13508
▁高	-13509
一大	-13510
与他	-13511
中被	-13512
子弹	-13513
忠实	-13514
抵运	-13515
柴油	-13516
该股	-13517
进出	-13518
陪审	-13519
230	-13520
eal	-13521
lay	-13522
▁当我	-13523
不相同	-13524
不适用	-13525
人受伤	-13526
协商后	-13527
年增长	-13528
并进行	-13529
段时间	-13530
的比重	-13531
研究生	-13532
限制的	-13533
▁一方面	-13534
▁在这种	-13535
反对意见	-13536
发现自己	-13537
财政状况	-13538
这项任务	-13539
.109/	-13540
极为重要的	-13541
的解决办法	-13542
西非共同体	-13543
预算外资源	-13544
Google	-13545
中介	-13546
娜塔	-13547
审视	-13548
差价	-13549
惩处	-13550
派往	-13551
率领	-13552
蓄意	-13553
规程	-13554
赢家	-13555
路径	-13556
问他	-13557
雨量	-13558
▁铭记	-13559
不影响	-13560
也已经	-13561
了下来	-13562
但是他	-13563
和运输	-13564
归根结	-13565
改善了	-13566
最喜欢	-13567
独立性	-13568
生产国	-13569
的进步	-13570
的非洲	-13571
目前已	-13572
▁89.	-13573
专门讨论	-13574
可能产生	-13575
必不可少	-13576
总统大选	-13577
西撒哈拉	-13578
出口许可证	-13579
对话与合作	-13580
自然资源的	-13581
-4	-13582
aM	-13583
▁&	-13584
创办	-13585
各州	-13586
夜晚	-13587
小说	-13588
市区	-13589
应于	-13590
新月	-13591
最小	-13592
极限	-13593
模仿	-13594
混淆	-13595
禁区	-13596
西北	-13597
连串	-13598
集结	-13599
Law	-13600
unt	-13601
▁依照	-13602
与政府	-13603
他说道	-13604
伯利兹	-13605
但是在	-13606
但是我	-13607
名国际	-13608
和卫生	-13609
对国内	-13610
建筑业	-13611
心脏病	-13612
必须从	-13613
的一天	-13614
网站上	-13615
开展合作	-13616
战斗人员	-13617
独立自主	-13618
这一行动	-13619
这一项目	-13620
这是因为	-13621
污染物排放	-13622
观察员地位	-13623
采取进一步	-13624
解决这个问题	-13625
独立国家联合体	-13626
687(1991)	-13627
为他	-13628
之二	-13629
会让	-13630
在华	-13631
大肆	-13632
就算	-13633
整天	-13634
/40	-13635
eff	-13636
iam	-13637
uss	-13638
与我们	-13639
分阶段	-13640
实践中	-13641
日通过	-13642
时期内	-13643
歧视性	-13644
流行的	-13645
的石油	-13646
编制的	-13647
罗斯福	-13648
舞台上	-13649
Stev	-13650
代表性的	-13651
以下罚款	-13652
会议服务	-13653
做些什么	-13654
决定性的	-13655
国民核算	-13656
提供充分	-13657
提供意见	-13658
无法获得	-13659
极端分子	-13660
试图通过	-13661
▁1999	-13662
律师事务所	-13663
促进和保护人权	-13664
Management	-13665
PA	-13666
信奉	-13667
厨房	-13668
哨所	-13669
增订	-13670
奖牌	-13671
就把	-13672
数的	-13673
既往	-13674
格勒	-13675
氛围	-13676
湖泊	-13677
缺失	-13678
西南	-13679
试着	-13680
转播	-13681
里克	-13682
防灾	-13683
#45	-13684
为依据	-13685
制造的	-13686
势力的	-13687
大城市	-13688
忽略了	-13689
现行的	-13690
确立了	-13691
等其他	-13692
自由地	-13693
较多的	-13694
韩国的	-13695
首先是	-13696
15%。	-13697
▁他们在	-13698
仍在继续	-13699
多国部队	-13700
支付能力	-13701
普遍认为	-13702
有意义的	-13703
特朗普的	-13704
生物燃料	-13705
经常账户	-13706
资本流入	-13707
这些因素	-13708
专家组会议	-13709
序言部分第	-13710
第一章总则	-13711
中外合作办学	-13712
巴勒斯坦问题	-13713
国际人口与发展会议	-13714
不着	-13715
个性	-13716
为之	-13717
之春	-13718
产地	-13719
停顿	-13720
免遭	-13721
农奴	-13722
切地	-13723
加班	-13724
可由	-13725
周转	-13726
和睦	-13727
威士	-13728
平价	-13729
弗拉	-13730
急于	-13731
物业	-13732
秋天	-13733
竭力	-13734
.1)	-13735
21.	-13736
▁你能	-13737
▁当地	-13738
一年前	-13739
人口与	-13740
仅次于	-13741
但现在	-13742
保守党	-13743
信用证	-13744
包容性	-13745
卡梅伦	-13746
原教旨	-13747
和专业	-13748
工人和	-13749
必须向	-13750
的气氛	-13751
的结构	-13752
的股权	-13753
而美国	-13754
运动会	-13755
这么说	-13756
ovia	-13757
九十年代	-13758
以及有关	-13759
加以解决	-13760
官员表示	-13761
年增长率	-13762
暴力事件	-13763
联合声明	-13764
进行一次	-13765
采取其他	-13766
▁中国支持	-13767
地方性法规	-13768
比以往任何时候都	-13769
不合	-13770
也都	-13771
位居	-13772
劳力	-13773
单行	-13774
反馈	-13775
史密	-13776
境地	-13777
局的	-13778
微型	-13779
方位	-13780
旧的	-13781
替换	-13782
突显	-13783
要把	-13784
领海	-13785
▁28	-13786
下半年	-13787
为核心	-13788
债务人	-13789
和冲突	-13790
地认为	-13791
总量的	-13792
有充分	-13793
标题下	-13794
的准则	-13795
继续对	-13796
群体的	-13797
停滞不前	-13798
子孙后代	-13799
很长时间	-13800
恢复正常	-13801
我们支持	-13802
欧洲经济	-13803
这种方式	-13804
重大贡献	-13805
随时准备	-13806
▁作为一个	-13807
直接或间接	-13808
积极的作用	-13809
▁摩根士丹利	-13810
创造就业机会	-13811
的人道主义援助	-13812
联合国人类住区	-13813
估价	-13814
共赢	-13815
听众	-13816
屋里	-13817
我看	-13818
月起	-13819
未曾	-13820
来信	-13821
民调	-13822
渗透	-13823
约瑟	-13824
结社	-13825
而来	-13826
讲座	-13827
趋于	-13828
身心	-13829
附表	-13830
Jam	-13831
dex	-13832
▁使用	-13833
不论是	-13834
与伊朗	-13835
世界中	-13836
为目标	-13837
之外的	-13838
受害人	-13839
娜塔莎	-13840
数以千	-13841
明智的	-13842
生活和	-13843
西岸和	-13844
▁分析师	-13845
他们没有	-13846
公共政策	-13847
妇女问题	-13848
当事人的	-13849
有关当局	-13850
积极发展	-13851
▁这个问题	-13852
ek	-13853
ss	-13854
他被	-13855
会说	-13856
佛教	-13857
光明	-13858
利尔	-13859
商会	-13860
图像	-13861
图表	-13862
增大	-13863
接替	-13864
数月	-13865
杰克	-13866
段内	-13867
负起	-13868
Med	-13869
▁如何	-13870
▁总的	-13871
▁针对	-13872
也应当	-13873
司令部	-13874
处理了	-13875
大约为	-13876
性行为	-13877
或许是	-13878
的人在	-13879
的信誉	-13880
的广泛	-13881
等方式	-13882
能够以	-13883
裁军和	-13884
认为这	-13885
遭受的	-13886
▁WSJ	-13887
▁我可以	-13888
▁据统计	-13889
帮助我们	-13890
年奥运会	-13891
开展工作	-13892
徇私舞弊	-13893
很快就会	-13894
独立宣言	-13895
的发展和	-13896
还有一个	-13897
提交的报告	-13898
提供的资料	-13899
社会发展的	-13900
转型期经济	-13901
委员会的成员	-13902
4(	-13903
三位	-13904
中对	-13905
乍得	-13906
公元	-13907
公立	-13908
典礼	-13909
内卢	-13910
原理	-13911
惊人	-13912
散布	-13913
移居	-13914
(	-13915
也希望	-13916
了一条	-13917
分之三	-13918
和财产	-13919
对非洲	-13920
按照其	-13921
的临时	-13922
的估计	-13923
的信念	-13924
一个中国	-13925
之间建立	-13926
信贷市场	-13927
圆桌会议	-13928
圆满成功	-13929
富裕国家	-13930
理事会在	-13931
认真考虑	-13932
是国际社会	-13933
生产许可证	-13934
的各项规定	-13935
▁凡	-13936
一来	-13937
仆人	-13938
停车	-13939
前来	-13940
博拉	-13941
图片	-13942
失效	-13943
掌控	-13944
权衡	-13945
特兰	-13946
码头	-13947
砍伐	-13948
等候	-13949
红利	-13950
芯片	-13951
走过	-13952
那位	-13953
集合	-13954
页岩	-13955
马车	-13956
高位	-13957
unc	-13958
▁40	-13959
上一个	-13960
不只是	-13961
不少于	-13962
为世界	-13963
以应付	-13964
使这些	-13965
双方的	-13966
只限于	-13967
向美国	-13968
和鼓励	-13969
得出的	-13970
斯大林	-13971
日的信	-13972
是多么	-13973
的详细	-13974
的非法	-13975
还应当	-13976
集中的	-13977
面前的	-13978
▁91.	-13979
中等收入	-13980
充分考虑	-13981
发展项目	-13982
同时废止	-13983
施加压力	-13984
每个国家	-13985
研究发现	-13986
补救措施	-13987
2,000	-13988
▁1989	-13989
Research	-13990
▁我国代表团认为	-13991
6(	-13992
任免	-13993
前后	-13994
市辖	-13995
捐献	-13996
术语	-13997
眼中	-13998
胜任	-13999
路易	-14000
问及	-14001
雷达	-14002
220	-14003
了大约	-14004
以减少	-14005
对整个	-14006
战略的	-14007
热内卢	-14008
独裁者	-14009
的信用	-14010
的报道	-14011
的最好	-14012
家庭成员	-14013
已经完成	-14014
得出结论	-14015
我们今天	-14016
是重要的	-14017
有关方面	-14018
需要得到	-14019
和国际组织	-14020
的一项重要	-14021
里约热内卢	-14022
(1978)	-14023
国际货币基金	-14024
achovia	-14025
科学及文化组织	-14026
由县级以上人民政府	-14027
阿拉伯叙利亚共和国	-14028
五名	-14029
五国	-14030
可疑	-14031
存放	-14032
孟买	-14033
完毕	-14034
少量	-14035
就被	-14036
平息	-14037
强度	-14038
推向	-14039
昨晚	-14040
现役	-14041
由省	-14042
置疑	-14043
美中	-14044
薪水	-14045
这事	-14046
22.	-14047
▁但我	-14048
▁选举	-14049
冲突中	-14050
妨碍了	-14051
已取得	-14052
我们正	-14053
是这样	-14054
最后一	-14055
有更多	-14056
的最初	-14057
祖国的	-14058
衍生品	-14059
贫穷和	-14060
身份证	-14061
领导力	-14062
香港的	-14063
Part	-14064
发展支助	-14065
可能出现	-14066
国家集团	-14067
基本权利	-14068
多样化的	-14069
尽量减少	-14070
平均每年	-14071
政府已经	-14072
毫不奇怪	-14073
通用汽车	-14074
Europ	-14075
结论和建议	-14076
联合检查组	-14077
所取得的进展	-14078
按照国家规定	-14079
面前的决议草案	-14080
Holdings	-14081
法人或者其他组织	-14082
6/	-14083
之日	-14084
出国	-14085
即可	-14086
家务	-14087
得太	-14088
总督	-14089
拍摄	-14090
既有	-14091
枯竭	-14092
标记	-14093
毫米	-14094
浮动	-14095
祝福	-14096
聚居	-14097
酒精	-14098
额的	-14099
att	-14100
ons	-14101
ott	-14102
▁26	-14103
▁代表	-14104
▁继续	-14105
▁至少	-14106
塞族人	-14107
我们不	-14108
扩大其	-14109
更加强	-14110
的声明	-14111
的就是	-14112
的条约	-14113
突出了	-14114
篇文章	-14115
还指出	-14116
这个词	-14117
这本书	-14118
▁第一个	-14119
优先项目	-14120
可以作为	-14121
基本建设	-14122
大幅下降	-14123
成为可能	-14124
成为现实	-14125
社会问题	-14126
粮食生产	-14127
经贸合作	-14128
股东大会	-14129
许多其他	-14130
这项决议	-14131
预期寿命	-14132
按照大会第	-14133
提供适当的	-14134
数十亿美元	-14135
红十字国际	-14136
▁更重要的是	-14137
▁第一百三十	-14138
▁第四十八条	-14139
一切形式歧视	-14140
国际法委员会	-14141
知识产权保护	-14142
▁埃	-14143
不经	-14144
低碳	-14145
偶尔	-14146
凭证	-14147
利于	-14148
抱歉	-14149
抽样	-14150
教导	-14151
机能	-14152
极权	-14153
死的	-14154
物流	-14155
的地	-14156
给出	-14157
见了	-14158
酒类	-14159
一年内	-14160
他们都	-14161
付出了	-14162
和伊朗	-14163
地解决	-14164
大国的	-14165
希特勒	-14166
总需求	-14167
最贫困	-14168
界人士	-14169
第一位	-14170
第四个	-14171
荣幸地	-14172
该协定	-14173
还要求	-14174
预计将	-14175
麻黄素	-14176
Corr	-14177
irit	-14178
不断变化	-14179
人民民主	-14180
新的挑战	-14181
的投资者	-14182
相互依赖	-14183
能够通过	-14184
阿富汗的	-14185
▁目前正在	-14186
政治和社会	-14187
外经贸主管部门	-14188
联合国儿童基金会	-14189
PC	-14190
之久	-14191
仪器	-14192
会期	-14193
体面	-14194
及早	-14195
屈服	-14196
并从	-14197
讲坛	-14198
还对	-14199
▁古巴	-14200
交易员	-14201
农作物	-14202
创始人	-14203
十二月	-14204
和全面	-14205
大气层	-14206
完整的	-14207
所有者	-14208
持有人	-14209
第三大	-14210
第六条	-14211
约翰逊	-14212
萨科齐	-14213
这样说	-14214
道路上	-14215
防止和	-14216
阿巴斯	-14217
50%,	-14218
▁我现在	-14219
令人失望	-14220
做出贡献	-14221
公民社会	-14222
卡拉巴赫	-14223
在国际上	-14224
外国人的	-14225
建立健全	-14226
武器禁运	-14227
法国总统	-14228
联合国与	-14229
设区的市	-14230
下落	-14231
不为	-14232
前夕	-14233
史上	-14234
峰值	-14235
得了	-14236
放任	-14237
重启	-14238
Sam	-14239
▁当今	-14240
▁正在	-14241
人口和	-14242
会影响	-14243
并保证	-14244
当我们	-14245
的直接	-14246
继任者	-14247
而进行	-14248
调整和	-14249
那以后	-14250
零部件	-14251
专业人士	-14252
关键因素	-14253
军备控制	-14254
委员会于	-14255
平等互利	-14256
必须符合	-14257
欧洲大陆	-14258
这种合作	-14259
伊拉克战争	-14260
西撒特派团	-14261
观察员部队	-14262
可持续发展目标	-14263
Business	-14264
Facebook	-14265
公务员制度委员会	-14266
殖民地国家和人民	-14267
5,	-14268
▁亚	-14269
不准	-14270
之多	-14271
他把	-14272
在大	-14273
多了	-14274
大厦	-14275
段的	-14276
治罪	-14277
耐药	-14278
萨利	-14279
赤贫	-14280
远程	-14281
阵地	-14282
45/	-14283
ont	-14284
▁29	-14285
关于该	-14286
号和第	-14287
审议的	-14288
对一个	-14289
新的和	-14290
本单位	-14291
来决定	-14292
消失了	-14293
的大量	-14294
的财务	-14295
继续与	-14296
贷款的	-14297
食品和	-14298
▁中国在	-14299
严重问题	-14300
外国企业	-14301
市场准入	-14302
并考虑到	-14303
总体而言	-14304
有所改善	-14305
气象组织	-14306
英国政府	-14307
贸易协定	-14308
进行任何	-14309
通过议程	-14310
需要一个	-14311
50000	-14312
发展中世界	-14313
Christ	-14314
区域和分区域	-14315
以阿拉伯语发言	-14316
OR	-14317
之类	-14318
亲戚	-14319
低价	-14320
切合	-14321
太子	-14322
它与	-14323
已使	-14324
态势	-14325
所受	-14326
王后	-14327
破灭	-14328
立案	-14329
等着	-14330
能从	-14331
花在	-14332
一无二	-14333
在上述	-14334
它们所	-14335
必须将	-14336
打算在	-14337
明年的	-14338
是我的	-14339
没有在	-14340
法规和	-14341
现在已	-14342
理性的	-14343
穷人的	-14344
科技成果	-14345
继续执行	-14346
金融稳定	-14347
一切形式的	-14348
执行情况的	-14349
下达	-14350
乐于	-14351
也从	-14352
假冒	-14353
先驱	-14354
兵役	-14355
前线	-14356
小麦	-14357
年青	-14358
微观	-14359
悲伤	-14360
所致	-14361
极了	-14362
测绘	-14363
犯人	-14364
绳之	-14365
:30	-14366
▁整个	-14367
▁解决	-14368
为中国	-14369
义务的	-14370
产品和	-14371
以执行	-14372
借款人	-14373
关键性	-14374
副总裁	-14375
和就业	-14376
和平等	-14377
和经验	-14378
基础的	-14379
将受到	-14380
所载的	-14381
的印度	-14382
非传统	-14383
15%,	-14384
六届会议	-14385
养恤基金	-14386
发展情况	-14387
合资企业	-14388
审判分庭	-14389
并将继续	-14390
最低限度	-14391
最后文件	-14392
独一无二	-14393
蒙特利尔	-14394
表示祝贺	-14395
分摊比额表	-14396
所作的发言	-14397
进行了记录表决	-14398
阿拉伯国家联盟	-14399
有下列行为之一的	-14400
ox	-14401
偏远	-14402
历来	-14403
对峙	-14404
将同	-14405
开业	-14406
结余	-14407
肯尼	-14408
触发	-14409
赖斯	-14410
起码	-14411
还未	-14412
送给	-14413
队员	-14414
频率	-14415
Air	-14416
act	-14417
▁此前	-14418
▁让我	-14419
全球的	-14420
公开发	-14421
发电厂	-14422
同性恋	-14423
并开始	-14424
承认的	-14425
是一位	-14426
有益于	-14427
格林斯	-14428
理由是	-14429
的大约	-14430
的综合	-14431
立法和	-14432
简单地	-14433
罗维亚	-14434
肯定的	-14435
都已经	-14436
▁“4.	-14437
▁从这个	-14438
▁美国人	-14439
临时助理	-14440
努力实现	-14441
发展进程	-14442
国家警察	-14443
有些国家	-14444
理所当然	-14445
第十九条	-14446
财政刺激	-14447
陷入困境	-14448
集体安全	-14449
食品价格	-14450
▁巴勒斯坦	-14451
和巴基斯坦	-14452
社会和政治	-14453
▁布	-14454
不已	-14455
亦然	-14456
代码	-14457
农牧	-14458
单边	-14459
复印	-14460
就座	-14461
并能	-14462
私下	-14463
补编	-14464
采集	-14465
23.	-14466
Wal	-14467
▁到了	-14468
为主要	-14469
主要由	-14470
司司长	-14471
和谈判	-14472
在有关	-14473
安排和	-14474
广泛地	-14475
我们已	-14476
所设想	-14477
牵涉到	-14478
独立和	-14479
的居民	-14480
的话说	-14481
研究金	-14482
第二届	-14483
第四届	-14484
给予了	-14485
遭受了	-14486
1968	-14487
▁同样地	-14488
书面通知	-14489
债务危机	-14490
冲突各方	-14491
双方同意	-14492
成为全球	-14493
注意到了	-14494
的俄罗斯	-14495
▁举例来说	-14496
采取必要的	-14497
OC	-14498
Su	-14499
he	-14500
ky	-14501
争执	-14502
以最	-14503
在职	-14504
夸大	-14505
岁至	-14506
扎菲	-14507
据此	-14508
更长	-14509
特立	-14510
让她	-14511
谷物	-14512
DVD	-14513
oss	-14514
▁确认	-14515
兑美元	-14516
可以使	-14517
可能使	-14518
形势下	-14519
旗下的	-14520
法塔赫	-14521
的学校	-14522
的正式	-14523
的移民	-14524
票弃权	-14525
货币的	-14526
辱人格	-14527
项下的	-14528
Mart	-14529
▁上个月	-14530
▁黎巴嫩	-14531
卫生检疫	-14532
国际法的	-14533
妇女权益	-14534
家庭暴力	-14535
容易受到	-14536
感到鼓舞	-14537
或者个人	-14538
活动包括	-14539
蒙罗维亚	-14540
金融部门	-14541
更重要的是	-14542
有组织犯罪	-14543
根据大会第	-14544
基础设施建设	-14545
流离失所者的	-14546
有下列情形之一的	-14547
联合国维持和平行动	-14548
给予殖民地国家和人民	-14549
▁八	-14550
不停	-14551
不等	-14552
为限	-14553
公式	-14554
加索	-14555
宣誓	-14556
小额	-14557
屋子	-14558
所要	-14559
次要	-14560
汇集	-14561
至多	-14562
诺言	-14563
转身	-14564
随机	-14565
飞越	-14566
马达	-14567
450	-14568
▁假如	-14569
以和平	-14570
使用和	-14571
大体上	-14572
必须要	-14573
我不会	-14574
条件是	-14575
的若干	-14576
竞争的	-14577
讨论中	-14578
2017	-14579
PRST	-14580
其中许多	-14581
危险废物	-14582
变更登记	-14583
新闻出版	-14584
方案拟订	-14585
生活中的	-14586
禁止酷刑	-14587
职业教育	-14588
自愿遣返	-14589
Peter	-14590
拉加经委会	-14591
spirit	-14592
国务院证券监督管理机构	-14593
▁张	-14594
上半	-14595
下级	-14596
不善	-14597
名誉	-14598
外籍	-14599
家们	-14600
年就	-14601
年限	-14602
校友	-14603
模拟	-14604
求斯	-14605
源泉	-14606
率先	-14607
空白	-14608
船员	-14609
计入	-14610
运河	-14611
还为	-14612
隧道	-14613
▁27	-14614
▁反对	-14615
▁若干	-14616
也受到	-14617
宗教或	-14618
官员的	-14619
客气话	-14620
对儿童	-14621
巴拉圭	-14622
接近于	-14623
推出了	-14624
新闻稿	-14625
来帮助	-14626
杰出的	-14627
林斯顿	-14628
核定的	-14629
生活费	-14630
的潜力	-14631
证明是	-14632
资格的	-14633
这三个	-14634
▁全世界	-14635
▁特派团	-14636
主权国家	-14637
广播电台	-14638
恶性循环	-14639
持续增长	-14640
支助服务	-14641
昨日表示	-14642
极有可能	-14643
格林斯潘	-14644
的人来说	-14645
能够得到	-14646
自愿捐助	-14647
过程中的	-14648
▁没有人反对	-14649
国际劳工组织	-14650
▁这就是为什么	-14651
消除对妇女一切形式歧视	-14652
RA	-14653
也与	-14654
了吧	-14655
优良	-14656
低的	-14657
公海	-14658
厂商	-14659
和她	-14660
哈尼	-14661
增设	-14662
多家	-14663
小康	-14664
并被	-14665
开立	-14666
强力	-14667
总务	-14668
斯托	-14669
淡水	-14670
游击	-14671
特的	-14672
稳健	-14673
落在	-14674
门外	-14675
风能	-14676
(2)	-14677
00.	-14678
1)。	-14679
▁几乎	-14680
个员额	-14681
各地区	-14682
和非洲	-14683
地看到	-14684
委员长	-14685
并接受	-14686
很好地	-14687
方面是	-14688
来支持	-14689
比上年	-14690
环境与	-14691
的各个	-14692
规模的	-14693
边缘化	-14694
需要对	-14695
▁投资者	-14696
一个重要	-14697
主导地位	-14698
关于国际	-14699
固定资产	-14700
失业人员	-14701
有足够的	-14702
服务机构	-14703
的时间内	-14704
进行协调	-14705
以及联合国	-14706
各种形式的	-14707
6)	-14708
7)	-14709
BI	-14710
▁愿	-14711
▁艾	-14712
不下	-14713
以至	-14714
加仑	-14715
均可	-14716
尼科	-14717
已对	-14718
巴拉	-14719
开枪	-14720
欢乐	-14721
笔记	-14722
苍白	-14723
苏菲	-14724
解读	-14725
计价	-14726
遗嘱	-14727
遗留	-14728
▁此项	-14729
和实际	-14730
根本性	-14731
的普遍	-14732
的设计	-14733
被请求	-14734
▁94.	-14735
一倍以上	-14736
农业技术	-14737
和乌克兰	-14738
和房地美	-14739
大大增加	-14740
导弹防御	-14741
新闻媒体	-14742
条规定的	-14743
毛里求斯	-14744
第一阶段	-14745
第四季度	-14746
这一数字	-14747
重新部署	-14748
▁除此之外	-14749
商品和服务	-14750
国际社会应	-14751
预备役军官	-14752
五十周年纪念	-14753
可以并处罚款	-14754
在某些情况下	-14755
经济社会发展	-14756
425(1978)	-14757
ei	-14758
▁奥	-14759
两份	-14760
中将	-14761
你想	-14762
六国	-14763
地将	-14764
巴林	-14765
意向	-14766
拨给	-14767
牛津	-14768
罢免	-14769
莱斯	-14770
走势	-14771
起源	-14772
零件	-14773
rat	-14774
不公正	-14775
仍然在	-14776
加入为	-14777
加大对	-14778
后不久	-14779
在本国	-14780
很明显	-14781
方式和	-14782
核设施	-14783
监测员	-14784
贫困和	-14785
进步的	-14786
▁在国际	-14787
信托财产	-14788
共和党人	-14789
具有法律	-14790
参加会议	-14791
归根结底	-14792
灭绝种族	-14793
理事会的	-14794
由于缺乏	-14795
的工作组	-14796
监督机构	-14797
进行检查	-14798
的一份报告	-14799
▁上海合作组织	-14800
中印	-14801
亲密	-14802
从此	-14803
会前	-14804
低了	-14805
保育	-14806
典范	-14807
天堂	-14808
布图	-14809
推移	-14810
时任	-14811
民选	-14812
献身	-14813
被杀	-14814
裁判	-14815
跟你	-14816
路透	-14817
运气	-14818
造就	-14819
附上	-14820
lex	-14821
▁总之	-14822
▁我对	-14823
▁这家	-14824
一年中	-14825
什么呢	-14826
古老的	-14827
小时内	-14828
并不会	-14829
是唯一	-14830
每个月	-14831
的开支	-14832
的感觉	-14833
的教训	-14834
的途径	-14835
而这种	-14836
货物的	-14837
▁95.	-14838
其他成员	-14839
其他组织	-14840
大幅增加	-14841
完全没有	-14842
年代以来	-14843
年联合国	-14844
性别观点	-14845
生物技术	-14846
紧急状态	-14847
解释投票	-14848
资讯科技	-14849
这一重要	-14850
高度优先	-14851
养护和管理	-14852
社会和文化	-14853
依照法律规定	-14854
基础设施投资	-14855
承担赔偿责任	-14856
SC	-14857
TP	-14858
pr	-14859
下周	-14860
使该	-14861
出身	-14862
合物	-14863
地为	-14864
太高	-14865
成份	-14866
成品	-14867
我没	-14868
扫除	-14869
放贷	-14870
杰里	-14871
萨马	-14872
近乎	-14873
阻挡	-14874
饲养	-14875
马斯	-14876
/49	-14877
什么都	-14878
可能被	-14879
在实现	-14880
处五年	-14881
尽管有	-14882
战略性	-14883
的德国	-14884
的策略	-14885
第一批	-14886
之一就是	-14887
可以申请	-14888
地理位置	-14889
环境污染	-14890
管辖权的	-14891
行政行为	-14892
西班牙和	-14893
进行全面	-14894
eddie	-14895
人员的安全	-14896
以色列政府	-14897
方面发挥了	-14898
问题的报告	-14899
是必不可少的	-14900
6,	-14901
上下	-14902
两党	-14903
以北	-14904
发育	-14905
四大	-14906
心中	-14907
怀着	-14908
折衷	-14909
早先	-14910
桌上	-14911
洛克	-14912
现时	-14913
畜牧	-14914
站的	-14915
诺斯	-14916
通盘	-14917
采伐	-14918
里多	-14919
面貌	-14920
不正当	-14921
侵略者	-14922
先生在	-14923
其活动	-14924
其自身	-14925
和进行	-14926
大会和	-14927
并处以	-14928
延长到	-14929
来执行	-14930
水平和	-14931
▁93.	-14932
债务问题	-14933
双重标准	-14934
政策措施	-14935
而采取的	-14936
能够获得	-14937
调查发现	-14938
进行评估	-14939
,1991	-14940
▁我们知道	-14941
▁研究人员	-14942
出席了会议	-14943
居民委员会	-14944
核试验条约	-14945
人力资源开发	-14946
联合国会员国	-14947
高级管理人员	-14948
American	-14949
巴勒斯坦解放组织	-14950
民族自治地方的自治	-14951
给予殖民地国家和人民独立宣言	-14952
8,	-14953
Em	-14954
▁海	-14955
」。	-14956
人手	-14957
代办	-14958
准予	-14959
反思	-14960
哈里	-14961
固有	-14962
城里	-14963
实例	-14964
将让	-14965
尴尬	-14966
帐目	-14967
烦恼	-14968
的主	-14969
的神	-14970
自足	-14971
轻重	-14972
通的	-14973
间谍	-14974
ana	-14975
不遵守	-14976
为全球	-14977
也认为	-14978
全社会	-14979
分项目	-14980
加强和	-14981
只能在	-14982
在一份	-14983
在巴黎	-14984
尼克松	-14985
年平均	-14986
既没有	-14987
有大量	-14988
的了解	-14989
视察队	-14990
预算中	-14991
▁尤其是	-14992
加强国际	-14993
劳动合同	-14994
强烈反对	-14995
政府认为	-14996
日本政府	-14997
的目标和	-14998
近几年来	-14999
重新分配	-15000
的各项决议	-15001
的国家之一	-15002
上海合作组织的	-15003
联合国系统各组织	-15004
小岛屿发展中国家的	-15005
:‘	-15006
Bo	-15007
]:	-15008
免征	-15009
关上	-15010
募集	-15011
十三	-15012
十六	-15013
可比	-15014
后悔	-15015
哈尔	-15016
当他	-15017
把你	-15018
数年	-15019
森堡	-15020
治国	-15021
猛烈	-15022
约合	-15023
践踏	-15024
返还	-15025
陌生	-15026
Don	-15027
ost	-15028
▁以下	-15029
与世界	-15030
了这种	-15031
仔细地	-15032
协定和	-15033
取代了	-15034
受到的	-15035
和意见	-15036
将他们	-15037
并按照	-15038
应成为	-15039
开发商	-15040
归因于	-15041
总部和	-15042
有几个	-15043
每小时	-15044
的意义	-15045
50/2	-15046
▁90.	-15047
▁这不是	-15048
严重破坏	-15049
了自己的	-15050
依然存在	-15051
内部审计	-15052
出人意料	-15053
十分重视	-15054
基础结构	-15055
开始进行	-15056
情节严重	-15057
提出要求	-15058
文物保护	-15059
美国国债	-15060
使用或威胁	-15061
提供的援助	-15062
议事规则第	-15063
造成损害的	-15064
消除对妇女一切形式歧视公约	-15065
%)	-15066
不复	-15067
乐队	-15068
使馆	-15069
写作	-15070
午餐	-15071
后才	-15072
并报	-15073
应按	-15074
斯说	-15075
旁观	-15076
歌曲	-15077
着陆	-15078
系数	-15079
缩水	-15080
要使	-15081
运往	-15082
14(	-15083
ari	-15084
两个人	-15085
中进行	-15086
会增加	-15087
创造的	-15088
受访者	-15089
因特网	-15090
在伦敦	-15091
嫌疑人	-15092
已登记	-15093
并就此	-15094
开始在	-15095
怎么说	-15096
承运人	-15097
的亚洲	-15098
绝不会	-15099
通过在	-15100
阿布贾	-15101
▁在一些	-15102
和有效的	-15103
实际上是	-15104
巴解组织	-15105
斟酌情况	-15106
年金融危机	-15107
日举行的第	-15108
国际金融机构	-15109
前南斯拉夫境内	-15110
Wachovia	-15111
ET	-15112
MD	-15113
买到	-15114
了该	-15115
五大	-15116
公有	-15117
册子	-15118
即时	-15119
和以	-15120
多重	-15121
委派	-15122
已获	-15123
水泥	-15124
给付	-15125
美的	-15126
要去	-15127
:19	-15128
地下水	-15129
基本面	-15130
嫌疑犯	-15131
学教授	-15132
并指出	-15133
日本人	-15134
时表示	-15135
的工业	-15136
的提案	-15137
的评论	-15138
的选民	-15139
穆尔西	-15140
等因素	-15141
臭氧层	-15142
葡萄酒	-15143
表现得	-15144
具体行动	-15145
制订一项	-15146
友好合作	-15147
可以帮助	-15148
所作所为	-15149
执行机构	-15150
支助费用	-15151
最后一个	-15152
根本无法	-15153
矿山企业	-15154
而产生的	-15155
规约草案	-15156
领域内的	-15157
,2004	-15158
▁在这样的	-15159
卢旺达境内	-15160
▁第五十三条	-15161
的非政府组织	-15162
第五十届会议	-15163
采取适当措施	-15164
安全理事会成员	-15165
联合国气候变化	-15166
?”	-15167
Hu	-15168
hy	-15169
▁s	-15170
与各	-15171
为一	-15172
举报	-15173
付给	-15174
倒塌	-15175
像是	-15176
农药	-15177
反击	-15178
叛军	-15179
和省	-15180
对华	-15181
拥抱	-15182
拿破	-15183
指向	-15184
指规	-15185
新近	-15186
祈祷	-15187
私立	-15188
蔑视	-15189
还向	-15190
为国际	-15191
从一个	-15192
可不是	-15193
听到了	-15194
奢侈品	-15195
拿破仑	-15196
更重要	-15197
特点是	-15198
玛丽亚	-15199
的思想	-15200
的款项	-15201
的物品	-15202
的负担	-15203
第三章	-15204
西方的	-15205
这可能	-15206
里斯本	-15207
▁我喜欢	-15208
两国关系	-15209
主要责任	-15210
人权情况	-15211
充分就业	-15212
其他一些	-15213
危机爆发	-15214
宣传活动	-15215
所发生的	-15216
担任主席	-15217
本地区的	-15218
特别重要	-15219
的最重要	-15220
着重指出	-15221
经济体系	-15222
角度来看	-15223
还有许多	-15224
远远超过	-15225
组织的合作	-15226
在这种情况下	-15227
对发展中国家	-15228
所采取的措施	-15229
▁......	-15230
Universityof	-15231
兼职	-15232
卖空	-15233
奏效	-15234
搜寻	-15235
无情	-15236
易于	-15237
牛肉	-15238
空袭	-15239
脚步	-15240
荒谬	-15241
通向	-15242
香烟	-15243
鸟儿	-15244
ets	-15245
▁中东	-15246
▁该项	-15247
他自己	-15248
会成为	-15249
和当地	-15250
希望能	-15251
有足够	-15252
的痛苦	-15253
的食物	-15254
▁我没有	-15255
全国各地	-15256
在该区域	-15257
大量增加	-15258
对伊拉克	-15259
希望看到	-15260
武器转让	-15261
的增长率	-15262
管理事会	-15263
贷款利率	-15264
Andre	-15265
Georg	-15266
业务活动的	-15267
低收入国家	-15268
执行委员会	-15269
及其工作人员	-15270
本级人民政府	-15271
UF	-15272
▁天	-15273
互换	-15274
哈迈	-15275
大赦	-15276
杉矶	-15277
梅德	-15278
渐渐	-15279
疑虑	-15280
要为	-15281
26.	-15282
Off	-15283
▁这也	-15284
下一代	-15285
不完全	-15286
亚洲的	-15287
卡扎菲	-15288
卢森堡	-15289
地参与	-15290
多年前	-15291
应当以	-15292
应按照	-15293
据报道	-15294
的一员	-15295
的期限	-15296
的理解	-15297
统一和	-15298
附件三	-15299
高技术	-15300
从而导致	-15301
各国之间	-15302
国家发展	-15303
在索马里	-15304
复议决定	-15305
外国记者	-15306
大会主席	-15307
实施制裁	-15308
应当采取	-15309
执行工作	-15310
的代表团	-15311
绳之以法	-15312
规章制度	-15313
二零零四年	-15314
部队指挥官	-15315
阿拉伯联合	-15316
需要进一步	-15317
黎巴嫩南部	-15318
School	-15319
对外经济贸易	-15320
▁进行了记录表决	-15321
政策协调和可持续发展	-15322
SS	-15323
与该	-15324
之势	-15325
勒斯	-15326
向该	-15327
周内	-15328
填写	-15329
存活	-15330
抵销	-15331
时装	-15332
格雷	-15333
洁净	-15334
跟着	-15335
▁当局	-15336
▁深信	-15337
中列入	-15338
为保护	-15339
了一倍	-15340
了这个	-15341
五十年	-15342
作用和	-15343
你自己	-15344
包含了	-15345
和暴力	-15346
土地上	-15347
家可归	-15348
影响着	-15349
承担起	-15350
控制着	-15351
有成效	-15352
的供应	-15353
的发生	-15354
相抵触	-15355
青年人	-15356
▁意识到	-15357
具体建议	-15358
可能会在	-15359
增长放缓	-15360
所使用的	-15361
检查专员	-15362
▁我们可以	-15363
▁波斯尼亚	-15364
中欧和东欧	-15365
主要是因为	-15366
会议的结果	-15367
大多数国家	-15368
方案和项目	-15369
欢迎秘书长	-15370
国际社会必须	-15371
本组织成员国	-15372
特别行政区的	-15373
采取一切必要措施	-15374
国际药物管制规划署	-15375
▁继	-15376
一并	-15377
一番	-15378
不然	-15379
八月	-15380
发誓	-15381
变迁	-15382
商讨	-15383
处长	-15384
大事	-15385
就任	-15386
席卷	-15387
悠久	-15388
所赐	-15389
接入	-15390
标识	-15391
热衷	-15392
白色	-15393
经典	-15394
越多	-15395
▁」「	-15396
▁他把	-15397
▁其它	-15398
▁昨天	-15399
为这些	-15400
了一半	-15401
五年的	-15402
以减轻	-15403
可以是	-15404
少数人	-15405
年之后	-15406
新华社	-15407
日生效	-15408
治罪法	-15409
现在就	-15410
的设备	-15411
的这些	-15412
的那个	-15413
等措施	-15414
签订的	-15415
继承人	-15416
英联邦	-15417
被用于	-15418
该文件	-15419
说他们	-15420
1965	-15421
lect	-15422
一个关于	-15423
作好准备	-15424
劳动力的	-15425
发展权利	-15426
发展活动	-15427
后续活动	-15428
和墨西哥	-15429
如果他们	-15430
总的来说	-15431
方案规划	-15432
本委员会	-15433
没有理由	-15434
第一百零	-15435
艾滋病毒	-15436
万亿美元的	-15437
人民币升值	-15438
日在日内瓦	-15439
特遣队自备	-15440
宗教信仰自由	-15441
恐怖主义行为	-15442
对妇女的暴力行为	-15443
eB	-15444
▁米	-15445
七月	-15446
可否	-15447
在前	-15448
布局	-15449
很不	-15450
残暴	-15451
热门	-15452
罗德	-15453
趋向	-15454
输送	-15455
Jon	-15456
oft	-15457
▁不能	-15458
专家和	-15459
人士的	-15460
但是它	-15461
例子是	-15462
冲突后	-15463
因此而	-15464
将能够	-15465
并提高	-15466
必须经	-15467
所要求	-15468
根本不	-15469
沃尔玛	-15470
没有对	-15471
洛杉矶	-15472
的一体	-15473
的模式	-15474
看电视	-15475
詹姆斯	-15476
这么多	-15477
▁但如今	-15478
▁据估计	-15479
一如既往	-15480
一种新的	-15481
三十日内	-15482
不懈努力	-15483
各种各样	-15484
同时也是	-15485
告诉他们	-15486
在其报告	-15487
库尔德人	-15488
或者非法	-15489
所有成员	-15490
环境噪声	-15491
跨大西洋	-15492
中国代表团	-15493
交换了意见	-15494
所有国家都	-15495
▁第五十二条	-15496
和平利用核能	-15497
国内流离失所者	-15498
社会主义市场经济	-15499
Sm	-15500
丰田	-15501
了的	-15502
只好	-15503
可取	-15504
实时	-15505
尚待	-15506
扩建	-15507
模范	-15508
爱我	-15509
赚钱	-15510
边远	-15511
都与	-15512
高地	-15513
2)。	-15514
产出的	-15515
使妇女	-15516
其成员	-15517
冷战后	-15518
助长了	-15519
又一个	-15520
发布了	-15521
和双边	-15522
在我的	-15523
在解决	-15524
将它们	-15525
岁以上	-15526
数据基	-15527
新一代	-15528
留下的	-15529
的工资	-15530
的现有	-15531
的职业	-15532
航空器	-15533
通常会	-15534
道理的	-15535
非洲人	-15536
1800	-15537
ical	-15538
▁96.	-15539
▁但随着	-15540
一致同意	-15541
什么样的	-15542
似乎已经	-15543
使用这些	-15544
全民公决	-15545
吸引力的	-15546
和国务院	-15547
安全保障	-15548
我们知道	-15549
提出一项	-15550
相辅相成	-15551
这些政策	-15552
各国政府和	-15553
的国家提供	-15554
的国际公约	-15555
穆斯林兄弟	-15556
货币政策的	-15557
这个问题上	-15558
阿拉伯之春	-15559
社会和文化权利	-15560
阿拉伯联合酋长	-15561
在本报告所述期间	-15562
IG	-15563
下次	-15564
丽莎	-15565
出价	-15566
加息	-15567
助手	-15568
华文	-15569
学士	-15570
就连	-15571
或被	-15572
收受	-15573
欣慰	-15574
用处	-15575
相称	-15576
称作	-15577
立方	-15578
规避	-15579
调拨	-15580
钓鱼	-15581
铺设	-15582
饭店	-15583
高估	-15584
25.	-15585
eel	-15586
▁与会	-15587
一无所	-15588
保尔森	-15589
公开的	-15590
创造出	-15591
和他们	-15592
地区内	-15593
处理和	-15594
常见的	-15595
平衡的	-15596
应当为	-15597
或者有	-15598
未取得	-15599
每天都	-15600
的一方	-15601
的任期	-15602
的份额	-15603
第三节	-15604
解阵线	-15605
该协议	-15606
软实力	-15607
erve	-15608
ford	-15609
ower	-15610
例外情况	-15611
医疗机构	-15612
可以得到	-15613
可能发生	-15614
审计机关	-15615
布图设计	-15616
旨在促进	-15617
补救办法	-15618
非常重视	-15619
以协商一致	-15620
取得的成就	-15621
和经济发展	-15622
的合法权益	-15623
第一届会议	-15624
经济全球化	-15625
▁莫	-15626
。(	-15627
两族	-15628
两极	-15629
交叉	-15630
出缺	-15631
可图	-15632
地把	-15633
她就	-15634
改建	-15635
教派	-15636
日增	-15637
更正	-15638
核证	-15639
正视	-15640
犯了	-15641
血腥	-15642
这与	-15643
进修	-15644
遍布	-15645
驻在	-15646
any	-15647
▁认为	-15648
▁贸易	-15649
与环境	-15650
中国已	-15651
也存在	-15652
交易中	-15653
仍处于	-15654
已经是	-15655
应鼓励	-15656
情形下	-15657
的训练	-15658
看了看	-15659
瞩目的	-15660
背道而	-15661
需要为	-15662
高风险	-15663
****	-15664
ners	-15665
▁92.	-15666
信息网络	-15667
工作方法	-15668
日常生活	-15669
有关国际	-15670
有权要求	-15671
正当理由	-15672
特别帐户	-15673
积极成果	-15674
联合起来	-15675
该区域的	-15676
▁我们不能	-15677
产妇死亡率	-15678
同时考虑到	-15679
德意志银行	-15680
英格兰银行	-15681
办法由国务院	-15682
责令限期改正	-15683
和平利用外层空间	-15684
秘书长关于联合国	-15685
AA	-15686
LA	-15687
My	-15688
不定	-15689
参赛	-15690
密度	-15691
挑起	-15692
既是	-15693
稀缺	-15694
能耗	-15695
行之	-15696
阿曼	-15697
首尔	-15698
112	-15699
ild	-15700
万公顷	-15701
伊斯坦	-15702
似乎在	-15703
再延长	-15704
北京的	-15705
听说过	-15706
和一般	-15707
喀里多	-15708
将产生	-15709
并欢迎	-15710
幸福的	-15711
权力和	-15712
的制裁	-15713
精神的	-15714
自收到	-15715
表现的	-15716
▁但他们	-15717
▁它们的	-15718
▁有些人	-15719
做出反应	-15720
其中载有	-15721
受影响的	-15722
城镇居民	-15723
备选办法	-15724
的原则和	-15725
联合主席	-15726
各国人民的	-15727
委员会审议	-15728
监测和核查	-15729
首席经济学家	-15730
高兴地注意到	-15731
第四十八届会议	-15732
阿里斯蒂德总统	-15733
一台	-15734
催化	-15735
制衡	-15736
启发	-15737
四次	-15738
它就	-15739
富翁	-15740
居高	-15741
想的	-15742
时就	-15743
易事	-15744
有无	-15745
朗德	-15746
检索	-15747
概率	-15748
纸张	-15749
营区	-15750
越大	-15751
途中	-15752
部族	-15753
age	-15754
ube	-15755
▁泰国	-15756
个星期	-15757
之中的	-15758
和增加	-15759
安全网	-15760
工作量	-15761
怎么做	-15762
我们有	-15763
最初的	-15764
模式的	-15765
的大幅	-15766
移民的	-15767
覆盖率	-15768
讲话中	-15769
远高于	-15770
olog	-15771
也有可能	-15772
代表指出	-15773
协调机制	-15774
发展议程	-15775
如果不是	-15776
新闻发布	-15777
有人认为	-15778
的时间表	-15779
组成人员	-15780
背道而驰	-15781
能源效率	-15782
迅速发展	-15783
过渡政府	-15784
这一情况	-15785
高等院校	-15786
▁不仅如此	-15787
▁人民法院	-15788
▁发达国家	-15789
喀里多尼亚	-15790
和管理事务部	-15791
非常任理事国	-15792
维护国际和平与安全	-15793
中毒	-15794
之举	-15795
作风	-15796
你对	-15797
制服	-15798
十四	-15799
坚强	-15800
外流	-15801
安抚	-15802
成百	-15803
扣留	-15804
敞开	-15805
是无	-15806
生病	-15807
等地	-15808
间隔	-15809
驻军	-15810
鸦片	-15811
▁时间	-15812
价格和	-15813
全方位	-15814
和一些	-15815
固有的	-15816
在今天	-15817
在审查	-15818
大公司	-15819
将采取	-15820
市场中	-15821
年度的	-15822
心而论	-15823
报道说	-15824
方式的	-15825
来确保	-15826
组织或	-15827
计划于	-15828
该会议	-15829
还表示	-15830
区域会议	-15831
可以并处	-15832
国民收入	-15833
央行行长	-15834
数据收集	-15835
科学发展	-15836
移徙女工	-15837
联合行动	-15838
运输工具	-15839
尽一切努力	-15840
政治领导人	-15841
进一步扩大	-15842
具有重要意义	-15843
在某种程度上	-15844
European	-15845
治安管理处罚条例	-15846
1、	-15847
IF	-15848
pe	-15849
三级	-15850
乃是	-15851
也曾	-15852
关怀	-15853
原谅	-15854
唱歌	-15855
弗朗	-15856
时在	-15857
环球	-15858
科夫	-15859
耗尽	-15860
自觉	-15861
集成	-15862
▁改革	-15863
不可抗	-15864
你怎么	-15865
充足的	-15866
占领的	-15867
可通过	-15868
和独立	-15869
地支持	-15870
将用于	-15871
的监督	-15872
的身份	-15873
积极和	-15874
第三届	-15875
资助的	-15876
1400	-15877
停战协定	-15878
劳动争议	-15879
国际机场	-15880
国际集团	-15881
股票市场	-15882
黎巴嫩的	-15883
充分考虑到	-15884
发生的事情	-15885
的人权情况	-15886
经济一体化	-15887
联合国人权	-15888
联合国总部	-15889
47/199	-15890
国家有关规定	-15891
贸易法委员会	-15892
Freddie	-15893
未经表决通过了	-15894
达成协商一致意见	-15895
7,	-15896
一类	-15897
为你	-15898
五项	-15899
党内	-15900
决算	-15901
史蒂	-15902
和小	-15903
回购	-15904
困惑	-15905
学业	-15906
尔夫	-15907
市盈	-15908
我去	-15909
提款	-15910
明证	-15911
梅内	-15912
电报	-15913
盗窃	-15914
筹办	-15915
简介	-15916
繁殖	-15917
维埃	-15918
编入	-15919
Gen	-15920
ult	-15921
▁答案	-15922
主持人	-15923
人民和	-15924
介绍性	-15925
和恢复	-15926
对美元	-15927
干旱和	-15928
强加于	-15929
志愿者	-15930
指规数	-15931
数量和	-15932
是他们	-15933
正式的	-15934
由有关	-15935
的人身	-15936
突出的	-15937
贫穷的	-15938
选举法	-15939
▁比如说	-15940
一次会议	-15941
仍然没有	-15942
债券市场	-15943
共同制度	-15944
关注的是	-15945
单行条例	-15946
少数族裔	-15947
按照大会	-15948
是否符合	-15949
森林管理	-15950
欧洲议会	-15951
正在经历	-15952
等一系列	-15953
等领域的	-15954
质量管理	-15955
这种方法	-15956
不结盟运动	-15957
华尔街日报	-15958
奥巴马政府	-15959
对波斯尼亚	-15960
房地产市场	-15961
发展中国家间	-15962
名军事观察员	-15963
外交部发言人	-15964
高新技术产业	-15965
全面禁止核试验条约	-15966
ID	-15967
上任	-15968
不需	-15969
也更	-15970
人有	-15971
们的	-15972
分列	-15973
前例	-15974
吾尔	-15975
孤独	-15976
它能	-15977
安静	-15978
干练	-15979
想着	-15980
提问	-15981
放心	-15982
效用	-15983
欲望	-15984
汇款	-15985
点燃	-15986
现正	-15987
而出	-15988
脂肪	-15989
装箱	-15990
讲述	-15991
识字	-15992
黑色	-15993
rom	-15994
row	-15995
▁建议	-15996
了很多	-15997
优先权	-15998
克里米	-15999
可能要	-16000
和城市	-16001
和稳定	-16002
和调查	-16003
国防军	-16004
学术界	-16005
宝贵的	-16006
指出的	-16007
昂贵的	-16008
的潜在	-16009
研究院	-16010
管制和	-16011
维吾尔	-16012
者提供	-16013
让自己	-16014
ited	-16015
交通事故	-16016
创造就业	-16017
向前发展	-16018
外国公司	-16019
正式记录	-16020
比较优势	-16021
社会进步	-16022
第十一条	-16023
选举援助	-16024
▁长期以来	-16025
专题讨论会	-16026
人民币汇率	-16027
国家的政府	-16028
托管理事会	-16029
指导委员会	-16030
私营部门的	-16031
经合发组织	-16032
重建和发展	-16033
非政府组织的	-16034
内部监督事务厅	-16035
巴勒斯坦权力机构	-16036
公民权利和政治权利国际盟约	-16037
不法	-16038
之争	-16039
亟需	-16040
均有	-16041
她是	-16042
宁愿	-16043
尼达	-16044
平常	-16045
得主	-16046
构筑	-16047
水面	-16048
相连	-16049
能对	-16050
订购	-16051
讨厌	-16052
调停	-16053
轿车	-16054
这话	-16055
oth	-16056
▁一名	-16057
▁公共	-16058
▁每天	-16059
▁每年	-16060
不一样	-16061
不利的	-16062
与其它	-16063
公布了	-16064
再分配	-16065
和影响	-16066
和文件	-16067
复杂化	-16068
学院的	-16069
并帮助	-16070
数十年	-16071
本细则	-16072
科学和	-16073
纳戈尔	-16074
编制了	-16075
菲尔德	-16076
被禁止	-16077
辩论中	-16078
阻止了	-16079
附件四	-16080
限制性	-16081
制定一项	-16082
可以发挥	-16083
各种问题	-16084
密切关注	-16085
常任理事	-16086
找到一个	-16087
超级大国	-16088
▁这些问题	-16089
作为联合国	-16090
和人道主义	-16091
已经取得了	-16092
注册会计师	-16093
许多代表团	-16094
▁第五十一条	-16095
所采取的行动	-16096
大不列颠及北爱尔兰联合王国	-16097
种族主义和种族歧视进行战斗	-16098
2/	-16099
▁于	-16100
南京	-16101
商谈	-16102
年纪	-16103
广义	-16104
患有	-16105
景象	-16106
有损	-16107
法特	-16108
科斯	-16109
腹泻	-16110
舒服	-16111
逐年	-16112
风景	-16113
12%	-16114
▁军事	-16115
▁各级	-16116
▁海地	-16117
与男子	-16118
了一切	-16119
了一名	-16120
了道路	-16121
二十年	-16122
发生时	-16123
和能力	-16124
因为其	-16125
土地和	-16126
对政府	-16127
或许会	-16128
才开始	-16129
月举行	-16130
比赛中	-16131
社区的	-16132
能够为	-16133
自主权	-16134
通过后	-16135
edit	-16136
▁如果不	-16137
一贯主张	-16138
不断增长	-16139
专业知识	-16140
专家会议	-16141
也适用于	-16142
他自己的	-16143
保护人权	-16144
加利先生	-16145
卢旺达的	-16146
印度政府	-16147
受到限制	-16148
可口可乐	-16149
四分之三	-16150
培训课程	-16151
当事双方	-16152
总部位于	-16153
战略说明	-16154
经验表明	-16155
赔偿损失	-16156
这一过程	-16157
,2006	-16158
一个代表团	-16159
俄罗斯总统	-16160
国家的经济	-16161
婴儿死亡率	-16162
持久的和平	-16163
民粹主义者	-16164
职权范围内	-16165
特别委员会的	-16166
经济和社会发展的	-16167
▁我是否可以认为大会	-16168
ma	-16169
亿吨	-16170
全都	-16171
列车	-16172
力地	-16173
反驳	-16174
哈奇	-16175
喜爱	-16176
将可	-16177
将就	-16178
德广	-16179
最长	-16180
格曼	-16181
泛滥	-16182
激起	-16183
看得	-16184
级的	-16185
船上	-16186
苏尔	-16187
蓝色	-16188
视野	-16189
赫勒	-16190
转运	-16191
还与	-16192
遗弃	-16193
静止	-16194
音像	-16195
ide	-16196
▁技术	-16197
不能在	-16198
其实是	-16199
出租车	-16200
创新和	-16201
和维修	-16202
困难和	-16203
威胁着	-16204
审议和	-16205
尤其在	-16206
就在于	-16207
应加强	-16208
座谈会	-16209
慢慢地	-16210
成一个	-16211
我非常	-16212
扩展到	-16213
来加强	-16214
消费量	-16215
的下降	-16216
的出现	-16217
的对话	-16218
表决权	-16219
阿卜杜	-16220
任何人都	-16221
其他有关	-16222
劳动者的	-16223
只有通过	-16224
和平协议	-16225
无家可归	-16226
权力下放	-16227
直升飞机	-16228
表示怀疑	-16229
要求提供	-16230
议程上的	-16231
诺贝尔奖	-16232
资料来源	-16233
银行体系	-16234
严重的问题	-16235
年中期计划	-16236
▁第一百四十	-16237
和平与稳定的	-16238
民用航空主管部门	-16239
▁国际货币基金组织	-16240
Sy	-16241
中都	-16242
传真	-16243
佣金	-16244
全境	-16245
出入	-16246
列明	-16247
利斯	-16248
实业	-16249
心情	-16250
悄悄	-16251
断定	-16252
最少	-16253
母乳	-16254
炮击	-16255
白天	-16256
致死	-16257
见表	-16258
贫民	-16259
Hen	-16260
▁de	-16261
▁苏丹	-16262
个项目	-16263
事业的	-16264
二十四	-16265
产生于	-16266
任命为	-16267
伯南克	-16268
储蓄率	-16269
决定和	-16270
分公司	-16271
包括其	-16272
区内的	-16273
威士兰	-16274
客户的	-16275
将促进	-16276
小部分	-16277
年以后	-16278
广东省	-16279
是怎样	-16280
有一半	-16281
由一个	-16282
由于其	-16283
的理想	-16284
真实的	-16285
第八条	-16286
金融城	-16287
1700	-16288
▁“5.	-16289
双边贸易	-16290
奠定基础	-16291
妥善解决	-16292
实际行动	-16293
操作系统	-16294
更重要的	-16295
民族团结	-16296
自愿基金	-16297
重新开始	-16298
▁本项目下	-16299
全球经济的	-16300
所作的承诺	-16301
联合国教育	-16302
巴勒斯坦人的	-16303
流离失所的人	-16304
黑塞哥维那的	-16305
America	-16306
多米尼加共和国	-16307
所需经费估计数	-16308
▁‘	-16309
▁世	-16310
倘若	-16311
别处	-16312
向各	-16313
哪种	-16314
在场	-16315
存入	-16316
州和	-16317
政坛	-16318
斯勒	-16319
的后	-16320
眼泪	-16321
科托	-16322
过往	-16323
连带	-16324
103	-16325
You	-16326
▁官方	-16327
▁海关	-16328
个基点	-16329
之上的	-16330
再平衡	-16331
制订的	-16332
力所能	-16333
同意在	-16334
和德国	-16335
增强了	-16336
女人的	-16337
将这一	-16338
已达到	-16339
意思是	-16340
旅游局	-16341
的记录	-16342
第一项	-16343
肯尼迪	-16344
莫过于	-16345
行动中	-16346
▁在英国	-16347
▁该方案	-16348
▁进一步	-16349
之间存在	-16350
以便确保	-16351
历史建筑	-16352
合作项目	-16353
审议工作	-16354
教育方案	-16355
每届任期	-16356
民主体制	-16357
管理规定	-16358
自决权利	-16359
认为自己	-16360
这种现象	-16361
▁重要的是	-16362
从一开始就	-16363
作出的贡献	-16364
武装冲突中	-16365
面临的挑战	-16366
▁更糟糕的是	-16367
不难	-16368
之手	-16369
前沿	-16370
哥哥	-16371
国立	-16372
备用	-16373
已就	-16374
常任	-16375
承保	-16376
撤消	-16377
放大	-16378
是用	-16379
服用	-16380
概要	-16381
留学	-16382
终端	-16383
缺席	-16384
这会	-16385
钟头	-16386
116	-16387
Sal	-16388
▁在该	-16389
▁朝鲜	-16390
任务时	-16391
但这一	-16392
你需要	-16393
副作用	-16394
和要求	-16395
多学科	-16396
并重申	-16397
开支的	-16398
必然会	-16399
斯科尼	-16400
是确保	-16401
核安全	-16402
照顾到	-16403
的主席	-16404
的人才	-16405
而中国	-16406
进口国	-16407
30%,	-16408
Will	-16409
▁97.	-16410
世界会议	-16411
临时代办	-16412
为了确保	-16413
加强国家	-16414
后勤支助	-16415
应考虑到	-16416
方面进行	-16417
有人指出	-16418
特立尼达	-16419
的美国人	-16420
证明文件	-16421
选举结果	-16422
造成重大	-16423
,2005	-16424
县级以上的	-16425
方面的进展	-16426
特别是那些	-16427
问题工作组	-16428
非正式磋商	-16429
▁第五十五条	-16430
发展中国家在	-16431
对直接负责的	-16432
中华人民共和国公民	-16433
EU	-16434
ru	-16435
之害	-16436
亚历	-16437
但她	-16438
公债	-16439
决不	-16440
口气	-16441
听着	-16442
国库	-16443
在她	-16444
壮大	-16445
夜间	-16446
失控	-16447
学费	-16448
恋爱	-16449
慰问	-16450
承租	-16451
果真	-16452
楼宇	-16453
溢价	-16454
的重	-16455
范例	-16456
远未	-16457
CON	-16458
Moh	-16459
▁本周	-16460
▁现代	-16461
三十年	-16462
与国家	-16463
北部的	-16464
同时还	-16465
和人口	-16466
和医疗	-16467
地指出	-16468
增值税	-16469
或宗教	-16470
所用的	-16471
损害了	-16472
梅德韦	-16473
现阶段	-16474
男性的	-16475
的日本	-16476
的疾病	-16477
看见了	-16478
签署国	-16479
补充道	-16480
要求对	-16481
限制和	-16482
集装箱	-16483
农村妇女	-16484
决策过程	-16485
冷战结束	-16486
几个月来	-16487
力所能及	-16488
加紧努力	-16489
大多数人	-16490
已经结束	-16491
新的国际	-16492
易受伤害	-16493
的问题时	-16494
5,000	-16495
各种各样的	-16496
规定的权限	-16497
红十字委员会	-16498
土地使用权出让	-16499
本行政区域内的	-16500
民族自治地方的自治机关	-16501
5(	-16502
Ag	-16503
▁老	-16504
上演	-16505
不被	-16506
专长	-16507
伊科	-16508
做过	-16509
四处	-16510
回复	-16511
夜里	-16512
年头	-16513
思路	-16514
成交	-16515
我又	-16516
文艺	-16517
林木	-16518
物的	-16519
胁迫	-16520
让其	-16521
讯息	-16522
赶上	-16523
身处	-16524
辛基	-16525
顾虑	-16526
35%	-16527
ney	-16528
oll	-16529
▁就连	-16530
▁欧元	-16531
之前就	-16532
事项外	-16533
作为对	-16534
十五日	-16535
发电机	-16536
听起来	-16537
和各种	-16538
商标局	-16539
在选举	-16540
基督徒	-16541
层面的	-16542
已超过	-16543
很清楚	-16544
手中的	-16545
提供者	-16546
撒切尔	-16547
是不会	-16548
正面临	-16549
的补充	-16550
的货物	-16551
管理员	-16552
视察团	-16553
▁新西兰	-16554
他们能够	-16555
作出积极	-16556
列入议程	-16557
原油价格	-16558
多边主义	-16559
密切相关	-16560
欧盟国家	-16561
社会生活	-16562
简要记录	-16563
财政预算	-16564
这些会议	-16565
进行监督	-16566
之日起计算	-16567
区域办事处	-16568
处三年以上	-16569
的经济政策	-16570
问题的解决	-16571
▁第五十四条	-16572
联合国保护部队	-16573
ax	-16574
ix	-16575
▁加	-16576
▁美	-16577
一是	-16578
万多	-16579
上加	-16580
为由	-16581
交货	-16582
他信	-16583
他要	-16584
会长	-16585
占总	-16586
发掘	-16587
四项	-16588
尚不	-16589
总会	-16590
搁置	-16591
攻势	-16592
无从	-16593
深思	-16594
特和	-16595
生理	-16596
的长	-16597
硅谷	-16598
穿越	-16599
竟然	-16600
而使	-16601
言语	-16602
邮寄	-16603
降息	-16604
edu	-16605
▁第八	-16606
▁项目	-16607
下降至	-16608
不容易	-16609
丧失了	-16610
为国家	-16611
促成了	-16612
加斯加	-16613
合法化	-16614
周期性	-16615
和瑞典	-16616
在很多	-16617
坏消息	-16618
年全球	-16619
并决定	-16620
承担了	-16621
无前例	-16622
着一个	-16623
精神和	-16624
继续同	-16625
25%,	-16626
▁新闻部	-16627
▁这方面	-16628
公平分配	-16629
国家主席	-16630
国际收支	-16631
工作文件	-16632
提供一切	-16633
是我们的	-16634
特别方案	-16635
环境管理	-16636
的外国人	-16637
缔结或者	-16638
是很重要的	-16639
特设委员会	-16640
依照本法规定	-16641
结构调整方案	-16642
解决这些问题	-16643
OL	-16644
▁达	-16645
丝毫	-16646
低廉	-16647
储藏	-16648
内需	-16649
可向	-16650
常态	-16651
当初	-16652
思议	-16653
惠及	-16654
捕获	-16655
搬到	-16656
板上	-16657
民法	-16658
走的	-16659
阻力	-16660
驻华	-16661
▁当你	-16662
人人都	-16663
人们所	-16664
充斥着	-16665
占全球	-16666
可根据	-16667
在适当	-16668
失败了	-16669
实在在	-16670
宣布的	-16671
将大大	-16672
将自己	-16673
展开了	-16674
巴塞尔	-16675
开发署	-16676
德国人	-16677
执政党	-16678
由当地	-16679
的系统	-16680
的边缘	-16681
第九届	-16682
该领土	-16683
赞助商	-16684
▁问题是	-16685
不可逆转	-16686
保护儿童	-16687
大力发展	-16688
实实在在	-16689
已经有了	-16690
广播公司	-16691
所通过的	-16692
款的规定	-16693
每个人都	-16694
秘书处在	-16695
重要性的	-16696
▁下列国家	-16697
冷战的结束	-16698
政策制定者	-16699
国际刑事法院	-16700
人民代表大会常务委员会	-16701
05	-16702
一把	-16703
乡镇	-16704
云南	-16705
信件	-16706
全职	-16707
哺乳	-16708
完了	-16709
对新	-16710
崇拜	-16711
已婚	-16712
废墟	-16713
弹道	-16714
所犯	-16715
拉拉	-16716
放慢	-16717
服役	-16718
未知	-16719
母婴	-16720
比勒	-16721
潜能	-16722
走路	-16723
这使	-16724
遗余	-16725
青睐	-16726
280	-16727
Ins	-16728
ink	-16729
lan	-16730
▁它也	-16731
▁瑞士	-16732
两年内	-16733
了他们	-16734
决定不	-16735
包括为	-16736
反腐败	-16737
发动机	-16738
和欧盟	-16739
因为她	-16740
圣地亚	-16741
媒体的	-16742
对古巴	-16743
对未来	-16744
将如何	-16745
并实施	-16746
清算组	-16747
甚至连	-16748
的经历	-16749
的资本	-16750
的通知	-16751
第二项	-16752
等待着	-16753
苏维埃	-16754
与以色列	-16755
人口问题	-16756
出席会议	-16757
动物防疫	-16758
史无前例	-16759
国内政治	-16760
在俄罗斯	-16761
强劲增长	-16762
所引起的	-16763
抗议活动	-16764
提交报告	-16765
无人地带	-16766
是否可能	-16767
深切关注	-16768
组织实施	-16769
融入社会	-16770
要求我们	-16771
铁路运输	-16772
▁这些活动	-16773
国家规定的	-16774
的和平进程	-16775
越来越大的	-16776
100000	-16777
▁安理会成员	-16778
合作伙伴关系	-16779
撒哈拉以南非洲	-16780
1992-1997	-16781
一看	-16782
不致	-16783
但又	-16784
决赛	-16785
出庭	-16786
卢比	-16787
宇航	-16788
容器	-16789
所欲	-16790
抛售	-16791
是非	-16792
比绍	-16793
水文	-16794
热量	-16795
老婆	-16796
聊天	-16797
致电	-16798
较快	-16799
迁往	-16800
适度	-16801
Ber	-16802
▁但当	-16803
▁利用	-16804
▁我也	-16805
从而为	-16806
他回答	-16807
你就会	-16808
使用费	-16809
卫生署	-16810
在当前	-16811
埃博拉	-16812
太子港	-16813
尼古拉	-16814
很少有	-16815
核电站	-16816
的另一	-16817
的成就	-16818
的语言	-16819
股东会	-16820
说明书	-16821
那么多	-16822
Comp	-16823
两个星期	-16824
交通工具	-16825
人的生活	-16826
以及如何	-16827
全球会议	-16828
其中转递	-16829
各种形式	-16830
名伊拉克	-16831
政府必须	-16832
教育事业	-16833
积极影响	-16834
自给自足	-16835
评级机构	-16836
难民问题	-16837
任何形式的	-16838
差价调整数	-16839
拥有核武器	-16840
提供的服务	-16841
条例和细则	-16842
次全体会议	-16843
的国际组织	-16844
的货币政策	-16845
JPMorgan	-16846
8)	-16847
Is	-16848
NC	-16849
▁德	-16850
一艘	-16851
不振	-16852
它也	-16853
开庭	-16854
打败	-16855
把钱	-16856
政体	-16857
无误	-16858
是按	-16859
正统	-16860
章节	-16861
篮球	-16862
贮存	-16863
轮流	-16864
郊区	-16865
错的	-16866
101	-16867
Mic	-16868
PLC	-16869
gov	-16870
her	-16871
lin	-16872
ram	-16873
▁支持	-16874
中包括	-16875
了一下	-16876
元首们	-16877
准确地	-16878
制定和	-16879
半小时	-16880
和关于	-16881
和基本	-16882
在保护	-16883
在发生	-16884
在政府	-16885
多万人	-16886
对某些	-16887
将会是	-16888
建设的	-16889
每两年	-16890
的知识	-16891
的破坏	-16892
的进口	-16893
的部队	-16894
监护人	-16895
相信我	-16896
相关性	-16897
能源的	-16898
选定的	-16899
金正日	-16900
1963	-16901
▁(3)	-16902
所确定的	-16903
政策问题	-16904
有很大的	-16905
法律顾问	-16906
财务主任	-16907
问题在于	-16908
高级代表	-16909
15000	-16910
▁在联合国	-16911
外交政策的	-16912
必须考虑到	-16913
全面和平协定	-16914
教育行政部门	-16915
执行情况的报告	-16916
经济及社会理事会第	-16917
联合国难民事务高级专员办事处	-16918
$3	-16919
(《	-16920
中午	-16921
事的	-16922
侵入	-16923
俘虏	-16924
出路	-16925
动于	-16926
化工	-16927
告终	-16928
回升	-16929
增拨	-16930
失灵	-16931
子和	-16932
学系	-16933
戴尔	-16934
消化	-16935
热点	-16936
真空	-16937
稀少	-16938
肯锡	-16939
腺癌	-16940
赤道	-16941
退税	-16942
顶尖	-16943
28.	-16944
不一致	-16945
与协调	-16946
为了使	-16947
亿人口	-16948
以增加	-16949
工资和	-16950
已有的	-16951
我并不	-16952
投票站	-16953
是促进	-16954
是那些	-16955
曾经是	-16956
检查站	-16957
的股价	-16958
的这种	-16959
移交给	-16960
行为和	-16961
被判处	-16962
该银行	-16963
迈出了	-16964
这将是	-16965
通讯社	-16966
人口活动	-16967
人民生活	-16968
全球金融	-16969
商业票据	-16970
圣地亚哥	-16971
审批机关	-16972
对中国的	-16973
才有可能	-16974
接下来的	-16975
新闻机构	-16976
日在纽约	-16977
是错误的	-16978
森林资源	-16979
紧密合作	-16980
需要的是	-16981
▁1987	-16982
一次会议上	-16983
伊斯坦布尔	-16984
和技术合作	-16985
安理会主席	-16986
特别是通过	-16987
的各项活动	-16988
贸易自由化	-16989
部分原因是	-16990
随之而来的	-16991
气候变化问题	-16992
采取有效措施	-16993
条例和单行条例	-16994
行政协调委员会	-16995
AB	-16996
EL	-16997
]。	-16998
oz	-16999
严密	-17000
了近	-17001
交出	-17002
化为	-17003
卖掉	-17004
名词	-17005
土库	-17006
够了	-17007
实况	-17008
宣读	-17009
春季	-17010
晚间	-17011
更强	-17012
煤气	-17013
粗暴	-17014
诉求	-17015
豪华	-17016
问我	-17017
顶峰	-17018
/24	-17019
;(	-17020
Nor	-17021
Tom	-17022
▁据说	-17023
▁长期	-17024
▁	-17025
一次性	-17026
为推动	-17027
什么是	-17028
军队和	-17029
出一个	-17030
分析了	-17031
及发展	-17032
可能比	-17033
和重新	-17034
在西藏	-17035
我们能	-17036
所在的	-17037
提高对	-17038
的儿子	-17039
的恐惧	-17040
真诚地	-17041
这部分	-17042
销售的	-17043
鼓励和	-17044
1300	-17045
1600	-17046
1948	-17047
Bill	-17048
▁99.	-17049
▁结果是	-17050
▁该项目	-17051
不可持续	-17052
内容包括	-17053
和平共处	-17054
在华盛顿	-17055
奥巴马的	-17056
完全符合	-17057
将是一个	-17058
建议大会	-17059
执法机构	-17060
提交大会	-17061
收入分配	-17062
财务会计	-17063
赫尔辛基	-17064
身体健康	-17065
还有很多	-17066
代表团希望	-17067
意味着什么	-17068
欧洲安全和	-17069
的主要目标	-17070
第三个十年	-17071
缔约方会议	-17072
联合王国和	-17073
世界人权会议	-17074
安全理事会对	-17075
所列经费用于	-17076
技术合作活动	-17077
越来越多的人	-17078
Paulson	-17079
上风	-17080
争辩	-17081
刑警	-17082
宗派	-17083
尼拉	-17084
左派	-17085
愈来	-17086
持股	-17087
族群	-17088
海洛	-17089
神秘	-17090
罕见	-17091
而后	-17092
设的	-17093
转入	-17094
选战	-17095
6)。	-17096
ARS	-17097
amb	-17098
▁一种	-17099
▁父亲	-17100
了解和	-17101
他们说	-17102
制度化	-17103
动于衷	-17104
土库曼	-17105
如果在	-17106
将出现	-17107
总体上	-17108
愈来愈	-17109
斯蒂芬	-17110
的年度	-17111
禁止在	-17112
第七条	-17113
被指控	-17114
设计师	-17115
路线图	-17116
60%。	-17117
▁98.	-17118
世界妇女	-17119
严格控制	-17120
军事干预	-17121
各不相同	-17122
坚持认为	-17123
有关资料	-17124
正式语文	-17125
筹备会议	-17126
经营管理	-17127
这些挑战	-17128
这些权利	-17129
需要时间	-17130
▁平心而论	-17131
一位发言者	-17132
以外的其他	-17133
使我们能够	-17134
政府间谈判	-17135
生产率增长	-17136
的不利影响	-17137
经济增长的	-17138
化学武器公约	-17139
各项有关决议	-17140
而采取的措施	-17141
依照刑法第一百	-17142
专职	-17143
优越	-17144
利的	-17145
参选	-17146
发的	-17147
开门	-17148
德的	-17149
摒弃	-17150
明文	-17151
有罪	-17152
有钱	-17153
洗手	-17154
牢记	-17155
确有	-17156
▁中心	-17157
▁她在	-17158
▁波兰	-17159
之间在	-17160
伊朗和	-17161
元以上	-17162
和南非	-17163
和台湾	-17164
和社区	-17165
国与国	-17166
在那儿	-17167
地执行	-17168
技术上	-17169
改善其	-17170
有权对	-17171
相一致	-17172
稳定与	-17173
空前的	-17174
详细地	-17175
鲁哈尼	-17176
作出任何	-17177
全球市场	-17178
具体问题	-17179
外资银行	-17180
应当具备	-17181
总部设在	-17182
感到遗憾	-17183
提供足够	-17184
提高效率	-17185
服务中心	-17186
直辖市的	-17187
训练中心	-17188
该公司的	-17189
适用本法	-17190
非洲经济	-17191
▁遗憾的是	-17192
代表团欢迎	-17193
共和国总统	-17194
几内亚比绍	-17195
区域委员会	-17196
OP	-17197
iP	-17198
▁另	-17199
二百	-17200
伸出	-17201
借钱	-17202
公吨	-17203
兼容	-17204
喂养	-17205
噪音	-17206
多余	-17207
就可	-17208
帮忙	-17209
年第	-17210
总计	-17211
战俘	-17212
款下	-17213
电动	-17214
给人	-17215
那边	-17216
重演	-17217
防火	-17218
颇具	-17219
▁前款	-17220
▁明天	-17221
任命的	-17222
充分和	-17223
利润率	-17224
前总理	-17225
如此之	-17226
对英国	-17227
已采取	-17228
按规定	-17229
日以来	-17230
比美国	-17231
的对象	-17232
被告人	-17233
被逮捕	-17234
八十年代	-17235
包括关于	-17236
可以获得	-17237
国际水道	-17238
对此有何	-17239
很重要的	-17240
我的朋友	-17241
有利可图	-17242
根本利益	-17243
正在发生	-17244
禁止生产	-17245
积极进展	-17246
紧急行动	-17247
脱离接触	-17248
阿拉法特	-17249
预防犯罪	-17250
感谢秘书长	-17251
和平解决争端	-17252
开发计划署和	-17253
红十字国际委员会	-17254
国民经济和社会发展	-17255
FreddieMac	-17256
NP	-17257
▁萨	-17258
、“	-17259
中说	-17260
为新	-17261
争吵	-17262
于此	-17263
倾斜	-17264
奥塞	-17265
已久	-17266
干活	-17267
拉动	-17268
海里	-17269
涌现	-17270
眼镜	-17271
考绩	-17272
辉煌	-17273
进军	-17274
重创	-17275
182	-17276
99.	-17277
que	-17278
▁方案	-17279
与他们	-17280
二十五	-17281
再就业	-17282
准备在	-17283
和实现	-17284
委托人	-17285
家银行	-17286
小组的	-17287
并取得	-17288
并建立	-17289
性质和	-17290
愿意在	-17291
是国家	-17292
本阶段	-17293
由中国	-17294
的一面	-17295
的内部	-17296
的批准	-17297
确实是	-17298
认为它	-17299
1100	-17300
ward	-17301
事实证明	-17302
债权人的	-17303
加入欧盟	-17304
可以看出	-17305
在过去的	-17306
当选总统	-17307
快速发展	-17308
成为世界	-17309
民族国家	-17310
的一体化	-17311
能源供应	-17312
违反法律	-17313
马解阵线	-17314
James	-17315
常驻代表团	-17316
提出了一些	-17317
新兴市场的	-17318
本次级方案	-17319
的行动计划	-17320
交通主管部门	-17321
联合国非洲发展新议程	-17322
▁啊	-17323
、《	-17324
下半	-17325
两地	-17326
中也	-17327
为我	-17328
倾倒	-17329
全心	-17330
卡斯	-17331
召回	-17332
岛国	-17333
得更	-17334
散播	-17335
无一	-17336
曾是	-17337
植树	-17338
沃斯	-17339
源头	-17340
激怒	-17341
相处	-17342
肩膀	-17343
诚信	-17344
起见	-17345
34.	-17346
▁关键	-17347
▁截止	-17348
为人民	-17349
为首的	-17350
低估了	-17351
克先生	-17352
号法令	-17353
和国内	-17354
威胁的	-17355
完成其	-17356
官员和	-17357
将获得	-17358
年收入	-17359
必须把	-17360
我建议	-17361
日下午	-17362
有效率	-17363
来源的	-17364
核扩散	-17365
的一段	-17366
这一次	-17367
1964	-17368
人权领域	-17369
共同关心	-17370
努力促进	-17371
协调发展	-17372
卢斯科尼	-17373
工作计划	-17374
建设一个	-17375
政府支出	-17376
最近几年	-17377
本项目下	-17378
电力设施	-17379
的国家中	-17380
继续提供	-17381
退休人员	-17382
1990-	-17383
▁2010	-17384
不结盟国家	-17385
委员会会议	-17386
而不仅仅是	-17387
联索行动的	-17388
▁委员会认为	-17389
国际人权文书	-17390
Reserve	-17391
不限成员名额工作组	-17392
,」	-17393
世人	-17394
作主	-17395
偏向	-17396
基亚	-17397
婚礼	-17398
寒冷	-17399
将比	-17400
年期	-17401
普罗	-17402
更难	-17403
毗邻	-17404
波音	-17405
浓度	-17406
直觉	-17407
说出	-17408
身后	-17409
迪拜	-17410
选拔	-17411
陆路	-17412
117	-17413
▁各种	-17414
▁它在	-17415
▁申请	-17416
世纪初	-17417
为那些	-17418
于今年	-17419
以反映	-17420
保证金	-17421
几分钟	-17422
去杠杆	-17423
发病率	-17424
和债务	-17425
和彻底	-17426
商品和	-17427
审议其	-17428
将开始	-17429
将无法	-17430
将超过	-17431
就如何	-17432
斯坦福	-17433
最低的	-17434
死亡和	-17435
法官的	-17436
漂亮的	-17437
的一样	-17438
的重点	-17439
类别的	-17440
结束的	-17441
自然的	-17442
论坛上	-17443
谈到了	-17444
起诉书	-17445
这些新	-17446
ound	-17447
▁他希望	-17448
两国政府	-17449
互利合作	-17450
以及通过	-17451
任务期间	-17452
全面发展	-17453
几十年的	-17454
和发展的	-17455
国有资产	-17456
年代中期	-17457
弗里德曼	-17458
快速反应	-17459
或者使用	-17460
新兴国家	-17461
有效利用	-17462
法律框架	-17463
的候选人	-17464
被占领土	-17465
载有关于	-17466
这一点上	-17467
风俗习惯	-17468
土著人民的	-17469
提出了一个	-17470
日益增长的	-17471
▁国际社会应	-17472
和经济及社会	-17473
的宗旨和原则	-17474
布雷顿森林机构	-17475
向种族主义和种族歧视进行战斗	-17476
%;	-17477
)”	-17478
’。	-17479
▁法	-17480
世代	-17481
中型	-17482
以西	-17483
信赖	-17484
原状	-17485
同各	-17486
将此	-17487
执勤	-17488
摄氏	-17489
案的	-17490
橄榄	-17491
特洛	-17492
的低	-17493
眼里	-17494
艾尔	-17495
莱特	-17496
这套	-17497
通告	-17498
4)。	-17499
lic	-17500
▁下面	-17501
▁你想	-17502
▁负责	-17503
不明白	-17504
为主的	-17505
为所有	-17506
分别在	-17507
到一个	-17508
加强在	-17509
周年的	-17510
和减少	-17511
审计员	-17512
平民的	-17513
我回答	-17514
描述为	-17515
格拉斯	-17516
每一项	-17517
由于在	-17518
的不满	-17519
的总统	-17520
被发现	-17521
视而不	-17522
这不仅	-17523
Fund	-17524
Jeff	-17525
Tube	-17526
▁卢旺达	-17527
▁如果说	-17528
▁审议了	-17529
▁我觉得	-17530
今天上午	-17531
只能通过	-17532
大力支持	-17533
工业革命	-17534
应当符合	-17535
是否需要	-17536
有关组织	-17537
能源价格	-17538
▁其中包括	-17539
▁美国总统	-17540
外资企业的	-17541
规定的义务	-17542
▁印度尼西亚	-17543
水行政主管部门	-17544
5/	-17545
Gu	-17546
九个	-17547
也使	-17548
住院	-17549
全区	-17550
升温	-17551
后期	-17552
固然	-17553
坦率	-17554
对面	-17555
慢性	-17556
或以	-17557
托夫	-17558
把手	-17559
折合	-17560
查处	-17561
测验	-17562
演奏	-17563
物力	-17564
界的	-17565
的了	-17566
的爱	-17567
着她	-17568
者是	-17569
能以	-17570
赛因	-17571
跟我	-17572
那次	-17573
750	-17574
ara	-17575
uel	-17576
▁家庭	-17577
严重性	-17578
人民在	-17579
修订的	-17580
化合物	-17581
告诉她	-17582
员额的	-17583
和法国	-17584
层面上	-17585
并以此	-17586
理解和	-17587
的协商	-17588
知道了	-17589
种类的	-17590
第四条	-17591
经济中	-17592
给我的	-17593
艾哈迈	-17594
解释为	-17595
还认为	-17596
限度的	-17597
颁布的	-17598
1900	-17599
1961	-17600
▁但中国	-17601
个人电脑	-17602
健康问题	-17603
我们看到	-17604
我们自己	-17605
无动于衷	-17606
有系统地	-17607
海事组织	-17608
的情况是	-17609
管理当局	-17610
紧张关系	-17611
这是一种	-17612
这种状况	-17613
进行斗争	-17614
高速公路	-17615
▁美国政府	-17616
伊科观察团	-17617
国际和区域	-17618
建设性作用	-17619
意见和建议	-17620
特别协调员	-17621
的主要责任	-17622
▁第一百五十	-17623
人道主义组织	-17624
二次	-17625
交由	-17626
介意	-17627
信函	-17628
化肥	-17629
头寸	-17630
寡头	-17631
巴哥	-17632
往返	-17633
悬挂	-17634
所应	-17635
有助	-17636
永恒	-17637
治沙	-17638
盼望	-17639
礼拜	-17640
秋季	-17641
经销	-17642
老鼠	-17643
舞蹈	-17644
要好	-17645
评定	-17646
33.	-17647
law	-17648
保险费	-17649
医疗和	-17650
合理地	-17651
好几个	-17652
对不起	-17653
巴士拉	-17654
应该为	-17655
或者说	-17656
收益的	-17657
新产品	-17658
机制和	-17659
然后再	-17660
监测与	-17661
结果的	-17662
结核病	-17663
运行的	-17664
连续性	-17665
1955	-17666
ison	-17667
▁申请人	-17668
一致意见	-17669
世界秩序	-17670
他们必须	-17671
共同基金	-17672
和多巴哥	-17673
国际和平	-17674
大会关于	-17675
投资项目	-17676
日秘书长	-17677
水和卫生	-17678
经济援助	-17679
还注意到	-17680
这一决定	-17681
透明度和	-17682
驻地代表	-17683
总理默克尔	-17684
清楚地表明	-17685
的各种问题	-17686
Office	-17687
解决这一问题	-17688
,1	-17689
”:	-17690
▁时	-17691
▁水	-17692
与日	-17693
之比	-17694
们在	-17695
发证	-17696
唯有	-17697
山区	-17698
投放	-17699
教养	-17700
既得	-17701
有三	-17702
照明	-17703
称呼	-17704
莫斯	-17705
车站	-17706
较多	-17707
过失	-17708
退役	-17709
部和	-17710
青春	-17711
27.	-17712
3)。	-17713
:00	-17714
uts	-17715
ver	-17716
▁原因	-17717
▁和平	-17718
▁警察	-17719
下进行	-17720
不得在	-17721
不足的	-17722
与交流	-17723
为目的	-17724
了有关	-17725
以及各	-17726
列出了	-17727
则认为	-17728
双方在	-17729
并不像	-17730
忘记了	-17731
感谢你	-17732
所规定	-17733
本方案	-17734
由美国	-17735
病人的	-17736
的失败	-17737
的工人	-17738
的框架	-17739
科托努	-17740
行动者	-17741
购买了	-17742
难民署	-17743
▁“6.	-17744
不适用于	-17745
公平竞争	-17746
卓有成效	-17747
发表评论	-17748
大部分是	-17749
对我们的	-17750
应该成为	-17751
现在正在	-17752
组织会议	-17753
经济制裁	-17754
7,000	-17755
▁101.	-17756
届会议期间	-17757
核武器扩散	-17758
的各项建议	-17759
造成损失的	-17760
感到遗憾的是	-17761
▁今年早些时候	-17762
CR	-17763
、4	-17764
假日	-17765
听从	-17766
备受	-17767
婚前	-17768
学的	-17769
岩石	-17770
已故	-17771
并让	-17772
感冒	-17773
我得	-17774
拉特	-17775
是把	-17776
暴动	-17777
步入	-17778
没法	-17779
禁飞	-17780
科尔	-17781
算是	-17782
置信	-17783
胡子	-17784
表态	-17785
财长	-17786
蹂躏	-17787
麻痹	-17788
ral	-17789
▁请问	-17790
上海市	-17791
与技术	-17792
了我的	-17793
以及其	-17794
你应该	-17795
卫生和	-17796
发挥着	-17797
另一位	-17798
向公众	-17799
和利益	-17800
固定的	-17801
在关于	-17802
很长的	-17803
机构中	-17804
独立于	-17805
电视机	-17806
该中心	-17807
那个人	-17808
FDIC	-17809
Jean	-17810
不同的是	-17811
个会员国	-17812
人工智能	-17813
令人信服	-17814
克里米亚	-17815
刚刚开始	-17816
召开会议	-17817
实现这一	-17818
将不得不	-17819
就此结束	-17820
德克萨斯	-17821
所需费用	-17822
提高利率	-17823
普遍接受	-17824
最低生活	-17825
最有可能	-17826
的全球性	-17827
而造成的	-17828
证据显示	-17829
进行调整	-17830
▁102.	-17831
在国际一级	-17832
梅德韦杰夫	-17833
申请之日起	-17834
的不确定性	-17835
非正式会议	-17836
高级别会议	-17837
▁中国共产党	-17838
在安全理事会	-17839
Federal	-17840
lo	-17841
与你	-17842
也比	-17843
五月	-17844
储户	-17845
出一	-17846
十月	-17847
原文	-17848
启用	-17849
地铁	-17850
多极	-17851
大米	-17852
应计	-17853
底下	-17854
开工	-17855
当家	-17856
心态	-17857
提早	-17858
步行	-17859
特种	-17860
电厂	-17861
积压	-17862
移送	-17863
等同	-17864
筹划	-17865
维斯	-17866
自相	-17867
这让	-17868
饮酒	-17869
1.0	-17870
128	-17871
44/	-17872
▁之后	-17873
▁增加	-17874
不会再	-17875
以便利	-17876
受托人	-17877
名学生	-17878
和分发	-17879
和支助	-17880
坐下来	-17881
外交和	-17882
大得多	-17883
尽管在	-17884
总统在	-17885
服务于	-17886
民众的	-17887
特权和	-17888
用途的	-17889
的事物	-17890
的体制	-17891
监事会	-17892
第二轮	-17893
这个人	-17894
预示着	-17895
arty	-17896
▁但美国	-17897
不能接受	-17898
了他们的	-17899
人权文书	-17900
公共债务	-17901
因为这是	-17902
妥善处理	-17903
市场价格	-17904
应当给予	-17905
性别问题	-17906
无条件地	-17907
直接参与	-17908
觉得自己	-17909
谈判进程	-17910
这一概念	-17911
Elect	-17912
▁100.	-17913
会议室举行	-17914
各区域组织	-17915
和政府首脑	-17916
国际合作的	-17917
多大程度上	-17918
时间的推移	-17919
通知委员会	-17920
ington	-17921
经常项目赤字	-17922
特立尼达和多巴哥	-17923
联合国海洋法公约	-17924
GO	-17925
▁祝	-17926
亿万	-17927
但要	-17928
倒台	-17929
兴办	-17930
准时	-17931
分辨	-17932
吞并	-17933
大军	-17934
如有	-17935
开心	-17936
我都	-17937
扶养	-17938
担当	-17939
格陵	-17940
港务	-17941
甚么	-17942
疲弱	-17943
缘故	-17944
落入	-17945
辩解	-17946
闭幕	-17947
850	-17948
▁还是	-17949
下一步	-17950
下文第	-17951
反对票	-17952
因为你	-17953
它必须	-17954
尊重和	-17955
或其它	-17956
最大化	-17957
的议程	-17958
而采取	-17959
草案的	-17960
萨里奥	-17961
证明书	-17962
这里的	-17963
▁在某些	-17964
不可缺少	-17965
借贷成本	-17966
团结一致	-17967
国际环境	-17968
提供基本	-17969
提供适当	-17970
日国务院	-17971
日本经济	-17972
法律体系	-17973
火炬传递	-17974
社会秩序	-17975
空气质量	-17976
立法机关	-17977
经济效益	-17978
证券登记	-17979
这些报告	-17980
重大变化	-17981
和精神药物	-17982
George	-17983
.6	-17984
▁m	-17985
▁后	-17986
▁象	-17987
东海	-17988
冒着	-17989
几家	-17990
剧院	-17991
卖给	-17992
去的	-17993
变造	-17994
和西	-17995
因果	-17996
外币	-17997
多德	-17998
太少	-17999
存货	-18000
尔摩	-18001
并论	-18002
应能	-18003
忙于	-18004
恶意	-18005
斯顿	-18006
是向	-18007
枢纽	-18008
欠缺	-18009
礼貌	-18010
票对	-18011
繁忙	-18012
自私	-18013
贸发	-18014
超支	-18015
109	-18016
270	-18017
35.	-18018
ini	-18019
▁改善	-18020
个月中	-18021
个月后	-18022
中西部	-18023
准军事	-18024
发挥其	-18025
和完善	-18026
和报告	-18027
希望和	-18028
格陵兰	-18029
的人物	-18030
的地点	-18031
的监管	-18032
的考虑	-18033
能够对	-18034
计划将	-18035
还不如	-18036
CONF	-18037
▁副主席	-18038
主管当局	-18039
任何一方	-18040
共同目标	-18041
前所未有	-18042
加倍努力	-18043
国家联盟	-18044
国际移徙	-18045
宏观调控	-18046
政治上的	-18047
深为关切	-18048
紧急措施	-18049
美国公司	-18050
表现出的	-18051
需要作出	-18052
一个国家的	-18053
的所有方面	-18054
United	-18055
联合国人口基金	-18056
贸易和发展会议	-18057
联合国环境与发展会议	-18058
常驻联合国代表团临时代办	-18059
Fi	-18060
五天	-18061
价还	-18062
会把	-18063
全意	-18064
判定	-18065
可使	-18066
年对	-18067
我问	-18068
所用	-18069
摩擦	-18070
望远	-18071
未被	-18072
本署	-18073
治愈	-18074
照射	-18075
的三	-18076
胜过	-18077
该会	-18078
贵族	-18079
躺在	-18080
遵行	-18081
重型	-18082
29.	-18083
Roy	-18084
▁具有	-18085
▁石油	-18086
了一位	-18087
以及向	-18088
停止了	-18089
公众的	-18090
出版了	-18091
和所有	-18092
地看着	-18093
它可以	-18094
成百上	-18095
替代品	-18096
架飞机	-18097
演变为	-18098
而是在	-18099
蛋白质	-18100
不断恶化	-18101
中国股市	-18102
中的地位	-18103
优先地位	-18104
元人民币	-18105
养老保险	-18106
几乎完全	-18107
历史学家	-18108
发展方面	-18109
向理事会	-18110
宣传教育	-18111
将在未来	-18112
当事人对	-18113
所指出的	-18114
改革方案	-18115
政府正在	-18116
根据大会	-18117
煤矿企业	-18118
的伊拉克	-18119
矿物资源	-18120
视而不见	-18121
通胀目标	-18122
需要增加	-18123
▁104.	-18124
共同提案国	-18125
国际会议的	-18126
在许多国家	-18127
委员会报告	-18128
提出的要求	-18129
的速度增长	-18130
规模最大的	-18131
采取了行动	-18132
Micros	-18133
劳动行政部门	-18134
在任何情况下	-18135
无核武器国家	-18136
西岸和加沙地带	-18137
$5	-18138
▁坎	-18139
一带	-18140
了她	-18141
他用	-18142
关门	-18143
可达	-18144
定额	-18145
律政	-18146
打死	-18147
批判	-18148
日圆	-18149
晋升	-18150
海滩	-18151
淹没	-18152
疼痛	-18153
的光	-18154
结成	-18155
维克	-18156
职司	-18157
藏在	-18158
装甲	-18159
赛事	-18160
都由	-18161
醒来	-18162
▁仅仅	-18163
▁位于	-18164
中所述	-18165
主题的	-18166
事务中	-18167
享受到	-18168
以鼓励	-18169
但仍然	-18170
住房和	-18171
关系和	-18172
出版社	-18173
区域或	-18174
和平奖	-18175
在德国	-18176
处罚金	-18177
对上述	-18178
应当有	-18179
总是在	-18180
我发现	-18181
或者对	-18182
打破了	-18183
更喜欢	-18184
望远镜	-18185
比哈奇	-18186
水平上	-18187
激烈的	-18188
现在正	-18189
的将来	-18190
的答复	-18191
的职能	-18192
证监会	-18193
谈判和	-18194
通过第	-18195
需要时	-18196
高加索	-18197
▁在这里	-18198
三个月内	-18199
世纪以来	-18200
五届会议	-18201
仇外心理	-18202
全面建设	-18203
全面解决	-18204
发展筹资	-18205
国民大会	-18206
多党合作	-18207
就有可能	-18208
截然不同	-18209
有关问题	-18210
有利条件	-18211
海洋环境	-18212
生产力的	-18213
这是一项	-18214
通用电气	-18215
3,000	-18216
uncil	-18217
不懈的努力	-18218
各种不同的	-18219
国际组织和	-18220
委员会委员	-18221
岁以下儿童	-18222
有效地执行	-18223
马达加斯加	-18224
▁我们注意到	-18225
国际社会一道	-18226
安哥拉核查团	-18227
环境保护部门	-18228
▁令人遗憾的是	-18229
Association	-18230
7(	-18231
Bu	-18232
▁霍	-18233
两性	-18234
之不	-18235
军品	-18236
列在	-18237
四月	-18238
学到	-18239
安定	-18240
察觉	-18241
布伦	-18242
布达	-18243
广州	-18244
暗淡	-18245
有线	-18246
极力	-18247
核弹	-18248
热的	-18249
珠宝	-18250
电路	-18251
罚金	-18252
营办	-18253
补给	-18254
西尔	-18255
诚挚	-18256
附着	-18257
102	-18258
ign	-18259
▁34	-18260
▁一切	-18261
▁高盛	-18262
一个由	-18263
不在于	-18264
和财务	-18265
夫先生	-18266
女职工	-18267
帮助下	-18268
应纳税	-18269
把他的	-18270
提名的	-18271
梅内伊	-18272
的支助	-18273
的日期	-18274
着我的	-18275
积极性	-18276
结婚了	-18277
而这一	-18278
记者的	-18279
都具有	-18280
音乐会	-18281
1952	-18282
▁第二天	-18283
下列条件	-18284
亚非法律	-18285
全心全意	-18286
制定一个	-18287
加强协调	-18288
务实合作	-18289
国家政策	-18290
增长模式	-18291
多边合作	-18292
实体经济	-18293
宣传运动	-18294
对于那些	-18295
很少有人	-18296
教育程度	-18297
斯威士兰	-18298
明确指出	-18299
最近一次	-18300
根据国家	-18301
著作权的	-18302
财政危机	-18303
这一领域	-18304
都是如此	-18305
领导人在	-18306
▁可以肯定	-18307
处罚决定的	-18308
强调有必要	-18309
批准或加入	-18310
南部非洲发展	-18311
证券登记结算	-18312
辱人格的待遇	-18313
药品监督管理部门	-18314
$4	-18315
:《	-18316
IX	-18317
PV	-18318
》)	-18319
交存	-18320
付费	-18321
代顿	-18322
初始	-18323
勾结	-18324
叫我	-18325
图西	-18326
墙上	-18327
宠物	-18328
尔特	-18329
岛上	-18330
布斯	-18331
并存	-18332
总和	-18333
才干	-18334
无比	-18335
检举	-18336
泛美	-18337
绍尔	-18338
起步	-18339
San	-18340
rav	-18341
▁他对	-18342
▁他是	-18343
▁出口	-18344
▁最初	-18345
▁鼓励	-18346
一直到	-18347
也非常	-18348
前瞻性	-18349
包括与	-18350
受援国	-18351
同事们	-18352
在法国	-18353
往往会	-18354
改正的	-18355
留下了	-18356
的医疗	-18357
福利院	-18358
讨价还	-18359
违背了	-18360
追随者	-18361
70%。	-18362
▁但由于	-18363
▁我已经	-18364
人员提供	-18365
以及其它	-18366
充分遵守	-18367
克莱斯勒	-18368
加拿大的	-18369
南大西洋	-18370
可以使用	-18371
国内市场	-18372
对以色列	-18373
开始实施	-18374
必须立即	-18375
感到非常	-18376
沿海地区	-18377
管理学院	-18378
财政紧缩	-18379
这种行为	-18380
领域合作	-18381
▁我们呼吁	-18382
印度和中国	-18383
即将举行的	-18384
另有规定外	-18385
和波斯尼亚	-18386
国际奥委会	-18387
采取了一些	-18388
▁特别委员会	-18389
维持和平特派团	-18390
▁看	-18391
一杯	-18392
之旅	-18393
你看	-18394
供求	-18395
先锋	-18396
兼并	-18397
博弈	-18398
卡罗	-18399
场馆	-18400
巴尼	-18401
年份	-18402
德华	-18403
我把	-18404
摆在	-18405
无能	-18406
普选	-18407
比照	-18408
气的	-18409
求职	-18410
江河	-18411
炮弹	-18412
热线	-18413
的首	-18414
睡着	-18415
督促	-18416
网球	-18417
罗门	-18418
而他	-18419
脸色	-18420
讲的	-18421
论者	-18422
论述	-18423
赌注	-18424
较早	-18425
这部	-18426
SEC	-18427
ker	-18428
▁In	-18429
▁促进	-18430
▁荷兰	-18431
了一番	-18432
决议的	-18433
加强同	-18434
努力中	-18435
及农业	-18436
和通过	-18437
和部队	-18438
在国外	-18439
将带来	-18440
应该被	-18441
强调说	-18442
投票权	-18443
改变的	-18444
来满足	-18445
的两倍	-18446
的决策	-18447
笔记本	-18448
经历过	-18449
能带来	-18450
这句话	-18451
100%	-18452
Alex	-18453
不得擅自	-18454
不良贷款	-18455
人权中心	-18456
全国性的	-18457
公益事业	-18458
历史上的	-18459
在经济上	-18460
就是这样	-18461
我们没有	-18462
投资公司	-18463
接受教育	-18464
提供法律	-18465
无关紧要	-18466
根据需要	-18467
货币贬值	-18468
进行中的	-18469
人道主义和	-18470
全球最大的	-18471
咨商地位的	-18472
国际和地区	-18473
所做的工作	-18474
日南斯拉夫	-18475
的必要条件	-18476
的技术合作	-18477
联合国及其	-18478
面临的问题	-18479
注意力集中在	-18480
Council	-18481
我是否可以认为大会	-18482
小岛屿发展中国家可持续发展	-18483
hi	-18484
东南	-18485
中级	-18486
他从	-18487
佩林	-18488
受惠	-18489
变通	-18490
号界	-18491
吸纳	-18492
安宁	-18493
家和	-18494
就得	-18495
巴里	-18496
急速	-18497
排行	-18498
文的	-18499
是使	-18500
有形	-18501
机电	-18502
水质	-18503
珊瑚	-18504
电价	-18505
相提	-18506
续会	-18507
要高	-18508
这名	-18509
闻名	-18510
105	-18511
650	-18512
War	-18513
ien	-18514
▁可能	-18515
不得以	-18516
专利法	-18517
之下的	-18518
债券的	-18519
可靠性	-18520
和电视	-18521
和许多	-18522
在其中	-18523
已经向	-18524
并予以	-18525
提交人	-18526
改变其	-18527
是一件	-18528
是欧洲	-18529
有权向	-18530
演讲中	-18531
的优势	-18532
的情形	-18533
的袭击	-18534
离不开	-18535
经纪人	-18536
落后的	-18537
被忽视	-18538
金正恩	-18539
首先要	-18540
2400	-18541
东欧国家	-18542
两家公司	-18543
主要来自	-18544
人力资本	-18545
代表参加	-18546
令人遗憾	-18547
农村人口	-18548
北大西洋	-18549
和中国的	-18550
市场上的	-18551
平方公里	-18552
建筑材料	-18553
当家作主	-18554
意义上的	-18555
执行秘书	-18556
投资基金	-18557
提供各种	-18558
环境质量	-18559
积极推进	-18560
自由流动	-18561
还有其他	-18562
那时以来	-18563
采取各种	-18564
1998-	-18565
annie	-18566
▁这是因为	-18567
专门机构的	-18568
亿美元收购	-18569
坚定不移地	-18570
极其重要的	-18571
亚洲和太平洋	-18572
提供咨询意见	-18573
发展支助和管理事务部	-18574
上扬	-18575
两条	-18576
又一	-18577
发扬	-18578
四国	-18579
基纳	-18580
备件	-18581
天才	-18582
失调	-18583
奶粉	-18584
定稿	-18585
局和	-18586
我从	-18587
数值	-18588
时至	-18589
来得	-18590
激情	-18591
玩笑	-18592
相近	-18593
莱索	-18594
获释	-18595
菲特	-18596
行走	-18597
要走	-18598
贪婪	-18599
跟进	-18600
轮调	-18601
▁其后	-18602
▁想想	-18603
▁能源	-18604
不相信	-18605
从美国	-18606
以维持	-18607
件事情	-18608
单独的	-18609
合同中	-18610
和承诺	-18611
和效率	-18612
和标准	-18613
在总部	-18614
处罚的	-18615
完整性	-18616
已决定	-18617
平均为	-18618
年龄在	-18619
并导致	-18620
报纸上	-18621
描述了	-18622
改进其	-18623
有一点	-18624
有超过	-18625
核准了	-18626
的食品	-18627
而不会	-18628
▁只有在	-18629
下列项目	-18630
中华民族	-18631
事先协商	-18632
他的妻子	-18633
以便促进	-18634
价值观念	-18635
办事处的	-18636
发展机构	-18637
唯一一个	-18638
开始以来	-18639
弹道导弹	-18640
感到失望	-18641
成员资格	-18642
拟订一项	-18643
的世界中	-18644
的环境中	-18645
相提并论	-18646
职业生涯	-18647
要求他们	-18648
诉讼程序	-18649
语言文字	-18650
财务条例	-18651
贸易壁垒	-18652
还有一些	-18653
这个进程	-18654
这项研究	-18655
进行分析	-18656
进行磋商	-18657
▁我们敦促	-18658
▁这次会议	-18659
▁马来西亚	-18660
《1990	-18661
出席会议的	-18662
县人民政府	-18663
总理温家宝	-18664
飞行集中于	-18665
Fannie	-18666
一倍以上五倍	-18667
承担民事责任	-18668
ns	-18669
一间	-18670
不懂	-18671
两类	-18672
他曾	-18673
价款	-18674
但你	-18675
向她	-18676
大举	-18677
大厅	-18678
忠于	-18679
意在	-18680
戈登	-18681
我只	-18682
所知	-18683
挥霍	-18684
断言	-18685
无处	-18686
时将	-18687
满怀	-18688
稍后	-18689
终点	-18690
菲尔	-18691
115	-18692
95%	-18693
Mae	-18694
its	-18695
▁总统	-18696
▁这时	-18697
与各国	-18698
两年中	-18699
人民党	-18700
和工业	-18701
和未来	-18702
基因组	-18703
并利用	-18704
并将在	-18705
收集和	-18706
政治化	-18707
明白了	-18708
的步骤	-18709
而导致	-18710
虽然在	-18711
▁如果要	-18712
值得赞扬	-18713
包括美国	-18714
因此必须	-18715
平等机会	-18716
文化交流	-18717
本项下未	-18718
构成部分	-18719
直接影响	-18720
第十二条	-18721
联合政府	-18722
行为守则	-18723
边境地区	-18724
通过了第	-18725
非洲各国	-18726
额外经费	-18727
erson	-18728
▁103.	-18729
提供服务的	-18730
放射性废料	-18731
的社会主义	-18732
进一步提高	-18733
BP	-18734
Me	-18735
亲眼	-18736
佩斯	-18737
勉强	-18738
又会	-18739
君主	-18740
善于	-18741
备灾	-18742
妇人	-18743
巴德	-18744
干燥	-18745
投向	-18746
推测	-18747
擅长	-18748
晚餐	-18749
欢呼	-18750
母语	-18751
沼泽	-18752
濒危	-18753
电器	-18754
的男	-18755
省长	-18756
稍微	-18757
联想	-18758
自营	-18759
苔丝	-18760
藏文	-18761
触摸	-18762
赖于	-18763
轻型	-18764
那不	-18765
---	-18766
31.	-18767
Sim	-18768
ory	-18769
ual	-18770
▁你要	-18771
▁瑞典	-18772
为代价	-18773
和业务	-18774
和防止	-18775
在决定	-18776
在家里	-18777
奥朗德	-18778
将确保	-18779
并同意	-18780
应确保	-18781
应该把	-18782
我们从	-18783
报告书	-18784
教科书	-18785
有关系	-18786
极右翼	-18787
研究者	-18788
紧迫性	-18789
约瑟夫	-18790
纳西里	-18791
被告知	-18792
谢谢你	-18793
贷款人	-18794
ific	-18795
▁换言之	-18796
不可思议	-18797
包括中国	-18798
包括通过	-18799
可以用来	-18800
司法机构	-18801
后续工作	-18802
和国际法	-18803
四届会议	-18804
地方一级	-18805
就意味着	-18806
工作的人	-18807
强调需要	-18808
恐怖组织	-18809
的人认为	-18810
经济体的	-18811
自由民主	-18812
被拘留者	-18813
西藏人民	-18814
解决计划	-18815
这些地区	-18816
这种行动	-18817
违反人权	-18818
▁一些国家	-18819
之间的协调	-18820
代表团团长	-18821
发展的重要	-18822
号决议所设	-18823
履行其职责	-18824
授权的部门	-18825
有关国家的	-18826
特设工作组	-18827
联合国工作人员	-18828
处三年以下有期徒刑或者拘役	-18829
SM	-18830
会将	-18831
停产	-18832
先行	-18833
再也	-18834
受雇	-18835
台北	-18836
同其	-18837
和南	-18838
定在	-18839
巨型	-18840
开除	-18841
戈拉	-18842
损伤	-18843
早餐	-18844
期权	-18845
棒球	-18846
海水	-18847
珍惜	-18848
碰到	-18849
绝不	-18850
航线	-18851
节奏	-18852
萨纳	-18853
赖以	-18854
载明	-18855
迅猛	-18856
迪克	-18857
陪同	-18858
隐含	-18859
飞去	-18860
ata	-18861
gel	-18862
lor	-18863
▁Ch	-18864
▁in	-18865
▁提高	-18866
▁第九	-18867
三年的	-18868
债务和	-18869
公安部	-18870
协调的	-18871
占世界	-18872
台湾的	-18873
在实施	-18874
年美国	-18875
我喜欢	-18876
是国际	-18877
有多大	-18878
水道国	-18879
法律上	-18880
温和的	-18881
的人选	-18882
的平民	-18883
的批评	-18884
降低到	-18885
非自愿	-18886
echn	-18887
▁第三百	-18888
▁这不仅	-18889
也不可能	-18890
亚洲地区	-18891
以及美国	-18892
作出安排	-18893
先进技术	-18894
发展经济	-18895
司法系统	-18896
基础上的	-18897
市场力量	-18898
年举行的	-18899
提出有关	-18900
生产能力	-18901
移动电话	-18902
紧急状况	-18903
订正概算	-18904
负有责任	-18905
遭到破坏	-18906
之间的冲突	-18907
委员会根据	-18908
造成的影响	-18909
中国特色社会主义	-18910
决议草案的提案国	-18911
香港特别行政区政府	-18912
IR	-18913
Li	-18914
▁0	-18915
▁f	-18916
乌卢	-18917
们说	-18918
信守	-18919
可从	-18920
尽其	-18921
帮你	-18922
微弱	-18923
忘掉	-18924
快要	-18925
手无	-18926
抉择	-18927
投保	-18928
挫败	-18929
施政	-18930
暴乱	-18931
校舍	-18932
概况	-18933
民党	-18934
液化	-18935
火焰	-18936
科目	-18937
聆听	-18938
背叛	-18939
诽谤	-18940
迟迟	-18941
邮报	-18942
防沙	-18943
45%	-18944
Mob	-18945
▁拥有	-18946
▁那时	-18947
万人次	-18948
也不再	-18949
凝聚力	-18950
在南非	-18951
多少钱	-18952
定义为	-18953
已同意	-18954
已导致	-18955
年达到	-18956
并增加	-18957
性措施	-18958
总产量	-18959
或政治	-18960
所引起	-18961
托马斯	-18962
暂时的	-18963
格里布	-18964
的建设	-18965
的欧盟	-18966
的边界	-18967
确认了	-18968
约旦河	-18969
萨尔科	-18970
部署了	-18971
▁该计划	-18972
不分种族	-18973
不受欢迎	-18974
以人为本	-18975
广泛支持	-18976
感兴趣的	-18977
提供咨询	-18978
有不同的	-18979
毒品贩运	-18980
民主进程	-18981
消费支出	-18982
热烈欢迎	-18983
研究工作	-18984
第十四条	-18985
筹措资金	-18986
紧急方案	-18987
经济利益	-18988
经济表现	-18989
统计调查	-18990
认真履行	-18991
许多问题	-18992
这种趋势	-18993
进行投资	-18994
重新安排	-18995
1514(	-18996
▁克罗地亚	-18997
▁简而言之	-18998
代表的发言	-18999
工作的部门	-19000
紧急情况的	-19001
经营许可证	-19002
进行的活动	-19003
全球行动纲领	-19004
消除一切形式	-19005
的社会和经济	-19006
方面所取得的进展	-19007
:3	-19008
QE	-19009
’,	-19010
▁至	-19011
一提	-19012
不计	-19013
买了	-19014
产油	-19015
体内	-19016
傲慢	-19017
和性	-19018
和谈	-19019
喝酒	-19020
奇的	-19021
宿舍	-19022
情势	-19023
提法	-19024
放到	-19025
本能	-19026
来往	-19027
杨洁	-19028
标的	-19029
根于	-19030
流产	-19031
留住	-19032
脑袋	-19033
课堂	-19034
还请	-19035
这块	-19036
酝酿	-19037
长足	-19038
飞速	-19039
126	-19040
res	-19041
一个更	-19042
三年内	-19043
与裁军	-19044
两方面	-19045
中受益	-19046
产权的	-19047
但同时	-19048
十分钟	-19049
叙述了	-19050
在上海	-19051
地点的	-19052
威胁或	-19053
已通过	-19054
成立于	-19055
持续了	-19056
无人机	-19057
杨洁篪	-19058
生产品	-19059
的劳动	-19060
的首要	-19061
自决权	-19062
营办商	-19063
银行间	-19064
儿童卖淫	-19065
如何处理	-19066
妇女权利	-19067
投资者对	-19068
提出申诉	-19069
政治进程	-19070
海洋资源	-19071
特别提款	-19072
社会各界	-19073
税收收入	-19074
空间碎片	-19075
表示敬意	-19076
贸易赤字	-19077
跨太平洋	-19078
制定和执行	-19079
制订和执行	-19080
区域和国家	-19081
截然不同的	-19082
支持联合国	-19083
方案协调会	-19084
有关的其他	-19085
报国务院批准	-19086
矿产资源勘查	-19087
问题特别报告员	-19088
政策协调和可持续发展部	-19089
ND	-19090
Ob	-19091
za	-19092
三人	-19093
保税	-19094
加权	-19095
十七	-19096
历次	-19097
团伙	-19098
土穆	-19099
地与	-19100
强权	-19101
当日	-19102
拐卖	-19103
新任	-19104
每吨	-19105
清晨	-19106
珍视	-19107
用尽	-19108
疏散	-19109
硬盘	-19110
纽带	-19111
细目	-19112
维系	-19113
罗拉	-19114
誓言	-19115
足额	-19116
遗失	-19117
露出	-19118
鼓掌	-19119
▁女人	-19120
▁它的	-19121
为指导	-19122
以美元	-19123
会不会	-19124
信息网	-19125
内部和	-19126
及国际	-19127
发言的	-19128
各国间	-19129
和协助	-19130
和巴西	-19131
安德鲁	-19132
对违反	-19133
尊敬的	-19134
已进入	-19135
懈努力	-19136
支助团	-19137
政府还	-19138
最需要	-19139
来衡量	-19140
核计划	-19141
的位置	-19142
的初步	-19143
的培训	-19144
的话题	-19145
社会及	-19146
立方米	-19147
经理人	-19148
能帮助	-19149
自由派	-19150
该指数	-19151
货物和	-19152
.1)。	-19153
1969	-19154
CDMA	-19155
▁但尽管	-19156
▁即使在	-19157
任何地方	-19158
全球气候	-19159
可以依法	-19160
国家之间	-19161
委员会所	-19162
并不总是	-19163
并不是说	-19164
得到改善	-19165
最有效的	-19166
殖民统治	-19167
特别关注	-19168
特殊需要	-19169
申诉专员	-19170
结果显示	-19171
议会联盟	-19172
轨道交通	-19173
这些公司	-19174
▁为了确保	-19175
人权问题的	-19176
法定代表人	-19177
组织的代表	-19178
咨询委员会的	-19179
多哈回合谈判	-19180
新喀里多尼亚	-19181
社会经济发展	-19182
诺贝尔和平奖	-19183
巴勒斯坦人民的	-19184
美国总统奥巴马	-19185
FannieMae	-19186
la	-19187
we	-19188
▁表	-19189
充裕	-19190
光荣	-19191
全港	-19192
写入	-19193
冲动	-19194
卡因	-19195
叶利	-19196
多位	-19197
戒烟	-19198
扫描	-19199
未获	-19200
法索	-19201
波及	-19202
浪漫	-19203
狭窄	-19204
疲劳	-19205
的更	-19206
盲目	-19207
美属	-19208
说着	-19209
超额	-19210
逃跑	-19211
问问	-19212
.17	-19213
▁估计	-19214
▁它将	-19215
▁投资	-19216
▁迄今	-19217
一半的	-19218
俄国的	-19219
停留在	-19220
出色的	-19221
发言时	-19222
和外国	-19223
在各个	-19224
岛协定	-19225
排除在	-19226
星期日	-19227
核武库	-19228
法官和	-19229
的一贯	-19230
的支出	-19231
的自然	-19232
系统中	-19233
表面上	-19234
裁军事	-19235
达不到	-19236
还可能	-19237
这正是	-19238
11%。	-19239
一直以来	-19240
一直没有	-19241
主管机构	-19242
以便能够	-19243
伊斯兰堡	-19244
卢旺达和	-19245
发生冲突	-19246
可以接受	-19247
台湾同胞	-19248
合作论坛	-19249
安全措施	-19250
年上半年	-19251
提供财政	-19252
收支平衡	-19253
政治稳定	-19254
政治领袖	-19255
数百万人	-19256
新的发展	-19257
方面具有	-19258
段中建议	-19259
的工作中	-19260
相互信任	-19261
空间应用	-19262
第三世界	-19263
第二部分	-19264
经济结构	-19265
行政法庭	-19266
证据证明	-19267
这些都是	-19268
选举进程	-19269
重建工作	-19270
/1994	-19271
▁雷曼兄弟	-19272
和社会保障	-19273
或者国务院	-19274
机构和组织	-19275
第二十四条	-19276
联合国组织	-19277
依法执行职务	-19278
小组委员会的	-19279
本条例的规定	-19280
理事会通过了	-19281
[...]
